<pad>	0
<unk>	0
<s>	0
</s>	0
<es_to_en>	0
<es_to_nah>	0
,	-3.10177
.	-3.19422
s	-3.30938
▁de	-4.00192
▁a	-4.04275
▁the	-4.14279
▁que	-4.33985
▁la	-4.58672
▁to	-4.591
'	-4.59875
▁of	-4.6933
▁en	-4.71751
▁and	-4.8339
▁y	-4.90115
▁that	-4.9692
▁in	-4.97648
▁el	-4.99039
▁I	-4.99198
t	-5.17874
▁es	-5.22197
▁is	-5.25251
▁you	-5.2709
▁un	-5.27617
▁it	-5.2818
n	-5.30797
r	-5.38361
▁we	-5.44965
▁una	-5.54814
▁And	-5.54947
▁los	-5.55253
▁no	-5.56664
▁--	-5.69009
▁Y	-5.70138
▁this	-5.70328
re	-5.72324
▁se	-5.73614
▁lo	-5.74556
?	-5.76951
es	-5.77126
d	-5.78448
▁con	-5.78585
:	-5.87311
o	-5.89851
▁para	-5.90358
a	-5.92077
ing	-5.92346
▁"	-5.92435
e	-5.97775
m	-6.00912
▁was	-6.02856
▁las	-6.05153
ed	-6.05539
▁for	-6.05959
-	-6.06587
▁por	-6.07133
▁me	-6.07435
▁del	-6.07645
▁have	-6.13568
▁are	-6.14938
▁on	-6.15506
▁they	-6.20718
▁can	-6.21586
▁	-6.25226
▁So	-6.25737
▁with	-6.26576
▁be	-6.28404
▁más	-6.31066
▁what	-6.34838
_	-6.35365
y	-6.36003
▁como	-6.37495
▁about	-6.38464
▁do	-6.4075
l	-6.41602
▁su	-6.42448
c	-6.44499
▁¿	-6.46639
▁at	-6.49311
▁al	-6.50721
ve	-6.53223
▁so	-6.53887
▁not	-6.55076
▁all	-6.55393
▁o	-6.56103
▁there	-6.62322
▁one	-6.62575
er	-6.63923
do	-6.64212
ly	-6.64716
▁si	-6.66822
te	-6.68158
▁like	-6.69472
▁It	-6.69969
▁an	-6.70417
▁he	-6.71537
▁from	-6.71647
▁people	-6.71765
▁my	-6.72821
p	-6.73606
▁mi	-6.73899
mos	-6.77845
g	-6.78383
▁esta	-6.79506
▁just	-6.83799
ll	-6.84052
▁or	-6.84884
▁but	-6.85604
ar	-6.85955
▁know	-6.8738
▁out	-6.87901
▁very	-6.8865
▁We	-6.8985
▁But	-6.91258
▁as	-6.91345
▁muy	-6.91884
▁esto	-6.92323
."	-6.92476
▁The	-6.93504
▁up	-6.93566
▁our	-6.93657
▁if	-6.93916
le	-6.93964
la	-6.94019
ra	-6.94332
▁son	-6.94454
▁these	-6.94494
▁♫	-6.94801
▁este	-6.94834
▁Pero	-6.95202
/	-6.9549
al	-6.95907
▁going	-6.9609
▁A	-6.98169
▁No	-6.99667
lo	-6.99696
en	-6.99964
▁re	-7.00139
▁está	-7.01876
▁by	-7.02405
▁La	-7.04191
▁them	-7.05486
u	-7.06328
▁eso	-7.06656
i	-7.06832
b	-7.06846
▁see	-7.07431
▁get	-7.07957
▁think	-7.09285
▁pero	-7.09363
ó	-7.09883
▁when	-7.09961
▁because	-7.10372
▁had	-7.11071
▁which	-7.11089
▁hacer	-7.11553
▁more	-7.1353
ri	-7.1387
;	-7.14482
se	-7.14739
da	-7.14802
▁who	-7.1481
an	-7.1535
▁really	-7.15716
▁how	-7.16888
ro	-7.1705
to	-7.17814
ta	-7.19422
▁todo	-7.19446
▁cuando	-7.19989
▁would	-7.20653
é	-7.20656
▁your	-7.21075
▁Así	-7.21224
▁años	-7.21606
▁us	-7.21632
▁were	-7.21812
▁here	-7.22577
mente	-7.22949
ción	-7.22971
▁hay	-7.23958
▁le	-7.2398
ted	-7.24206
▁ser	-7.24365
▁algo	-7.2515
▁their	-7.25204
in	-7.25638
▁mundo	-7.26097
▁ha	-7.26641
▁This	-7.26721
▁world	-7.27149
▁time	-7.27264
▁Es	-7.28704
▁sobre	-7.28817
▁You	-7.28905
▁porque	-7.30576
▁don	-7.30748
▁has	-7.30997
▁go	-7.31812
▁some	-7.31962
ndo	-7.33386
▁actually	-7.3409
▁way	-7.34674
▁En	-7.34975
▁El	-7.35209
▁cosas	-7.35249
▁into	-7.35566
▁era	-7.3671
as	-7.36912
▁other	-7.3726
me	-7.37613
▁want	-7.37921
on	-7.38144
co	-7.38671
▁things	-7.39054
í	-7.3911
▁ver	-7.39685
▁then	-7.3996
"	-7.40393
▁will	-7.40526
▁gente	-7.4145
▁now	-7.43225
ma	-7.44284
▁where	-7.44758
▁years	-7.44898
▁puede	-7.45743
▁make	-7.46301
li	-7.46305
ba	-7.4632
ir	-7.46327
de	-7.4666
▁sus	-7.46873
os	-7.47004
▁uno	-7.47472
▁nos	-7.48031
▁e	-7.49617
f	-7.50019
▁fue	-7.50243
▁Now	-7.50707
▁qué	-7.51129
ca	-7.51378
▁They	-7.52436
▁De	-7.52755
ce	-7.5337
▁could	-7.53458
na	-7.5458
▁said	-7.55087
▁idea	-7.55231
▁aquí	-7.55792
▁been	-7.55834
tion	-7.56663
vi	-7.57629
▁todos	-7.57972
▁personas	-7.58175
▁vez	-7.58685
".	-7.60726
▁something	-7.60796
▁right	-7.61018
th	-7.62287
no	-7.62728
▁thing	-7.62878
▁vida	-7.63723
▁están	-7.6377
▁así	-7.64181
▁got	-7.64818
▁tiene	-7.65722
▁little	-7.6594
▁two	-7.663
▁Si	-7.66497
▁much	-7.67269
▁over	-7.67338
▁He	-7.68073
▁forma	-7.68197
or	-7.68225
com	-7.686
▁hecho	-7.6915
▁back	-7.69275
di	-7.6934
▁hace	-7.69361
▁first	-7.69886
▁Se	-7.69995
ti	-7.70157
▁yo	-7.70705
▁look	-7.70938
▁his	-7.71444
▁tiempo	-7.71743
á	-7.71799
ic	-7.72026
▁In	-7.72133
▁say	-7.72226
ne	-7.72253
tu	-7.72786
mo	-7.73481
▁than	-7.73502
ía	-7.73636
ion	-7.73669
cu	-7.73709
▁work	-7.74302
▁she	-7.75207
▁te	-7.75373
▁kind	-7.75446
▁those	-7.76573
▁S	-7.77067
▁sólo	-7.77189
▁les	-7.77319
?"	-7.77347
k	-7.77519
▁That	-7.78161
▁s	-7.78247
▁life	-7.78327
ado	-7.78669
▁also	-7.78757
▁ese	-7.78972
▁gran	-7.79081
▁pueden	-7.79526
▁C	-7.79656
ck	-7.79693
ci	-7.80029
▁mucho	-7.80451
▁most	-7.80619
▁también	-7.81196
ur	-7.8138
▁va	-7.81864
▁come	-7.82105
▁need	-7.8212
el	-7.82324
▁even	-7.82993
us	-7.83285
▁tenemos	-7.8348
▁manera	-7.83715
il	-7.83735
...	-7.84291
▁esa	-7.8562
▁cómo	-7.85876
▁take	-7.85894
▁E	-7.85935
▁dos	-7.86022
▁Lo	-7.86109
▁ahora	-7.86214
ter	-7.866
go	-7.86706
▁realmente	-7.87685
▁bien	-7.88043
▁cada	-7.88828
▁donde	-7.89237
bo	-7.89374
▁tan	-7.89928
z	-7.90009
▁her	-7.90098
▁lot	-7.90183
h	-7.90358
▁only	-7.90474
▁new	-7.90528
▁estos	-7.90828
I	-7.91194
▁sin	-7.9142
it	-7.92347
A	-7.92499
▁down	-7.92754
▁good	-7.93187
▁10	-7.93638
▁tu	-7.94202
▁did	-7.94253
▁different	-7.94501
pe	-7.94544
▁decir	-7.94544
▁There	-7.95071
ga	-7.95082
▁around	-7.95278
▁estaba	-7.95304
▁estas	-7.95466
w	-7.95531
mi	-7.9568
ment	-7.96431
▁parte	-7.96686
▁podemos	-7.9677
▁many	-7.98066
▁use	-7.98329
dos	-7.99277
▁What	-7.99431
ia	-7.99701
ron	-8.00421
▁real	-8.01058
▁entre	-8.01771
ja	-8.01972
▁mismo	-8.02042
S	-8.02116
▁tienen	-8.02297
▁Ahora	-8.03097
C	-8.03211
▁di	-8.03527
un	-8.03616
▁Me	-8.03626
▁B	-8.03753
▁pro	-8.03963
▁through	-8.04382
▁being	-8.04726
▁Por	-8.05358
po	-8.0546
▁co	-8.05597
▁poco	-8.0571
▁han	-8.06067
▁put	-8.0634
▁20	-8.06897
be	-8.07298
les	-8.07635
▁human	-8.07676
ch	-8.0826
▁había	-8.09105
ge	-8.09195
ten	-8.09211
pa	-8.09628
▁tipo	-8.09934
www	-8.09982
talks	-8.10046
amos	-8.10244
ry	-8.10368
▁same	-8.10395
://	-8.105
html	-8.10843
▁ht	-8.10849
▁T	-8.11066
idad	-8.11311
▁ya	-8.11353
▁doing	-8.11663
▁historia	-8.11942
▁talk	-8.12099
tp	-8.12238
able	-8.12491
ru	-8.13082
▁car	-8.13465
▁otra	-8.13797
▁sea	-8.13833
v	-8.13913
▁estamos	-8.13991
▁every	-8.14256
▁día	-8.14343
▁Entonces	-8.14463
is	-8.148
▁three	-8.14818
▁O	-8.15441
▁ellos	-8.15622
▁desde	-8.1563
▁po	-8.15924
pi	-8.16039
▁mejor	-8.16402
ity	-8.1683
est	-8.1753
▁Esto	-8.17747
▁nuestro	-8.17966
▁Los	-8.18109
▁nuestra	-8.18113
▁lugar	-8.18262
▁tell	-8.18292
ido	-8.18412
▁If	-8.18445
ation	-8.18541
!	-8.19038
▁luego	-8.19192
ciones	-8.19349
ando	-8.19799
▁made	-8.19867
▁creo	-8.19892
que	-8.20024
▁Esta	-8.20088
▁nosotros	-8.20138
▁hasta	-8.20376
▁tener	-8.20437
fi	-8.2084
ada	-8.20847
▁day	-8.2092
▁called	-8.21334
so	-8.21704
et	-8.21738
▁F	-8.21992
▁entonces	-8.22057
▁ex	-8.22089
▁part	-8.22167
▁K	-8.22287
ría	-8.22919
▁da	-8.23024
▁trabajo	-8.23226
▁realidad	-8.2348
ers	-8.23735
▁well	-8.23741
at	-8.24131
▁otro	-8.2424
▁fact	-8.24264
▁pre	-8.24624
▁any	-8.25004
▁vi	-8.25191
▁give	-8.25398
gu	-8.25746
▁ca	-8.25953
▁millones	-8.26312
ación	-8.26505
ting	-8.26967
▁p	-8.26989
▁ni	-8.27234
tra	-8.27311
▁percent	-8.27335
bi	-8.27433
▁per	-8.2752
▁Mi	-8.28142
man	-8.28483
ive	-8.28624
▁ra	-8.28821
▁momento	-8.29312
das	-8.29394
▁change	-8.29483
▁él	-8.29601
tic	-8.2969
▁year	-8.30015
▁después	-8.30334
▁dijo	-8.3036
▁let	-8.30467
▁Well	-8.30505
▁menos	-8.30822
▁19	-8.30916
▁ve	-8.31164
ent	-8.31236
▁own	-8.3138
D	-8.31728
▁man	-8.31786
va	-8.31841
▁why	-8.32145
▁g	-8.3229
x	-8.32373
▁dis	-8.3247
▁ejemplo	-8.32569
▁start	-8.32788
▁should	-8.33379
ul	-8.33804
nos	-8.33988
▁ba	-8.34144
▁great	-8.34144
▁brain	-8.34378
iendo	-8.34791
▁find	-8.35087
ke	-8.35092
rse	-8.35954
▁hemos	-8.36007
▁ir	-8.36204
▁todas	-8.36837
▁thought	-8.37216
▁simple	-8.37235
▁place	-8.3726
ica	-8.37875
▁año	-8.38181
▁niños	-8.38202
▁show	-8.38274
▁Este	-8.38492
▁mis	-8.3871
mp	-8.39348
2	-8.39417
▁sort	-8.39446
▁big	-8.39834
▁importante	-8.4004
▁bit	-8.40319
si	-8.40462
Qué	-8.40644
▁Al	-8.40723
▁tra	-8.41165
▁didn	-8.41301
▁important	-8.41374
ad	-8.41397
▁R	-8.41469
▁tal	-8.42164
án	-8.42282
ol	-8.42292
▁went	-8.4237
▁off	-8.42403
▁today	-8.42511
nt	-8.42672
▁problema	-8.42891
▁after	-8.42996
▁course	-8.43413
▁tres	-8.43481
za	-8.43612
the	-8.43682
▁Ma	-8.43811
▁pregunta	-8.44072
▁ven	-8.44191
▁last	-8.44345
▁point	-8.44819
nd	-8.45048
▁system	-8.45772
▁hoy	-8.45963
▁started	-8.46073
▁another	-8.46088
▁U	-8.46245
▁problem	-8.46382
ú	-8.4642
▁control	-8.46427
ine	-8.46735
▁ustedes	-8.46777
▁c	-8.47069
▁sí	-8.47289
▁story	-8.4746
las	-8.47692
▁sistema	-8.48419
▁came	-8.48422
▁3	-8.4858
▁before	-8.48582
ng	-8.48931
▁ago	-8.49102
▁antes	-8.49297
▁hacia	-8.49345
emos	-8.49799
du	-8.49821
▁saben	-8.49967
▁durante	-8.49985
sh	-8.50022
▁solo	-8.50266
▁long	-8.50448
▁nuevo	-8.50469
ha	-8.50499
▁help	-8.50501
▁TED	-8.5054
ig	-8.5073
ist	-8.50778
▁agua	-8.50781
1	-8.50866
▁never	-8.50882
▁nada	-8.51006
▁Le	-8.51071
P	-8.51141
▁mean	-8.51222
▁Hay	-8.51478
▁call	-8.51702
8	-8.5184
▁ideas	-8.5207
▁quiero	-8.52187
▁tenía	-8.52252
▁estar	-8.524
tar	-8.52443
▁acerca	-8.52512
jo	-8.52881
▁cuenta	-8.5324
▁Thank	-8.53302
ie	-8.53455
▁better	-8.53556
▁Re	-8.53641
▁otros	-8.53665
▁example	-8.537
▁tanto	-8.53733
ble	-8.53858
▁veces	-8.54049
▁f	-8.54218
▁dice	-8.54423
▁Mo	-8.5457
▁might	-8.54638
▁primera	-8.54675
▁him	-8.54738
9	-8.54853
▁cosa	-8.5492
▁bo	-8.54968
▁estoy	-8.55513
▁tecnología	-8.55547
cia	-8.55593
rá	-8.55752
▁able	-8.55811
ina	-8.56008
▁ella	-8.56512
▁together	-8.56531
▁few	-8.56623
qui	-8.56652
nte	-8.56698
▁haciendo	-8.56882
▁water	-8.56903
▁hablar	-8.56924
▁next	-8.56942
je	-8.56986
▁again	-8.57268
tor	-8.57437
▁Un	-8.57513
bu	-8.57517
▁social	-8.57583
▁mar	-8.57622
▁muchos	-8.57843
6	-8.58084
▁estado	-8.5809
▁Porque	-8.58511
▁global	-8.5868
▁voy	-8.58698
▁Bueno	-8.58791
▁does	-8.58839
▁ti	-8.58853
▁algunos	-8.58925
▁-	-8.59018
▁design	-8.59589
con	-8.59809
▁school	-8.60151
▁sal	-8.6026
▁video	-8.60365
M	-8.60392
▁pi	-8.60465
▁cerebro	-8.60578
ho	-8.60604
▁still	-8.60935
ados	-8.60939
▁each	-8.61042
▁pensar	-8.61089
▁technology	-8.61127
age	-8.61282
▁Because	-8.61364
▁50	-8.6149
3	-8.61653
▁muchas	-8.61692
per	-8.61956
id	-8.62001
min	-8.62322
▁otras	-8.6242
vo	-8.62565
dor	-8.62766
▁love	-8.62786
por	-8.62798
▁poder	-8.62965
am	-8.63062
▁nuestros	-8.63116
▁Cuando	-8.63257
5	-8.63547
▁sido	-8.63754
ran	-8.63782
tas	-8.6385
ni	-8.64127
ban	-8.64266
▁mí	-8.6427
▁pasa	-8.64442
▁question	-8.64479
▁India	-8.64618
▁light	-8.64703
▁casa	-8.64812
▁G	-8.64837
▁ahí	-8.64872
▁30	-8.64886
▁podría	-8.64933
▁P	-8.65012
▁whole	-8.65199
▁between	-8.65242
▁Su	-8.65688
imos	-8.65714
▁comp	-8.65969
▁found	-8.66197
▁unos	-8.66631
ida	-8.66794
▁used	-8.66918
ness	-8.66925
ven	-8.66983
▁believe	-8.67095
▁understand	-8.67542
▁done	-8.67556
▁toda	-8.67598
▁sino	-8.67718
▁contra	-8.67833
,"	-8.67936
cha	-8.68024
▁siempre	-8.68194
▁Di	-8.68248
▁Eso	-8.68295
encia	-8.68313
▁w	-8.68322
▁nunca	-8.68502
▁When	-8.6851
▁hacerlo	-8.68747
▁million	-8.68894
▁four	-8.68913
7	-8.69046
▁persona	-8.69162
▁sub	-8.69241
▁allí	-8.6934
▁auto	-8.69341
▁looking	-8.69448
▁art	-8.69572
▁feel	-8.69816
▁live	-8.69887
▁misma	-8.69927
▁cualquier	-8.70021
ieron	-8.70025
▁Ca	-8.70669
▁am	-8.70868
▁pa	-8.71148
▁personal	-8.71163
▁alguien	-8.71236
tive	-8.7129
▁li	-8.71338
▁usar	-8.71557
▁doesn	-8.7165
▁cambio	-8.71872
▁children	-8.7197
▁natural	-8.72201
▁Con	-8.72334
▁end	-8.72609
▁Una	-8.72991
tos	-8.73032
▁grandes	-8.73167
▁second	-8.7341
▁punto	-8.73425
▁mu	-8.73593
▁Ha	-8.73642
▁play	-8.73867
he	-8.73959
fa	-8.7405
lang	-8.74132
▁data	-8.74624
▁información	-8.74633
4	-8.74639
B	-8.74861
qué	-8.74877
▁space	-8.74981
▁person	-8.75003
che	-8.7513
ón	-8.75415
los	-8.7576
▁building	-8.75818
▁Yo	-8.7582
▁100	-8.75981
▁4	-8.76138
▁create	-8.76712
%	-8.76747
▁always	-8.7686
▁D	-8.77002
▁form	-8.77023
▁wanted	-8.77132
▁try	-8.77202
▁may	-8.77246
▁cu	-8.77324
ros	-8.77628
▁Ro	-8.77757
▁encontrar	-8.78045
▁van	-8.78082
▁medio	-8.78145
▁algunas	-8.78302
E	-8.78467
ate	-8.78636
fe	-8.79061
▁pe	-8.79249
▁trata	-8.79533
▁mil	-8.79686
▁"¿	-8.79706
▁To	-8.79995
▁energía	-8.80006
▁too	-8.80223
ita	-8.80243
▁home	-8.80245
▁15	-8.80298
▁hu	-8.80369
▁par	-8.80472
▁For	-8.80577
▁project	-8.80613
▁power	-8.80623
▁public	-8.80629
▁trying	-8.80804
R	-8.80855
ton	-8.80946
▁esas	-8.81081
▁Do	-8.812
▁...	-8.81252
▁crear	-8.81492
▁final	-8.81669
▁fuera	-8.81733
▁inter	-8.81842
▁away	-8.81851
▁Internet	-8.82015
]	-8.82103
der	-8.82188
No	-8.82371
▁working	-8.82449
▁Las	-8.82458
um	-8.82486
▁ever	-8.82588
▁Co	-8.82732
▁How	-8.82853
▁high	-8.83056
▁She	-8.8306
car	-8.83073
son	-8.83235
▁[	-8.8326
▁cual	-8.83673
▁alrededor	-8.83885
▁mayor	-8.83932
▁tengo	-8.84089
ntes	-8.84107
T	-8.84236
▁significa	-8.84243
▁Africa	-8.84519
▁diferentes	-8.84713
▁women	-8.84714
▁under	-8.84724
rán	-8.84746
▁sense	-8.85092
aba	-8.85166
▁primer	-8.85226
▁lado	-8.85382
▁espacio	-8.85425
▁Pa	-8.85461
ber	-8.85547
ut	-8.85625
▁verdad	-8.86282
▁datos	-8.86285
ré	-8.86454
hi	-8.86599
▁China	-8.86723
ies	-8.86781
ty	-8.86894
▁open	-8.87004
▁country	-8.87275
▁mujeres	-8.87275
▁old	-8.87464
▁kids	-8.87749
▁aún	-8.8784
land	-8.87971
Cómo	-8.88018
▁com	-8.88214
▁One	-8.88312
▁modo	-8.8833
▁everything	-8.88389
▁five	-8.88708
cho	-8.88739
▁money	-8.88774
dores	-8.88941
▁casi	-8.89107
▁hand	-8.8916
▁Po	-8.89279
▁hard	-8.8941
▁dinero	-8.89524
▁difícil	-8.89619
gan	-8.89665
▁stuff	-8.89716
▁hacen	-8.89775
▁took	-8.89928
▁red	-8.90097
▁dólares	-8.90219
ian	-8.90256
▁dije	-8.90299
▁bueno	-8.90318
G	-8.90383
▁York	-8.90388
▁case	-8.90405
up	-8.90481
▁interesante	-8.90513
▁grande	-8.90722
▁care	-8.90763
▁business	-8.90801
▁esos	-8.90811
▁small	-8.90925
▁mo	-8.91013
▁b	-8.91024
▁line	-8.9115
▁problemas	-8.91361
▁planeta	-8.91479
▁dentro	-8.91544
▁Aquí	-8.91948
gen	-8.91964
▁mind	-8.92031
▁¡	-8.92136
▁2	-8.92229
tan	-8.92257
▁imp	-8.92446
▁using	-8.92534
▁future	-8.92539
▁d	-8.927
▁information	-8.92724
▁food	-8.92734
▁general	-8.92796
▁vamos	-8.92877
▁process	-8.9291
▁maybe	-8.92946
▁través	-8.93008
▁dar	-8.93461
▁r	-8.93491
▁particular	-8.93595
▁quite	-8.93677
▁energy	-8.93716
▁Gracias	-8.93799
▁move	-8.93942
▁posible	-8.94005
▁bastante	-8.94196
▁Ba	-8.94197
▁enough	-8.94198
era	-8.94212
▁puedo	-8.94296
▁side	-8.9437
▁futuro	-8.94396
▁number	-8.94462
▁thinking	-8.94503
▁miles	-8.94517
▁getting	-8.94572
▁interesting	-8.94584
ful	-8.94648
▁parece	-8.94711
▁bring	-8.94815
▁ro	-8.95288
▁left	-8.953
den	-8.95412
▁Sa	-8.95593
lar	-8.95601
▁país	-8.95992
▁1	-8.96018
▁supuesto	-8.96055
▁These	-8.96171
▁New	-8.96224
▁become	-8.96556
we	-8.96658
▁experience	-8.96821
▁mal	-8.96853
▁moment	-8.97027
ud	-8.97039
▁llama	-8.97092
▁incluso	-8.97129
▁nuestras	-8.97134
▁12	-8.97137
▁gracias	-8.97232
▁haber	-8.97315
▁diseño	-8.97334
dy	-8.97371
ally	-8.97457
▁planet	-8.97704
▁head	-8.97815
▁sa	-8.97849
▁color	-8.98095
▁luz	-8.9818
Por	-8.9836
bre	-8.98646
men	-8.98745
▁probably	-8.98785
ue	-8.98792
ista	-8.9889
▁18	-8.98897
▁best	-8.98908
▁tomar	-8.99082
▁mayoría	-8.99149
▁cambiar	-8.99242
▁gr	-8.9952
▁Be	-8.99649
▁happened	-8.99735
Y	-9.00273
▁My	-9.00307
mer	-9.00457
▁respuesta	-9.00469
▁making	-9.00585
▁Here	-9.00697
j	-9.00937
▁pasado	-9.00978
▁alguna	-9.00987
▁means	-9.01068
▁5	-9.01163
▁sentido	-9.01244
ió	-9.0132
.000	-9.01435
▁cost	-9.01466
sión	-9.01624
▁Para	-9.01626
▁ask	-9.01716
▁na	-9.01721
ance	-9.0173
ger	-9.01749
▁OK	-9.01791
▁mientras	-9.01964
▁fe	-9.02027
iva	-9.02029
▁room	-9.02432
illa	-9.02455
▁All	-9.02504
O	-9.02548
N	-9.02612
▁cuerpo	-9.02613
▁talking	-9.02646
io	-9.02649
▁dollars	-9.02734
▁funciona	-9.02781
▁coming	-9.02823
▁juego	-9.0283
▁comes	-9.02834
▁hi	-9.02887
▁t	-9.0304
▁lleva	-9.03074
▁cierto	-9.03086
ero	-9.03184
red	-9.03198
▁ma	-9.03441
▁cr	-9.03567
tal	-9.03665
▁ta	-9.03757
▁build	-9.03764
▁diferente	-9.03793
▁piece	-9.03992
▁model	-9.04042
▁experiment	-9.04102
rio	-9.04113
adas	-9.04286
▁media	-9.04692
ster	-9.04884
▁says	-9.04957
ach	-9.04993
▁ciudad	-9.0515
▁número	-9.05472
0	-9.05641
▁anything	-9.05695
ente	-9.05774
ling	-9.05913
king	-9.06367
▁keep	-9.06383
▁cor	-9.06447
rnos	-9.06505
▁answer	-9.06593
▁pretty	-9.06593
▁billion	-9.06827
▁cerca	-9.06872
▁without	-9.06906
▁gusta	-9.06913
wa	-9.06944
▁happen	-9.07336
▁Mar	-9.07352
▁pequeño	-9.07387
technology	-9.0742
▁Bo	-9.07579
▁war	-9.07655
▁science	-9.08001
▁caso	-9.08063
▁body	-9.08208
▁Bien	-9.0837
▁half	-9.08436
▁hombre	-9.08693
zo	-9.08813
▁test	-9.08901
▁bajo	-9.08917
▁turn	-9.09005
nce	-9.09039
’	-9.09106
▁sería	-9.09217
▁40	-9.09309
▁book	-9.09349
▁picture	-9.09415
▁face	-9.09453
▁Earth	-9.09454
▁ga	-9.09634
▁grupo	-9.09656
▁madre	-9.0998
▁segundo	-9.10036
ían	-9.10156
tiva	-9.10197
▁far	-9.10243
▁reason	-9.10383
▁super	-9.10477
▁Ho	-9.10544
▁ayuda	-9.10605
▁men	-9.10652
▁quiere	-9.10723
▁imagine	-9.10857
▁Da	-9.10968
▁arte	-9.1099
▁plan	-9.11025
▁razón	-9.11092
one	-9.1114
▁across	-9.11329
▁else	-9.11571
ria	-9.11656
▁individual	-9.11684
▁llamado	-9.11791
▁visual	-9.11794
▁países	-9.11822
aciones	-9.1187
▁nueva	-9.11898
▁goes	-9.11965
▁proceso	-9.12279
▁bad	-9.12311
,000	-9.12314
▁ho	-9.12411
▁llegar	-9.12523
ler	-9.12593
▁sé	-9.12607
▁hizo	-9.12772
op	-9.12952
▁saw	-9.13161
▁cuatro	-9.13239
▁proyecto	-9.13344
▁Como	-9.13368
em	-9.13441
ap	-9.13468
▁entender	-9.13482
less	-9.13538
tes	-9.13864
▁product	-9.14391
00	-9.14429
▁normal	-9.14521
▁sound	-9.14615
ras	-9.14724
▁issues	-9.14838
ring	-9.14844
▁such	-9.14936
▁computer	-9.15009
▁matter	-9.15086
ones	-9.15092
▁fa	-9.15166
▁poner	-9.15218
▁told	-9.15275
▁L	-9.1529
▁programa	-9.15683
▁diferencia	-9.16175
▁six	-9.16346
tivo	-9.16473
▁eran	-9.16613
▁días	-9.16677
ak	-9.16784
▁countries	-9.168
▁especie	-9.16912
▁music	-9.16914
▁ch	-9.16919
ant	-9.16938
▁read	-9.17017
▁local	-9.17128
cer	-9.17129
▁basically	-9.17179
▁living	-9.1755
▁health	-9.17572
▁Let	-9.17582
▁vemos	-9.17709
cas	-9.17759
▁hacemos	-9.17807
▁figure	-9.17928
ivo	-9.1796
remos	-9.18061
F	-9.18112
▁sh	-9.18181
▁learn	-9.18316
▁W	-9.18328
▁África	-9.18689
▁vo	-9.18951
mon	-9.19064
▁An	-9.19151
▁hope	-9.1919
▁culture	-9.19195
▁clase	-9.19277
▁6	-9.19289
ph	-9.19312
▁having	-9.19329
▁cantidad	-9.19482
▁N	-9.19508
▁cancer	-9.19544
▁libro	-9.19548
ces	-9.19794
▁simplemente	-9.19879
▁happens	-9.19972
▁pequeña	-9.20076
▁experiencia	-9.201
▁job	-9.201
▁Vi	-9.2016
▁young	-9.20195
▁Creo	-9.20233
▁past	-9.20271
▁fo	-9.20273
ous	-9.20423
▁visto	-9.20886
▁both	-9.21132
▁research	-9.21138
▁lives	-9.21348
▁ciencia	-9.21412
▁Na	-9.2145
ight	-9.21493
▁child	-9.21527
ner	-9.21587
▁seen	-9.2171
▁imagen	-9.2175
▁mas	-9.21836
▁familia	-9.21929
▁fall	-9.21934
▁saying	-9.21937
▁exist	-9.21959
",	-9.22029
can	-9.22092
ios	-9.22154
▁language	-9.22187
line	-9.22202
▁state	-9.22278
▁inside	-9.22477
▁less	-9.22502
▁sabemos	-9.22529
▁level	-9.22603
▁material	-9.22674
▁somos	-9.22691
▁Tenemos	-9.22721
▁Or	-9.22757
ismo	-9.22785
ex	-9.22814
▁buena	-9.22819
ary	-9.22903
▁puedes	-9.23024
old	-9.23109
▁algún	-9.23169
▁línea	-9.23247
H	-9.23403
V	-9.23428
mar	-9.23439
▁bu	-9.23481
ales	-9.23552
▁base	-9.23657
▁asked	-9.23677
▁saber	-9.23774
▁Te	-9.23783
til	-9.23905
▁podía	-9.23981
and	-9.24039
ple	-9.24096
▁soy	-9.24193
▁single	-9.24225
▁necesita	-9.24239
tions	-9.24298
▁salud	-9.24454
ther	-9.24609
▁mucha	-9.24657
▁nivel	-9.24673
▁later	-9.24707
▁construir	-9.24755
▁produce	-9.24962
▁estaban	-9.24966
▁As	-9.25021
▁modelo	-9.25155
▁niño	-9.25172
▁muestra	-9.25183
▁self	-9.25246
▁disease	-9.25266
ize	-9.25349
▁guy	-9.25418
▁American	-9.25465
ñ	-9.25509
▁humanos	-9.25532
▁sucede	-9.25547
▁government	-9.25556
▁M	-9.25557
▁st	-9.25636
if	-9.25715
ea	-9.25941
▁Quiero	-9.26096
L	-9.26189
cen	-9.26231
▁beautiful	-9.2636
par	-9.26397
▁history	-9.26406
▁close	-9.26463
▁largo	-9.26657
▁gobierno	-9.26773
▁family	-9.26773
▁machine	-9.26911
▁program	-9.26926
ever	-9.26941
ier	-9.26971
ism	-9.27174
ario	-9.27243
▁name	-9.27249
science	-9.27275
▁quería	-9.27596
▁universe	-9.27621
for	-9.27702
lic	-9.27952
▁du	-9.28041
aron	-9.28079
▁principio	-9.28163
▁remember	-9.28163
▁once	-9.28455
▁gas	-9.28523
▁market	-9.28604
lin	-9.28631
▁moral	-9.28653
▁animal	-9.28686
▁days	-9.2873
▁u	-9.28847
▁11	-9.2888
▁escuela	-9.28893
▁age	-9.28953
tric	-9.29013
▁heart	-9.29097
▁problems	-9.29123
▁mercado	-9.29148
▁7	-9.2917
▁run	-9.29193
of	-9.29205
▁llega	-9.29288
▁times	-9.29332
▁Mu	-9.29336
ish	-9.29398
▁wrong	-9.29431
▁primero	-9.29461
▁top	-9.29471
▁yet	-9.29689
W	-9.29694
▁possible	-9.29715
▁almost	-9.29725
end	-9.29789
▁makes	-9.29811
▁ocean	-9.29857
mas	-9.30049
▁trabajar	-9.30111
▁siguiente	-9.30142
▁mother	-9.303
ard	-9.30411
▁edificio	-9.30428
▁guerra	-9.30718
▁set	-9.30809
▁share	-9.30846
▁dónde	-9.30882
▁increíble	-9.30929
▁film	-9.31293
amente	-9.31345
▁exp	-9.31383
▁lugares	-9.31418
▁igual	-9.31435
ico	-9.31639
ac	-9.31696
▁escala	-9.31786
▁micro	-9.31797
▁nadie	-9.3187
▁within	-9.31921
▁Z	-9.32029
▁empezar	-9.32161
▁Li	-9.32161
▁fueron	-9.32224
▁group	-9.32316
ized	-9.32405
▁order	-9.32497
▁células	-9.32509
cción	-9.32523
▁ten	-9.32558
pro	-9.32593
K	-9.32657
▁while	-9.3277
▁Why	-9.32794
▁St	-9.32816
▁meses	-9.3283
▁front	-9.3294
▁pr	-9.3307
cion	-9.33155
▁Les	-9.33213
▁cells	-9.33292
▁true	-9.33333
▁digital	-9.33333
▁tema	-9.33411
▁couple	-9.3348
▁cinco	-9.33481
▁nothing	-9.33488
▁fundamental	-9.33628
▁importa	-9.33682
▁Ja	-9.33691
▁fu	-9.33885
▁whether	-9.33924
▁25	-9.33974
▁heard	-9.34162
▁propio	-9.34293
▁amazing	-9.34519
ante	-9.3464
▁humano	-9.34641
ound	-9.34662
ugh	-9.34954
▁cáncer	-9.34967
xi	-9.35038
▁propia	-9.35144
▁llevar	-9.35323
▁J	-9.35344
▁Tu	-9.35371
▁God	-9.35388
▁large	-9.35867
▁tierra	-9.36031
▁mano	-9.36084
▁already	-9.36173
▁fin	-9.36297
▁música	-9.36325
▁probablemente	-9.36345
▁quien	-9.36382
▁debe	-9.36636
ste	-9.36637
▁grow	-9.36768
▁60	-9.36909
▁sure	-9.37004
▁opera	-9.37023
▁difference	-9.37087
▁pasar	-9.37147
qu	-9.37208
wi	-9.37362
▁United	-9.37394
iza	-9.37437
ador	-9.37449
▁education	-9.37478
▁mente	-9.37481
▁force	-9.37612
▁mujer	-9.37688
▁looked	-9.37717
▁centro	-9.37915
▁humana	-9.37993
▁everybody	-9.38009
▁fuerza	-9.3801
▁iba	-9.38045
▁ju	-9.38087
nk	-9.38119
yo	-9.38181
▁bio	-9.38344
▁die	-9.38367
▁robot	-9.38406
▁often	-9.38409
ctor	-9.38415
▁llamada	-9.38447
Es	-9.38465
▁todavía	-9.38474
▁palabras	-9.38474
▁200	-9.38602
The	-9.3862
▁nature	-9.38648
izar	-9.38676
▁V	-9.38687
▁since	-9.38711
ical	-9.38713
fu	-9.38739
▁tienes	-9.38995
▁must	-9.39018
▁Ka	-9.39022
▁months	-9.39076
▁fr	-9.3913
▁camino	-9.39253
▁actual	-9.39271
led	-9.39438
▁representa	-9.39588
▁present	-9.39855
gar	-9.39913
▁Estados	-9.40013
▁Fue	-9.40085
way	-9.40119
▁post	-9.40139
▁habla	-9.40275
▁sent	-9.40386
rado	-9.40405
▁stop	-9.40414
▁También	-9.40512
▁estructura	-9.4067
ning	-9.40718
▁equipo	-9.40748
▁city	-9.40754
▁tratar	-9.40806
▁hospital	-9.40829
▁result	-9.4087
▁bi	-9.40872
cy	-9.40924
▁Unidos	-9.41037
▁sta	-9.41138
▁stories	-9.41147
art	-9.41155
▁CA	-9.4117
▁Son	-9.41203
▁community	-9.41322
▁environment	-9.41356
▁Can	-9.41407
▁looks	-9.41428
▁necesitamos	-9.41444
▁Uno	-9.41446
▁nombre	-9.41468
ding	-9.41573
▁ab	-9.41581
▁política	-9.41626
▁word	-9.41671
ide	-9.41736
▁element	-9.4174
ile	-9.41791
▁ways	-9.41864
ities	-9.41887
▁Ni	-9.41892
▁película	-9.41947
▁im	-9.41965
▁8	-9.4208
▁Chris	-9.42108
▁Tierra	-9.4243
ña	-9.42463
▁myself	-9.42626
▁comida	-9.42963
▁bar	-9.43135
▁toma	-9.43231
▁ayudar	-9.43264
▁gustaría	-9.4329
cri	-9.43311
ral	-9.43375
▁Jo	-9.43384
▁16	-9.43387
▁taking	-9.4342
▁species	-9.43566
▁built	-9.43567
▁record	-9.43574
▁baja	-9.43605
ura	-9.43637
▁alta	-9.43686
▁free	-9.43699
▁observa	-9.43709
▁medida	-9.43735
▁H	-9.43765
▁extra	-9.43771
▁rápido	-9.43894
▁cre	-9.43955
▁drive	-9.4407
▁Ju	-9.44213
▁allá	-9.44379
▁view	-9.44459
ín	-9.44518
▁itself	-9.44533
ence	-9.44551
▁virus	-9.44555
▁enorme	-9.44557
▁land	-9.44703
▁efecto	-9.44716
rme	-9.44794
ite	-9.44839
▁foto	-9.44849
van	-9.4497
▁words	-9.45
▁movimiento	-9.45047
▁though	-9.45147
▁siglo	-9.45216
▁night	-9.4538
▁pueda	-9.45554
ez	-9.45604
▁someone	-9.4564
▁rep	-9.457
▁America	-9.4582
▁woman	-9.45879
nta	-9.45966
▁consider	-9.46015
▁doctor	-9.46058
▁cell	-9.46063
▁Ga	-9.46132
▁solar	-9.46182
▁minutos	-9.46184
▁dejar	-9.46191
▁pay	-9.46281
▁ce	-9.46499
▁until	-9.46542
▁Google	-9.46549
rían	-9.46646
ward	-9.46729
▁house	-9.46789
▁80	-9.46855
▁States	-9.46904
gue	-9.47164
▁decided	-9.47188
▁somebody	-9.47224
▁oil	-9.47303
nas	-9.47306
▁happening	-9.47454
▁fish	-9.47461
▁animales	-9.47463
▁noche	-9.47692
▁genera	-9.47786
▁Ya	-9.47846
▁vista	-9.47937
▁air	-9.48147
▁col	-9.48212
▁máquina	-9.48246
▁causa	-9.48281
▁Com	-9.48417
▁hice	-9.48507
▁desarrollo	-9.48588
▁EE	-9.48659
▁océano	-9.4876
▁Go	-9.48769
ries	-9.48787
▁completely	-9.48806
▁places	-9.48843
▁At	-9.48848
▁buy	-9.48982
▁huge	-9.48995
mber	-9.4935
by	-9.49424
▁reco	-9.49429
▁participa	-9.4945
▁Sin	-9.4946
cal	-9.49463
tim	-9.49597
▁imágenes	-9.49624
▁ourselves	-9.49797
▁animals	-9.49953
▁existe	-9.50012
U	-9.50027
▁arm	-9.50072
arse	-9.50177
▁será	-9.50211
▁9	-9.50229
rlo	-9.50307
▁exactly	-9.50359
▁hablando	-9.50393
▁hombres	-9.50422
▁seguro	-9.50672
▁sitio	-9.50685
▁Dios	-9.50694
▁cultura	-9.50756
▁multi	-9.50844
▁economic	-9.50845
▁value	-9.50846
▁trans	-9.50897
▁i	-9.50963
▁partes	-9.51064
▁aprender	-9.51065
▁recib	-9.51147
▁tras	-9.51172
cula	-9.51384
▁ciento	-9.51466
▁game	-9.51466
▁paso	-9.51484
cc	-9.51517
▁hear	-9.51873
▁capacidad	-9.51905
▁Muchas	-9.51905
▁leave	-9.5191
ff	-9.51956
global	-9.52067
▁rather	-9.52119
ible	-9.52123
▁Que	-9.52252
▁cabeza	-9.5226
▁pienso	-9.52439
ores	-9.52473
ula	-9.52501
▁Era	-9.52636
▁emp	-9.52666
izado	-9.52775
▁behavior	-9.52796
▁step	-9.52862
fer	-9.52927
▁acuerdo	-9.52975
▁along	-9.52982
▁fund	-9.53021
▁fun	-9.5309
▁trabajando	-9.53217
▁Wi	-9.53246
design	-9.53328
▁allow	-9.53414
▁Él	-9.53515
UU	-9.53603
▁rest	-9.53619
cciones	-9.53679
▁Then	-9.53816
▁público	-9.54057
▁último	-9.54231
▁quizá	-9.54231
▁completamente	-9.54267
▁queremos	-9.54366
▁won	-9.54375
▁Ne	-9.54414
▁challenge	-9.5442
dora	-9.54577
nder	-9.54584
▁organism	-9.54613
▁claro	-9.54662
▁Todo	-9.547
▁única	-9.54785
▁atención	-9.54792
▁minutes	-9.54829
▁structure	-9.54968
bil	-9.55076
▁learned	-9.55125
▁comunidad	-9.55203
▁anti	-9.55328
▁sabía	-9.55337
▁shape	-9.55338
▁factor	-9.55364
▁horas	-9.5546
▁cara	-9.55477
▁similar	-9.55565
▁works	-9.55613
▁fácil	-9.5563
▁naturaleza	-9.55703
▁became	-9.55703
act	-9.55728
▁neuro	-9.55788
▁image	-9.55835
▁web	-9.55886
▁themselves	-9.55887
▁últimos	-9.55895
▁suficiente	-9.55999
▁ello	-9.56156
▁company	-9.56257
▁wonderful	-9.56452
▁hijos	-9.5646
▁cha	-9.56463
cómo	-9.56468
▁short	-9.56476
▁third	-9.56481
des	-9.56485
use	-9.56527
▁Esa	-9.5659
▁ellas	-9.56609
▁familiar	-9.56621
osa	-9.56624
▁nuclear	-9.56628
▁ésta	-9.56815
▁sala	-9.56815
▁star	-9.56827
▁pat	-9.56991
▁campo	-9.56995
▁economía	-9.57001
▁arriba	-9.57001
▁Ta	-9.57108
ino	-9.57153
▁interact	-9.57166
▁act	-9.5718
▁map	-9.57304
lum	-9.57452
cent	-9.57465
▁preocupa	-9.57551
▁Bu	-9.57577
▁sur	-9.57666
▁última	-9.57751
▁early	-9.57752
cle	-9.57801
”	-9.57939
▁“	-9.57941
▁charla	-9.57945
▁happy	-9.57959
▁Está	-9.5798
▁amigos	-9.58042
▁met	-9.58075
▁society	-9.58149
▁Todos	-9.58205
▁historias	-9.58296
▁debería	-9.58316
▁embargo	-9.58317
▁population	-9.58317
▁write	-9.58322
▁qui	-9.58438
▁Nueva	-9.58506
▁explain	-9.58696
▁pattern	-9.58696
▁aunque	-9.58698
▁least	-9.587
▁gen	-9.58729
▁educación	-9.58741
cio	-9.58786
▁knew	-9.58888
▁14	-9.5894
▁sociedad	-9.58945
▁leg	-9.59053
▁created	-9.59072
▁atrás	-9.59093
▁study	-9.5919
▁universo	-9.59268
▁abajo	-9.59271
▁demasiado	-9.59459
▁resto	-9.5954
ise	-9.59643
▁invent	-9.5965
▁frente	-9.59678
oso	-9.59857
▁k	-9.5991
▁permite	-9.59928
▁sonido	-9.60073
▁favor	-9.60197
▁tri	-9.6021
▁sometimes	-9.60229
▁seven	-9.60325
▁nuevas	-9.6034
▁bacteria	-9.6042
sum	-9.60547
▁guys	-9.60568
▁aire	-9.60587
▁amount	-9.60614
▁phone	-9.6067
▁cause	-9.60864
ice	-9.60876
▁outside	-9.609
Oh	-9.61069
▁alto	-9.61173
▁lograr	-9.61193
▁turns	-9.61198
▁cap	-9.61409
put	-9.61494
▁sabe	-9.61523
chi	-9.61547
dad	-9.61623
▁amor	-9.61642
istas	-9.61648
su	-9.61656
ped	-9.61713
▁tamaño	-9.61782
▁l	-9.619
▁speak	-9.61906
▁haya	-9.62018
▁photograph	-9.62069
▁mostrar	-9.62164
▁pensé	-9.62179
▁básicamente	-9.62198
▁ojos	-9.62312
▁gu	-9.62336
▁volver	-9.62401
▁mundial	-9.62569
▁couldn	-9.62577
▁eight	-9.62653
tura	-9.6276
▁solution	-9.62767
▁quieren	-9.62797
▁against	-9.62825
▁etc	-9.62852
spect	-9.62978
▁San	-9.63058
▁padre	-9.63098
▁moving	-9.63163
▁beginning	-9.63172
▁fui	-9.63231
▁lu	-9.63241
▁oportunidad	-9.63438
▁hours	-9.63441
▁cal	-9.63462
han	-9.63533
▁impact	-9.63541
▁gave	-9.6361
idos	-9.6363
▁seis	-9.63702
▁siendo	-9.63742
▁pequeños	-9.63759
▁único	-9.63761
Well	-9.63821
▁sold	-9.63934
▁exactamente	-9.63964
▁90	-9.6405
▁viene	-9.64073
▁deep	-9.64125
pen	-9.64165
▁dicen	-9.64192
▁paper	-9.64209
▁prueba	-9.64362
▁común	-9.64362
culture	-9.6437
gin	-9.64438
fin	-9.6445
▁seguir	-9.64564
▁everyone	-9.64614
▁pie	-9.6465
▁Some	-9.64677
▁blue	-9.64686
aria	-9.64795
▁team	-9.6489
▁Hace	-9.64928
▁palabra	-9.64966
▁type	-9.64967
▁common	-9.6499
entertainment	-9.65169
▁difficult	-9.65169
▁superficie	-9.65169
▁scale	-9.6523
▁wasn	-9.65234
▁feeling	-9.65257
▁area	-9.65269
ual	-9.6527
▁poor	-9.65274
▁worked	-9.65338
▁resulta	-9.65382
row	-9.65423
▁mismos	-9.65542
▁población	-9.65575
rg	-9.65619
▁pan	-9.65684
▁Pro	-9.65745
▁capital	-9.65779
▁mental	-9.65843
▁sentir	-9.65869
▁Sí	-9.65877
▁prop	-9.66005
▁usando	-9.66019
▁entire	-9.66078
▁walk	-9.66121
▁shows	-9.66128
▁kinds	-9.66164
▁friends	-9.66184
▁formas	-9.66192
▁learning	-9.66211
icio	-9.66373
▁compañía	-9.66392
▁Estamos	-9.66526
▁queda	-9.66579
▁vivir	-9.6661
▁century	-9.66622
▁lead	-9.66637
▁depend	-9.6667
▁Je	-9.66783
▁médico	-9.66803
▁green	-9.66859
▁edad	-9.66866
▁size	-9.66916
▁surface	-9.6701
▁encanta	-9.67022
ki	-9.67073
dio	-9.67105
▁terms	-9.67152
icos	-9.67214
▁genes	-9.67335
▁World	-9.67423
▁uso	-9.67476
ito	-9.6767
▁certain	-9.67708
▁Ex	-9.67828
▁network	-9.6784
▁black	-9.6787
▁Okay	-9.67877
ky	-9.67892
▁cierta	-9.68047
▁estudio	-9.68085
▁X	-9.68088
▁precio	-9.68101
ay	-9.68113
ab	-9.68182
▁taken	-9.68358
▁podrían	-9.68379
▁Uds	-9.68503
▁full	-9.68653
▁nu	-9.68785
▁deal	-9.68831
▁termina	-9.68835
▁marca	-9.68859
▁urban	-9.68885
▁students	-9.68888
▁period	-9.69024
▁watch	-9.69038
▁17	-9.6913
▁mirar	-9.69232
▁week	-9.69262
▁software	-9.69319
▁ja	-9.69326
▁sol	-9.69543
▁app	-9.69576
ima	-9.69623
mento	-9.69709
▁kid	-9.69718
▁corre	-9.69749
ey	-9.69752
▁relationship	-9.69943
▁Pueden	-9.70142
▁John	-9.7016
▁movie	-9.70162
▁friend	-9.70207
table	-9.70253
▁eat	-9.70328
▁total	-9.70356
▁papel	-9.70369
▁mejores	-9.70371
▁investigación	-9.7043
▁Car	-9.70466
▁pensamos	-9.70582
▁th	-9.70589
▁middle	-9.70796
▁pudiera	-9.70796
ow	-9.70975
▁begin	-9.70989
▁Just	-9.71131
▁tratando	-9.71175
mil	-9.71196
▁inteligente	-9.71225
▁éxito	-9.71225
▁field	-9.71251
▁mitad	-9.71274
ización	-9.71317
ace	-9.71394
▁powerful	-9.71473
ok	-9.71493
▁motor	-9.7152
▁Hu	-9.71521
▁pick	-9.71592
▁instead	-9.71657
▁crea	-9.7166
▁Podemos	-9.7169
▁buen	-9.71796
▁relación	-9.71875
▁expert	-9.71915
▁semana	-9.71954
idas	-9.72022
▁Luego	-9.7209
ear	-9.72168
▁thousands	-9.72291
▁crisis	-9.72313
▁sp	-9.72381
▁cer	-9.72541
▁device	-9.7255
▁whatever	-9.72582
!"	-9.72583
cult	-9.72589
▁enter	-9.7265
▁Pi	-9.7267
▁center	-9.72686
▁effect	-9.72718
▁expect	-9.72744
▁viaje	-9.72764
▁mensaje	-9.72963
▁sign	-9.72967
▁cut	-9.73024
▁questions	-9.73072
▁finally	-9.73086
▁seeing	-9.73305
▁perhaps	-9.73402
▁original	-9.73484
▁On	-9.73485
▁cambia	-9.73535
▁entra	-9.73596
cido	-9.7365
tch	-9.73662
tado	-9.73724
▁mañana	-9.73843
ious	-9.73849
▁news	-9.73954
▁tenido	-9.74108
▁especial	-9.7411
cional	-9.74127
▁Cu	-9.74205
▁hora	-9.74332
▁tenían	-9.74409
top	-9.74495
▁laboratorio	-9.74508
▁valor	-9.74648
▁eyes	-9.74652
▁sigue	-9.74713
▁support	-9.7473
▁diciendo	-9.74743
▁podríamos	-9.74854
▁choice	-9.74954
▁13	-9.75068
▁contar	-9.75139
▁zona	-9.75179
▁estudiantes	-9.75283
day	-9.75287
amiento	-9.75397
▁document	-9.75405
▁gana	-9.75479
ology	-9.75552
▁mira	-9.75584
▁derecho	-9.75641
▁vidas	-9.75691
▁Ella	-9.75731
▁follow	-9.75809
ug	-9.75825
▁break	-9.75852
▁riesgo	-9.75852
▁measure	-9.75852
ión	-9.75866
▁ci	-9.75882
▁calle	-9.75952
ka	-9.7596
▁comportamiento	-9.76078
▁father	-9.76098
▁justo	-9.76208
▁boy	-9.76226
▁70	-9.76236
▁cannot	-9.76313
▁yourself	-9.76334
▁experimento	-9.76432
▁compartir	-9.76759
ability	-9.76838
arlo	-9.76949
▁emb	-9.76985
▁demás	-9.76987
▁easy	-9.76987
▁Estos	-9.77025
▁m	-9.77088
pri	-9.77127
ju	-9.7721
▁seguridad	-9.77214
ker	-9.77225
▁quién	-9.77276
▁pur	-9.773
▁interested	-9.77392
▁kill	-9.77438
year	-9.77441
▁Tiene	-9.77443
▁adapt	-9.77448
▁Ar	-9.77461
ah	-9.77516
▁save	-9.77559
▁ambiente	-9.77672
iente	-9.77674
▁drug	-9.77674
--	-9.77675
▁wall	-9.77735
illo	-9.77757
▁decision	-9.77812
▁stand	-9.77908
▁pieza	-9.77927
▁Estoy	-9.78066
▁central	-9.78097
▁finalmente	-9.78099
▁thank	-9.78111
side	-9.78143
▁reach	-9.78327
▁low	-9.78356
▁petróleo	-9.78363
▁turned	-9.78369
La	-9.78389
▁Sh	-9.78466
▁hicimos	-9.78595
au	-9.78652
▁feet	-9.78655
▁digo	-9.78721
▁Dr	-9.78724
ana	-9.78799
ño	-9.78862
val	-9.78947
▁spend	-9.79034
▁corazón	-9.79059
▁empieza	-9.79059
▁behind	-9.79059
tom	-9.79082
▁artist	-9.79228
▁ability	-9.79258
▁Sól	-9.79268
▁dio	-9.79276
▁dijeron	-9.79375
▁dark	-9.79448
ial	-9.79477
rd	-9.79499
▁arma	-9.795
▁bebé	-9.79528
▁gone	-9.79648
ping	-9.79701
miento	-9.79711
What	-9.79802
▁death	-9.79806
▁cool	-9.799
ábamos	-9.79921
▁DNA	-9.79995
▁tarde	-9.79996
▁libre	-9.80033
▁tried	-9.80047
▁san	-9.80168
▁fuerte	-9.8024
▁pla	-9.80292
▁treat	-9.80434
You	-9.80512
tter	-9.80706
▁op	-9.80742
▁habían	-9.80822
tors	-9.80928
▁puedan	-9.81163
▁street	-9.81177
adores	-9.81272
▁resultado	-9.81318
▁siquiera	-9.81415
▁region	-9.81416
▁began	-9.81418
▁imaginar	-9.8143
▁longer	-9.81432
▁hit	-9.81439
▁Cha	-9.81458
▁movement	-9.81498
▁stage	-9.815
▁given	-9.81601
▁salir	-9.8161
▁crecimiento	-9.81654
▁física	-9.81654
▁risk	-9.81654
▁systems	-9.81686
during	-9.81688
▁quickly	-9.81711
▁blog	-9.81934
▁preguntas	-9.82069
▁mapa	-9.82091
zar	-9.82112
▁teoría	-9.82133
▁servicio	-9.82373
▁hubiera	-9.82373
▁calcula	-9.82383
▁report	-9.82418
▁mon	-9.82434
▁law	-9.82461
▁cultural	-9.82525
▁changed	-9.82569
▁lots	-9.82604
▁obtener	-9.82697
▁robots	-9.82727
▁éste	-9.82856
like	-9.82941
form	-9.83038
▁terrible	-9.83098
ya	-9.83114
▁realized	-9.83165
▁totalmente	-9.83187
▁hands	-9.83276
▁teléfono	-9.8334
▁focus	-9.8335
▁Oh	-9.83386
▁solve	-9.83525
▁página	-9.83584
gram	-9.83628
▁pass	-9.83746
antes	-9.8377
▁People	-9.83828
▁physical	-9.83828
ship	-9.83898
my	-9.83906
▁send	-9.83911
ncy	-9.83974
▁cámara	-9.84072
▁década	-9.84073
ense	-9.84128
▁win	-9.84135
▁hacía	-9.84148
▁padres	-9.84156
▁generation	-9.8425
▁describe	-9.84284
▁represent	-9.84295
▁special	-9.84317
▁Right	-9.84358
▁flu	-9.84427
▁Ese	-9.84499
▁complex	-9.84535
▁simply	-9.84564
▁investiga	-9.84727
▁situation	-9.84809
▁muerte	-9.85057
▁fast	-9.85199
▁respecto	-9.85213
▁political	-9.85304
▁separa	-9.8533
az	-9.85396
press	-9.85418
▁izquierda	-9.85552
▁ocurre	-9.85552
test	-9.85619
▁producto	-9.85763
▁escuchar	-9.85793
▁segunda	-9.85801
▁wonder	-9.85811
▁nice	-9.85845
▁Ge	-9.85903
▁virtual	-9.8605
ating	-9.86062
▁visión	-9.86111
▁pull	-9.86145
▁protect	-9.86267
over	-9.86351
vert	-9.86391
▁table	-9.86417
▁situación	-9.86551
▁habit	-9.86554
▁takes	-9.86601
▁Per	-9.86694
out	-9.86714
▁incredible	-9.86802
▁esperanza	-9.86802
▁radio	-9.86812
▁modern	-9.86827
▁ground	-9.86883
▁hicieron	-9.87054
▁access	-9.87055
low	-9.87187
▁religion	-9.87338
▁cover	-9.87413
▁Puede	-9.87416
▁David	-9.87564
▁computadora	-9.8758
▁pequeñas	-9.87606
▁TV	-9.87617
▁needed	-9.87622
▁pen	-9.87727
ular	-9.87745
▁jóvenes	-9.87813
▁acaba	-9.88025
▁blood	-9.88068
▁continue	-9.88068
▁sitting	-9.88072
▁Fi	-9.88101
▁constru	-9.8819
▁fondo	-9.88201
▁sistemas	-9.88217
sis	-9.88253
▁conseguir	-9.88323
▁compassion	-9.88344
▁isn	-9.88389
own	-9.88453
▁girl	-9.88521
▁approach	-9.88579
▁decía	-9.88585
▁esté	-9.88598
▁tú	-9.88632
▁growth	-9.88661
▁tend	-9.88755
▁sorprendente	-9.88842
ium	-9.88862
her	-9.8887
vin	-9.88906
▁Wa	-9.88945
▁fly	-9.88957
ray	-9.88983
dica	-9.89055
▁text	-9.89058
▁ciudades	-9.89064
▁viendo	-9.89114
▁piensa	-9.89117
▁rate	-9.89122
▁spent	-9.89122
J	-9.89158
aban	-9.89187
▁respond	-9.89259
▁enfermedad	-9.89286
▁artista	-9.89303
▁vuelta	-9.8935
▁audience	-9.8935
▁lenguaje	-9.89358
▁key	-9.8936
▁connect	-9.89374
▁stay	-9.89386
▁add	-9.89408
ney	-9.89546
▁brought	-9.89608
▁costo	-9.89632
▁mostrarles	-9.89655
▁Du	-9.89663
▁dado	-9.89781
▁mantener	-9.89867
▁azul	-9.89871
▁libros	-9.89954
ático	-9.89979
via	-9.90003
▁Gran	-9.90089
▁travel	-9.90139
▁derecha	-9.90147
ición	-9.90175
▁500	-9.90177
▁ice	-9.90221
▁Estas	-9.9025
50	-9.90341
▁industria	-9.90341
▁pasando	-9.9036
▁Man	-9.90382
▁either	-9.90387
▁vivo	-9.90491
▁metros	-9.90527
▁Va	-9.90571
▁términos	-9.90587
▁economy	-9.90648
▁conserva	-9.90649
▁quizás	-9.90659
▁motiva	-9.90679
▁books	-9.90736
có	-9.90741
▁main	-9.9082
▁bottom	-9.9091
▁dream	-9.9091
dan	-9.9093
▁pul	-9.90939
ología	-9.91071
El	-9.91131
▁sell	-9.91145
▁científicos	-9.91147
▁ninguna	-9.91173
▁starting	-9.91204
én	-9.91216
▁Fa	-9.91321
hu	-9.91342
▁adult	-9.91379
ging	-9.91393
▁parts	-9.91408
▁opportunity	-9.91436
▁climate	-9.9153
▁hold	-9.91707
▁área	-9.91758
▁coche	-9.9181
▁eres	-9.91868
▁conocimiento	-9.91964
▁voice	-9.91981
▁Lu	-9.91984
▁manage	-9.92062
cial	-9.92105
▁bus	-9.9221
▁cities	-9.92265
▁transform	-9.92292
▁gene	-9.92459
▁popular	-9.92498
▁niña	-9.92539
▁electro	-9.92755
▁próximo	-9.92762
▁ADN	-9.92762
▁pensando	-9.92763
▁falta	-9.92764
▁Ve	-9.92786
▁leer	-9.92821
▁box	-9.92859
▁dinosaur	-9.93029
▁emerge	-9.9303
▁service	-9.93031
▁lucha	-9.93255
▁actividad	-9.93302
▁pacientes	-9.93328
▁quienes	-9.93329
▁compar	-9.9347
▁semanas	-9.93512
▁rápidamente	-9.936
▁busca	-9.93754
▁English	-9.93836
▁vuelve	-9.93836
▁menudo	-9.93836
▁strong	-9.93837
▁lab	-9.93845
▁touch	-9.93862
▁Yeah	-9.93889
▁innova	-9.9394
▁empresa	-9.9398
▁Gu	-9.93993
▁Han	-9.94053
▁medios	-9.94071
▁escribir	-9.94106
▁technologies	-9.94106
▁spread	-9.9411
leg	-9.9417
▁vision	-9.942
▁eye	-9.94229
▁growing	-9.94312
▁indica	-9.94343
▁dan	-9.94477
▁forward	-9.94482
imiento	-9.94542
▁deseo	-9.94563
▁debemos	-9.94605
▁Ellos	-9.94636
▁pueblo	-9.94649
▁wrote	-9.94649
▁felt	-9.94652
luc	-9.94656
▁aspecto	-9.94669
▁page	-9.94699
▁office	-9.94726
log	-9.94791
▁patient	-9.94823
▁sociales	-9.94827
idades	-9.94829
ically	-9.94906
▁action	-9.95047
▁gras	-9.95188
▁average	-9.95195
▁integra	-9.95195
▁message	-9.95196
▁evolución	-9.95208
▁non	-9.95211
▁hago	-9.95213
▁wind	-9.95215
▁h	-9.95228
▁resolver	-9.95266
▁mala	-9.95289
▁South	-9.95324
▁based	-9.95389
▁object	-9.9539
▁negro	-9.95391
▁serie	-9.95412
udi	-9.95519
▁theory	-9.95524
▁parents	-9.95578
▁apart	-9.95593
light	-9.95612
▁recursos	-9.95641
head	-9.95674
▁anima	-9.95675
▁suerte	-9.95749
▁sector	-9.95766
▁weeks	-9.95811
▁class	-9.95947
▁infect	-9.96023
▁morning	-9.96026
▁born	-9.96102
▁Not	-9.96145
ization	-9.96151
▁grab	-9.96162
▁fotografía	-9.96295
▁objetivo	-9.96295
▁lista	-9.96382
▁War	-9.9655
▁siento	-9.96597
▁juntos	-9.96608
▁seem	-9.9662
▁Tengo	-9.96626
▁pal	-9.96837
▁Europa	-9.9685
▁concentra	-9.96855
▁hijo	-9.96874
▁known	-9.97026
▁Europe	-9.97048
▁interior	-9.97129
▁usted	-9.97132
▁village	-9.97408
▁limit	-9.97453
▁enfermedades	-9.97476
▁bla	-9.97615
▁literally	-9.97688
▁feliz	-9.97694
▁Don	-9.97946
▁herramientas	-9.97968
▁Richard	-9.97969
▁tarea	-9.97976
▁fire	-9.97991
ley	-9.98058
▁ran	-9.98078
▁pensamiento	-9.98251
▁attention	-9.98251
▁carga	-9.9828
▁evolution	-9.98325
▁white	-9.98353
▁images	-9.98453
▁reality	-9.98456
bar	-9.98459
▁Después	-9.98533
▁bomb	-9.98793
▁fine	-9.98803
▁companies	-9.98816
▁increase	-9.98816
bla	-9.98821
▁understanding	-9.98962
▁clear	-9.98971
ngún	-9.99043
▁piensan	-9.99073
▁compra	-9.99076
▁joven	-9.991
▁function	-9.99101
▁gui	-9.99116
▁visit	-9.99139
▁usa	-9.99294
▁collect	-9.99362
▁sueño	-9.99386
▁alimenta	-9.99388
▁verde	-9.99396
▁explica	-9.99405
▁Paul	-9.9941
▁Tra	-9.99494
aje	-9.99536
▁plane	-9.99621
▁camera	-9.99632
▁enfrenta	-9.99671
▁potential	-9.99671
tero	-9.99742
▁cientos	-9.9985
▁cuanto	-9.99958
▁component	-9.99961
pan	-9.99965
▁guess	-9.99975
▁dicho	-10.0006
▁tus	-10.0013
▁tenga	-10.0014
▁developed	-10.0018
▁pain	-10.0019
▁práctica	-10.0024
▁afecta	-10.0024
▁habría	-10.0025
Bueno	-10.0034
rate	-10.0035
▁nuevos	-10.0036
▁terminar	-10.0037
rlos	-10.004
▁manos	-10.0048
▁tuve	-10.0053
▁matemática	-10.0053
▁knowledge	-10.0053
▁sex	-10.0062
▁Estaba	-10.0075
▁civil	-10.0081
▁pronto	-10.0083
▁obra	-10.0083
▁24	-10.0083
▁llamamos	-10.0086
▁areas	-10.0091
cien	-10.0098
▁discovered	-10.0101
istic	-10.0106
▁Chinese	-10.0111
▁solución	-10.0111
▁smart	-10.0112
▁realize	-10.0117
▁needs	-10.0117
▁Of	-10.0118
▁Am	-10.012
af	-10.0129
▁dispositivo	-10.014
▁Voy	-10.014
▁aumenta	-10.0141
▁señal	-10.0141
▁avanza	-10.0141
▁running	-10.0142
▁Bi	-10.0144
▁ante	-10.0161
▁21	-10.0164
▁interpret	-10.0169
▁fotos	-10.0179
▁tipos	-10.0181
▁Asia	-10.0197
▁código	-10.0199
▁Every	-10.0199
▁capaces	-10.02
▁development	-10.0206
mal	-10.0224
▁giving	-10.0228
▁tools	-10.0241
fo	-10.0245
▁photo	-10.0257
▁affect	-10.0257
▁compasión	-10.0257
▁necesitan	-10.0262
▁dolor	-10.0263
▁permit	-10.0268
▁song	-10.0271
▁decade	-10.0289
▁worth	-10.0291
▁interesa	-10.0294
▁director	-10.0314
▁mine	-10.0315
▁African	-10.0316
▁determina	-10.0317
▁siete	-10.0318
Cuál	-10.0319
▁concepto	-10.032
ética	-10.0324
▁cla	-10.0326
▁cuál	-10.0326
De	-10.033
▁peor	-10.0337
▁poll	-10.0338
▁razones	-10.0346
▁comprar	-10.0348
▁lanza	-10.0349
▁Tenía	-10.035
▁chance	-10.0351
▁sale	-10.0357
har	-10.036
icia	-10.0367
enta	-10.0368
▁scientists	-10.0371
ríamos	-10.0378
▁patients	-10.0387
▁content	-10.0403
▁character	-10.0405
▁suggest	-10.0406
▁velocidad	-10.0406
▁expand	-10.0409
▁impacto	-10.0411
jan	-10.0416
▁issue	-10.0442
yendo	-10.0451
iera	-10.0453
ists	-10.0458
▁paciente	-10.0463
almente	-10.0466
▁tumor	-10.0467
▁capaz	-10.047
▁Ri	-10.0478
▁comenzar	-10.0489
▁baby	-10.05
bles	-10.0503
time	-10.0509
▁cri	-10.0515
▁defini	-10.0527
mpl	-10.053
▁playing	-10.0535
▁alone	-10.0537
▁tuvo	-10.0541
▁300	-10.0548
▁interest	-10.0551
▁dedica	-10.0552
▁teach	-10.0556
▁provide	-10.0557
▁materia	-10.0566
▁v	-10.0575
▁oh	-10.0576
▁wouldn	-10.0579
▁maravilloso	-10.0587
▁sensor	-10.0588
media	-10.0592
▁With	-10.0596
▁organization	-10.0599
▁major	-10.0614
▁California	-10.0617
▁medicina	-10.0617
▁version	-10.0627
▁telling	-10.064
▁tro	-10.0653
▁Cor	-10.0654
▁source	-10.0655
▁Hoy	-10.0662
▁innovation	-10.0663
▁deberíamos	-10.0668
▁corta	-10.0669
▁entrar	-10.0672
▁simula	-10.0679
ándose	-10.068
▁price	-10.068
▁fear	-10.0681
▁road	-10.0686
▁rich	-10.0687
▁ó	-10.0688
▁mass	-10.0696
▁industry	-10.0709
▁absolutely	-10.0714
▁meet	-10.0714
Lo	-10.0718
ze	-10.0721
▁educa	-10.0727
▁buscar	-10.0736
▁anyone	-10.0747
▁develop	-10.0748
▁productos	-10.0753
▁site	-10.0768
▁político	-10.0771
omb	-10.0776
▁resultados	-10.079
▁Hemo	-10.0797
▁incredibly	-10.0802
▁lejos	-10.0803
▁link	-10.0804
▁especies	-10.0805
▁meaning	-10.0808
▁materiales	-10.0819
▁basic	-10.0822
▁term	-10.0825
▁meta	-10.083
▁empecé	-10.0833
▁encontramos	-10.0835
▁direct	-10.085
▁computers	-10.0854
▁developing	-10.086
▁explicar	-10.0863
▁adopt	-10.0867
▁sw	-10.0874
▁prove	-10.0876
▁talked	-10.0876
▁plant	-10.0891
▁Pre	-10.09
izing	-10.0904
▁fl	-10.0907
▁fabrica	-10.0918
▁generación	-10.0941
▁amigo	-10.0942
▁intentar	-10.0944
▁presente	-10.0945
▁puntos	-10.0956
▁current	-10.0959
▁montón	-10.0959
▁creating	-10.0964
▁industrial	-10.0967
▁considera	-10.0968
▁secret	-10.0971
▁objeto	-10.0974
▁enseña	-10.0986
ática	-10.0988
▁felicidad	-10.0991
▁perspectiva	-10.0991
▁Pu	-10.0991
▁transmit	-10.0991
▁masa	-10.0994
▁genetic	-10.0998
▁grado	-10.1012
▁vino	-10.1012
▁goal	-10.102
▁biology	-10.1023
▁track	-10.1027
▁enseñar	-10.1027
▁mat	-10.1028
kin	-10.1039
cía	-10.1044
▁rat	-10.1051
▁completo	-10.1054
fil	-10.1056
▁debido	-10.1057
▁malo	-10.1057
▁concept	-10.1059
▁perfect	-10.1068
▁path	-10.1081
▁pantalla	-10.1086
aña	-10.1092
▁sean	-10.1102
ult	-10.1102
▁dead	-10.1102
plo	-10.111
▁comienza	-10.1118
▁económico	-10.1118
▁molécula	-10.1118
▁chi	-10.113
▁listen	-10.1133
▁tecnologías	-10.1138
▁Har	-10.1138
▁dog	-10.1144
▁seems	-10.1145
▁escrito	-10.115
▁screen	-10.115
▁client	-10.1151
▁activa	-10.1153
▁recently	-10.1157
▁By	-10.1165
▁camp	-10.1169
▁buenas	-10.1175
▁explora	-10.1176
▁West	-10.1178
▁molecule	-10.1183
▁producir	-10.1183
▁push	-10.1183
▁error	-10.1183
▁potencial	-10.1184
▁junta	-10.1187
▁showed	-10.1187
erra	-10.1197
▁soon	-10.1207
▁domina	-10.1208
▁aquellos	-10.1223
▁comer	-10.1225
▁Our	-10.1244
▁estábamos	-10.1248
▁sexual	-10.1248
▁carbon	-10.1253
▁utiliza	-10.1257
ko	-10.1267
▁je	-10.1276
▁recognize	-10.128
▁hielo	-10.128
▁prepar	-10.1287
▁noticias	-10.1306
▁jugar	-10.1308
▁cuestión	-10.1313
▁extend	-10.1315
rew	-10.1338
▁Web	-10.134
▁jug	-10.1342
▁tiny	-10.1346
▁genial	-10.1347
▁miedo	-10.1349
▁Mc	-10.1352
▁changes	-10.136
▁putting	-10.1367
▁principal	-10.1372
▁Pe	-10.1372
▁existen	-10.1379
▁appear	-10.1379
▁grupos	-10.1387
▁raise	-10.1388
▁success	-10.141
▁pared	-10.141
▁afuera	-10.1411
▁varios	-10.1412
▁Steve	-10.1414
ji	-10.1421
▁Tom	-10.1426
work	-10.1426
war	-10.1433
▁haga	-10.1441
ecto	-10.1442
▁available	-10.1444
▁truth	-10.1444
▁breath	-10.1444
▁reduce	-10.1445
▁architecture	-10.1446
▁fuente	-10.1457
▁Ru	-10.1462
▁encuentra	-10.1462
▁online	-10.1466
▁anybody	-10.1478
▁bur	-10.1482
▁mediante	-10.1484
▁bigger	-10.1485
▁voz	-10.1487
éis	-10.1505
▁importantes	-10.151
▁artículo	-10.1511
▁honest	-10.1511
▁tratamiento	-10.1513
▁wish	-10.1515
▁involved	-10.1523
▁rules	-10.1526
▁intenta	-10.1529
▁blanco	-10.1544
▁eleva	-10.1547
▁estudia	-10.1552
▁month	-10.1556
torio	-10.1557
▁deben	-10.1563
▁designer	-10.1567
▁hundreds	-10.1569
▁cable	-10.1574
puesto	-10.1577
▁engineer	-10.1579
▁bird	-10.158
rie	-10.1593
▁ocurrió	-10.1612
▁speed	-10.1612
▁tendría	-10.1614
▁cat	-10.1625
▁literalmente	-10.1645
▁puerta	-10.1645
▁subject	-10.1645
▁clean	-10.1646
▁draw	-10.1652
▁coral	-10.1653
▁towards	-10.1653
▁sing	-10.1668
▁individuo	-10.1679
▁abierto	-10.1679
▁join	-10.1679
▁revolution	-10.168
bro	-10.1682
▁–	-10.1685
▁happiness	-10.1686
▁hundred	-10.1689
▁designed	-10.1691
▁bri	-10.1697
▁hole	-10.1699
▁predict	-10.1709
▁oído	-10.1714
▁require	-10.1714
▁East	-10.1717
meter	-10.172
how	-10.1724
▁Bill	-10.173
▁espera	-10.1745
▁plantas	-10.1749
▁descubrir	-10.1751
▁seres	-10.1779
iv	-10.1781
▁adelante	-10.1782
▁beyond	-10.1782
▁door	-10.1783
▁medical	-10.1783
▁calidad	-10.1788
rian	-10.1795
▁empresas	-10.1798
▁continua	-10.1798
lógico	-10.1815
▁attack	-10.1816
▁oficina	-10.1816
▁varias	-10.1817
▁radical	-10.1818
20	-10.1819
▁compara	-10.1825
▁sola	-10.1825
▁reglas	-10.1844
▁slow	-10.1844
▁benefit	-10.1851
▁físico	-10.1851
▁magic	-10.1851
▁pasó	-10.1852
▁favorite	-10.1852
▁changing	-10.1856
▁correcta	-10.1857
▁primeros	-10.1863
▁pesar	-10.1865
▁except	-10.1866
▁teníamos	-10.1878
tamos	-10.1881
▁millions	-10.1883
▁HIV	-10.1885
▁época	-10.1885
▁dirección	-10.1885
▁Bar	-10.1886
▁prepara	-10.189
▁pone	-10.189
▁reproduc	-10.189
▁Sal	-10.1893
▁escucha	-10.1899
▁clave	-10.1903
▁resu	-10.1912
▁acceso	-10.192
▁millón	-10.192
▁sacar	-10.1922
▁dura	-10.1929
▁rock	-10.1932
▁realiza	-10.1933
▁CO	-10.1933
▁store	-10.1935
▁list	-10.1937
▁muerto	-10.1955
▁relat	-10.1955
▁viaja	-10.1955
▁vend	-10.1962
▁artificial	-10.199
▁strange	-10.199
▁brazo	-10.199
▁reasons	-10.1991
▁comercial	-10.1991
▁stick	-10.1991
▁writing	-10.1994
▁pictures	-10.2001
▁ley	-10.2023
▁desafío	-10.2025
▁distancia	-10.2025
posición	-10.2044
▁especially	-10.2045
▁Vamos	-10.2047
▁negocio	-10.2048
▁cuales	-10.2049
▁aparece	-10.2055
▁slide	-10.206
▁Hi	-10.2064
▁larga	-10.2066
▁numbers	-10.2073
▁neg	-10.2077
net	-10.2085
▁desea	-10.2094
lógica	-10.2095
▁inglés	-10.2095
▁llevó	-10.2095
▁comenzó	-10.2095
▁mor	-10.2099
mate	-10.21
▁z	-10.2102
▁Ap	-10.2103
health	-10.2111
▁Col	-10.2112
▁nation	-10.2115
▁certainly	-10.2118
▁divers	-10.2127
▁Islam	-10.2131
▁decisiones	-10.2145
▁tanta	-10.2148
▁becomes	-10.2154
▁serio	-10.2156
▁creado	-10.216
bia	-10.2162
▁lived	-10.2163
▁desaparec	-10.2166
▁acepta	-10.2167
▁safe	-10.2167
▁carrera	-10.2167
▁universal	-10.2167
▁peace	-10.2169
▁mesa	-10.2174
▁obviously	-10.2174
▁print	-10.2177
▁resources	-10.218
▁musical	-10.218
▁prob	-10.218
▁libera	-10.2185
▁flow	-10.2197
▁Pri	-10.2199
▁implica	-10.2203
▁mueve	-10.2204
▁connection	-10.2208
zó	-10.2216
anza	-10.2233
▁plastic	-10.2238
▁cocina	-10.224
▁borde	-10.2243
▁orden	-10.2244
▁feed	-10.2245
Se	-10.2247
▁cree	-10.2254
0,000	-10.2264
toria	-10.2268
▁costa	-10.2269
▁discover	-10.2273
▁además	-10.2274
▁nobody	-10.2274
▁Where	-10.2274
Ha	-10.2275
▁hip	-10.2275
ham	-10.2282
30	-10.2294
ologist	-10.2294
▁paga	-10.2296
▁sabes	-10.2297
▁combina	-10.2301
▁verlo	-10.2301
▁sac	-10.2303
▁asking	-10.2309
▁further	-10.231
▁Nigeria	-10.231
▁Who	-10.2315
▁girls	-10.2318
▁objetos	-10.2329
▁died	-10.2336
life	-10.2342
▁nine	-10.2344
▁response	-10.2346
▁several	-10.2346
▁degree	-10.2347
▁among	-10.2347
ably	-10.236
▁legal	-10.2361
▁detail	-10.2368
▁Most	-10.2378
»	-10.2383
▁obtiene	-10.2383
▁scientific	-10.2383
▁escenario	-10.2383
▁tercer	-10.2386
▁partir	-10.2389
▁organiz	-10.2393
▁cualquiera	-10.2398
▁gar	-10.2401
ify	-10.2413
▁maravillosa	-10.2419
▁«	-10.2419
▁cuidado	-10.242
▁logra	-10.2421
▁pobres	-10.2423
▁serious	-10.2423
▁effective	-10.2425
▁role	-10.2427
▁skin	-10.245
▁chemical	-10.2456
▁complejo	-10.2456
▁patrón	-10.2456
▁thousand	-10.2459
▁siente	-10.2459
▁ganar	-10.2468
bal	-10.247
▁code	-10.2473
tiendo	-10.2491
▁evidence	-10.2493
▁asunto	-10.2493
▁engage	-10.2494
ught	-10.2495
▁prevent	-10.2497
▁Maybe	-10.2512
▁sun	-10.2512
▁showing	-10.2518
▁Ven	-10.2523
▁exciting	-10.2529
▁convierte	-10.253
▁nacional	-10.2531
▁desarrollar	-10.2533
▁direction	-10.2535
▁materials	-10.2547
▁offer	-10.2548
ció	-10.2552
▁capa	-10.256
▁trip	-10.2561
▁achieve	-10.2566
▁promedio	-10.2566
gún	-10.2568
▁hogar	-10.257
▁brillante	-10.257
▁veo	-10.2572
▁diría	-10.2577
▁pesca	-10.2584
▁define	-10.2584
▁positive	-10.2604
▁universidad	-10.2604
▁400	-10.2605
▁agree	-10.2607
▁position	-10.2614
▁ocho	-10.2623
▁caja	-10.2627
omics	-10.2628
▁usan	-10.2629
▁Th	-10.2635
▁respira	-10.2641
▁labor	-10.2648
▁buenos	-10.2648
▁conocer	-10.2649
▁cub	-10.2655
▁Están	-10.2667
▁groups	-10.2676
vier	-10.2677
▁técnica	-10.2678
▁sucedió	-10.2678
▁improve	-10.2678
▁montaña	-10.2679
▁quisiera	-10.2679
▁pensaba	-10.268
▁block	-10.268
▁comprender	-10.268
ified	-10.2696
▁invest	-10.2698
▁Dan	-10.2702
▁casos	-10.271
▁consecuencia	-10.2716
▁extraordinary	-10.2716
▁cielo	-10.2716
▁check	-10.2716
▁recordar	-10.2717
▁puesto	-10.2718
▁guard	-10.2719
▁correcto	-10.272
▁count	-10.2737
▁detect	-10.2742
▁carry	-10.2742
▁hall	-10.2744
▁fre	-10.275
▁author	-10.2754
▁journey	-10.2754
▁trust	-10.2754
▁elimina	-10.2754
▁pin	-10.2754
▁context	-10.2754
▁Che	-10.2769
▁cent	-10.2773
▁libertad	-10.2792
▁explore	-10.2792
▁successful	-10.2793
▁finger	-10.2795
▁detalle	-10.2795
▁mejorar	-10.2799
▁negocios	-10.2805
íamos	-10.281
▁desarrolla	-10.2811
▁Even	-10.2812
▁His	-10.2813
▁near	-10.2817
▁chica	-10.2821
▁beneficio	-10.283
▁First	-10.283
▁balance	-10.283
▁maestro	-10.283
▁detrás	-10.283
▁extraño	-10.2831
▁throw	-10.2831
ólogo	-10.2832
▁moved	-10.2832
▁hot	-10.2841
▁walking	-10.2842
▁crime	-10.2846
▁áreas	-10.2859
▁estudios	-10.2861
▁circuit	-10.2868
▁galaxia	-10.2868
▁superior	-10.2868
▁treatment	-10.2873
▁metal	-10.2874
▁reto	-10.2875
▁—	-10.2878
▁computadoras	-10.2887
pping	-10.2887
win	-10.2906
▁pun	-10.2906
▁Einstein	-10.2906
▁creature	-10.2906
▁anterior	-10.2906
▁proyectos	-10.2911
▁usamos	-10.2911
▁onto	-10.2922
▁tool	-10.2932
▁involucra	-10.2945
▁progress	-10.2945
▁propiedad	-10.2945
▁viejo	-10.2945
▁150	-10.2948
▁farm	-10.2949
▁"¡	-10.2951
▁innovación	-10.2955
flu	-10.2955
▁wait	-10.2956
▁decide	-10.2962
▁vive	-10.2972
▁ocupa	-10.2984
▁North	-10.2984
▁drop	-10.2985
ví	-10.2993
▁Au	-10.3
▁games	-10.3008
▁conflict	-10.3012
bio	-10.3014
▁flor	-10.3019
▁hour	-10.302
▁disponible	-10.3022
▁imposible	-10.3022
▁mountain	-10.3022
▁audiencia	-10.3022
▁conocido	-10.3022
▁everywhere	-10.3024
▁comunicación	-10.3027
▁named	-10.303
▁hija	-10.3034
▁dance	-10.3036
▁obten	-10.3048
▁mono	-10.3049
▁rev	-10.3056
oh	-10.3059
▁perspective	-10.3061
▁security	-10.3061
▁bunch	-10.3061
izada	-10.3068
▁Fe	-10.3074
▁qua	-10.3078
▁debate	-10.3081
▁construcción	-10.3082
▁escuelas	-10.3092
▁calor	-10.3093
▁fan	-10.3094
▁Washington	-10.31
▁conferencia	-10.31
▁estilo	-10.3102
▁intent	-10.3104
dió	-10.3105
▁extremely	-10.3107
▁foot	-10.3109
cuerda	-10.3113
puesta	-10.3132
▁creen	-10.3135
▁decirles	-10.3138
▁sleep	-10.3139
▁equal	-10.3139
zi	-10.3143
▁teacher	-10.3145
▁perro	-10.3157
▁minute	-10.3169
▁Wal	-10.3176
▁please	-10.3179
▁Había	-10.3179
ografía	-10.3179
▁medicine	-10.3191
▁signal	-10.3196
▁podían	-10.3204
▁totally	-10.3205
▁plants	-10.321
▁35	-10.3212
▁ref	-10.3217
▁cross	-10.3219
▁series	-10.322
▁particularly	-10.323
▁fix	-10.3258
▁supposed	-10.3269
▁Pen	-10.3289
▁junto	-10.3292
▁quality	-10.3298
▁levanta	-10.3298
▁notice	-10.33
▁ball	-10.3304
▁fit	-10.3308
▁sentado	-10.331
tory	-10.3315
▁llamar	-10.3318
▁forest	-10.3321
▁MIT	-10.3338
▁account	-10.3338
▁cerebral	-10.3338
▁canción	-10.3339
▁conocí	-10.3349
▁preguntar	-10.335
ude	-10.3354
▁Gi	-10.3358
▁mirando	-10.3359
tz	-10.3374
▁dia	-10.3376
▁secuencia	-10.3378
Sí	-10.338
▁rise	-10.3382
▁sky	-10.3387
▁sat	-10.3396
mission	-10.3398
sible	-10.3401
▁chicos	-10.3402
▁ofrece	-10.341
▁card	-10.3413
▁student	-10.3417
▁Charles	-10.3418
▁viento	-10.3419
▁search	-10.3419
▁conversation	-10.342
▁communication	-10.3423
▁Ben	-10.3424
▁cab	-10.3429
▁insect	-10.3433
▁emotion	-10.3438
▁trial	-10.3438
▁gasta	-10.345
▁national	-10.3453
▁distinto	-10.3458
▁tradicional	-10.3459
▁Israel	-10.3459
▁remain	-10.3459
▁pobreza	-10.346
We	-10.346
▁aware	-10.3461
▁encontré	-10.3463
▁quiera	-10.3464
▁Podría	-10.3468
▁cook	-10.3469
▁versión	-10.3482
▁imagina	-10.3482
▁estrellas	-10.3491
▁combustible	-10.3499
▁geo	-10.3502
▁scan	-10.3515
▁Chi	-10.352
▁inspira	-10.3521
▁miembro	-10.354
▁beauty	-10.354
▁sensación	-10.354
▁científico	-10.3544
▁conecta	-10.3547
▁dirigi	-10.3549
▁conflicto	-10.3555
tract	-10.3556
▁alimentos	-10.3576
▁principle	-10.3581
▁wife	-10.3581
▁invisible	-10.3581
▁identifica	-10.3581
▁podamos	-10.3581
▁grew	-10.3584
▁perform	-10.3584
▁train	-10.3586
▁chino	-10.3587
▁resist	-10.3592
▁allowed	-10.3593
▁cuánto	-10.3595
▁contexto	-10.3622
▁empezó	-10.3622
▁temperatura	-10.3622
▁biggest	-10.3622
▁shift	-10.3622
▁contenido	-10.3622
▁repente	-10.3625
▁Necesitamos	-10.3625
▁poverty	-10.3629
▁Soy	-10.3629
▁buscando	-10.3632
▁solamente	-10.3633
▁eje	-10.365
▁Times	-10.3652
▁connected	-10.366
▁After	-10.3663
▁complicated	-10.3666
▁creative	-10.3667
▁revela	-10.3667
▁bank	-10.3675
▁lower	-10.3691
▁scar	-10.3705
▁Mientras	-10.3705
▁necesario	-10.3705
▁Darwin	-10.3705
▁salvar	-10.3705
▁kilo	-10.3705
▁abandon	-10.3705
▁activity	-10.3705
entrepreneur	-10.3731
ick	-10.3732
▁pues	-10.3732
▁tele	-10.3734
ivers	-10.3735
▁funcionar	-10.3742
▁piel	-10.3743
▁belleza	-10.3747
▁temperature	-10.3747
▁coopera	-10.3747
▁survive	-10.3747
▁llena	-10.3747
▁redes	-10.375
▁acción	-10.375
▁espero	-10.3752
▁astro	-10.3756
▁partner	-10.3757
Si	-10.3762
craft	-10.3766
▁creer	-10.3767
▁aprende	-10.3778
berg	-10.3783
▁conjunto	-10.3788
▁pública	-10.3788
▁eventually	-10.3788
▁website	-10.3789
▁convince	-10.3789
▁fill	-10.379
▁standard	-10.379
▁tuvimos	-10.3797
▁objects	-10.3801
▁Look	-10.3805
▁hubo	-10.3807
▁paz	-10.3813
▁humanidad	-10.3815
▁empezamos	-10.383
▁depende	-10.3831
▁Second	-10.3831
▁suelo	-10.3833
▁entorno	-10.3833
ividad	-10.3836
▁essentially	-10.3836
▁jump	-10.3837
ani	-10.384
▁Tal	-10.3842
▁tree	-10.3846
▁darles	-10.3846
▁ready	-10.3847
▁invita	-10.3848
▁enviar	-10.385
▁higher	-10.3851
▁male	-10.3855
▁mayores	-10.3858
▁relaciona	-10.3864
▁democracia	-10.3873
▁return	-10.3873
▁profundo	-10.3873
▁cuarto	-10.3873
▁hermoso	-10.3874
▁hagan	-10.3883
▁permitir	-10.3884
▁km	-10.3885
▁meeting	-10.3911
▁llegó	-10.3915
▁bosque	-10.3916
▁pintura	-10.3916
▁obviamente	-10.3917
▁above	-10.3918
▁solía	-10.3919
▁suddenly	-10.3922
▁watching	-10.3927
iste	-10.3931
▁pack	-10.3938
▁painting	-10.3941
▁vio	-10.3952
org	-10.3953
▁George	-10.3958
▁charge	-10.3958
▁encima	-10.3959
▁killed	-10.3959
▁Muy	-10.3967
▁teachers	-10.3974
▁tocar	-10.3992
▁Fin	-10.3995
▁suma	-10.3997
▁Mil	-10.4
▁divid	-10.4
▁arquitectura	-10.4
▁interés	-10.4002
▁taught	-10.4002
▁revolución	-10.4004
▁traditional	-10.401
▁mío	-10.4011
▁99	-10.4016
▁Otra	-10.4026
tada	-10.4027
▁Mal	-10.4033
▁respect	-10.4036
▁Which	-10.4043
▁economist	-10.4043
▁útil	-10.4043
▁famous	-10.4043
▁National	-10.4043
▁threat	-10.4043
▁rural	-10.4044
▁task	-10.4044
▁Gra	-10.4049
cado	-10.4058
▁habilidad	-10.4058
▁deliver	-10.4059
▁rico	-10.4064
▁árboles	-10.4069
▁rule	-10.407
bb	-10.407
▁convertir	-10.4084
▁democracy	-10.4086
▁criatura	-10.4086
▁esfuerzo	-10.4086
▁límite	-10.4086
▁Nunca	-10.4086
▁wave	-10.4087
ciente	-10.4088
lock	-10.4091
▁malaria	-10.4091
▁norte	-10.4094
▁likely	-10.41
▁líderes	-10.4103
▁reform	-10.4105
▁valores	-10.4106
▁argument	-10.4117
▁instrument	-10.4119
▁finding	-10.4126
▁architect	-10.413
▁reducir	-10.4133
▁rodea	-10.4135
▁burn	-10.4154
▁carbono	-10.4167
▁evidencia	-10.4173
▁prison	-10.4173
▁patrones	-10.4173
▁conciencia	-10.4173
▁honor	-10.4173
▁avión	-10.4175
▁convert	-10.4175
▁Tienen	-10.4179
▁leaders	-10.418
▁military	-10.4188
▁tasa	-10.4189
▁informa	-10.4193
view	-10.4196
▁ended	-10.4199
▁critical	-10.4203
▁evitar	-10.4209
▁Quizá	-10.4217
▁college	-10.4217
▁practice	-10.4217
▁contamina	-10.4217
▁hermano	-10.4217
▁enjoy	-10.4218
▁plazo	-10.4219
▁led	-10.4221
▁largest	-10.4223
▁cur	-10.4224
▁morir	-10.4229
▁personaje	-10.423
▁tendrá	-10.4246
▁caminar	-10.4247
ería	-10.425
▁Tim	-10.4251
▁park	-10.426
▁tejido	-10.4261
▁enfoque	-10.4261
▁tuviera	-10.4261
▁Anderson	-10.4261
▁somewhere	-10.4266
▁wide	-10.4267
▁somehow	-10.4269
▁fuel	-10.4283
▁distintas	-10.4289
▁ideal	-10.4293
▁duda	-10.4294
▁Sol	-10.4296
cé	-10.4297
▁net	-10.4299
▁crazy	-10.4305
▁internacional	-10.4305
▁móvil	-10.4305
▁Michael	-10.4305
▁amenaza	-10.4305
▁decidí	-10.4305
▁relaciones	-10.4305
▁propósito	-10.4306
▁tendencia	-10.4308
▁instala	-10.4309
▁reading	-10.4311
▁esperar	-10.4314
▁Sun	-10.4323
▁vaya	-10.4334
cida	-10.4342
cap	-10.4347
▁Facebook	-10.4349
▁square	-10.4349
▁Algunos	-10.4349
▁condiciones	-10.4349
▁esposa	-10.4349
▁indeed	-10.4352
▁regula	-10.4368
aging	-10.4372
▁trees	-10.4378
▁idioma	-10.4393
▁reflect	-10.4394
▁amplia	-10.4394
▁Life	-10.4398
▁diseñar	-10.4403
▁posibilidad	-10.4406
uro	-10.4411
▁transport	-10.4415
tón	-10.4429
▁tengan	-10.4429
damente	-10.4431
▁pig	-10.4434
▁doble	-10.4435
▁climático	-10.4438
▁written	-10.4438
▁conmigo	-10.4438
▁biología	-10.4439
▁profesor	-10.4451
arla	-10.4455
▁estudiar	-10.4469
▁band	-10.4472
▁mini	-10.4472
▁accident	-10.4473
▁City	-10.4479
▁accept	-10.4483
▁violencia	-10.4483
▁purpose	-10.4483
▁excited	-10.4483
▁cumpl	-10.4487
▁gráfico	-10.4492
▁Her	-10.4498
▁board	-10.4508
iéramos	-10.4512
▁45	-10.4516
just	-10.452
▁gradu	-10.4524
▁impossible	-10.4528
▁manipula	-10.4528
▁próxima	-10.4528
▁tienda	-10.4529
▁ambos	-10.4529
▁pet	-10.4529
▁alive	-10.4531
▁actor	-10.4538
▁smaller	-10.4545
▁meant	-10.4555
▁faster	-10.4557
grade	-10.4558
▁novel	-10.4561
▁funcione	-10.4567
▁comienzo	-10.4573
▁horrible	-10.4573
▁ingeniero	-10.4573
▁responsabilidad	-10.4573
▁NASA	-10.4573
▁surprise	-10.4573
▁cheap	-10.4573
▁wild	-10.4573
▁yeah	-10.4574
▁window	-10.4574
▁rojo	-10.4582
▁texto	-10.4585
▁Indian	-10.4592
▁older	-10.4592
▁darle	-10.4617
▁estable	-10.4618
▁exhibi	-10.4619
▁okay	-10.4619
▁herramienta	-10.4619
▁hermosa	-10.462
▁Ph	-10.462
▁lesson	-10.4622
▁listening	-10.4657
water	-10.4661
▁venir	-10.4662
▁exterior	-10.4664
▁address	-10.4664
▁shot	-10.4665
▁zero	-10.4666
▁prefer	-10.4666
▁letter	-10.4669
▁señor	-10.4673
▁spin	-10.4675
▁vienen	-10.4685
▁math	-10.4688
▁Big	-10.4693
quen	-10.4695
▁completa	-10.4705
▁dig	-10.4709
▁agujero	-10.471
▁enormous	-10.471
▁including	-10.471
▁llamo	-10.471
▁plástico	-10.471
▁studies	-10.471
▁floor	-10.471
▁worse	-10.471
▁colega	-10.471
▁television	-10.471
▁launch	-10.4711
▁anywhere	-10.4712
▁fight	-10.4736
▁organ	-10.4738
▁hablamos	-10.4744
▁agrega	-10.4744
▁upon	-10.4749
▁communities	-10.4756
▁fantastic	-10.4756
▁producción	-10.4756
▁statistic	-10.4756
▁admit	-10.4757
▁crece	-10.4757
▁himself	-10.4758
lig	-10.4762
▁verdadero	-10.4763
▁evento	-10.4779
politics	-10.4783
▁perdido	-10.4803
▁laptop	-10.4803
▁visita	-10.4805
▁physics	-10.4809
▁standing	-10.481
▁heat	-10.4822
▁roll	-10.4827
off	-10.4833
▁autor	-10.4837
▁Bra	-10.4843
▁Incluso	-10.4849
▁económica	-10.4849
▁frecuencia	-10.4849
▁químico	-10.4849
▁truly	-10.4849
▁genoma	-10.4849
▁memoria	-10.4849
▁instance	-10.4849
▁sangre	-10.4849
▁fat	-10.485
▁copia	-10.4854
▁presenta	-10.4859
▁verán	-10.4865
▁introduc	-10.4869
▁Iraq	-10.4874
▁comunidades	-10.4884
Mi	-10.4887
front	-10.489
▁limita	-10.4891
cita	-10.4891
▁ship	-10.4892
▁climb	-10.4896
▁particle	-10.4896
▁genética	-10.4897
▁absolutamente	-10.4898
▁electricidad	-10.4898
▁larger	-10.4899
▁peces	-10.4903
del	-10.4908
▁range	-10.4914
▁replica	-10.4917
▁shown	-10.4925
▁environmental	-10.4939
▁crecer	-10.4942
▁international	-10.4943
▁tampoco	-10.4943
▁sequence	-10.4943
▁pierna	-10.4943
▁segura	-10.4943
char	-10.4949
▁conditions	-10.4954
▁creativity	-10.4956
▁trick	-10.4957
▁press	-10.4969
▁viven	-10.4973
▁deberían	-10.4973
▁trade	-10.498
▁profunda	-10.4983
cina	-10.4988
▁observar	-10.499
▁choose	-10.499
▁divertido	-10.499
▁mezcla	-10.499
Quién	-10.499
▁protein	-10.499
▁dangerous	-10.499
▁policy	-10.4991
▁town	-10.4999
▁creemos	-10.5011
▁pagar	-10.5013
▁increíblemente	-10.5014
▁nuevamente	-10.5019
ieran	-10.5023
▁conduct	-10.5026
▁sorprend	-10.5026
board	-10.5031
▁tira	-10.5031
▁expensive	-10.5037
▁glass	-10.5038
▁habrá	-10.504
▁probar	-10.5041
▁volar	-10.5044
▁gira	-10.5048
▁evoluciona	-10.5055
adora	-10.5062
▁citizen	-10.5085
▁kept	-10.5085
▁parecía	-10.5085
▁breve	-10.5085
nny	-10.5102
▁estadounidenses	-10.5131
▁rota	-10.5132
▁requiere	-10.5133
▁trouble	-10.5133
▁typical	-10.5133
▁shark	-10.5133
▁Those	-10.5133
▁extremo	-10.5133
▁cama	-10.5135
▁utilizar	-10.5145
▁bru	-10.5149
▁carta	-10.5158
▁banda	-10.516
▁training	-10.5164
▁cero	-10.5172
▁Qu	-10.518
▁influence	-10.5181
▁comencé	-10.5181
▁Another	-10.5181
▁droga	-10.5181
▁blind	-10.5181
lico	-10.5181
▁debajo	-10.5182
▁firm	-10.5184
En	-10.5187
▁compren	-10.5205
fund	-10.5215
▁dimension	-10.5225
▁Wikipedia	-10.5229
▁aprendizaje	-10.5229
▁genome	-10.5229
▁James	-10.523
▁Realmente	-10.5232
▁bone	-10.5238
▁conocemos	-10.5239
iano	-10.524
▁centra	-10.5245
▁especialmente	-10.5245
▁rain	-10.5246
▁apare	-10.5247
▁serve	-10.5267
▁financi	-10.527
▁teaching	-10.5272
▁VIH	-10.5278
▁cirugía	-10.5278
▁earlier	-10.5278
▁soluciones	-10.5278
▁etapa	-10.5278
▁aproximadamente	-10.5278
▁ataque	-10.528
▁menor	-10.5285
▁usually	-10.5285
▁mix	-10.5288
▁medir	-10.5289
▁desarrollado	-10.5296
▁ingresos	-10.5298
▁complete	-10.5317
▁ido	-10.532
▁Twitter	-10.5326
▁bloque	-10.5326
▁monitor	-10.5327
▁spot	-10.5327
▁sentimiento	-10.5328
▁contarles	-10.5334
▁anyway	-10.5335
▁Ver	-10.5342
▁barco	-10.5346
▁orient	-10.5348
ik	-10.5352
▁estudiante	-10.5357
Me	-10.5362
place	-10.5363
▁vaca	-10.5366
plan	-10.5372
▁effort	-10.5375
▁daughter	-10.5375
▁Robert	-10.5376
▁unique	-10.5376
▁hair	-10.5377
▁remind	-10.5377
▁electricity	-10.5378
▁vale	-10.5381
▁Like	-10.5383
▁conference	-10.5391
▁célula	-10.5406
▁forth	-10.5411
▁chip	-10.5418
▁significant	-10.5419
▁disfrut	-10.5425
▁ingredient	-10.5425
▁profesional	-10.5425
▁procesa	-10.5434
▁cold	-10.5438
▁greater	-10.5445
▁administra	-10.5448
▁nano	-10.5449
▁regular	-10.5453
▁rid	-10.5456
▁Red	-10.5464
▁química	-10.5474
▁ignora	-10.5474
▁molecular	-10.5474
▁olvida	-10.5474
▁freedom	-10.5474
▁therefore	-10.5474
▁descubrimiento	-10.5475
read	-10.5478
uch	-10.548
▁instrumento	-10.5486
▁skills	-10.5489
quí	-10.5492
▁healthy	-10.5493
▁TEDx	-10.5493
▁perder	-10.5497
▁clima	-10.5511
▁narra	-10.5523
▁inteligencia	-10.5524
▁opinión	-10.5524
▁cultiva	-10.5524
▁proteger	-10.5524
▁anymore	-10.5524
▁contain	-10.5525
▁supone	-10.5525
▁directamente	-10.5525
▁2000	-10.5529
▁corner	-10.5529
▁active	-10.5533
pero	-10.5535
Le	-10.5552
▁cambiado	-10.556
▁transforma	-10.5569
Ma	-10.5571
leta	-10.5573
▁afford	-10.5574
▁búsqueda	-10.5574
▁científica	-10.5574
▁surprising	-10.5574
▁vuelo	-10.5574
▁colleague	-10.5574
▁confianza	-10.5574
▁proteína	-10.5574
▁dibuja	-10.5574
▁cast	-10.5598
▁hor	-10.5612
▁brother	-10.5624
▁celular	-10.5624
▁carne	-10.5626
▁relative	-10.5628
▁ventana	-10.5635
▁invented	-10.5636
▁player	-10.565
education	-10.5655
▁origin	-10.5657
▁humanity	-10.5659
▁trabajado	-10.5667
▁tercera	-10.567
▁Thomas	-10.5675
▁drink	-10.5675
psychology	-10.5675
▁ensayo	-10.5675
▁muscle	-10.5675
▁joy	-10.5675
gger	-10.5679
▁walked	-10.5683
▁lin	-10.5684
▁extraordinario	-10.5686
▁performance	-10.5687
▁Nu	-10.5692
mark	-10.5699
▁US	-10.5702
▁diseña	-10.5704
▁epi	-10.571
▁race	-10.5711
▁tomamos	-10.5716
▁Sur	-10.5725
▁Mundial	-10.5725
▁University	-10.5725
▁fenómeno	-10.5725
▁private	-10.5726
▁worry	-10.5726
▁Primero	-10.5726
▁earth	-10.5726
▁prior	-10.5727
▁cura	-10.5729
▁muere	-10.5735
▁pilot	-10.5736
▁income	-10.5737
▁comparte	-10.574
▁10,000	-10.5743
▁pena	-10.5768
▁mom	-10.5771
▁Harvard	-10.5777
▁complejidad	-10.5777
▁remarkable	-10.5777
▁spoke	-10.5777
▁rapid	-10.5778
¿	-10.5782
tiene	-10.5786
▁manda	-10.5787
▁emotional	-10.5803
▁secreto	-10.5808
▁militar	-10.5811
▁Ten	-10.5812
social	-10.5813
▁prima	-10.5827
▁sencilla	-10.5828
▁agricultura	-10.5828
▁región	-10.5828
▁limpia	-10.5828
▁ruido	-10.5828
▁Western	-10.5828
▁civilization	-10.5829
▁Imagine	-10.583
▁extraña	-10.583
▁immediately	-10.5831
▁pobre	-10.5835
▁curso	-10.584
▁suficientemente	-10.5848
▁Rob	-10.585
▁revista	-10.5852
▁bin	-10.5852
▁hecha	-10.5859
▁africano	-10.5879
▁conexión	-10.5879
hand	-10.5884
▁dispara	-10.5884
▁violence	-10.5886
▁hotel	-10.5886
▁Arab	-10.5894
▁haría	-10.5898
▁peso	-10.5905
▁creatividad	-10.5931
▁escribió	-10.5931
▁hormiga	-10.5931
▁Universo	-10.5931
▁Frank	-10.5931
▁cadena	-10.5931
▁pudo	-10.5931
▁provoca	-10.5931
▁Norte	-10.5933
▁internet	-10.5934
▁flying	-10.5934
▁trabaja	-10.5935
▁specific	-10.5937
▁following	-10.5941
▁Ah	-10.5944
▁serán	-10.5962
▁vast	-10.5962
▁tí	-10.5965
▁controlar	-10.5967
▁América	-10.5983
▁Siempre	-10.5983
▁reserva	-10.5983
▁órgano	-10.5983
▁mistake	-10.5983
▁estadística	-10.5983
▁decisión	-10.5984
▁consciente	-10.5985
▁catch	-10.5997
▁evolved	-10.5999
▁golpe	-10.6021
▁piso	-10.6021
cker	-10.6033
▁funcionan	-10.6035
▁increasing	-10.6036
▁vehicle	-10.6036
▁felices	-10.6036
▁various	-10.6036
▁babies	-10.6036
▁summer	-10.6036
▁asegurar	-10.6036
▁biological	-10.6036
▁observ	-10.6036
▁apoya	-10.6037
▁tomó	-10.6039
▁celebra	-10.6039
▁boca	-10.604
roll	-10.6047
▁Duran	-10.6051
▁vital	-10.6053
▁asocia	-10.6054
▁clearly	-10.606
vu	-10.6061
▁spa	-10.6078
▁advance	-10.6088
▁fragment	-10.6088
▁sucediendo	-10.6088
▁vehículo	-10.6088
▁paradigm	-10.6088
▁weapon	-10.6088
▁London	-10.6089
▁clip	-10.6089
▁cola	-10.6092
▁financial	-10.6094
▁throughout	-10.6095
▁fold	-10.6108
▁árbol	-10.6109
▁75	-10.6123
▁Australia	-10.6141
▁Universidad	-10.6141
▁driving	-10.6141
▁landscape	-10.6141
▁recuerdo	-10.6141
▁frustra	-10.6141
▁Two	-10.6141
▁vacuna	-10.6141
▁convirtió	-10.6142
▁column	-10.6142
▁contact	-10.6144
▁massive	-10.6146
▁debía	-10.6152
▁gigante	-10.6152
▁organización	-10.6153
▁demand	-10.6153
▁vibra	-10.6155
▁layer	-10.6169
▁Afghanistan	-10.6194
▁dynamic	-10.6194
▁etiqueta	-10.6194
▁surgery	-10.6197
▁cuesta	-10.6197
▁encontrado	-10.62
▁minuto	-10.6204
▁23	-10.6225
graf	-10.6229
▁engineering	-10.6237
▁parecen	-10.6241
▁diapositiva	-10.6248
▁disappear	-10.6248
▁método	-10.6248
▁occidental	-10.6248
▁abstract	-10.6248
▁pressure	-10.6248
▁becoming	-10.6249
▁funny	-10.6249
▁verano	-10.6249
▁reciente	-10.6252
▁alter	-10.6261
▁Inter	-10.6263
dimensional	-10.6269
▁paint	-10.6274
▁veía	-10.6277
▁posición	-10.6278
▁pesa	-10.6281
cierto	-10.6283
▁regresar	-10.6284
▁noticia	-10.6286
pped	-10.6295
▁contacto	-10.6299
▁ingeniería	-10.6302
▁circle	-10.6302
▁tissue	-10.6302
▁tremendous	-10.6303
▁abrir	-10.6305
▁pedir	-10.6305
▁Fui	-10.6306
▁poderosa	-10.6307
▁police	-10.6307
▁camina	-10.6314
▁continent	-10.6321
▁politics	-10.6324
▁quick	-10.6331
▁introduce	-10.6333
▁boat	-10.6338
house	-10.6344
▁YouTube	-10.6356
▁correspond	-10.6356
▁período	-10.6356
▁pregunté	-10.6356
▁piensen	-10.6356
▁antiguo	-10.6356
▁violent	-10.6356
▁random	-10.6356
▁conectar	-10.6358
rico	-10.6361
▁neurons	-10.6361
▁mover	-10.6371
▁aprendí	-10.6375
▁production	-10.6375
▁birth	-10.6409
▁kilómetros	-10.641
▁understood	-10.641
▁email	-10.641
▁ritmo	-10.641
▁Green	-10.641
▁bridge	-10.6411
▁aprendido	-10.6417
ándolo	-10.6418
▁descubr	-10.642
▁Saben	-10.6425
▁cita	-10.6425
▁niveles	-10.6431
▁damos	-10.6445
▁conoce	-10.645
▁pase	-10.6452
▁atmósfera	-10.6465
▁característica	-10.6465
▁include	-10.6465
▁double	-10.6465
▁ciclo	-10.6465
▁aumento	-10.6465
▁menciona	-10.6466
▁aleja	-10.647
▁significado	-10.647
▁complexity	-10.6471
▁fascinante	-10.6472
▁Human	-10.6472
▁passion	-10.6473
▁Medio	-10.6474
▁contrario	-10.6474
▁llegado	-10.6475
▁reun	-10.6477
bling	-10.6477
▁alcanzar	-10.6486
▁miramos	-10.6494
▁waiting	-10.6503
▁habilidades	-10.6506
▁interesado	-10.6513
▁probable	-10.6517
▁vivimos	-10.652
▁acelera	-10.652
▁organiza	-10.652
▁edge	-10.6521
▁implant	-10.6521
▁receive	-10.6521
▁brand	-10.6522
▁weight	-10.6527
▁revis	-10.6528
▁separate	-10.6532
human	-10.6545
▁due	-10.656
▁Sch	-10.6571
stitution	-10.6572
▁subir	-10.6573
▁empezando	-10.6575
▁televisión	-10.6575
▁elegir	-10.6575
▁oscura	-10.6575
▁Street	-10.6575
▁Pues	-10.6577
▁saving	-10.6579
▁señales	-10.6581
▁mode	-10.6583
▁colores	-10.6583
▁pasión	-10.6584
▁hará	-10.659
▁coloca	-10.6602
▁creación	-10.6603
▁acto	-10.6603
▁corto	-10.6617
▁Art	-10.662
▁vote	-10.6627
▁career	-10.6629
▁families	-10.663
▁atmosphere	-10.663
▁verdadera	-10.6631
▁oportunidades	-10.6665
▁Asi	-10.6667
bran	-10.6671
where	-10.6674
▁Ok	-10.6676
▁although	-10.6686
▁intercambi	-10.6686
▁religión	-10.6686
▁mosquito	-10.6686
▁sobrevivir	-10.6686
▁straight	-10.6686
▁airplane	-10.6686
▁implement	-10.6686
▁bodies	-10.6686
▁Francisco	-10.6688
▁planta	-10.6689
▁tribu	-10.6692
▁flight	-10.6692
▁useful	-10.6706
▁escuchado	-10.6712
right	-10.6718
wood	-10.6723
Puede	-10.6723
How	-10.6727
▁Habl	-10.6734
▁comunica	-10.6735
▁lengua	-10.6741
▁Middle	-10.6742
▁intelligence	-10.6742
▁oxygen	-10.6742
▁Nuestro	-10.6742
▁obliga	-10.6742
▁gravit	-10.6742
▁asteroid	-10.6743
▁policía	-10.6743
▁expresa	-10.6744
▁Otro	-10.6744
ciendo	-10.6745
▁aldea	-10.6745
▁neuronas	-10.6745
▁blow	-10.6746
▁Ahí	-10.6749
▁AB	-10.6749
▁2008	-10.675
▁wire	-10.6754
▁match	-10.6756
▁inspired	-10.6756
Te	-10.6757
▁engine	-10.6758
▁instant	-10.6758
▁función	-10.6765
▁cine	-10.6773
▁shop	-10.6774
▁presión	-10.6774
business	-10.678
book	-10.6789
▁bra	-10.6793
▁Pienso	-10.6799
▁puzzle	-10.6799
▁rostro	-10.6799
▁volume	-10.6799
▁Más	-10.68
▁humor	-10.6809
▁May	-10.681
▁responder	-10.6811
▁Island	-10.6814
▁matar	-10.6816
▁emit	-10.6817
▁pop	-10.6835
music	-10.6838
▁possibly	-10.6856
▁Ustedes	-10.6856
▁dibujo	-10.6856
▁profound	-10.6856
▁article	-10.6856
▁probabilidad	-10.6856
▁restaurant	-10.6856
▁interview	-10.6858
▁cruza	-10.6858
▁verse	-10.686
▁opciones	-10.6863
gh	-10.6863
▁hacerse	-10.6876
gio	-10.6877
▁necesidad	-10.6881
▁muestran	-10.6891
▁poli	-10.6893
self	-10.6896
▁tax	-10.6902
▁22	-10.6904
▁recupera	-10.6906
▁fail	-10.6908
▁focused	-10.6911
▁estrategia	-10.6913
▁estuviera	-10.6913
▁medicamento	-10.6913
▁opinion	-10.6913
▁surround	-10.6913
▁misterio	-10.6913
▁XX	-10.6913
▁aparato	-10.6913
▁estuve	-10.6914
▁escena	-10.6915
▁emocional	-10.6917
well	-10.6921
▁harm	-10.6926
▁disco	-10.6936
▁diseñado	-10.694
▁continuar	-10.6943
▁greatest	-10.6944
▁silla	-10.6946
Why	-10.6951
▁Van	-10.6956
▁obvious	-10.696
▁rápida	-10.6963
▁colabora	-10.6964
▁played	-10.6965
Q	-10.6968
▁principales	-10.6969
▁puente	-10.697
▁symbol	-10.697
▁release	-10.697
▁memory	-10.697
▁000	-10.6971
▁express	-10.6972
▁forget	-10.6973
▁imita	-10.698
▁%	-10.6988
▁sister	-10.6989
▁computador	-10.6995
▁drawing	-10.7016
▁estén	-10.7024
▁technique	-10.7028
▁bottle	-10.7028
▁destroy	-10.7028
▁cycle	-10.7028
▁infantil	-10.7032
▁argue	-10.7032
▁barrio	-10.7033
▁polio	-10.7056
▁realizar	-10.7065
▁presentar	-10.7076
▁listo	-10.7086
▁commercial	-10.7086
▁consequence	-10.7086
▁partículas	-10.7086
▁pérdida	-10.7086
▁supply	-10.7086
▁arregl	-10.7086
storytelling	-10.7086
▁method	-10.7086
▁presta	-10.7088
▁percib	-10.7088
▁triste	-10.7091
▁frontera	-10.7092
▁Jack	-10.7103
▁traje	-10.7106
pper	-10.7112
▁diseñadores	-10.7113
▁techo	-10.7114
▁intento	-10.7117
▁reconocer	-10.7125
▁32	-10.7131
▁absoluto	-10.7145
▁oxígeno	-10.7145
▁compleja	-10.7145
▁damage	-10.7145
▁determine	-10.7145
▁600	-10.7145
▁wealth	-10.7146
▁golf	-10.7147
▁Today	-10.7149
▁visible	-10.7149
▁versus	-10.715
▁station	-10.715
▁Marte	-10.7154
▁27	-10.7155
▁aplica	-10.7158
▁adultos	-10.7159
▁closer	-10.7163
▁mostraré	-10.7167
▁graph	-10.717
▁moda	-10.7176
▁explorar	-10.7177
▁alcanza	-10.718
▁apply	-10.7181
room	-10.7187
▁posibilidades	-10.7187
▁usado	-10.7189
▁traer	-10.719
liz	-10.7191
▁exact	-10.72
▁beat	-10.72
agra	-10.72
▁Básicamente	-10.7204
▁cambió	-10.7204
▁círculo	-10.7204
▁relevant	-10.7204
▁switch	-10.7204
▁usuario	-10.7204
▁café	-10.7204
▁German	-10.7204
▁arrive	-10.7204
▁distance	-10.7204
▁sample	-10.7204
▁premio	-10.7204
▁Existe	-10.7205
▁conversación	-10.7206
▁bought	-10.7207
▁habitación	-10.721
▁curva	-10.7212
▁complicado	-10.7215
▁produced	-10.7218
80	-10.722
▁loved	-10.7222
▁sad	-10.7223
▁speaking	-10.7225
▁directly	-10.7228
ándole	-10.7234
▁consume	-10.7237
▁miran	-10.7241
▁vender	-10.7245
▁fascina	-10.7252
▁consumer	-10.7262
▁neighbor	-10.7263
▁Londres	-10.7263
▁influencia	-10.7263
▁río	-10.7263
▁frase	-10.7264
▁Good	-10.7264
▁Miren	-10.7265
▁hueso	-10.7265
▁verdaderamente	-10.7271
▁radi	-10.7272
▁construye	-10.7275
▁sexo	-10.7278
▁dieron	-10.7287
▁Any	-10.7291
▁whi	-10.7303
▁trabajan	-10.7306
▁Chicago	-10.7322
▁breast	-10.7322
▁vulnerable	-10.7322
▁ésto	-10.7322
▁failure	-10.7322
▁shock	-10.7322
▁piedra	-10.7323
▁captura	-10.7324
▁emocionante	-10.7327
▁claramente	-10.7327
▁acá	-10.7328
▁poderoso	-10.7328
▁daño	-10.7329
▁Ésta	-10.7332
▁presentación	-10.7342
▁recibir	-10.7344
ístico	-10.735
▁editor	-10.7353
▁below	-10.7367
▁construct	-10.7378
▁leyes	-10.7379
▁fashion	-10.7382
▁Think	-10.7382
▁absorb	-10.7382
Cuánto	-10.7382
ística	-10.7388
▁bomba	-10.7389
▁hoja	-10.7399
ition	-10.7401
▁iron	-10.7404
▁conduci	-10.7413
Pero	-10.7435
▁arquitecto	-10.7442
▁communicate	-10.7442
▁feature	-10.7442
▁jamás	-10.7442
▁paisaje	-10.7442
▁sencillo	-10.7442
▁twice	-10.7442
▁circula	-10.7442
▁emociones	-10.7442
▁entiende	-10.7442
▁nueve	-10.7443
▁diagram	-10.7444
▁Oriente	-10.7445
▁dando	-10.7449
▁capacity	-10.7453
▁digamos	-10.7457
▁definición	-10.7457
izo	-10.7463
▁eating	-10.7472
▁moon	-10.7483
verdad	-10.7484
▁básica	-10.7496
▁terrorism	-10.7501
He	-10.7502
▁Afganistán	-10.7503
▁belief	-10.7503
▁inferior	-10.7503
▁apoyo	-10.7503
▁From	-10.7503
▁pierde	-10.7506
▁basis	-10.7511
▁miren	-10.7514
▁paid	-10.7518
ibilidad	-10.7519
▁recent	-10.7521
▁extraordinaria	-10.7526
ificación	-10.7556
▁conocen	-10.7558
▁fábrica	-10.7564
▁interface	-10.7564
▁mobile	-10.7564
▁Muchos	-10.7564
▁estadounidense	-10.7569
▁Bush	-10.7571
gencia	-10.7572
▁replace	-10.7576
▁desire	-10.7586
▁attract	-10.7588
▁tomando	-10.7595
▁reward	-10.7598
▁necesitaba	-10.7599
▁locales	-10.76
ptic	-10.7603
▁gain	-10.7604
▁fuimos	-10.7607
▁sand	-10.7609
To	-10.761
presión	-10.7621
▁decían	-10.7624
▁silencio	-10.7625
▁aborda	-10.7625
▁neighborhood	-10.7625
▁custom	-10.7626
▁female	-10.7626
▁bread	-10.7627
▁Whit	-10.7628
▁sentía	-10.7629
▁intentando	-10.7642
▁atrapa	-10.7645
▁mission	-10.7657
▁hearing	-10.7659
▁mark	-10.7663
▁refer	-10.7665
▁sick	-10.7673
vision	-10.7674
▁Bur	-10.7683
▁target	-10.7687
▁Kenya	-10.7687
▁parecido	-10.7687
▁espacial	-10.7687
▁mamá	-10.7687
▁Nadie	-10.7687
▁hermana	-10.7688
▁apenas	-10.7688
▁vieron	-10.7691
▁mostly	-10.7691
▁AIDS	-10.7693
▁2007	-10.7694
▁recientemente	-10.7695
▁Bang	-10.7702
▁fija	-10.7706
▁chair	-10.7706
▁regresa	-10.7707
strucción	-10.7718
▁cabo	-10.7724
▁adolescent	-10.7749
▁dinámica	-10.7749
▁independiente	-10.7749
▁matemático	-10.7749
▁músculo	-10.7749
▁extremadamente	-10.7749
▁Algunas	-10.7749
▁sustainable	-10.7752
▁duro	-10.7756
▁shared	-10.7757
▁root	-10.7757
▁desert	-10.7758
▁scientist	-10.7759
▁diario	-10.7766
▁luna	-10.7772
▁nut	-10.7787
medicine	-10.7792
▁generate	-10.7807
▁Part	-10.7808
▁Nosotros	-10.7812
▁consumidor	-10.7812
▁eléctrica	-10.7812
▁iPhone	-10.7812
▁infrastructure	-10.7812
▁antigua	-10.7812
▁estuvo	-10.7812
▁Apple	-10.7813
▁favorito	-10.7814
▁enfoca	-10.7814
▁Éste	-10.7819
▁salió	-10.7823
▁professional	-10.7823
▁estrella	-10.7824
▁regla	-10.7824
pong	-10.7833
▁ski	-10.7838
▁actualmente	-10.7841
▁perfecto	-10.7842
▁moderno	-10.7844
▁normalmente	-10.7849
▁moderna	-10.7849
▁bill	-10.7849
▁creando	-10.7854
♫	-10.7855
▁pensado	-10.7864
▁Imaginen	-10.7872
▁Muslim	-10.7875
▁Nuestra	-10.7875
▁shoot	-10.7875
▁carbón	-10.7875
▁yellow	-10.7875
▁vieja	-10.7875
▁ancient	-10.7875
▁Guerra	-10.7876
▁tap	-10.7878
▁1,000	-10.7881
▁vertical	-10.7881
▁imagination	-10.7885
▁panel	-10.7891
▁quote	-10.7893
▁cue	-10.7899
▁65	-10.7903
▁broken	-10.7907
▁continente	-10.7915
para	-10.7926
▁operation	-10.7928
▁occur	-10.7936
▁metaphor	-10.7938
▁combine	-10.7938
▁piano	-10.7942
▁accidente	-10.7952
▁quiet	-10.7953
▁roja	-10.7959
▁punta	-10.7967
what	-10.7982
▁conectado	-10.7991
▁específica	-10.8002
▁fantástico	-10.8002
▁infraestructura	-10.8002
▁instituciones	-10.8002
▁responsibility	-10.8002
▁attempt	-10.8002
▁slightly	-10.8002
▁entrevista	-10.8002
▁lleno	-10.8002
▁consumo	-10.8002
▁remove	-10.8003
▁institutions	-10.8004
▁mantiene	-10.8005
▁sentence	-10.8005
▁peligroso	-10.8006
▁correct	-10.8007
▁flujo	-10.8007
▁gather	-10.8007
▁orbit	-10.8012
▁gotten	-10.8014
ography	-10.8016
▁definition	-10.8017
▁opción	-10.8022
▁equivoca	-10.8024
evolution	-10.8045
▁similares	-10.8049
Quiere	-10.805
abilidad	-10.8061
▁tren	-10.8064
▁errores	-10.8065
▁coffee	-10.8066
▁Sabemos	-10.8066
▁corriente	-10.8066
▁ahorra	-10.8066
▁Puedo	-10.8066
▁elección	-10.8066
▁collective	-10.8071
Ah	-10.8074
▁vía	-10.8076
burg	-10.8082
▁Sé	-10.8091
iento	-10.8097
cuál	-10.8113
▁tradition	-10.8115
▁spirit	-10.8129
scribe	-10.813
▁coordina	-10.813
▁alternative	-10.813
▁ambiental	-10.813
▁worst	-10.813
Dónde	-10.813
▁repeti	-10.8131
▁viola	-10.8133
▁workers	-10.8133
▁farmers	-10.8136
▁detener	-10.8136
▁stem	-10.8137
▁construido	-10.8143
▁Mark	-10.8147
▁ganado	-10.8152
▁Quería	-10.8157
▁ojo	-10.816
tial	-10.8166
▁lie	-10.818
▁possibility	-10.8195
▁importancia	-10.8195
▁Again	-10.8195
▁consciousness	-10.8196
▁avance	-10.8197
▁discut	-10.82
▁diversidad	-10.8202
▁interaction	-10.821
▁tomado	-10.8212
▁wood	-10.8218
▁comunes	-10.8219
▁diez	-10.8223
▁marcha	-10.8229
▁mad	-10.8233
▁dimensiones	-10.8239
▁delante	-10.8245
icamente	-10.8246
▁raro	-10.8246
aving	-10.825
▁correo	-10.8251
▁seemed	-10.8255
▁fluid	-10.8258
▁eficiente	-10.826
▁ritual	-10.826
▁viviendo	-10.826
▁mouth	-10.826
▁whale	-10.8261
▁ultra	-10.8261
▁capture	-10.8261
▁classroom	-10.8261
▁divide	-10.8265
▁fairly	-10.8272
▁ropa	-10.8281
graph	-10.8291
▁vean	-10.8295
▁Mr	-10.8298
▁mata	-10.83
▁aquella	-10.83
▁aplicar	-10.83
▁presidente	-10.8301
▁tail	-10.8305
▁basado	-10.8306
▁chico	-10.8308
▁peligro	-10.8313
▁estima	-10.8314
▁aprovecha	-10.8326
▁asombroso	-10.8326
▁necessarily	-10.8326
▁cloud	-10.8326
▁abuela	-10.8326
▁Obama	-10.8326
▁denomina	-10.8326
▁sharing	-10.8326
▁ballena	-10.8327
▁banco	-10.8327
▁esquina	-10.8327
▁investment	-10.8332
▁construyendo	-10.8335
▁puse	-10.8336
▁published	-10.8343
▁encontr	-10.8363
▁entrega	-10.8366
▁Many	-10.8371
greg	-10.8373
▁profesores	-10.8374
▁altura	-10.8379
▁noticed	-10.8379
▁reside	-10.8389
▁Resulta	-10.8392
▁competition	-10.8392
▁religious	-10.8392
▁abierta	-10.8393
▁President	-10.8393
▁vecino	-10.8393
▁basura	-10.8393
▁famoso	-10.8393
▁ambas	-10.8395
▁noise	-10.8397
▁insectos	-10.8403
▁cambiando	-10.8412
▁existencia	-10.8417
▁president	-10.8418
▁master	-10.8423
▁horse	-10.843
phone	-10.8433
Bien	-10.844
▁Ku	-10.8441
▁recompensa	-10.8459
▁societies	-10.8459
▁ilumina	-10.8459
▁copy	-10.8459
▁smell	-10.8459
▁crack	-10.8459
▁abus	-10.8462
▁2005	-10.8467
▁DH	-10.8467
▁missing	-10.8473
▁Come	-10.8476
▁transformar	-10.8485
▁encuentran	-10.8491
ppy	-10.8496
▁venta	-10.8496
▁necesidades	-10.8497
▁disminu	-10.8506
▁select	-10.8523
▁metro	-10.8524
▁libra	-10.8526
▁advantage	-10.8526
▁intelectual	-10.8526
▁manifest	-10.8526
▁terreno	-10.8526
▁circun	-10.8526
▁puso	-10.8526
▁Boston	-10.8527
▁campaña	-10.8527
▁caliente	-10.8528
▁background	-10.853
▁dramatic	-10.8531
▁diversity	-10.8532
▁rompe	-10.8532
▁imaginación	-10.8538
▁patent	-10.8545
▁studying	-10.8554
▁critic	-10.8555
▁crean	-10.8565
40	-10.8583
▁Microsoft	-10.8594
▁campaign	-10.8594
▁chocolate	-10.8594
▁ejército	-10.8594
▁periódico	-10.8594
▁Instead	-10.8594
▁negative	-10.8594
▁permanent	-10.8595
▁empuj	-10.8595
▁display	-10.8596
▁stopped	-10.8597
▁urge	-10.8598
▁pude	-10.8599
▁river	-10.861
▁agent	-10.861
▁Hic	-10.8614
▁aquel	-10.8615
▁flower	-10.8628
▁pez	-10.8634
▁automóvil	-10.8662
▁compromiso	-10.8662
▁easily	-10.8662
▁espíritu	-10.8662
▁responsable	-10.8662
▁tuvieron	-10.8662
▁oscuro	-10.8662
▁traffic	-10.8662
▁Great	-10.8662
▁giant	-10.8662
▁impulsa	-10.8662
▁scene	-10.8663
▁modifica	-10.8663
▁electrónico	-10.8663
▁trend	-10.8665
▁mouse	-10.8667
▁esperando	-10.8675
▁sienten	-10.8686
▁plano	-10.8691
▁defend	-10.8692
state	-10.8692
▁surge	-10.8695
▁caza	-10.8698
▁gold	-10.8707
▁creamos	-10.8712
▁básico	-10.873
▁descubierto	-10.873
▁magazine	-10.873
▁magnet	-10.873
▁pudiéramos	-10.873
▁museum	-10.873
▁1960	-10.8732
▁electric	-10.8739
▁Segund	-10.8739
▁manual	-10.874
▁creencia	-10.8741
▁stream	-10.8744
▁resultó	-10.8766
▁reduci	-10.8773
▁sociedades	-10.8778
▁basa	-10.878
▁warm	-10.8784
▁coal	-10.8786
▁option	-10.8787
▁marketing	-10.8793
▁passed	-10.8797
rich	-10.8799
▁médica	-10.8799
▁newspaper	-10.8799
▁volvió	-10.8799
▁identidad	-10.8799
▁batería	-10.8799
▁pareja	-10.8799
▁museo	-10.88
▁Japan	-10.8802
▁EEUU	-10.8802
▁luces	-10.8804
▁solid	-10.8814
▁curve	-10.8824
▁organic	-10.8832
ónica	-10.8839
▁0	-10.8841
▁condition	-10.8852
▁aquello	-10.8862
▁botella	-10.8869
▁brilliant	-10.8869
▁collapse	-10.8869
▁secundaria	-10.8869
▁escribí	-10.8869
▁origami	-10.8869
▁cultivo	-10.8869
▁refiero	-10.8869
▁empleo	-10.8869
▁Brown	-10.8869
▁addition	-10.8869
▁restaurante	-10.8875
▁entrada	-10.8879
▁Take	-10.8881
▁viva	-10.8884
▁suena	-10.8892
▁pega	-10.8899
iéndose	-10.8911
section	-10.8915
▁gun	-10.8916
creativity	-10.8919
▁tratado	-10.8924
▁llegamos	-10.8925
200	-10.8933
gging	-10.8935
▁satisfac	-10.8939
▁cálculo	-10.8939
▁encourage	-10.8939
▁monkey	-10.8939
▁profundidad	-10.8939
▁colonia	-10.8939
▁promise	-10.8939
▁Trabaj	-10.8939
▁navega	-10.8939
▁billones	-10.894
based	-10.894
▁spending	-10.895
▁gang	-10.8952
▁ponen	-10.8962
▁diga	-10.8978
▁contiene	-10.8981
▁sienta	-10.8989
—	-10.899
▁experimentar	-10.8995
▁podíamos	-10.8999
▁250	-10.9002
▁averiguar	-10.9009
▁compañero	-10.9009
▁metáfora	-10.9009
▁volví	-10.9009
▁technical	-10.9009
▁wheel	-10.9009
▁Uganda	-10.9009
▁mecanismo	-10.9009
▁crowd	-10.9009
▁culpa	-10.9009
▁analog	-10.901
▁Russia	-10.901
▁vivía	-10.901
▁holding	-10.901
▁aspira	-10.901
▁remote	-10.9011
▁coast	-10.9014
▁organizaciones	-10.9015
▁Peter	-10.9018
▁demanda	-10.9021
▁saludable	-10.9025
▁recuerda	-10.9026
▁gap	-10.904
▁grade	-10.9042
▁forever	-10.9058
position	-10.9066
▁fully	-10.9068
▁application	-10.908
▁clínica	-10.908
▁dé	-10.908
▁evalua	-10.908
▁positivo	-10.908
▁strength	-10.908
▁brief	-10.908
▁regenera	-10.908
▁British	-10.9081
▁sorry	-10.9081
▁dollar	-10.9083
▁jefe	-10.9084
▁inicial	-10.9084
▁activo	-10.9086
ivity	-10.9086
▁hablarles	-10.9117
▁26	-10.9118
scubrí	-10.9128
Que	-10.9135
▁speech	-10.9151
▁French	-10.9151
▁comenzamos	-10.9151
▁cuadrado	-10.9151
▁plataforma	-10.9151
▁progreso	-10.9151
▁sostenible	-10.9151
▁vacío	-10.9151
▁juguete	-10.9151
▁Ghana	-10.9151
▁Video	-10.9152
▁decidir	-10.9152
▁cercano	-10.9152
scale	-10.9152
▁fascinating	-10.9155
▁ventaja	-10.9155
▁string	-10.9158
poniendo	-10.9159
▁2004	-10.9159
▁manejar	-10.9161
▁pretend	-10.9161
new	-10.9162
▁fair	-10.9173
▁actuar	-10.9179
▁actua	-10.9182
▁highly	-10.9185
rick	-10.919
tail	-10.919
Hey	-10.92
▁convers	-10.9206
▁encuentro	-10.9223
▁llamó	-10.9223
▁pingüino	-10.9223
philosophy	-10.9223
▁Japón	-10.9223
▁apasiona	-10.9223
▁election	-10.9223
▁cartoon	-10.9223
▁hiciera	-10.9224
▁reveal	-10.9224
▁repeat	-10.9225
▁General	-10.9225
▁electronic	-10.9225
▁flat	-10.9232
▁apaga	-10.925
▁vende	-10.9257
▁Very	-10.9258
born	-10.927
▁roca	-10.9271
▁Algo	-10.9272
Saben	-10.9277
omía	-10.9283
▁héroe	-10.9296
▁Probablemente	-10.9296
▁ecosistema	-10.9296
▁independent	-10.9296
▁necesito	-10.9296
▁ocurriendo	-10.9296
▁opportunities	-10.9296
▁incrementa	-10.9296
▁penguin	-10.9296
▁victim	-10.9296
▁caballo	-10.9296
▁rueda	-10.9296
▁ubica	-10.9296
▁origen	-10.9296
▁Parece	-10.9296
▁cuento	-10.9296
▁Prize	-10.9297
▁explota	-10.9297
▁impresionante	-10.93
▁recover	-10.9301
▁roof	-10.9303
▁Hill	-10.9321
▁creation	-10.9331
▁liberal	-10.9335
▁equivocado	-10.9343
▁psico	-10.936
▁formula	-10.9365
▁1990	-10.9369
▁Además	-10.9369
▁SIDA	-10.9369
▁ecosystem	-10.9369
▁vídeo	-10.9369
▁aprendiendo	-10.9369
▁crash	-10.9369
▁avoid	-10.9369
▁transfer	-10.9372
poetry	-10.9374
▁convertido	-10.9375
▁profit	-10.9385
▁nació	-10.9405
▁lección	-10.9406
▁fuego	-10.9416
▁related	-10.9419
▁maneja	-10.9433
▁TEDTalk	-10.9442
▁continuo	-10.9442
▁pedazo	-10.9442
▁teatro	-10.9442
▁Aunque	-10.9442
▁caught	-10.9448
▁planning	-10.9448
▁2009	-10.9452
▁mama	-10.9457
▁slowly	-10.947
▁saca	-10.9471
▁caer	-10.9485
▁cow	-10.9486
▁particularmente	-10.9497
green	-10.9502
▁motion	-10.9505
▁broad	-10.9516
▁husband	-10.9516
▁vaccine	-10.9516
▁wisdom	-10.9516
▁acumula	-10.9516
▁gripe	-10.9517
▁hambre	-10.9517
▁frío	-10.9517
▁percepción	-10.9519
▁odd	-10.9526
▁tomé	-10.9527
▁insight	-10.9531
47	-10.9534
▁asiento	-10.9536
▁theater	-10.9537
▁north	-10.9562
▁mirada	-10.9563
ónico	-10.9569
▁Gene	-10.9571
This	-10.9572
▁extreme	-10.9578
▁alternativa	-10.9591
▁figura	-10.9591
▁galaxies	-10.9591
▁positiva	-10.9591
▁pájaro	-10.9591
▁computación	-10.9591
▁barato	-10.9592
▁dying	-10.9592
▁boom	-10.9593
▁descend	-10.9594
▁translate	-10.9595
▁emplea	-10.9599
▁Gold	-10.9608
▁warming	-10.9621
▁quitar	-10.9625
▁creía	-10.9626
▁invention	-10.9628
power	-10.9648
▁sudden	-10.9654
▁inventor	-10.9656
cepción	-10.9664
▁vota	-10.9665
▁grave	-10.9666
▁Occidente	-10.9666
▁Oxford	-10.9666
▁análisis	-10.9666
▁inevitable	-10.9666
▁inmediatamente	-10.9666
▁intelligent	-10.9666
▁almacena	-10.9666
▁tercio	-10.9666
▁vagina	-10.9666
▁Jim	-10.9667
▁estimula	-10.9667
▁presencia	-10.9667
▁location	-10.9668
▁expression	-10.9672
▁sugar	-10.9673
▁Star	-10.9677
▁justicia	-10.9694
cito	-10.9701
▁ride	-10.9704
▁informe	-10.9728
point	-10.9735
▁Everybody	-10.9742
▁algorithm	-10.9742
▁beneficia	-10.9742
▁bicicleta	-10.9742
▁lluvia	-10.9742
▁mortalidad	-10.9742
▁ocurrir	-10.9742
▁Sometimes	-10.9742
▁bolsa	-10.9742
▁stuck	-10.9742
▁murió	-10.9742
▁prosper	-10.9744
▁tendremos	-10.9745
▁infla	-10.9747
▁graduate	-10.9748
▁Pra	-10.9749
áramos	-10.9751
▁cuyo	-10.9751
▁hablado	-10.9753
▁nube	-10.9755
▁hang	-10.9755
cada	-10.9756
▁100,000	-10.976
invention	-10.976
▁fácilmente	-10.9772
▁tratamos	-10.9773
▁chart	-10.9774
▁promot	-10.9776
▁terrorist	-10.978
ological	-10.9782
Debería	-10.9794
ounce	-10.98
▁té	-10.9811
osphere	-10.9818
▁Actually	-10.9818
▁club	-10.9818
▁phenomenon	-10.9818
▁pleasure	-10.9818
▁registra	-10.9818
▁víctima	-10.9818
▁Piensen	-10.9818
▁conclusion	-10.9818
▁School	-10.9818
▁magia	-10.9818
▁espectro	-10.9818
▁cuadro	-10.9818
▁apunta	-10.9818
▁reaction	-10.9818
▁lunch	-10.9818
▁egg	-10.9819
▁compromet	-10.9819
▁creciendo	-10.9819
▁smile	-10.982
▁financiero	-10.9821
▁Hasta	-10.9821
▁garden	-10.9821
▁equivalent	-10.9822
▁plato	-10.9823
▁incluyendo	-10.9824
▁efficient	-10.9824
▁120	-10.9835
▁leading	-10.9842
▁convenc	-10.9846
15	-10.985
fish	-10.9863
▁finish	-10.9876
▁pico	-10.9879
▁transporte	-10.9882
▁Alzheimer	-10.9895
▁Stanford	-10.9895
▁afraid	-10.9895
▁budget	-10.9895
▁variedad	-10.9895
▁previous	-10.9895
▁criminal	-10.9895
▁anticipa	-10.9895
▁install	-10.9896
▁Martin	-10.9896
▁asesina	-10.9897
▁bright	-10.9897
▁creativo	-10.9899
▁fila	-10.99
▁necesariamente	-10.9901
▁mosca	-10.9903
ándola	-10.9904
▁misión	-10.9913
▁perfecta	-10.9938
▁sirve	-10.9948
▁Hollywood	-10.9973
▁William	-10.9973
▁inversión	-10.9973
▁satellite	-10.9973
▁globo	-10.9973
▁proporciona	-10.9973
▁casual	-10.9973
▁gift	-10.9973
▁referencia	-10.9975
▁perception	-10.9975
▁tiende	-10.9976
▁multiple	-10.9977
▁favorita	-10.9979
uff	-10.9984
▁practical	-10.9991
▁RB	-10.9994
▁suffering	-10.9996
▁$	-10.9997
▁nearly	-11
dding	-11.0002
▁podrán	-11.0008
▁pinta	-11.0018
▁trained	-11.0018
▁entirely	-11.0023
exploration	-11.0024
▁weird	-11.0024
▁stone	-11.0035
▁escond	-11.0047
▁Todavía	-11.0051
▁foreign	-11.0051
▁grandmother	-11.0051
▁opposite	-11.0051
▁riqueza	-11.0051
▁struggle	-11.0051
▁tarjeta	-11.0051
▁competencia	-11.0051
▁lucky	-11.0051
▁activist	-11.0051
▁Volv	-11.0051
▁titula	-11.0053
version	-11.0061
▁capable	-11.0067
▁hablaba	-11.0067
▁Dije	-11.007
▁parque	-11.0076
▁ponemos	-11.0078
▁taste	-11.0081
▁chain	-11.0081
▁drag	-11.0106
▁convirt	-11.0129
▁agriculture	-11.013
▁calentamiento	-11.013
▁galaxy	-11.013
▁necessary	-11.013
▁reemplaza	-11.013
▁crucial	-11.013
▁papá	-11.013
▁Center	-11.013
▁childhood	-11.0131
▁Over	-11.0134
▁fresh	-11.0135
▁combat	-11.0138
▁everyday	-11.014
▁concerned	-11.0149
▁European	-11.0152
▁extract	-11.0153
▁row	-11.0161
▁alguno	-11.0162
▁discovery	-11.0168
bilidad	-11.0181
▁Matt	-11.0183
▁95	-11.0193
quién	-11.0196
▁distribución	-11.0209
▁ninguno	-11.0209
▁temprana	-11.0209
▁hubiese	-11.0209
▁easier	-11.0209
▁truco	-11.0209
▁habido	-11.0209
▁expresión	-11.0213
▁empleados	-11.0213
▁pasé	-11.0215
▁constantemente	-11.0216
▁2,000	-11.0218
▁outcome	-11.0219
▁transformation	-11.023
▁diseñador	-11.023
▁foundation	-11.024
▁llevado	-11.024
▁Congo	-11.0248
▁fighting	-11.0256
▁click	-11.0262
▁tube	-11.0276
▁emprendedor	-11.0289
▁diagnostic	-11.0289
▁identity	-11.0289
▁sabiduría	-11.0289
▁sorpresa	-11.0289
▁faith	-11.0289
▁desierto	-11.0289
▁claim	-11.0289
▁reacción	-11.0289
▁demostrar	-11.0289
▁distingu	-11.0289
▁hongo	-11.0289
▁hablo	-11.0289
▁elegant	-11.029
▁flota	-11.0291
▁2010	-11.0292
▁title	-11.0293
▁dispuesto	-11.0295
▁esencial	-11.0298
▁teniendo	-11.0302
▁KB	-11.0315
▁basada	-11.0324
12	-11.0336
10	-11.0344
▁tape	-11.0352
labor	-11.036
▁govern	-11.0366
▁asegur	-11.037
▁Institute	-11.037
▁Naturaleza	-11.037
▁Valley	-11.037
▁gráfica	-11.037
▁registro	-11.037
▁responsible	-11.037
▁platform	-11.037
▁adentro	-11.037
▁truck	-11.037
▁precise	-11.037
▁Aún	-11.037
▁propaga	-11.037
▁civilización	-11.0371
ville	-11.0373
▁Nacional	-11.0373
▁masiva	-11.0378
▁decimos	-11.0378
▁Ray	-11.0379
▁2006	-11.038
▁responde	-11.0381
▁salva	-11.0381
▁profundamente	-11.0382
▁argumento	-11.0393
▁marina	-11.0394
▁finished	-11.0395
▁highest	-11.0397
▁analizar	-11.0405
▁clinical	-11.0407
Está	-11.0408
▁justice	-11.0417
▁polar	-11.0426
ground	-11.0427
▁practica	-11.0432
▁excepto	-11.0433
▁graphic	-11.044
▁bull	-11.045
&	-11.0451
disciplina	-11.0451
▁símbolo	-11.0451
▁tomorrow	-11.0451
▁desastre	-11.0451
▁extinct	-11.0451
▁incorpora	-11.0451
▁muchísimo	-11.0451
▁Mexico	-11.0451
▁Hombre	-11.0451
ibility	-11.0451
▁prensa	-11.0451
▁stress	-11.0451
▁consejo	-11.0451
▁seguido	-11.0451
ándonos	-11.0452
▁dejó	-11.0452
▁facial	-11.0455
▁preocup	-11.0456
▁operating	-11.0466
▁autoridad	-11.0476
▁plate	-11.0483
▁perfectly	-11.0484
▁deeply	-11.0504
▁obvio	-11.0529
▁nace	-11.053
▁Audience	-11.0533
▁Manhattan	-11.0533
▁demonstrate	-11.0533
▁mathematics	-11.0533
▁presupuesto	-11.0533
▁vuelto	-11.0533
▁árabe	-11.0533
ográfica	-11.0533
▁recicla	-11.0533
▁studied	-11.0533
▁Bronx	-11.0533
▁anuncio	-11.0533
▁batalla	-11.0533
▁disaster	-11.0533
▁dinner	-11.0533
▁chemistry	-11.0534
▁unfortunately	-11.0536
▁majority	-11.0541
▁wearing	-11.0542
▁oficial	-11.0542
▁ultimately	-11.0542
▁cuándo	-11.0544
▁icon	-11.0548
▁Wall	-11.055
▁compared	-11.0554
▁inspirado	-11.056
▁usual	-11.0561
▁compare	-11.0561
▁cima	-11.0566
▁failed	-11.0567
▁entera	-11.0568
▁pista	-11.0572
▁Once	-11.0575
▁colocar	-11.0577
▁plantea	-11.058
▁partido	-11.058
▁pair	-11.0593
▁cien	-11.0599
▁México	-11.0616
▁Philip	-11.0616
▁biblioteca	-11.0616
▁distribution	-11.0616
▁ilustra	-11.0616
▁llegue	-11.0616
▁chicken	-11.0616
▁interacción	-11.0616
▁poquito	-11.0616
▁bubble	-11.0616
▁vessel	-11.0616
▁bailar	-11.0616
▁dress	-11.0616
▁reunión	-11.0617
▁silk	-11.0617
▁corruption	-11.0618
▁Claro	-11.0619
▁detectar	-11.0619
▁round	-11.0624
▁parent	-11.0626
▁ethic	-11.0628
▁generaciones	-11.0629
▁golpea	-11.0639
▁monta	-11.0647
▁constante	-11.0653
▁36	-11.0659
▁resource	-11.0677
environment	-11.068
future	-11.068
▁Pakistan	-11.0699
▁Simplemente	-11.0699
▁continúa	-11.0699
▁específico	-11.0699
▁genético	-11.0699
▁intellectual	-11.0699
▁equation	-11.0699
▁swim	-11.0699
▁transparent	-11.0699
▁afirma	-11.0699
▁reloj	-11.0699
▁equilibrio	-11.07
▁Anyway	-11.07
friend	-11.0701
▁elabora	-11.0701
▁estándar	-11.0704
▁chose	-11.0704
▁consiste	-11.0705
▁leaving	-11.0708
▁barra	-11.0713
ienda	-11.0713
▁ingenio	-11.0717
▁glu	-11.0736
sustainability	-11.0737
▁south	-11.076
world	-11.0763
▁poem	-11.0778
▁nervio	-11.0778
▁discuss	-11.0779
▁azúcar	-11.0783
▁channel	-11.0783
▁crítico	-11.0783
▁enemigo	-11.0783
▁prototipo	-11.0783
▁survival	-11.0783
▁refleja	-11.0783
▁llora	-11.0783
▁elecciones	-11.0784
▁Moore	-11.0784
▁esfera	-11.0786
▁Adam	-11.0791
▁acid	-11.0792
▁Dijo	-11.0805
▁seriously	-11.0813
▁ataca	-11.0815
▁moverse	-11.0817
▁Camp	-11.0819
actic	-11.0822
▁analiza	-11.0836
▁clic	-11.0843
▁arch	-11.0855
▁skill	-11.0857
▁commit	-11.0864
▁exchange	-11.0868
▁llegué	-11.0868
▁músico	-11.0868
▁predecir	-11.0868
▁professor	-11.0868
▁stupid	-11.0868
▁worried	-11.0868
▁hopefully	-11.0868
▁mirror	-11.0868
▁negocia	-11.0868
▁liquid	-11.0868
▁weather	-11.0869
▁curious	-11.0869
▁Déjenme	-11.0869
▁araña	-11.0871
▁discussion	-11.0872
▁lift	-11.0874
▁5,000	-11.0877
▁Howard	-11.0883
▁oír	-11.0887
▁transformación	-11.0889
▁edit	-11.0899
▁counter	-11.0901
▁Act	-11.0904
▁Bob	-11.091
▁clinic	-11.0914
▁líder	-11.0921
▁resolv	-11.0932
▁sentí	-11.0948
▁conscious	-11.0951
▁carretera	-11.0953
▁describir	-11.0953
▁emisiones	-11.0953
▁Brazil	-11.0953
▁proviene	-11.0953
▁dijimos	-11.0953
▁bienestar	-11.0953
▁refugi	-11.0953
▁podido	-11.0953
▁destino	-11.0954
▁pounds	-11.0954
▁Pensé	-11.0954
▁comercio	-11.0955
▁held	-11.0957
▁jugando	-11.0961
▁ratón	-11.0963
▁28	-11.0965
▁Rein	-11.0975
▁classic	-11.1017
▁electrical	-11.1021
▁incluye	-11.1033
▁corrupción	-11.1039
▁entusiasma	-11.1039
▁exercise	-11.1039
▁nervous	-11.1039
▁politician	-11.1039
▁simetría	-11.1039
▁succeed	-11.1039
▁yesterday	-11.1039
▁impulso	-11.1039
▁consigue	-11.1039
▁Smith	-11.1039
▁huevo	-11.1039
▁externa	-11.104
▁dozen	-11.104
▁dicta	-11.1041
▁float	-11.1042
▁estimate	-11.1045
▁surgeon	-11.1048
▁hurt	-11.1048
▁dientes	-11.1049
▁amiga	-11.1049
▁nurse	-11.105
▁Unido	-11.1056
▁convencer	-11.1057
▁escape	-11.1061
▁proud	-11.1068
▁detector	-11.1074
▁roba	-11.1081
gged	-11.1108
▁cirujano	-11.1126
▁fracaso	-11.1126
▁mechanism	-11.1126
▁terapia	-11.1126
▁volunteer	-11.1126
▁átomo	-11.1126
▁empower	-11.1126
▁marriage	-11.1126
▁privado	-11.1126
▁joke	-11.1126
▁Saturn	-11.1126
▁incentive	-11.1127
▁retina	-11.1128
▁sport	-11.1128
▁frame	-11.1128
▁juega	-11.1128
▁export	-11.1131
▁construction	-11.1133
q	-11.1133
▁alien	-11.1135
▁peak	-11.1137
▁tribe	-11.1142
▁distant	-11.1145
▁poema	-11.1154
▁logic	-11.1154
▁involve	-11.1184
▁mate	-11.1195
▁nec	-11.1197
▁comun	-11.1209
Esta	-11.1212
▁Would	-11.1214
▁permanece	-11.1214
▁escritura	-11.1214
▁fellow	-11.1214
▁examina	-11.1214
▁invertir	-11.1214
▁ancestor	-11.1214
▁awful	-11.1215
▁hydrogen	-11.1215
▁status	-11.1215
▁Tony	-11.1215
▁arrest	-11.1215
▁devasta	-11.1216
▁invited	-11.1216
▁Park	-11.1217
▁lento	-11.1218
▁Bank	-11.1222
▁constantly	-11.1224
▁presentation	-11.1248
▁quita	-11.1253
▁creó	-11.1259
hood	-11.1269
▁Long	-11.1273
source	-11.1274
▁conect	-11.1278
performance	-11.1283
▁alarm	-11.1283
space	-11.1293
play	-11.1301
▁acostumbr	-11.1303
▁ordinary	-11.1303
▁preserva	-11.1303
▁property	-11.1303
▁Science	-11.1303
▁battle	-11.1303
▁título	-11.1303
▁otherwise	-11.1303
▁mentioned	-11.1303
▁conocida	-11.1303
▁inmediato	-11.1303
▁ordenador	-11.1303
▁descubrimos	-11.1305
▁State	-11.1306
▁evolutionary	-11.1306
▁Irak	-11.1307
activism	-11.1307
▁2003	-11.1313
▁perfectamente	-11.1314
▁pray	-11.1316
▁grid	-11.1319
▁rebel	-11.1321
▁salón	-11.1323
▁zone	-11.1334
print	-11.137
children	-11.1372
history	-11.1373
▁equivalente	-11.1391
▁contribute	-11.1392
▁decidimos	-11.1392
▁demuestra	-11.1392
▁preguntó	-11.1392
▁Amazon	-11.1392
▁burbuja	-11.1392
▁duplica	-11.1392
▁ignore	-11.1392
▁pudimos	-11.1392
▁sugiere	-11.1392
▁battery	-11.1392
▁Christian	-11.1392
▁incident	-11.1392
▁escolar	-11.1392
▁medium	-11.1392
▁biológica	-11.1394
▁educativo	-11.1395
▁comunicar	-11.1395
▁suburb	-11.1396
▁persist	-11.1408
▁comenzaron	-11.1411
▁ayer	-11.1419
▁esperamos	-11.1423
▁clara	-11.1429
▁provee	-11.1432
▁suffer	-11.1455
erial	-11.1463
▁Vietnam	-11.1482
▁cognitive	-11.1482
▁conexiones	-11.1482
▁discurso	-11.1482
▁epidemia	-11.1482
▁tráfico	-11.1482
▁aprecia	-11.1482
▁comentario	-11.1482
▁Everything	-11.1482
▁abuelo	-11.1482
▁sphere	-11.1482
▁England	-11.1482
▁incentivo	-11.1482
▁molesta	-11.1482
▁sensible	-11.1482
▁suspend	-11.1483
▁reef	-11.1484
▁efectivamente	-11.1486
▁empty	-11.149
▁lung	-11.1492
▁Alguien	-11.1495
▁escuchando	-11.1499
▁Italia	-11.1502
▁relacionado	-11.1502
▁millas	-11.1509
84	-11.1515
▁comment	-11.1521
ception	-11.1523
▁700	-11.1569
▁eléctrico	-11.1573
▁flexible	-11.1573
▁improvisa	-11.1573
▁spectrum	-11.1573
▁tiburones	-11.1573
▁volviendo	-11.1573
▁pusimos	-11.1573
▁asistencia	-11.1573
▁sweet	-11.1573
▁transplant	-11.1573
▁pump	-11.1573
▁Three	-11.1573
▁married	-11.1573
▁gravedad	-11.1574
▁Julia	-11.1577
▁juicio	-11.1577
▁cinta	-11.1577
▁collaboration	-11.1588
▁naciones	-11.1598
▁Shi	-11.1604
ification	-11.1626
▁Crea	-11.1632
▁insist	-11.1645
▁potencia	-11.166
éjenme	-11.1663
▁Egypt	-11.1665
▁employ	-11.1665
▁epidemic	-11.1665
▁recién	-11.1665
▁roughly	-11.1665
▁strategy	-11.1665
▁temporal	-11.1665
>	-11.1665
▁feedback	-11.1665
▁gratis	-11.1665
▁legisla	-11.1665
▁fossil	-11.1665
▁situaciones	-11.1665
▁supongo	-11.1665
▁Japanese	-11.1665
▁dulce	-11.1665
▁decidió	-11.1665
▁cifra	-11.1665
▁uniform	-11.1665
▁initial	-11.1665
▁submarin	-11.1665
▁ejercicio	-11.1665
nthrop	-11.1665
▁credit	-11.1669
▁However	-11.1674
▁muchacho	-11.1675
▁lifetime	-11.1678
▁assume	-11.1682
▁convertirse	-11.1684
▁diré	-11.1698
▁rig	-11.1714
nutrient	-11.1715
▁55	-11.1737
food	-11.1738
▁absolute	-11.1744
▁essential	-11.1744
▁explanation	-11.1757
▁emerging	-11.1757
▁mathematical	-11.1757
▁matrimonio	-11.1757
▁possibilities	-11.1757
▁hidden	-11.1757
▁spider	-11.1757
▁arrastr	-11.1757
▁Korea	-11.1757
Please	-11.1757
▁alcance	-11.1758
▁pensó	-11.1758
▁trabajadores	-11.1762
▁investigadores	-11.1762
▁esencialmente	-11.1766
▁oculta	-11.1768
▁acero	-11.1769
▁Alex	-11.1775
▁utilizando	-11.1778
▁reconoce	-11.1789
▁Toma	-11.1803
▁memes	-11.1808
▁torno	-11.1839
▁cena	-11.184
▁Pacific	-11.1851
▁1970	-11.1851
▁receptor	-11.1851
▁hyper	-11.1851
▁ridicul	-11.1851
▁protección	-11.1851
▁studio	-11.1851
<	-11.1851
▁prisión	-11.1851
▁worldwide	-11.1851
▁filter	-11.1851
▁podremos	-11.1851
▁evil	-11.1851
▁Nobel	-11.1851
▁passionate	-11.1853
▁narrative	-11.1854
▁equipment	-11.1854
▁trozo	-11.1854
▁compuesto	-11.1855
▁suave	-11.1855
▁Media	-11.1861
▁alimento	-11.1863
▁2001	-11.1863
Sabes	-11.187
▁trabajamos	-11.1872
▁setting	-11.1872
▁contrast	-11.1877
▁dry	-11.1882
60	-11.1885
▁mentor	-11.1903
iff	-11.1903
fold	-11.191
ference	-11.1923
X	-11.1925
gráfico	-11.1926
third	-11.1926
▁Latin	-11.1945
▁fibra	-11.1945
▁desplaza	-11.1945
▁diabetes	-11.1945
▁disorder	-11.1945
▁jardín	-11.1945
▁Scott	-11.1945
▁pocket	-11.1945
▁carefully	-11.1945
▁Women	-11.1945
▁tradición	-11.1945
▁espejo	-11.1945
▁grain	-11.1945
▁steel	-11.1945
▁decenas	-11.1947
▁enamor	-11.1947
▁agenda	-11.1948
▁Niño	-11.1948
▁cerrar	-11.1949
▁neo	-11.1954
▁cartel	-11.1956
tuvimos	-11.1958
▁complicada	-11.1964
▁principalmente	-11.1966
▁logrado	-11.1985
▁cuán	-11.1992
▁publish	-11.2017
happiness	-11.2021
brain	-11.2021
▁caballero	-11.204
▁establish	-11.204
▁heavy	-11.204
▁Central	-11.204
▁Texas	-11.204
▁hardware	-11.204
▁algoritmo	-11.204
▁débil	-11.2041
▁brinda	-11.2041
▁command	-11.2042
▁creativa	-11.2045
▁1950	-11.2049
▁Gates	-11.2051
▁script	-11.2056
▁existence	-11.2069
▁Hub	-11.208
▁Cree	-11.2081
▁concern	-11.2115
Podría	-11.2117
That	-11.2117
▁Florida	-11.2136
▁physicist	-11.2136
▁refrigera	-11.2136
▁supervivencia	-11.2136
▁zoom	-11.2136
▁kilometers	-11.2136
▁renova	-11.2137
▁daily	-11.2137
▁regalo	-11.2137
▁aviones	-11.2137
▁85	-11.2139
▁retira	-11.2141
▁Johnson	-11.2144
▁Trans	-11.2145
▁Veamos	-11.2147
▁marino	-11.2148
▁shut	-11.2149
▁topic	-11.2151
▁celebrate	-11.2152
▁valle	-11.2153
▁invad	-11.2155
▁término	-11.2159
▁Super	-11.2162
▁audit	-11.2164
▁broke	-11.2184
computer	-11.2214
▁adecuada	-11.2233
▁identify	-11.2233
▁mortality	-11.2233
▁producing	-11.2233
▁glamur	-11.2233
▁espalda	-11.2233
▁maintain	-11.2233
▁university	-11.2234
▁sculpture	-11.2234
▁teenage	-11.2234
▁emoción	-11.2234
▁rational	-11.2235
▁escultura	-11.2235
▁cuidar	-11.2236
▁decline	-11.2236
▁comprensión	-11.2236
▁retro	-11.2236
▁1980	-11.2237
▁reference	-11.2244
▁musician	-11.2244
▁asusta	-11.2246
▁esperaba	-11.2255
▁conductor	-11.2257
▁salvo	-11.2258
▁combination	-11.2259
▁periodista	-11.2271
▁querido	-11.2298
stream	-11.2299
▁host	-11.2312
▁emociona	-11.2317
▁necesaria	-11.2324
▁curiosidad	-11.2332
▁stood	-11.2332
▁perceive	-11.2332
▁lentamente	-11.2332
▁caída	-11.2332
▁split	-11.2332
▁blanca	-11.2332
▁regard	-11.2332
▁teeth	-11.2332
▁Turk	-11.2333
▁radiación	-11.2336
▁leadership	-11.2338
▁hostil	-11.2341
▁vasos	-11.2342
▁Plan	-11.2343
▁reunir	-11.2343
▁aplicación	-11.2344
▁bello	-11.2352
▁Other	-11.2353
▁quedó	-11.2356
▁melt	-11.239
▁800	-11.2404
OK	-11.2419
▁espiritual	-11.2431
▁appropriate	-11.2431
▁asombrosa	-11.2431
▁associated	-11.2431
▁encounter	-11.2431
▁liderazgo	-11.2431
▁oscuridad	-11.2431
▁religiosa	-11.2431
▁telescopio	-11.2431
▁técnico	-11.2431
▁valuable	-11.2431
▁corteza	-11.2431
▁expectativa	-11.2431
▁balloon	-11.2431
▁computing	-11.2431
▁wake	-11.2431
▁emissions	-11.2431
▁molde	-11.2431
▁fiber	-11.2431
▁congela	-11.2433
▁aplicaciones	-11.2435
▁earn	-11.2438
▁medita	-11.2438
▁firma	-11.2439
▁rocket	-11.244
Sahara	-11.2446
▁protection	-11.2448
▁pelea	-11.2453
ísima	-11.2454
▁distinta	-11.2465
▁Talk	-11.2481
▁suele	-11.2483
avid	-11.2506
▁celebr	-11.2508
Yeah	-11.2511
safortunadamente	-11.2531
▁agradable	-11.2531
▁categoría	-11.2531
▁fantástica	-11.2531
▁prototype	-11.2531
▁underneath	-11.2531
▁escalera	-11.2531
▁variable	-11.2531
▁huella	-11.2531
▁amplio	-11.2531
▁lawyer	-11.2531
▁Finalmente	-11.2532
▁sabor	-11.2534
▁radiation	-11.2535
▁spring	-11.2536
▁primary	-11.2537
▁rub	-11.2539
▁importance	-11.2539
▁observe	-11.2543
▁encontró	-11.2543
▁cutting	-11.2543
▁flip	-11.2544
▁inspiration	-11.2545
▁Entre	-11.2548
▁PM	-11.2555
▁cobra	-11.2584
▁terror	-11.2585
▁ajusta	-11.259
▁hidr	-11.2605
women	-11.2612
profit	-11.2612
▁capacit	-11.2626
▁Inglaterra	-11.2632
▁adventure	-11.2632
▁appreciate	-11.2632
▁arrecife	-11.2632
▁pregunto	-11.2632
▁tsunami	-11.2632
▁vergüenza	-11.2632
▁voluntad	-11.2632
♪	-11.2632
▁coincide	-11.2632
▁infinite	-11.2632
▁cortex	-11.2632
▁entrenamiento	-11.2632
▁nerve	-11.2632
▁ingresa	-11.2632
▁reverse	-11.2632
▁score	-11.2633
▁specifically	-11.2634
▁tabla	-11.2636
,500	-11.2638
▁strip	-11.2638
▁caminando	-11.2644
▁prediction	-11.2645
▁shall	-11.2646
▁3,000	-11.2649
▁evolve	-11.2703
▁$1	-11.2709
foot	-11.2716
▁kit	-11.2722
biodiversity	-11.2734
▁occasion	-11.2734
▁videojuego	-11.2734
▁colectiva	-11.2734
▁espectacular	-11.2734
▁maravilla	-11.2734
▁ocurrido	-11.2734
▁satélite	-11.2734
▁suministro	-11.2734
▁temprano	-11.2734
▁nacimiento	-11.2734
▁negativo	-11.2734
▁Britain	-11.2734
▁abogado	-11.2734
▁fiesta	-11.2734
▁definitely	-11.2734
▁manzana	-11.2734
▁robust	-11.2734
▁Black	-11.2734
▁alegría	-11.2734
▁pelota	-11.2734
▁limb	-11.2734
▁prefier	-11.2735
▁prohib	-11.2735
▁kick	-11.2735
▁Eric	-11.2736
▁plot	-11.2737
▁nest	-11.2737
▁court	-11.2737
▁safety	-11.2738
▁dejamos	-11.274
▁significativa	-11.2746
▁colaboración	-11.2746
▁deriva	-11.2757
▁fabric	-11.2764
digit	-11.2767
▁aprendi	-11.2776
▁contesta	-11.2782
▁equip	-11.2807
▁Cambridge	-11.2837
▁accurate	-11.2837
▁enfermera	-11.2837
▁variety	-11.2837
▁discusión	-11.2837
▁porcentaje	-11.2837
▁colegio	-11.2837
▁clever	-11.2837
▁quarter	-11.2837
▁vidrio	-11.2837
▁drill	-11.2837
▁branch	-11.2837
▁Debemos	-11.2837
▁barrera	-11.2837
▁sujeto	-11.2837
▁trampa	-11.2837
▁logro	-11.2844
▁Brian	-11.2847
▁baño	-11.2847
▁compete	-11.2855
▁diaria	-11.2857
92	-11.2869
▁envía	-11.2874
▁29	-11.2909
Look	-11.2924
uthern	-11.2926
▁Stephen	-11.2941
▁cuestiones	-11.2941
▁distinct	-11.2941
▁entendimiento	-11.2941
▁iPod	-11.2941
▁rendimiento	-11.2941
▁terminó	-11.2941
▁confirm	-11.2941
▁cruel	-11.2941
▁depression	-11.2941
▁facing	-11.2941
▁conozco	-11.2942
▁intereses	-11.2942
▁ayude	-11.2942
▁rescue	-11.2944
▁propuesta	-11.2949
▁sentimos	-11.2953
▁Newton	-11.2957
▁winter	-11.2958
ridge	-11.2975
▁odia	-11.2985
half	-11.3027
▁comfort	-11.3043
▁consumption	-11.3046
▁núcleo	-11.3046
▁relativamente	-11.3046
▁optimista	-11.3046
▁telescope	-11.3046
▁Empeza	-11.3046
▁Daniel	-11.3046
▁amarillo	-11.3046
▁Delhi	-11.3046
▁seguimos	-11.3046
▁official	-11.3046
▁France	-11.3046
▁disgust	-11.3046
▁stock	-11.3046
▁adquiri	-11.3046
▁Larry	-11.3047
▁moneda	-11.3047
▁receta	-11.3048
▁internal	-11.3049
▁pidió	-11.3051
▁nervioso	-11.3052
▁precisamente	-11.3052
▁racional	-11.3058
▁macho	-11.306
▁relation	-11.306
▁posee	-11.3073
▁cuánta	-11.3087
volt	-11.3089
▁consistent	-11.31
▁ingreso	-11.3107
humor	-11.3133
▁trabajaba	-11.3145
▁LED	-11.3152
▁Recuerdo	-11.3152
▁cricket	-11.3152
▁sanguíneo	-11.3152
▁sucedido	-11.3152
▁computation	-11.3152
▁fotografi	-11.3152
▁corriendo	-11.3153
▁Yemen	-11.3154
▁volca	-11.3154
▁Jeff	-11.3156
pusieron	-11.3161
▁significativo	-11.3165
▁suppose	-11.323
87	-11.3238
think	-11.3244
▁Permítan	-11.326
▁analysis	-11.326
▁habló	-11.326
▁pertenece	-11.326
▁regreso	-11.326
▁kitchen	-11.326
▁trillion	-11.326
▁dormir	-11.326
▁privada	-11.326
▁length	-11.326
▁altitud	-11.326
▁selección	-11.326
▁style	-11.326
▁dirige	-11.3262
▁locura	-11.3262
▁biológico	-11.3263
▁toxic	-11.3275
▁crop	-11.3276
▁ponga	-11.3287
▁journalist	-11.3295
▁giga	-11.3351
▁Bangladesh	-11.3369
▁Pacífico	-11.3369
▁comenzando	-11.3369
▁hidrógeno	-11.3369
▁divertida	-11.3369
▁embrace	-11.3369
▁employees	-11.3369
▁flash	-11.3369
▁framework	-11.3369
▁telephone	-11.3369
▁apareció	-11.337
▁polen	-11.337
▁predator	-11.3371
▁audio	-11.3372
▁escritorio	-11.3373
▁haciéndo	-11.3376
▁mentir	-11.3378
▁voces	-11.3379
▁recuperación	-11.3383
▁propose	-11.3384
▁Hong	-11.3388
▁podrá	-11.3429
transportation	-11.3445
▁Usa	-11.3446
struye	-11.3449
public	-11.3459
▁sumergi	-11.3474
▁Project	-11.3479
▁circumstance	-11.3479
▁conclusión	-11.3479
▁crítica	-11.3479
▁democratic	-11.3479
▁destruction	-11.3479
▁diagnóstico	-11.3479
▁mecánica	-11.3479
▁neutral	-11.3479
▁obstáculo	-11.3479
▁privilege	-11.3479
▁symptom	-11.3479
▁technological	-11.3479
▁doubt	-11.3479
▁americano	-11.3479
▁federal	-11.3479
▁invierno	-11.3479
▁survey	-11.3479
▁snow	-11.3479
▁cristal	-11.3479
▁consulta	-11.348
▁spiritual	-11.348
▁biólogo	-11.3481
▁docena	-11.3482
▁danger	-11.3483
▁clock	-11.3484
▁funcionamiento	-11.3484
▁River	-11.3486
siguió	-11.3489
▁MT	-11.3491
▁motivo	-11.3491
▁angle	-11.3495
▁wrap	-11.3503
▁reinvent	-11.3535
know	-11.3589
▁chimpancé	-11.359
▁frecuente	-11.359
▁terrestre	-11.359
▁Abraham	-11.359
▁Instituto	-11.359
▁Sudáfrica	-11.359
▁vuelva	-11.359
▁Minister	-11.359
▁campamento	-11.359
▁explosion	-11.359
▁harvest	-11.359
▁Blue	-11.359
▁Gulf	-11.359
▁interactuar	-11.359
▁siguiendo	-11.359
▁interrupt	-11.359
▁swimming	-11.359
▁encuesta	-11.359
▁tridimensional	-11.3591
▁seleccion	-11.3592
▁occurred	-11.3592
▁biologist	-11.3592
▁comfortable	-11.3593
▁resistencia	-11.3594
▁Brit	-11.3597
▁selection	-11.3597
▁cuya	-11.3599
▁servir	-11.364
▁sustain	-11.3648
america	-11.3674
▁Benjamin	-11.3702
▁Bretaña	-11.3702
▁Cualquier	-11.3702
▁contribuye	-11.3702
▁entendemos	-11.3702
▁resolución	-11.3702
▁hombro	-11.3702
▁Kevin	-11.3702
▁unusual	-11.3702
▁variation	-11.3702
▁aventura	-11.3702
▁cuestiona	-11.3702
▁birthday	-11.3703
▁transition	-11.3704
▁Paris	-11.3706
▁library	-11.3707
corr	-11.3722
▁merece	-11.376
güe	-11.3769
▁dólar	-11.3784
▁És	-11.3785
Okay	-11.3796
short	-11.3797
control	-11.3798
▁ultimate	-11.3803
▁September	-11.3816
▁assumption	-11.3816
▁clínico	-11.3816
▁eficiencia	-11.3816
▁permítan	-11.3816
▁ancestro	-11.3816
▁recolecta	-11.3816
▁exitoso	-11.3816
▁arriesga	-11.3816
▁contempla	-11.3816
▁longitud	-11.3816
▁atravesa	-11.3816
▁articul	-11.3816
▁potente	-11.3817
▁sustancia	-11.3817
▁archivo	-11.3817
▁wireless	-11.3818
▁conceptual	-11.3818
▁gesto	-11.3819
▁bella	-11.3852
▁dirá	-11.387
energy	-11.3911
dónde	-11.3912
correcto	-11.3912
philanthropy	-11.3931
▁gentlemen	-11.3931
▁infancia	-11.3931
▁instruction	-11.3931
▁properties	-11.3931
▁tecnológico	-11.3931
▁GDP	-11.3931
▁empatía	-11.3931
▁church	-11.3931
▁pollution	-11.3931
▁therapy	-11.3931
▁admira	-11.3931
▁Basically	-11.3931
▁típica	-11.3931
▁poesía	-11.3931
▁horror	-11.3931
▁rechaza	-11.3931
▁mostrando	-11.3931
▁characteristic	-11.3932
▁descubrió	-11.3933
▁intense	-11.3934
▁enferma	-11.3934
▁minister	-11.3934
▁Indus	-11.3935
▁commitment	-11.3935
▁permitió	-11.3936
▁hoping	-11.3936
▁pitch	-11.3941
▁mineral	-11.3966
▁autism	-11.3974
▁reconoci	-11.3978
collaboration	-11.4027
clav	-11.4032
ographic	-11.4047
▁Feynman	-11.4047
▁Gandhi	-11.4047
▁efficiency	-11.4047
▁entretenimiento	-11.4047
▁facilita	-11.4047
▁sufrimiento	-11.4047
▁índice	-11.4047
▁respeto	-11.4047
▁stretch	-11.4047
▁disturb	-11.4047
▁domestic	-11.4047
▁Could	-11.4047
▁refiere	-11.4047
▁ejecuta	-11.4047
▁shame	-11.4047
▁nieve	-11.4048
▁numero	-11.4048
▁impresión	-11.4049
▁famosa	-11.4049
▁Wright	-11.4049
▁cheat	-11.4052
ándome	-11.4053
▁pedí	-11.4087
▁Intent	-11.4088
▁defect	-11.4096
script	-11.4148
▁9/11	-11.4165
▁activities	-11.4165
▁centavos	-11.4165
▁efectivo	-11.4165
▁lecture	-11.4165
▁magnitud	-11.4165
▁proyecta	-11.4165
▁sophisticated	-11.4165
▁prevenir	-11.4165
▁degrada	-11.4165
▁licencia	-11.4165
▁orquesta	-11.4165
▁recurr	-11.4165
▁Mujer	-11.4165
▁empresarial	-11.4165
▁behave	-11.4165
▁celda	-11.4165
▁parallel	-11.4166
▁anciano	-11.4166
▁entendí	-11.4166
▁entrenado	-11.4167
▁Intel	-11.4188
▁blu	-11.4223
poverty	-11.4264
volución	-11.4269
▁crecí	-11.4279
▁orgánico	-11.4284
▁phenomena	-11.4284
▁tecnológica	-11.4284
▁vegetable	-11.4284
▁romantic	-11.4284
▁iniciativa	-11.4284
▁ecuación	-11.4284
▁regime	-11.4284
▁polvo	-11.4284
▁trastorno	-11.4284
▁broma	-11.4284
▁repair	-11.4284
▁spill	-11.4284
▁Brasil	-11.4284
▁aceite	-11.4284
▁presence	-11.4284
▁steal	-11.4285
▁condición	-11.4285
▁fusion	-11.4285
▁dropped	-11.4286
▁inherent	-11.4288
▁ventila	-11.4292
▁flag	-11.4296
▁oye	-11.4303
▁imprim	-11.4311
photography	-11.4349
▁encarg	-11.4354
▁calific	-11.4357
▁evolucion	-11.4359
changing	-11.4385
▁precisa	-11.4397
▁extrema	-11.4404
▁Child	-11.4404
▁Rwanda	-11.4404
▁actitud	-11.4404
▁británico	-11.4404
▁controversia	-11.4404
▁cárcel	-11.4404
▁espectáculo	-11.4404
▁mathematician	-11.4404
▁obsesion	-11.4404
ómetro	-11.4404
▁fantasma	-11.4404
▁surgió	-11.4404
▁witness	-11.4404
▁tranquil	-11.4404
▁Watson	-11.4404
▁transistor	-11.4404
▁plug	-11.4404
▁fruit	-11.4405
▁contigo	-11.4405
▁retroced	-11.4405
▁deploy	-11.4405
▁dueño	-11.4405
▁mostró	-11.4406
▁desafi	-11.4406
▁densidad	-11.4408
▁orgulloso	-11.4408
▁electrónica	-11.441
▁flies	-11.4411
▁constant	-11.4448
serving	-11.4478
▁inspire	-11.4496
▁Pasa	-11.4505
▁ONU	-11.4526
▁tremenda	-11.4526
▁Congress	-11.4526
▁alcohol	-11.4526
▁clothes	-11.4526
▁escribiendo	-11.4526
▁exclusiv	-11.4526
▁líquido	-11.4526
▁máximo	-11.4526
▁revolucion	-11.4526
▁Foundation	-11.4526
▁Museum	-11.4526
▁advice	-11.4526
▁eventualmente	-11.4526
▁revenue	-11.4526
▁permiso	-11.4526
▁afternoon	-11.4526
▁deshacer	-11.4526
▁brecha	-11.4526
▁unknown	-11.4526
▁session	-11.4528
▁comprob	-11.4529
▁financiera	-11.453
▁sustenta	-11.4544
▁segment	-11.4559
–	-11.463
▁apropiada	-11.4649
▁Shakespeare	-11.4649
▁Shanghai	-11.4649
▁Virginia	-11.4649
▁cromosoma	-11.4649
▁filosofía	-11.4649
▁fotógrafo	-11.4649
▁hábitat	-11.4649
▁manufacture	-11.4649
▁peculiar	-11.4649
▁unexpected	-11.4649
▁CEO	-11.465
▁accomplish	-11.465
▁courage	-11.465
▁sombra	-11.465
▁corporal	-11.465
▁phase	-11.465
▁dancing	-11.465
▁smoke	-11.465
▁Titan	-11.465
▁heaven	-11.465
▁asigna	-11.465
▁descarga	-11.465
▁respeta	-11.465
▁sunlight	-11.4652
▁thick	-11.4652
▁destina	-11.4652
▁salvaje	-11.4653
▁establecer	-11.4653
▁retire	-11.4656
unclear	-11.4664
normal	-11.4757
▁horizon	-11.4772
▁Empecé	-11.4774
▁Leonardo	-11.4774
▁Lincoln	-11.4774
▁Tanzania	-11.4774
▁analyze	-11.4774
▁exponencial	-11.4774
▁extinción	-11.4774
▁producido	-11.4774
▁tiburón	-11.4774
▁Canadá	-11.4775
▁Clinton	-11.4775
▁jazz	-11.4775
▁viviente	-11.4775
▁Woman	-11.4775
▁Craig	-11.4775
▁lectura	-11.4775
▁recaud	-11.4775
▁Nathan	-11.4775
▁Pensamos	-11.4775
▁footprint	-11.4775
▁Norden	-11.4775
óxido	-11.4775
▁Louis	-11.4776
▁wherever	-11.4778
▁deporte	-11.4801
▁olor	-11.4812
▁Estuv	-11.4851
▁east	-11.4852
dollar	-11.4883
saben	-11.4884
▁Alemania	-11.4901
▁bolsillo	-11.4901
▁challenging	-11.4901
▁excelente	-11.4901
▁physician	-11.4901
▁pyramid	-11.4901
▁ángulo	-11.4901
▁Golfo	-11.4901
▁explosión	-11.4901
▁funcionó	-11.4901
▁vuela	-11.4901
▁Mandela	-11.4901
▁Christmas	-11.4901
▁parezca	-11.4901
▁license	-11.4901
▁plus	-11.4901
▁false	-11.4901
▁Geographic	-11.4902
▁High	-11.4902
▁suceda	-11.4903
▁Hawk	-11.4903
▁primaria	-11.4904
▁ruin	-11.4905
▁paraliza	-11.4907
▁addict	-11.4921
Necesit	-11.4944
Podemos	-11.501
worth	-11.501
▁chromosome	-11.5029
▁histórico	-11.5029
▁práctico	-11.5029
▁Everest	-11.5029
▁McDonald	-11.5029
▁centuries	-11.5029
▁crédito	-11.5029
▁manufacturing	-11.5029
▁exitosa	-11.5029
▁preserve	-11.5029
▁regret	-11.5029
▁reserve	-11.5029
▁Kenia	-11.5029
▁anuncia	-11.5029
▁'60	-11.503
▁veteran	-11.503
▁trauma	-11.503
ensambla	-11.503
▁Albert	-11.5032
▁enfermo	-11.5037
▁recta	-11.5037
▁exponential	-11.5159
▁DVD	-11.5159
▁Francia	-11.5159
▁Obviamente	-11.5159
▁aburrido	-11.5159
▁conclude	-11.5159
▁departamento	-11.5159
▁mammal	-11.5159
▁orchestra	-11.5159
▁sostener	-11.5159
▁Sistema	-11.5159
▁Something	-11.5159
▁poison	-11.5159
▁Haiti	-11.516
prendí	-11.5164
▁seguía	-11.5167
▁weigh	-11.5177
▁Escrib	-11.5193
tecnología	-11.5271
volver	-11.5271
▁instinct	-11.5291
▁academic	-11.5291
▁advertising	-11.5291
▁bicycle	-11.5291
▁department	-11.5291
▁empathy	-11.5291
▁hipótesis	-11.5291
▁religioso	-11.5291
▁sandwich	-11.5291
▁symmetry	-11.5291
▁voluntarios	-11.5291
▁fracasa	-11.5291
▁interfaz	-11.5291
▁ahorro	-11.5291
▁clue	-11.5291
▁ciego	-11.5291
▁direcciones	-11.5291
▁contagio	-11.5291
▁Eastern	-11.5291
▁sauce	-11.5291
▁enemy	-11.5294
▁Comenz	-11.5295
▁temor	-11.5298
▁inject	-11.5314
▁aporta	-11.535
dministración	-11.5362
physics	-11.5405
▁gesture	-11.5424
▁hábito	-11.5424
▁rhythm	-11.5424
▁Joshua	-11.5424
▁Pakistán	-11.5424
▁Square	-11.5424
▁authentic	-11.5424
▁automatically	-11.5424
▁frankly	-11.5424
▁psicología	-11.5424
▁recorrido	-11.5424
▁simplicity	-11.5424
▁sucesivamente	-11.5424
▁típico	-11.5424
▁exploring	-11.5424
▁mechanical	-11.5424
▁elegido	-11.5424
▁reducción	-11.5424
▁exploit	-11.5424
▁convencional	-11.5424
▁recorrer	-11.5424
▁volando	-11.5424
▁estrés	-11.5424
▁Girl	-11.5424
▁Rusia	-11.5425
▁Lewis	-11.5425
▁barata	-11.5425
▁recrea	-11.5425
▁horizontal	-11.5426
▁creciente	-11.5427
▁planific	-11.5427
▁convenient	-11.543
ótica	-11.5438
▁Abou	-11.544
▁evita	-11.5454
ástica	-11.5515
product	-11.552
Tiene	-11.554
puede	-11.5542
▁Research	-11.5559
▁Hawaii	-11.5559
▁Unfortunately	-11.5559
▁aeropuerto	-11.5559
▁ayudó	-11.5559
▁iglesia	-11.5559
▁mamífero	-11.5559
▁quantum	-11.5559
▁razonable	-11.5559
▁reacciona	-11.5559
▁resonancia	-11.5559
▁septiembre	-11.5559
▁demostrado	-11.5559
▁muestro	-11.5559
▁narrow	-11.5559
▁ilegal	-11.5559
▁filtra	-11.5559
▁solving	-11.5559
▁Design	-11.5559
▁Bosnia	-11.5559
▁hunger	-11.5559
▁perdiendo	-11.5559
▁trivial	-11.5559
▁mystery	-11.556
▁Kong	-11.556
▁silence	-11.556
▁Banco	-11.556
▁Play	-11.556
▁Henry	-11.556
▁gusto	-11.5563
▁intact	-11.5564
▁concert	-11.5576
Oye	-11.5604
Alguien	-11.5677
walk	-11.5686
Á	-11.5696
▁portátil	-11.5696
▁Alexander	-11.5696
▁International	-11.5696
▁Parkinson	-11.5696
▁demostración	-11.5696
▁desconocido	-11.5696
▁diccionario	-11.5696
▁identical	-11.5696
▁izquierdo	-11.5696
▁láser	-11.5696
▁pregnant	-11.5696
▁skull	-11.5696
▁territorio	-11.5696
▁viruela	-11.5696
▁órbita	-11.5696
▁Sweden	-11.5696
▁elefante	-11.5696
▁knock	-11.5696
▁ticket	-11.5696
▁valioso	-11.5696
▁genius	-11.5696
▁preciso	-11.5696
▁cyber	-11.5696
▁judge	-11.5696
▁murieron	-11.5696
▁sonrisa	-11.5696
▁Silicon	-11.5696
▁penetra	-11.5697
▁reconocimiento	-11.5697
▁deserve	-11.5698
▁calendar	-11.5698
▁Cambi	-11.5699
▁settle	-11.5704
▁peligrosa	-11.5713
▁recurso	-11.5747
Cola	-11.5813
volving	-11.5835
▁Congreso	-11.5835
▁Perhaps	-11.5835
▁capítulo	-11.5835
▁cumpleaños	-11.5835
▁dolphin	-11.5835
▁elephant	-11.5835
▁evidente	-11.5835
▁gracioso	-11.5835
▁género	-11.5835
▁musulmanes	-11.5835
▁phrase	-11.5835
▁psicólogo	-11.5835
▁psychological	-11.5835
▁tragedia	-11.5835
▁decidieron	-11.5835
▁milagro	-11.5835
▁negativa	-11.5835
▁abundant	-11.5835
▁ministro	-11.5835
▁grandioso	-11.5835
▁maíz	-11.5835
▁Haití	-11.5835
▁dignidad	-11.5835
▁ácido	-11.5835
▁globe	-11.5835
▁flew	-11.5835
▁complain	-11.5835
▁Next	-11.5835
▁Health	-11.5835
▁inusual	-11.5835
▁Museo	-11.5835
▁Disney	-11.5835
▁spell	-11.5836
▁retrato	-11.5836
▁sweat	-11.5836
▁comporta	-11.5836
▁esposo	-11.5836
▁ruta	-11.5837
▁productivity	-11.5837
visualizations	-11.5847
Verdad	-11.5854
development	-11.5957
▁rip	-11.5967
▁Sylvia	-11.5976
▁acceder	-11.5976
▁illustrate	-11.5976
▁laboratory	-11.5976
▁literatura	-11.5976
▁measuring	-11.5976
▁metabolism	-11.5976
▁mushroom	-11.5976
▁neural	-11.5976
▁ocasiones	-11.5976
▁transmisión	-11.5976
▁universitario	-11.5976
▁1998	-11.5976
▁cubierta	-11.5976
▁pudieron	-11.5976
▁smallpox	-11.5976
▁raíces	-11.5976
▁resuelto	-11.5976
▁Arthur	-11.5976
▁emergencia	-11.5976
▁fractal	-11.5976
▁compartimos	-11.5976
▁leopard	-11.5976
▁vestido	-11.5976
▁falso	-11.5976
▁breed	-11.5978
▁inunda	-11.5981
▁germ	-11.6008
▁insert	-11.6095
▁especializa	-11.6101
▁aproxima	-11.6118
▁rehabilita	-11.6119
▁Biblia	-11.6119
▁Qatar	-11.6119
▁SETI	-11.6119
▁Tasmania	-11.6119
▁agrícola	-11.6119
▁carácter	-11.6119
▁confidence	-11.6119
▁distributed	-11.6119
▁economies	-11.6119
▁hígado	-11.6119
▁pandemic	-11.6119
▁psychologist	-11.6119
▁smooth	-11.6119
▁supermercado	-11.6119
▁cabello	-11.6119
▁Voice	-11.6119
▁While	-11.6119
▁cómic	-11.6119
▁strike	-11.6119
▁Nelson	-11.6119
▁reuniones	-11.6119
▁transcend	-11.6119
▁airport	-11.6119
▁Space	-11.6119
▁derrame	-11.6119
▁paquete	-11.6119
▁Ocean	-11.6119
▁strand	-11.6119
▁portrait	-11.6119
▁absurd	-11.6119
▁cosecha	-11.6119
▁copyright	-11.6119
▁ascenso	-11.6119
▁Rosling	-11.612
▁extent	-11.612
▁actúa	-11.612
▁selva	-11.612
▁eterna	-11.612
▁aguja	-11.612
▁intención	-11.6121
▁sharp	-11.6122
▁conduce	-11.6122
iésemos	-11.6124
▁destaca	-11.6128
▁encaja	-11.6132
identifi	-11.6151
traté	-11.6197
▁complica	-11.6206
innovation	-11.6244
▁Carolina	-11.6264
▁Público	-11.6264
▁Seattle	-11.6264
▁almuerzo	-11.6264
▁apariencia	-11.6264
▁astonishing	-11.6264
▁desgracia	-11.6264
▁diálogo	-11.6264
▁grandfather	-11.6264
▁gratuita	-11.6264
▁household	-11.6264
▁judgment	-11.6264
▁posterior	-11.6264
▁scream	-11.6264
▁sólido	-11.6264
▁GPS	-11.6264
▁Global	-11.6264
▁Joseph	-11.6264
▁adecuado	-11.6264
▁cubierto	-11.6264
▁defensa	-11.6264
▁lifestyle	-11.6264
▁College	-11.6264
▁cambie	-11.6264
▁precisión	-11.6264
▁shadow	-11.6264
▁chapter	-11.6264
▁nariz	-11.6264
▁pareció	-11.6264
▁proportion	-11.6264
▁Suecia	-11.6264
▁miserable	-11.6264
▁maestra	-11.6264
▁Termin	-11.6264
▁apertura	-11.6264
▁healthcare	-11.6264
▁vinieron	-11.6264
▁confiar	-11.6265
▁converge	-11.6268
▁nerd	-11.6268
level	-11.6289
iéndolo	-11.6369
second	-11.6392
▁obvia	-11.6404
▁Ethiopia	-11.6411
▁accesible	-11.6411
▁embedded	-11.6411
▁filtro	-11.6411
▁furniture	-11.6411
▁judío	-11.6411
▁obstacle	-11.6411
▁privilegio	-11.6411
▁procedimiento	-11.6411
▁recommend	-11.6411
▁reconstruir	-11.6411
▁simplicidad	-11.6411
▁sketch	-11.6411
▁trabajé	-11.6411
▁vulnerabilidad	-11.6411
▁Fellow	-11.6411
▁concreto	-11.6411
▁Before	-11.6411
▁curioso	-11.6411
▁suicide	-11.6411
▁brown	-11.6411
▁Sarah	-11.6411
▁microbios	-11.6411
▁properly	-11.6411
scripción	-11.6411
prosthetic	-11.6411
▁causing	-11.6411
▁demographic	-11.6411
▁multitud	-11.6411
▁mínimo	-11.6411
▁carried	-11.6411
▁invención	-11.6412
▁intensa	-11.6415
keep	-11.6419
▁carpet	-11.6421
▁pub	-11.6424
Sabía	-11.6428
▁condena	-11.6554
▁deposit	-11.6558
▁hydro	-11.6559
▁histórica	-11.656
Qaeda	-11.656
▁Indonesia	-11.656
▁chimpanzee	-11.656
▁cluster	-11.656
▁clásica	-11.656
▁corporate	-11.656
▁dioxide	-11.656
▁discipline	-11.656
▁escuché	-11.656
▁extiende	-11.656
▁francés	-11.656
▁hablé	-11.656
▁hembra	-11.656
▁intuitive	-11.656
▁invernadero	-11.656
▁magnética	-11.656
▁opposed	-11.656
▁plenty	-11.656
▁procedure	-11.656
▁secundario	-11.656
▁spectacular	-11.656
▁tropical	-11.656
▁Ángeles	-11.656
▁PIB	-11.656
▁expansión	-11.656
▁inspiring	-11.656
▁vegetal	-11.656
▁dignity	-11.656
▁enseñanza	-11.656
▁excava	-11.656
▁hierba	-11.656
▁reject	-11.656
▁translation	-11.656
▁recipe	-11.656
▁autopista	-11.656
▁choque	-11.656
▁inclina	-11.656
▁magnifi	-11.6561
▁billete	-11.6561
▁mutation	-11.6561
▁orange	-11.6561
▁presiona	-11.6561
▁overcome	-11.6561
specific	-11.6562
▁barrier	-11.6564
▁difundi	-11.6621
▁quo	-11.6668
▁fisi	-11.669
▁Necesita	-11.6703
▁brilla	-11.6703
▁Atlantic	-11.6712
▁Egipto	-11.6712
▁Narrator	-11.6712
▁empezado	-11.6712
▁frozen	-11.6712
▁fútbol	-11.6712
▁immune	-11.6712
▁instrucciones	-11.6712
▁obsessed	-11.6712
▁trayectoria	-11.6712
▁ámbito	-11.6712
▁encuentre	-11.6712
▁informático	-11.6712
▁rescate	-11.6712
▁infinita	-11.6712
▁description	-11.6712
▁Centro	-11.6712
▁pidieron	-11.6712
▁Nature	-11.6712
▁exposed	-11.6712
▁lucro	-11.6712
▁cuarta	-11.6712
▁encender	-11.6712
▁afterwards	-11.6712
▁subtle	-11.6713
▁conforme	-11.6715
▁sync	-11.6715
▁route	-11.6717
▁import	-11.6747
ü	-11.6774
igua	-11.6783
primido	-11.6842
religion	-11.6846
lethal	-11.6862
▁Charlie	-11.6865
▁comenzado	-11.6865
▁extranjero	-11.6865
▁optimistic	-11.6865
▁reduction	-11.6865
▁terremoto	-11.6865
▁Remember	-11.6865
▁Supongo	-11.6865
▁caricatura	-11.6865
▁festival	-11.6865
▁illness	-11.6865
▁fiction	-11.6865
▁intuition	-11.6865
▁Jill	-11.6866
▁cohete	-11.6866
▁bulb	-11.6866
▁rising	-11.6866
▁senior	-11.6866
▁solicit	-11.6866
▁codifica	-11.6866
▁remoto	-11.6866
▁dominio	-11.6868
▁escapar	-11.6869
▁perfora	-11.6877
▁database	-11.6882
▁disminuye	-11.6912
cruz	-11.6935
flexión	-11.699
natural	-11.7003
nature	-11.7003
Para	-11.7005
▁relief	-11.7022
#	-11.7022
▁Beijing	-11.7022
▁boundaries	-11.7022
▁curiosity	-11.7022
▁earthquake	-11.7022
▁envejecimiento	-11.7022
▁illegal	-11.7022
▁industries	-11.7022
▁institución	-11.7022
▁mágico	-11.7022
▁apartamento	-11.7022
▁evapora	-11.7022
▁expedition	-11.7022
▁introvert	-11.7022
▁ONG	-11.7022
▁ocurra	-11.7022
▁football	-11.7022
▁Encontra	-11.7022
▁conozca	-11.7022
▁remix	-11.7022
▁ficción	-11.7022
▁charity	-11.7022
▁drove	-11.7022
▁IBM	-11.7022
▁dirty	-11.7022
▁compartido	-11.7022
▁hormona	-11.7022
▁stunt	-11.7023
▁remonta	-11.7023
▁demonio	-11.7025
▁cereal	-11.7027
▁diverge	-11.7039
▁ejerc	-11.7046
▁Lyn	-11.705
▁utiliz	-11.7058
field	-11.7161
▁Greek	-11.718
▁contemporary	-11.718
▁leverage	-11.718
▁microscope	-11.718
▁microscopio	-11.718
▁residuos	-11.718
▁aparentemente	-11.718
▁candidate	-11.718
▁dimensión	-11.718
▁stroke	-11.718
▁terminé	-11.718
▁depredador	-11.718
▁Wood	-11.718
▁raíz	-11.718
▁montones	-11.718
▁desechos	-11.718
▁murder	-11.7181
▁ciega	-11.7181
▁disrupt	-11.7181
▁engaño	-11.7181
▁bonita	-11.7181
▁neat	-11.7181
▁appeal	-11.7181
▁defense	-11.7181
▁dispersa	-11.7181
▁seriamente	-11.7181
▁knee	-11.7182
Correcto	-11.7183
▁infant	-11.7185
cultural	-11.7321
violence	-11.7322
writing	-11.7322
▁Escuela	-11.7342
▁January	-11.7342
▁Monterey	-11.7342
▁Mumbai	-11.7342
▁Quisiera	-11.7342
▁Republican	-11.7342
▁Stewart	-11.7342
▁Teszler	-11.7342
▁automáticamente	-11.7342
▁concluir	-11.7342
▁cotidiana	-11.7342
▁filósofo	-11.7342
▁orgánica	-11.7342
▁recognition	-11.7342
▁vulnerability	-11.7342
▁vínculo	-11.7342
▁1994	-11.7342
▁Except	-11.7342
▁Montana	-11.7342
▁arrange	-11.7342
▁flood	-11.7342
▁predicciones	-11.7342
▁Muchísim	-11.7342
▁Natural	-11.7342
▁vacuum	-11.7342
▁Ruanda	-11.7342
▁envejece	-11.7342
▁trabaje	-11.7342
▁agradecer	-11.7342
▁legacy	-11.7342
▁reconcil	-11.7342
▁Kelly	-11.7342
▁entró	-11.7342
▁diablo	-11.7342
▁relax	-11.7342
▁Children	-11.7342
ámoslo	-11.7342
▁shake	-11.7344
▁Estudi	-11.7345
Guau	-11.7413
▁fij	-11.7477
communication	-11.7486
century	-11.7486
▁Brooklyn	-11.7506
▁Jonathan	-11.7506
▁Kennedy	-11.7506
▁Olympic	-11.7506
▁africana	-11.7506
▁ligeramente	-11.7506
▁neither	-11.7506
▁philosopher	-11.7506
▁pirámide	-11.7506
▁romántico	-11.7506
▁Atlanta	-11.7506
▁Natasha	-11.7506
▁cardíaco	-11.7506
▁conseguí	-11.7506
▁demasiada	-11.7506
▁tragedy	-11.7506
▁logró	-11.7506
▁conmovedor	-11.7506
▁intervention	-11.7506
▁borrow	-11.7506
▁chief	-11.7506
▁proporción	-11.7506
▁falsa	-11.7506
▁rastrea	-11.7506
▁Soviet	-11.7506
▁Consider	-11.7507
Cuándo	-11.7507
▁cubrir	-11.7507
▁mutila	-11.7511
▁silent	-11.7515
▁clasifica	-11.7521
▁nací	-11.7572
Entonces	-11.7653
Tengo	-11.7653
▁Keith	-11.7672
▁Kosovo	-11.7672
▁NGO	-11.7672
▁TEDGlobal	-11.7672
▁breakthrough	-11.7672
▁constituye	-11.7672
▁embarazada	-11.7672
▁enseñó	-11.7672
▁scratch	-11.7672
▁'70	-11.7672
▁Taliban	-11.7672
▁decrease	-11.7672
▁shrimp	-11.7672
▁Alaska	-11.7672
▁desperate	-11.7672
▁ethnic	-11.7672
▁galería	-11.7672
▁hormone	-11.7673
▁suicida	-11.7673
▁fortune	-11.7673
Cuánta	-11.7673
duzca	-11.7673
▁spark	-11.7673
▁feminist	-11.7673
▁Organiza	-11.7674
▁lleve	-11.7674
▁lidera	-11.7682
ógrafo	-11.769
sociación	-11.7796
▁efectiva	-11.7834
▁corrupt	-11.7837
▁tremendo	-11.7837
pósito	-11.7839
▁sistemática	-11.7842
▁Departamento	-11.7842
▁Department	-11.7842
▁Namibia	-11.7842
▁facility	-11.7842
▁frequency	-11.7842
▁gubernamental	-11.7842
▁ilusión	-11.7842
▁precipita	-11.7842
▁destreza	-11.7842
▁pandemia	-11.7842
▁prisionero	-11.7842
▁tuberculosis	-11.7842
▁cerveza	-11.7842
▁cuántica	-11.7842
▁infinito	-11.7842
▁súper	-11.7842
▁yield	-11.7842
▁añadir	-11.7842
▁protocol	-11.7842
▁limpio	-11.7842
▁desorden	-11.7842
▁twist	-11.7842
▁optimism	-11.7842
▁bonito	-11.7842
▁northern	-11.7842
▁sugerir	-11.7842
▁Northern	-11.7842
▁cuello	-11.7842
▁shelter	-11.7842
▁fruta	-11.7843
▁bombarde	-11.7843
▁idiot	-11.7843
▁Diseñ	-11.7844
▁Llega	-11.7844
▁contradict	-11.7854
▁reflex	-11.7875
¡	-11.7968
society	-11.7995
why	-11.7995
▁Actualmente	-11.8014
▁System	-11.8014
▁conseguimos	-11.8014
▁dialogue	-11.8014
▁fulfill	-11.8014
▁glamorous	-11.8014
▁glamour	-11.8014
▁robótica	-11.8014
▁transparencia	-11.8014
▁MRI	-11.8014
▁antibiotic	-11.8014
▁escáner	-11.8014
▁instinto	-11.8014
▁obesidad	-11.8014
▁sabéis	-11.8014
▁ecológica	-11.8014
▁providing	-11.8014
▁struck	-11.8014
▁Wolfram	-11.8014
▁tangible	-11.8014
▁tradiciones	-11.8014
▁atractivo	-11.8014
▁estrecha	-11.8014
▁pioneer	-11.8014
▁colony	-11.8014
▁acquire	-11.8014
▁medusa	-11.8014
▁pedimos	-11.8015
▁adivina	-11.8015
▁fluye	-11.8089
universe	-11.817
American	-11.817
▁orgullo	-11.8183
▁glaciar	-11.819
▁October	-11.819
▁XIX	-11.819
▁colectivo	-11.819
▁cráneo	-11.819
▁energética	-11.819
▁guarantee	-11.819
▁intangible	-11.819
▁mágica	-11.819
▁régimen	-11.819
▁umbral	-11.819
▁éramos	-11.819
▁Mountain	-11.819
▁Proyecto	-11.819
▁automobile	-11.819
▁camiones	-11.819
▁catástrofe	-11.819
▁fifth	-11.819
▁mutuamente	-11.819
▁obesity	-11.819
▁phantom	-11.819
▁scenario	-11.819
▁sofisticado	-11.819
▁cliff	-11.819
▁informática	-11.819
▁óptica	-11.819
▁concrete	-11.819
▁primavera	-11.819
▁promesa	-11.819
▁naked	-11.819
▁watt	-11.819
▁volte	-11.819
▁pedido	-11.8191
▁arranc	-11.8192
▁compensa	-11.8192
▁Recib	-11.8193
▁nombra	-11.8194
prendió	-11.8284
▁rebuild	-11.8349
▁Columbia	-11.8368
▁Jewish	-11.8368
▁Neanderthal	-11.8368
▁Significa	-11.8368
▁Sputnik	-11.8368
▁apropiado	-11.8368
▁autonomous	-11.8368
▁awesome	-11.8368
▁fabulous	-11.8368
▁happier	-11.8368
▁llamé	-11.8368
▁magnífico	-11.8368
▁refugee	-11.8368
▁unbelievable	-11.8368
▁íbamos	-11.8368
▁español	-11.8368
▁fraction	-11.8368
▁interconnect	-11.8368
▁naranja	-11.8368
▁qualities	-11.8368
▁cheese	-11.8368
▁llevo	-11.8368
▁arroz	-11.8368
▁methane	-11.8368
▁pregunte	-11.8368
▁tormenta	-11.8369
▁chef	-11.8369
▁aterrador	-11.8369
▁inmensa	-11.837
▁orgasm	-11.8371
▁pausa	-11.8373
▁slice	-11.8382
▁procede	-11.8438
present	-11.8522
interest	-11.8531
Listen	-11.8537
▁drama	-11.8538
▁sculpt	-11.855
▁aficionado	-11.855
▁antibiótico	-11.855
▁evolutiva	-11.855
▁increible	-11.855
▁académico	-11.855
▁apparently	-11.855
▁centímetro	-11.855
▁demonstration	-11.855
▁descifrar	-11.855
▁frágil	-11.855
▁impression	-11.855
▁produciendo	-11.855
▁préstamo	-11.855
▁uncertainty	-11.855
▁vosotros	-11.855
▁1997	-11.855
▁scholar	-11.855
▁traducción	-11.855
▁Rachel	-11.855
▁drift	-11.855
▁extensión	-11.855
▁necesite	-11.855
▁París	-11.855
▁cardíaca	-11.855
▁división	-11.855
▁renunci	-11.855
▁Arctic	-11.855
▁seguimiento	-11.855
▁bizarre	-11.855
▁Third	-11.855
▁propaganda	-11.855
▁purchase	-11.855
▁torture	-11.8551
▁redefini	-11.8551
▁welcome	-11.8551
▁macro	-11.8551
▁wipe	-11.8557
árselo	-11.8564
▁restaura	-11.8716
▁Desarroll	-11.8735
▁Normalmente	-11.8735
▁abundancia	-11.8735
▁arbitra	-11.8735
▁computacional	-11.8735
▁comunitario	-11.8735
▁imagino	-11.8735
▁incertidumbre	-11.8735
▁oxitocina	-11.8735
▁primordial	-11.8735
▁reconstruct	-11.8735
▁ridículo	-11.8735
▁crystal	-11.8735
▁hungry	-11.8735
▁neurociencia	-11.8735
▁thumb	-11.8735
▁ecological	-11.8735
▁progresa	-11.8735
figuring	-11.8735
▁rodilla	-11.8735
▁valiente	-11.8735
▁acercó	-11.8735
▁cousin	-11.8735
▁variación	-11.8735
▁housing	-11.8735
▁interroga	-11.8735
▁drum	-11.8735
▁curiosa	-11.8736
▁resort	-11.874
llowing	-11.8846
conflict	-11.8904
cuánto	-11.8905
▁absoluta	-11.8917
▁Should	-11.8924
+	-11.8924
▁Turquía	-11.8924
▁afortunado	-11.8924
▁cognitivo	-11.8924
▁collaborative	-11.8924
▁contribution	-11.8924
▁corazones	-11.8924
▁curriculum	-11.8924
▁esclavitud	-11.8924
▁extension	-11.8924
▁femenina	-11.8924
▁forgotten	-11.8924
▁fórmula	-11.8924
▁helicopter	-11.8924
▁inesperado	-11.8924
▁lápiz	-11.8924
▁médula	-11.8924
▁obstante	-11.8924
▁oxytocin	-11.8924
▁substance	-11.8924
▁Civil	-11.8924
▁mysterious	-11.8924
▁poblaciones	-11.8924
▁prefrontal	-11.8924
▁comparison	-11.8924
▁expectancy	-11.8924
▁policies	-11.8924
▁incendio	-11.8924
▁thrill	-11.8924
▁abrió	-11.8924
▁sintetiz	-11.8924
▁explode	-11.8924
▁juzga	-11.8924
▁miniatur	-11.8925
▁cardiac	-11.8926
▁cosmolog	-11.8928
▁coloniz	-11.893
iéndonos	-11.8934
When	-11.9097
personal	-11.9097
▁immediate	-11.9103
▁impresiona	-11.9105
▁Francis	-11.911
▁equilibr	-11.9114
▁sospecho	-11.9116
▁Atlántico	-11.9116
▁Etiopía	-11.9116
▁Jefferson	-11.9116
▁Venezuela	-11.9116
▁announced	-11.9116
▁biodiversidad	-11.9116
▁dilemma	-11.9116
▁entropy	-11.9116
▁genocide	-11.9116
▁genocidio	-11.9116
▁jellyfish	-11.9116
▁panorama	-11.9116
▁struggling	-11.9116
▁1945	-11.9116
▁candidato	-11.9116
▁censura	-11.9116
▁corporation	-11.9116
▁cristiano	-11.9116
▁democrático	-11.9116
▁helicóptero	-11.9116
▁arruina	-11.9116
▁reflejo	-11.9116
▁exhaust	-11.9116
▁valiosa	-11.9116
▁Navidad	-11.9116
▁parecida	-11.9116
▁Bruce	-11.9116
▁Mozart	-11.9116
▁rabbi	-11.9117
▁junio	-11.9117
▁reflexiona	-11.9117
▁believ	-11.9192
community	-11.9293
▁Himalaya	-11.9312
▁cognitiva	-11.9312
▁disagree	-11.9312
▁eficaz	-11.9312
▁triangle	-11.9312
▁Ciudad	-11.9312
▁acoustic	-11.9312
▁contribuir	-11.9312
▁discrimin	-11.9312
▁dígitos	-11.9312
▁etcétera	-11.9312
Z	-11.9493
É	-12.0353
)	-12.0577
=	-12.3122
$	-12.3397
Í	-12.4354
*	-12.4688
ö	-12.4688
°	-12.539
Ú	-12.6545
@	-12.7396
à	-12.9353
ì	-12.9353
®	-13.1789
[	-13.2484
ä	-13.2503
è	-13.5015
ã	-13.8376
ç	-14.1471
─	-14.1471
“	-14.3452
£	-14.3471
ò	-14.3471
©	-14.5971
â	-14.5971
ë	-14.5971
你	-14.5971
个	-14.9304
`	-14.9304
ň	-14.9304
我	-14.9304
啊	-15.4304
洋	-15.4304
ð	-15.4304
ō	-15.4304
¥	-15.4304
Ñ	-15.4304
î	-15.4304
ù	-15.4304
ć	-15.4304
€	-15.4304
。	-15.4304
葱	-15.4304
送	-15.4304
­	-15.4304
ā	-15.4304
妈	-15.4305
«	-16.4286
游	-16.4287
来	-16.4288
有	-16.4289
历	-16.429
了	-16.4291
ī	-16.4292
È	-16.4293
̊	-16.4294
ï	-16.4295
ø	-16.4296
^	-16.4297
ê	-16.4298
Ó	-16.4299
́	-16.43
⁄	-16.4301
‘	-16.4302
(	-16.4303
喜	-16.4304
̈	-16.4304
不	-16.4304
中	-16.4304
出	-16.4304
声	-16.4304
太	-16.4304
妨	-16.4304
心	-16.4304
等	-16.4304
阳	-16.4304
š	-16.4304
\	-16.4304
{	-16.4304
}	-16.4304
Ç	-16.4304
ē	-16.4304
ŕ	-16.4304
Т	-16.4304
а	-16.4304
世	-16.4304
外	-16.4304
教	-16.4304
曲	-16.4304
歌	-16.4304
界	-16.4304
的	-16.4304
面	-16.4304
音	-16.4304
ń	-16.4305
一	-16.4305
下	-16.4305
以	-16.4305
可	-16.4305
唱	-16.4305
大	-16.4305
姐	-16.4305
王	-16.4305
给	-16.4305
