<pad>	0
<unk>	0
<s>	0
</s>	0
<es_to_en>	0
<es_to_nah>	0
,	-3.09386
.	-3.21107
▁de	-3.28702
▁que	-3.62225
s	-3.65226
▁la	-3.88798
▁en	-4.01187
▁a	-4.07112
▁y	-4.07257
▁el	-4.22507
▁es	-4.59115
▁un	-4.69269
▁los	-4.70807
▁se	-4.87442
▁una	-4.91048
▁no	-4.9981
n	-5.00249
▁Y	-5.05602
▁lo	-5.09472
r	-5.09926
▁con	-5.12028
▁para	-5.19334
▁las	-5.2662
▁por	-5.30516
▁del	-5.33429
:	-5.53722
▁como	-5.65778
▁su	-5.67448
▁más	-5.67622
▁al	-5.733
?	-5.78592
es	-5.78666
▁¿	-5.79162
▁	-5.82367
do	-5.91974
▁o	-5.96826
▁me	-6.00734
▁"	-6.02324
▁si	-6.02506
▁mi	-6.10861
a	-6.11324
o	-6.14157
mos	-6.1506
▁esta	-6.16178
▁este	-6.21808
▁muy	-6.25468
▁esto	-6.25958
▁Pero	-6.27362
▁son	-6.30288
▁está	-6.35035
▁le	-6.36232
;	-6.36599
l	-6.37004
▁pero	-6.39185
da	-6.41247
▁cuando	-6.42151
▁--	-6.4245
▁eso	-6.4429
▁años	-6.44957
e	-6.45423
_	-6.46097
▁todo	-6.46748
▁porque	-6.47198
▁hacer	-6.47752
▁La	-6.52929
▁No	-6.55198
▁Así	-6.57062
▁sus	-6.57833
▁hay	-6.58029
▁sobre	-6.58103
▁El	-6.58133
▁En	-6.59047
ndo	-6.59276
mente	-6.62452
▁mundo	-6.62692
▁ha	-6.62844
▁ser	-6.62928
la	-6.62955
▁algo	-6.63331
te	-6.64457
ción	-6.64553
▁Es	-6.64855
ra	-6.65361
▁cosas	-6.66299
▁era	-6.66723
lo	-6.67736
d	-6.6782
▁nos	-6.71877
▁fue	-6.71965
▁A	-6.72273
ó	-6.72367
▁gente	-6.73993
▁todos	-6.76152
t	-6.77222
▁uno	-6.77555
y	-6.77767
/	-6.78904
▁ver	-6.79111
▁aquí	-6.79993
c	-6.80447
ba	-6.80957
▁puede	-6.83933
▁qué	-6.84399
▁así	-6.84797
▁vez	-6.86996
▁re	-6.8929
▁yo	-6.90223
ta	-6.91424
▁también	-6.91826
▁les	-6.925
▁tiene	-6.92637
▁dos	-6.94267
▁personas	-6.95785
".	-6.96245
▁están	-6.97378
ron	-6.9754
é	-6.97814
▁tiempo	-6.98737
▁vida	-6.98898
▁hace	-7.0042
se	-7.00501
dos	-7.01312
▁te	-7.02098
▁hecho	-7.02362
i	-7.03289
to	-7.03368
▁e	-7.03462
le	-7.03911
co	-7.04476
▁Se	-7.05054
ca	-7.0519
▁sólo	-7.05391
▁donde	-7.05926
ti	-7.05949
▁forma	-7.06919
▁mucho	-7.08873
▁in	-7.09142
me	-7.09604
m	-7.10326
▁♫	-7.10548
▁Si	-7.1079
▁bien	-7.10989
▁ahora	-7.12002
ar	-7.12918
-	-7.13504
▁ya	-7.14552
en	-7.15882
▁ese	-7.15971
▁él	-7.17262
...	-7.17314
p	-7.18034
▁cómo	-7.19689
▁pueden	-7.2025
▁estaba	-7.21049
▁tu	-7.21155
▁ellos	-7.21321
▁tenemos	-7.21921
▁había	-7.2218
▁cada	-7.2286
▁dijo	-7.23155
ma	-7.23202
▁De	-7.23342
▁año	-7.23914
▁mismo	-7.24059
no	-7.24163
de	-7.24503
▁estos	-7.2477
▁manera	-7.24997
▁estas	-7.25232
▁entre	-7.25833
▁esa	-7.25852
▁parte	-7.26151
"	-7.26449
an	-7.26486
í	-7.26493
▁sin	-7.27959
ri	-7.28344
▁va	-7.28759
▁realmente	-7.2884
▁gran	-7.29601
ce	-7.30331
▁Lo	-7.30392
▁Entonces	-7.30958
ro	-7.30962
á	-7.31128
▁nuestro	-7.31814
▁Por	-7.32165
▁tan	-7.32891
na	-7.34172
▁día	-7.34174
▁decir	-7.35582
u	-7.36091
▁han	-7.36902
▁podemos	-7.37232
▁tienen	-7.37682
▁desde	-7.38764
▁luego	-7.39071
▁he	-7.39272
b	-7.39544
g	-7.39924
▁hasta	-7.40087
▁nosotros	-7.40716
▁Ahora	-7.41187
re	-7.4137
▁otra	-7.4168
ía	-7.42077
▁lugar	-7.42395
di	-7.43085
das	-7.44138
li	-7.45609
▁Los	-7.46637
z	-7.46745
▁entonces	-7.47213
▁poco	-7.47561
▁ni	-7.47715
▁nuestra	-7.49007
▁otro	-7.5009
er	-7.51016
▁tipo	-7.51698
ga	-7.52327
▁estamos	-7.53643
▁después	-7.54692
al	-7.55142
▁historia	-7.55593
▁casa	-7.5581
▁todas	-7.57052
▁Esto	-7.57158
ci	-7.57935
▁idea	-7.5795
ban	-7.58435
▁tener	-7.58707
mi	-7.58868
les	-7.59007
rse	-7.59729
▁Dios	-7.60715
▁trabajo	-7.60822
▁creo	-7.60954
▁agua	-7.62034
A	-7.62169
▁Me	-7.62169
▁mejor	-7.62186
▁Esta	-7.62297
mo	-7.64004
▁realidad	-7.64403
▁tres	-7.65315
os	-7.66008
so	-7.66301
▁millones	-7.67555
▁sea	-7.68447
▁momento	-7.68777
▁menos	-7.68918
cu	-7.69079
▁hemos	-7.69169
Qué	-7.69582
▁Porque	-7.69888
pe	-7.70242
▁Este	-7.70776
v	-7.71173
▁otros	-7.71221
sa	-7.72143
▁durante	-7.72262
▁nada	-7.72667
▁sino	-7.72776
▁Cuando	-7.73075
ciones	-7.74079
▁niños	-7.74218
que	-7.74281
▁da	-7.74682
▁O	-7.75523
nos	-7.76201
▁allí	-7.76747
go	-7.77202
▁ven	-7.77385
▁di	-7.77699
▁hacia	-7.77748
▁sí	-7.77871
ría	-7.77931
as	-7.78099
on	-7.78224
▁antes	-7.78231
▁muchos	-7.783
▁tanto	-7.7848
▁ir	-7.78599
!	-7.78626
▁solo	-7.79184
tra	-7.79867
▁C	-7.7992
▁mí	-7.8053
ten	-7.80638
ado	-7.80677
tu	-7.8084
▁dice	-7.809
▁mis	-7.81077
▁importante	-7.81117
▁ella	-7.8114
▁toda	-7.81326
▁acerca	-7.81563
▁tenía	-7.81566
idad	-7.81861
pa	-7.82662
nte	-7.82985
▁nuevo	-7.83016
▁sido	-7.8348
▁hoy	-7.83734
▁Hay	-7.84234
▁Mi	-7.85011
▁E	-7.85177
▁algunos	-7.8535
▁veces	-7.85421
pi	-7.85742
qui	-7.8593
▁cosa	-7.86361
▁ustedes	-7.86395
▁problema	-7.86447
com	-7.86491
▁ejemplo	-7.86968
▁primera	-7.8786
▁pregunta	-7.87876
va	-7.8801
▁cuenta	-7.88104
▁contra	-7.88284
."	-7.88706
▁quiero	-7.89036
▁unos	-7.89078
▁nuestros	-7.89552
▁saben	-7.89754
▁tal	-7.89781
ne	-7.90374
▁sistema	-7.90869
▁hablar	-7.90919
▁estoy	-7.912
dor	-7.91234
▁ve	-7.91841
▁muchas	-7.91878
▁S	-7.92566
bo	-7.92957
▁10	-7.93254
▁poder	-7.93418
▁estar	-7.93613
▁Al	-7.9421
▁haciendo	-7.94244
gu	-7.94358
ja	-7.94477
▁siempre	-7.94564
is	-7.95224
▁pro	-7.95307
▁otras	-7.95937
▁tierra	-7.96038
f	-7.96251
?"	-7.96479
▁voy	-7.96733
po	-7.96979
▁verdad	-7.97102
▁estado	-7.97429
▁tecnología	-7.98053
▁medio	-7.98194
je	-7.98251
▁-	-7.98804
rá	-7.98862
▁Bueno	-7.9889
za	-7.99082
án	-7.99265
▁Yo	-7.99411
▁ahí	-8.00348
▁cual	-8.0056
▁alguien	-8.01692
▁Eso	-8.0187
▁cerebro	-8.01972
▁nunca	-8.02114
▁¡	-8.03526
▁ciudad	-8.0353
▁co	-8.0354
el	-8.03805
qué	-8.04132
dores	-8.04314
las	-8.04354
▁podría	-8.0457
▁persona	-8.04577
▁grandes	-8.04626
emos	-8.05213
ter	-8.05886
▁mayor	-8.06149
▁3	-8.06182
▁pensar	-8.06291
▁ca	-8.06706
▁cualquier	-8.0769
in	-8.08259
▁hacerlo	-8.08323
ieron	-8.08787
los	-8.09896
▁hombre	-8.10281
▁pre	-8.10361
▁Una	-8.10603
bi	-8.10618
▁tengo	-8.10682
ir	-8.10857
▁fueron	-8.1104
tas	-8.11371
lla	-8.12272
▁punto	-8.12461
]	-8.12631
ted	-8.12718
▁fuera	-8.12767
C	-8.1334
S	-8.13658
ch	-8.13972
▁Con	-8.14013
fi	-8.14079
▁[	-8.14475
▁van	-8.1471
▁aún	-8.1472
amos	-8.14901
res	-8.14939
▁mujeres	-8.1511
▁información	-8.15143
▁B	-8.15389
x	-8.15536
▁algunas	-8.15861
▁"¿	-8.16056
si	-8.16487
tó	-8.16576
▁dicho	-8.16702
▁Ma	-8.16704
▁I	-8.16955
ve	-8.17378
▁modo	-8.17515
▁días	-8.17635
▁primer	-8.17642
▁quien	-8.17707
vo	-8.17751
▁esas	-8.1784
jo	-8.17992
▁grande	-8.18381
k	-8.18431
▁Las	-8.18453
▁hizo	-8.18931
▁ex	-8.18955
▁vi	-8.19128
▁cuerpo	-8.19856
▁alrededor	-8.20148
I	-8.20497
▁llamado	-8.20535
▁misma	-8.20695
lang	-8.20714
tp	-8.20801
www	-8.20972
▁Te	-8.21058
ntes	-8.21083
talks	-8.21318
▁energía	-8.21403
://	-8.21406
▁ht	-8.2143
html	-8.21573
▁esos	-8.21706
▁usar	-8.21846
Y	-8.2203
▁19	-8.22194
▁hacen	-8.2224
▁bueno	-8.22277
▁allá	-8.22358
▁dentro	-8.22637
▁par	-8.22662
be	-8.22723
▁dinero	-8.22881
▁20	-8.22959
▁encontrar	-8.23036
Cómo	-8.23499
▁Aquí	-8.23612
No	-8.23651
▁diferentes	-8.23708
▁crear	-8.23843
▁haber	-8.24259
ido	-8.24367
▁casi	-8.25259
▁significa	-8.25269
▁Un	-8.25494
▁mientras	-8.25639
▁espacio	-8.2573
▁cierto	-8.2578
ré	-8.25783
▁dije	-8.25964
▁trata	-8.26113
▁Le	-8.26166
▁pasado	-8.26607
▁San	-8.26648
tos	-8.26902
ada	-8.27229
▁mil	-8.27295
ble	-8.27435
▁datos	-8.276
h	-8.27675
▁cuatro	-8.2792
▁luz	-8.27932
Por	-8.28343
▁alguna	-8.29959
▁nuestras	-8.30048
▁gracias	-8.3028
▁vamos	-8.30374
▁mal	-8.30659
▁problemas	-8.30716
▁lado	-8.3102
▁eran	-8.31203
▁tomar	-8.31285
▁llama	-8.31475
ón	-8.31589
▁dólares	-8.31612
▁Co	-8.31892
▁estaban	-8.32039
ando	-8.32309
ían	-8.32621
▁nadie	-8.32839
▁bastante	-8.33033
▁puedo	-8.33325
▁planeta	-8.3362
▁través	-8.33813
▁Su	-8.34004
▁señor	-8.34186
▁Gracias	-8.34413
▁pa	-8.34636
cha	-8.34896
▁futuro	-8.35093
por	-8.35108
▁cambio	-8.35433
con	-8.35629
▁país	-8.3598
▁soy	-8.36281
ria	-8.36389
▁madre	-8.37296
▁supuesto	-8.37299
2	-8.3731
tar	-8.37517
▁Para	-8.37729
▁P	-8.37821
▁don	-8.38063
▁incluso	-8.38318
▁final	-8.38532
▁diseño	-8.38728
▁mayoría	-8.38922
▁1	-8.39019
gi	-8.39117
▁ti	-8.39264
▁Jesús	-8.39762
▁cambiar	-8.39985
P	-8.4005
sta	-8.4011
▁posible	-8.40151
iendo	-8.40431
▁4	-8.40438
▁funciona	-8.405
▁hombres	-8.40598
ú	-8.40635
ni	-8.40721
▁bajo	-8.40838
▁mujer	-8.41552
man	-8.41771
▁T	-8.41867
▁sentido	-8.42181
▁2	-8.42364
▁También	-8.42615
▁sé	-8.42747
▁razón	-8.42822
▁pequeño	-8.4284
▁Como	-8.43149
▁hijos	-8.43342
rán	-8.4346
▁Re	-8.43487
▁ayuda	-8.43527
ie	-8.43671
▁tra	-8.43702
O	-8.43854
▁pues	-8.44162
▁cu	-8.44277
▁parece	-8.44456
▁per	-8.4448
▁diferente	-8.44835
▁real	-8.44869
▁difícil	-8.44896
▁camino	-8.45208
▁primero	-8.45239
▁cerca	-8.45388
▁nombre	-8.45398
cas	-8.4552
▁padre	-8.45626
ver	-8.45723
▁cinco	-8.45757
▁visto	-8.45773
",	-8.46184
▁caso	-8.46353
▁mano	-8.4708
▁mucha	-8.47103
▁dar	-8.47421
cho	-8.47526
D	-8.47634
▁sería	-8.48032
▁somos	-8.48171
▁será	-8.48202
▁nueva	-8.48357
3	-8.48414
▁guerra	-8.4844
▁dis	-8.48522
▁llegar	-8.48628
▁entender	-8.48926
w	-8.49003
▁vosotros	-8.49122
▁p	-8.49151
▁Bien	-8.4992
▁mo	-8.50036
▁buena	-8.50165
▁pasa	-8.5039
ran	-8.50401
▁Ha	-8.50439
▁5	-8.5052
▁c	-8.50603
▁(	-8.50733
tro	-8.50738
▁grupo	-8.50971
▁ma	-8.52494
1	-8.52593
▁interesante	-8.52676
▁arte	-8.53098
imos	-8.53173
▁países	-8.53211
▁largo	-8.53351
ll	-8.53403
▁auto	-8.53409
▁15	-8.5349
era	-8.53517
▁proceso	-8.53554
▁algún	-8.53622
ación	-8.53681
un	-8.5399
▁salud	-8.54181
▁mar	-8.54302
▁li	-8.54339
rnos	-8.54523
▁imagen	-8.54633
▁palabras	-8.54865
▁saber	-8.54873
tri	-8.54936
▁libro	-8.55113
▁habían	-8.55211
il	-8.55235
▁diciendo	-8.55852
▁proyecto	-8.5586
▁palabra	-8.55978
▁dónde	-8.56008
▁ideas	-8.56037
▁puedes	-8.56436
▁sabemos	-8.56532
▁pe	-8.56692
ck	-8.56823
▁pequeña	-8.5699
▁niño	-8.57011
▁os	-8.57411
▁causa	-8.57571
▁vemos	-8.57607
ste	-8.58006
ia	-8.58139
▁hacemos	-8.58358
▁especie	-8.58394
▁He	-8.58448
tzin	-8.58604
▁necesita	-8.58749
mp	-8.58913
▁siguiente	-8.5907
▁todavía	-8.59196
▁podía	-8.59202
ados	-8.59261
▁segundo	-8.59304
▁Di	-8.59392
▁poner	-8.59615
▁noche	-8.59819
ven	-8.59853
ita	-8.60017
E	-8.60083
▁África	-8.60083
bu	-8.60198
▁experiencia	-8.60211
▁Señor	-8.6039
▁llamada	-8.60601
▁12	-8.60732
T	-8.60775
or	-8.60777
▁simplemente	-8.60833
rio	-8.60907
▁TED	-8.61207
tiva	-8.61358
▁hijo	-8.61404
▁Creo	-8.61531
▁Ya	-8.61799
▁meses	-8.62155
▁ciencia	-8.6231
5	-8.62644
▁Tenemos	-8.62683
6	-8.62805
▁respuesta	-8.6287
sión	-8.63412
lu	-8.63478
M	-8.63691
▁construir	-8.63713
▁so	-8.63941
▁muestra	-8.63972
ida	-8.64049
▁gusta	-8.64068
▁México	-8.6411
▁digo	-8.64343
▁humanos	-8.64374
▁com	-8.6464
▁corazón	-8.64776
ha	-8.65103
▁sabe	-8.65225
ul	-8.65452
ge	-8.65501
▁nivel	-8.65673
▁cabeza	-8.65716
▁debe	-8.65846
zo	-8.65928
cia	-8.65951
▁Quiero	-8.66273
▁lugares	-8.66372
▁G	-8.66398
té	-8.66513
ur	-8.66637
▁escuela	-8.66695
▁6	-8.67054
ismo	-8.67311
fa	-8.67407
▁tienes	-8.67501
ina	-8.67559
ue	-8.67888
▁comida	-8.67926
j	-8.68002
remos	-8.68099
▁F	-8.68148
▁partes	-8.6822
▁pi	-8.68222
▁trabajar	-8.68249
rlo	-8.68764
▁número	-8.68811
ncia	-8.69064
▁fin	-8.69319
▁ante	-8.69502
▁quiere	-8.69707
ió	-8.69748
▁30	-8.70071
th	-8.70401
▁toma	-8.70498
▁fe	-8.70998
▁man	-8.71135
▁Él	-8.71292
▁dijeron	-8.71682
▁Les	-8.71712
▁quería	-8.71878
▁Pa	-8.7225
▁arriba	-8.72396
▁ellas	-8.72778
cen	-8.72949
▁cantidad	-8.72953
▁India	-8.72979
ente	-8.72988
▁aunque	-8.72991
▁to	-8.73008
▁general	-8.73014
▁clase	-8.73498
▁células	-8.73575
fe	-8.7358
▁Son	-8.73807
▁K	-8.74121
▁juego	-8.74228
us	-8.74326
▁programa	-8.74389
4	-8.74475
tre	-8.74696
▁humana	-8.75023
%	-8.75101
ras	-8.75513
▁Uno	-8.75523
ña	-8.75613
8	-8.75671
▁frente	-8.75776
▁fa	-8.76047
▁escala	-8.76076
▁música	-8.76212
ol	-8.76333
▁cáncer	-8.76362
ista	-8.76419
ho	-8.76574
▁haya	-8.76696
▁u	-8.76771
▁éste	-8.76812
▁humano	-8.76814
▁centro	-8.76817
rme	-8.76893
▁llevar	-8.76912
▁Luego	-8.77264
▁probablemente	-8.77299
miento	-8.77387
▁iba	-8.7756
▁alta	-8.77627
▁tú	-8.77918
gra	-8.77948
▁siglo	-8.78027
▁diferencia	-8.78066
▁dicen	-8.78242
▁simple	-8.78243
tal	-8.78346
▁bo	-8.78434
▁medida	-8.78486
▁sol	-8.78541
yo	-8.78609
▁Juan	-8.78632
ica	-8.78651
car	-8.78849
gan	-8.79422
L	-8.79459
▁video	-8.79559
N	-8.7956
▁50	-8.79609
)	-8.79844
cer	-8.80036
nta	-8.81088
▁Estados	-8.8109
▁Unidos	-8.8112
▁miles	-8.81184
▁ba	-8.81406
▁amor	-8.81481
per	-8.81596
lle	-8.81739
▁habla	-8.81758
▁vivir	-8.81821
▁equipo	-8.81906
▁imp	-8.82038
▁Tierra	-8.82064
▁viene	-8.82191
▁muerte	-8.82223
ya	-8.82331
ing	-8.82342
▁necesitamos	-8.82496
▁cielo	-8.82701
▁tratar	-8.82862
▁“	-8.83178
▁inter	-8.833
▁ello	-8.83387
llo	-8.83604
▁pueda	-8.8364
ros	-8.83773
▁igual	-8.8383
▁Ro	-8.84228
▁tus	-8.84287
▁ro	-8.84337
▁Todos	-8.84344
▁Mo	-8.84425
▁minutos	-8.84451
tru	-8.84455
▁rápido	-8.84472
pan	-8.84519
▁gustaría	-8.84533
▁Todo	-8.84605
▁gobierno	-8.8469
▁hablando	-8.84995
tado	-8.85005
▁amigos	-8.85037
▁ojos	-8.85165
nes	-8.85181
▁control	-8.85505
▁sucede	-8.8559
▁animales	-8.8565
▁pasar	-8.8573
▁ayudar	-8.85853
ic	-8.85903
▁hice	-8.85998
▁dejar	-8.8608
▁hora	-8.86274
▁acuerdo	-8.86275
iza	-8.86363
▁siendo	-8.8662
▁seis	-8.86648
▁familia	-8.86741
▁Nueva	-8.86773
▁padres	-8.86803
▁foto	-8.86845
▁mu	-8.86874
til	-8.8701
▁Era	-8.87038
▁ciento	-8.87253
▁D	-8.8738
▁f	-8.87495
▁paso	-8.87541
▁100	-8.8761
▁natural	-8.87629
Es	-8.8767
▁res	-8.87833
B	-8.87834
▁comer	-8.87935
ero	-8.87963
for	-8.8798
▁sa	-8.8816
▁mercado	-8.88437
ton	-8.88709
ru	-8.88723
tor	-8.88735
▁mismos	-8.88941
▁quizá	-8.88951
▁red	-8.88971
▁cultura	-8.89236
▁aprender	-8.89449
▁desarrollo	-8.89469
▁embargo	-8.89469
▁tenían	-8.89568
▁imágenes	-8.89983
▁último	-8.90002
den	-8.90073
▁dado	-8.90107
▁empezar	-8.90108
▁Muchas	-8.9012
▁baja	-8.90233
▁come	-8.90297
io	-8.90349
▁dio	-8.90422
▁existe	-8.90455
ng	-8.90532
cion	-8.9054
▁alto	-8.906
▁Vi	-8.90623
▁horas	-8.90758
▁cor	-8.90967
▁manos	-8.91019
▁China	-8.91046
▁seguro	-8.91195
▁mas	-8.91246
▁principio	-8.91247
▁línea	-8.91249
aron	-8.91262
▁abajo	-8.91718
▁últimos	-8.9187
▁pienso	-8.92064
▁cara	-8.92306
'	-8.92471
hi	-8.92617
▁público	-8.92768
▁EE	-8.92808
▁importa	-8.92889
che	-8.92892
▁capacidad	-8.92945
▁ob	-8.93018
▁trabajando	-8.93082
▁Fue	-8.9321
▁social	-8.93223
▁atención	-8.93306
▁queremos	-8.93463
▁siete	-8.9348
▁completamente	-8.93531
via	-8.93637
▁plan	-8.93945
▁8	-8.94097
▁nuevas	-8.9411
▁volver	-8.94121
UU	-8.94187
▁claro	-8.94214
▁atrás	-8.9437
▁comunidad	-8.94429
▁historias	-8.94509
▁fui	-8.9452
▁increíble	-8.94563
▁mañana	-8.94729
▁naturaleza	-8.94733
▁lleva	-8.94891
▁última	-8.95089
▁fácil	-8.95137
▁car	-8.95269
▁vista	-8.95311
du	-8.95331
▁usa	-8.95394
the	-8.95451
El	-8.95528
▁buen	-8.95705
▁global	-8.95776
▁Esa	-8.95836
▁suficiente	-8.95863
rre	-8.95981
▁justo	-8.96003
▁Francisco	-8.96004
cio	-8.96317
▁decía	-8.96469
▁mente	-8.96641
▁tras	-8.96658
▁propia	-8.96748
▁representa	-8.96784
▁tarde	-8.96913
▁pueblo	-8.96937
▁media	-8.96968
tes	-8.96978
▁pequeños	-8.97435
--	-8.97461
▁edad	-8.97518
▁Está	-8.97521
▁único	-8.97651
▁demás	-8.97717
▁po	-8.97966
fu	-8.97967
▁seguir	-8.98023
tl	-8.98105
chi	-8.98226
▁Ca	-8.98242
um	-8.98308
▁economía	-8.98395
▁papel	-8.98398
▁resulta	-8.98412
▁aire	-8.98421
▁Ba	-8.98457
▁propio	-8.98458
▁vino	-8.98485
▁Internet	-8.98583
▁11	-8.98606
▁mostrar	-8.98623
▁eres	-8.98817
▁debería	-8.98888
can	-8.98954
▁junto	-8.99053
aba	-8.99115
▁Después	-8.99343
▁modelo	-8.99422
▁formas	-8.9946
▁sal	-8.99473
▁charla	-8.99526
cómo	-8.99647
▁demasiado	-8.99711
▁hicieron	-8.99711
▁universo	-8.99711
▁cuanto	-8.99759
▁esté	-8.99765
▁quieren	-8.99854
▁ninguna	-8.99901
▁educación	-8.99954
R	-8.9999
▁sociedad	-9.00161
▁común	-9.00281
▁sonido	-9.00347
istas	-9.00448
▁favor	-9.00549
tica	-9.00615
▁mensaje	-9.00662
▁comp	-9.00675
▁fuerte	-9.00766
▁Sí	-9.01044
▁tema	-9.01063
▁Jo	-9.01067
▁base	-9.01226
▁Que	-9.01328
▁tamaño	-9.01429
▁Hace	-9.01612
it	-9.01824
U	-9.0188
áis	-9.02197
▁pensé	-9.02202
▁York	-9.02402
▁uso	-9.02664
▁oportunidad	-9.0267
▁personal	-9.02727
▁Sól	-9.02825
tan	-9.02978
pre	-9.03012
00	-9.0322
cri	-9.03295
▁sub	-9.03433
▁básicamente	-9.03612
▁quienes	-9.03709
▁Sin	-9.03731
▁To	-9.0383
▁mundial	-9.03963
▁mitad	-9.0404
▁preocupa	-9.04048
▁Sa	-9.04307
▁fra	-9.04334
▁salir	-9.04394
▁gana	-9.0444
▁murió	-9.04557
▁relación	-9.04559
▁Estos	-9.04638
▁casas	-9.04782
▁exactamente	-9.04963
▁sala	-9.05076
▁orden	-9.05138
▁marca	-9.05408
▁pie	-9.05483
▁ley	-9.05721
▁superficie	-9.05756
▁pudiera	-9.05756
men	-9.05884
ad	-9.06114
▁población	-9.06159
▁M	-9.06205
G	-9.06266
▁semana	-9.06459
▁18	-9.06521
▁viaje	-9.06563
▁ce	-9.06803
▁Estamos	-9.06944
De	-9.0698
▁mirar	-9.07284
▁usando	-9.07285
▁Uds	-9.07348
▁campo	-9.07672
gen	-9.07786
▁valor	-9.07912
▁hubiera	-9.07992
ac	-9.07994
▁vidas	-9.08019
▁única	-9.08064
▁tenido	-9.08223
▁compra	-9.08283
tivo	-9.08502
▁segunda	-9.08611
▁fuerza	-9.08751
▁podrían	-9.08844
▁sitio	-9.08966
▁estructura	-9.09033
encia	-9.09274
▁Ella	-9.09281
ces	-9.09283
gún	-9.09288
▁estudio	-9.0941
▁pone	-9.09416
▁contar	-9.09485
tura	-9.0966
cos	-9.09802
rían	-9.0992
tí	-9.09963
adas	-9.10101
▁particular	-9.10145
dic	-9.10183
▁enorme	-9.10258
▁mejores	-9.10377
▁movimiento	-9.10466
▁14	-9.1051
▁edificio	-9.10679
có	-9.10681
La	-9.10693
▁política	-9.10898
▁13	-9.11309
▁pensamos	-9.11336
▁investigación	-9.11364
▁color	-9.1148
▁Pueden	-9.11751
▁éxito	-9.11762
▁efecto	-9.11771
▁tratando	-9.11886
ren	-9.11988
▁libre	-9.12208
▁mexicas	-9.12277
▁b	-9.12281
▁hi	-9.12295
▁acaba	-9.12589
▁7	-9.12859
▁Podemos	-9.12886
7	-9.129
ig	-9.13081
▁carga	-9.13558
nas	-9.13626
▁esperanza	-9.13706
gar	-9.13712
min	-9.13762
▁40	-9.1385
▁Pedro	-9.1392
▁llega	-9.14036
▁finalmente	-9.14203
▁Ellos	-9.14364
ry	-9.14495
ed	-9.14579
▁Tiene	-9.14624
▁hu	-9.14743
▁...	-9.14963
▁preguntas	-9.15177
rla	-9.15263
▁llegó	-9.15458
▁tlatohuani	-9.15458
par	-9.15501
▁estudiantes	-9.15507
▁Ni	-9.15576
▁In	-9.15586
▁laboratorio	-9.15902
▁siquiera	-9.15902
.000	-9.15951
▁Estoy	-9.16052
▁podríamos	-9.16113
▁enfermedad	-9.16261
▁seguridad	-9.16572
izar	-9.16585
▁quién	-9.16601
son	-9.16697
▁delante	-9.16837
▁ésta	-9.1694
gue	-9.1697
▁entra	-9.1699
▁compartir	-9.17021
▁cuales	-9.1713
F	-9.17175
▁exp	-9.17229
▁comportamiento	-9.17248
ngún	-9.17286
▁U	-9.17385
▁película	-9.17401
▁respecto	-9.17471
▁océano	-9.17634
▁'	-9.17852
▁hicimos	-9.17924
▁16	-9.17965
▁resto	-9.18072
▁bu	-9.18211
ke	-9.18338
▁ambiente	-9.18379
▁mira	-9.18387
▁Z	-9.18421
▁verde	-9.18664
wa	-9.18742
▁escrito	-9.18787
pon	-9.18801
▁Estas	-9.19028
▁iglesia	-9.19066
▁bi	-9.19088
▁ciudades	-9.1913
he	-9.19219
▁na	-9.19227
ment	-9.19278
▁habría	-9.19299
am	-9.19428
rlos	-9.19432
▁petróleo	-9.19526
▁puedan	-9.19559
oc	-9.19753
▁izquierda	-9.19757
▁hago	-9.1984
dio	-9.19895
▁sentir	-9.19896
▁precio	-9.1998
▁conocimiento	-9.19989
▁hija	-9.20114
▁pan	-9.20262
▁vivo	-9.20299
bre	-9.20376
▁L	-9.20399
▁falta	-9.20461
▁derecha	-9.20926
▁hacía	-9.20961
duc	-9.21039
▁crea	-9.21153
xi	-9.21172
▁trans	-9.21337
▁escuchar	-9.21451
▁producto	-9.2166
▁ri	-9.21763
▁encanta	-9.21845
▁crecimiento	-9.2186
▁voz	-9.21915
▁totalmente	-9.21963
▁física	-9.22097
▁Ese	-9.22134
rios	-9.22261
▁obtener	-9.22336
▁Na	-9.22345
▁costo	-9.22399
gre	-9.22572
ide	-9.22593
mas	-9.22706
▁mapa	-9.22757
▁jóvenes	-9.22809
nda	-9.22841
oso	-9.23026
▁viendo	-9.23076
▁tuvo	-9.23261
▁teoría	-9.23288
▁comenzó	-9.2329
uh	-9.2331
▁sola	-9.23351
▁resultado	-9.23463
▁teléfono	-9.23527
▁puerta	-9.23527
▁visión	-9.23629
sion	-9.23729
H	-9.23753
dora	-9.23798
▁vuelta	-9.2387
sh	-9.23995
▁Nos	-9.24141
▁puesto	-9.24202
▁pronto	-9.24287
su	-9.24493
▁ta	-9.2457
nto	-9.24815
▁Cristo	-9.24978
▁pequeñas	-9.25144
▁usted	-9.25158
▁sistemas	-9.25204
technology	-9.25222
▁quizás	-9.25231
▁Po	-9.25286
tina	-9.25423
▁libros	-9.25484
▁oído	-9.25485
▁costa	-9.25673
▁ocurre	-9.25712
sen	-9.25999
▁vo	-9.26074
▁sean	-9.26148
▁entrar	-9.2623
▁permite	-9.26275
▁Puede	-9.26351
▁9	-9.26521
▁ga	-9.26908
▁termina	-9.26931
▁pasando	-9.27073
▁R	-9.2714
▁joven	-9.27195
▁situación	-9.27195
izado	-9.27233
▁piensa	-9.27279
▁dan	-9.27393
▁barrio	-9.27489
bilidad	-9.27813
▁juntos	-9.27849
▁deseo	-9.27868
bles	-9.27971
▁carne	-9.28015
▁aquellos	-9.28082
van	-9.28091
▁suerte	-9.28199
▁lograr	-9.28275
▁fondo	-9.28276
▁ocho	-9.28516
vis	-9.28524
mu	-9.28603
▁Ra	-9.28645
▁blanco	-9.287
▁Sol	-9.28718
▁Cada	-9.2878
mó	-9.28863
▁corta	-9.28872
ex	-9.28911
sto	-9.29092
▁conseguir	-9.29207
ándose	-9.29339
▁Mar	-9.29363
▁escribir	-9.29462
▁leer	-9.29484
▁metros	-9.29486
ger	-9.29728
rte	-9.29924
sas	-9.29961
▁lejos	-9.30072
▁computadora	-9.30074
▁"¡	-9.30112
vid	-9.30116
▁sorprendente	-9.30237
▁lenguaje	-9.30253
ber	-9.30283
▁industria	-9.30319
▁términos	-9.30394
▁presenta	-9.3045
▁Da	-9.30808
”	-9.30875
▁aquel	-9.31001
▁mantener	-9.31006
pro	-9.31024
▁mostrarles	-9.31076
▁sabía	-9.31154
endo	-9.31155
▁considera	-9.31194
▁vende	-9.31416
▁científicos	-9.31604
▁actual	-9.31608
▁be	-9.31616
▁60	-9.31928
▁Ju	-9.31933
▁flores	-9.31956
▁for	-9.31992
▁medicina	-9.32043
▁mío	-9.32229
íamos	-9.32257
▁imaginar	-9.3228
▁pensando	-9.32304
▁masa	-9.32557
▁estás	-9.32607
▁Hemo	-9.32642
lin	-9.32689
tico	-9.32854
▁semanas	-9.32998
▁justicia	-9.33094
▁medios	-9.33132
▁buenas	-9.33199
ño	-9.33231
▁debemos	-9.33287
▁pensamiento	-9.33358
▁pacientes	-9.33482
mar	-9.33545
▁tarea	-9.33624
▁rápidamente	-9.33685
fer	-9.33701
ea	-9.33704
▁máquina	-9.33726
▁malo	-9.33784
▁super	-9.33901
▁nuevos	-9.33926
▁Ja	-9.34137
▁comprar	-9.34148
▁ADN	-9.34156
iones	-9.34188
mento	-9.34243
▁área	-9.34272
▁lista	-9.34327
et	-9.34377
▁sucedió	-9.34424
id	-9.3446
▁menudo	-9.34692
▁dolor	-9.34695
▁Bo	-9.34751
▁Tengo	-9.35028
V	-9.35152
▁tipos	-9.35186
gado	-9.35367
▁amigo	-9.35379
▁sociales	-9.35432
▁enfermedades	-9.35605
▁empresa	-9.35652
▁dicha	-9.35769
▁busca	-9.35824
▁ten	-9.36031
▁siento	-9.36049
▁cuál	-9.36194
▁cambia	-9.36212
▁resolver	-9.36316
▁hubo	-9.3636
▁evolución	-9.36597
vers	-9.36718
▁Ka	-9.36778
▁recursos	-9.36815
▁terminar	-9.36832
hua	-9.36835
▁feliz	-9.36869
om	-9.36882
tin	-9.36906
rado	-9.3703
ario	-9.37168
des	-9.37205
ctor	-9.37256
▁material	-9.37295
cre	-9.3731
▁ne	-9.37376
▁compasión	-9.37413
éis	-9.37423
▁Hu	-9.37513
▁Mu	-9.37626
▁J	-9.37629
▁objetivo	-9.37689
▁tuve	-9.37757
má	-9.37771
▁escucha	-9.3795
enta	-9.38
tla	-9.38017
▁do	-9.38095
▁fuego	-9.38106
▁pu	-9.38126
▁animal	-9.38209
▁interior	-9.38245
▁separa	-9.3827
▁moral	-9.38283
eron	-9.38326
▁toca	-9.38384
▁herramientas	-9.38685
▁X	-9.38718
▁Bu	-9.38808
▁Li	-9.38904
at	-9.38922
▁Estaba	-9.38943
▁rep	-9.38947
▁piensan	-9.38989
▁serie	-9.39182
tz	-9.39245
▁enseña	-9.39289
▁web	-9.39363
amente	-9.39378
▁cientos	-9.39458
▁paz	-9.39519
ás	-9.39582
st	-9.39666
Cuál	-9.39688
▁peor	-9.39748
▁esposa	-9.39933
▁vive	-9.3997
▁llamamos	-9.39996
▁señal	-9.40065
▁llegaron	-9.40162
▁anda	-9.40186
▁generación	-9.40336
jas	-9.40421
fr	-9.40453
ji	-9.40601
lan	-9.40633
▁Pues	-9.40755
▁afecta	-9.4078
der	-9.40804
▁buscar	-9.4094
ales	-9.40961
▁comenzar	-9.41028
Bueno	-9.41055
▁miedo	-9.41091
Si	-9.4112
▁reco	-9.4112
▁solar	-9.41125
▁calle	-9.41225
ante	-9.41471
able	-9.41486
lli	-9.41511
ñ	-9.41649
▁Voy	-9.41683
▁desea	-9.41741
▁fotos	-9.41827
▁necesitan	-9.42171
▁interesa	-9.42439
▁tomó	-9.42494
▁solución	-9.42506
▁V	-9.42696
ábamos	-9.42741
▁capaces	-9.42808
▁sigue	-9.43034
▁Pablo	-9.43088
▁genera	-9.43226
iv	-9.43331
illa	-9.43332
▁código	-9.43381
▁conocer	-9.43399
▁razones	-9.43429
▁varios	-9.4347
▁iban	-9.43548
▁concepto	-9.43676
▁mediante	-9.43739
▁árbol	-9.43953
▁mesa	-9.4396
▁adelante	-9.43969
▁cal	-9.44019
▁Tu	-9.44056
▁prueba	-9.44064
ín	-9.44183
▁Europa	-9.44263
▁obra	-9.44285
ivo	-9.44306
tiendo	-9.44349
día	-9.44566
▁piedra	-9.4486
▁capaz	-9.44905
▁Hoy	-9.44962
▁impacto	-9.45153
▁sangre	-9.45161
mon	-9.45178
▁sentado	-9.45182
▁sacar	-9.45423
▁maravilloso	-9.45452
▁velocidad	-9.45452
science	-9.45453
▁pasó	-9.45461
ple	-9.4561
▁fi	-9.45734
▁echa	-9.45755
▁haga	-9.4577
▁utiliza	-9.45801
▁puntos	-9.45807
▁visual	-9.45809
▁empieza	-9.45984
▁primeros	-9.4601
ino	-9.46045
▁especies	-9.46167
▁gra	-9.46203
▁encuentra	-9.46287
▁productos	-9.46307
▁paciente	-9.46526
▁completo	-9.46655
▁materia	-9.46733
▁200	-9.46739
tera	-9.46823
▁compañía	-9.46825
ico	-9.46876
uda	-9.46885
▁necesario	-9.46958
▁afuera	-9.46958
▁local	-9.46971
▁CA	-9.4698
▁solamente	-9.47144
iente	-9.47254
▁importantes	-9.47284
▁Des	-9.47312
▁resultados	-9.47315
▁debido	-9.47336
ví	-9.47356
▁Gran	-9.47404
▁enseñar	-9.47536
▁tecnologías	-9.47605
▁morir	-9.47612
▁tenga	-9.47663
▁total	-9.47852
▁cre	-9.4788
▁venir	-9.48043
mer	-9.48129
▁grupos	-9.48162
▁llegado	-9.48167
▁etc	-9.48185
▁deberíamos	-9.48225
▁hermanos	-9.48242
▁materiales	-9.48271
▁espera	-9.48323
▁abierto	-9.48487
▁felicidad	-9.48487
▁ocurrió	-9.48487
▁conocido	-9.48489
▁llevó	-9.4854
▁Han	-9.48896
▁riesgo	-9.48922
idos	-9.4899
▁aparece	-9.49117
mina	-9.49219
▁prepara	-9.4925
▁explicar	-9.49287
▁cualquiera	-9.49398
▁empecé	-9.49416
rás	-9.49457
▁especial	-9.49626
▁hermano	-9.49663
▁azul	-9.49731
▁encontramos	-9.49953
▁Va	-9.50027
▁ama	-9.50058
▁intentar	-9.50075
▁i	-9.50145
▁objeto	-9.50306
▁muerto	-9.50306
▁derecho	-9.50313
▁rey	-9.50317
▁Chris	-9.50353
▁montón	-9.50353
▁conmigo	-9.50355
▁plantas	-9.50408
▁col	-9.50443
▁larga	-9.50452
9	-9.50535
▁mata	-9.50669
ización	-9.50759
pen	-9.50841
▁cuarto	-9.50984
ático	-9.5102
▁Cu	-9.51266
▁perspectiva	-9.513
▁estábamos	-9.51328
▁ci	-9.51356
Quién	-9.51363
▁Ho	-9.5161
Se	-9.5176
▁principal	-9.51816
▁decían	-9.52159
▁pies	-9.5223
▁económico	-9.52255
▁pantalla	-9.52255
▁producir	-9.52257
▁presente	-9.5226
▁jugar	-9.52312
ka	-9.52317
▁noticias	-9.52518
▁además	-9.52575
▁deben	-9.52683
▁mes	-9.52697
▁Do	-9.52715
dia	-9.5274
iera	-9.52786
zca	-9.528
▁pobres	-9.52806
▁boca	-9.53043
▁pesar	-9.53118
zar	-9.53183
▁hielo	-9.5322
▁fuente	-9.53234
▁25	-9.53396
▁potencial	-9.53408
and	-9.5345
▁varias	-9.53549
▁dios	-9.53572
ología	-9.53865
▁cuestión	-9.53868
▁brazo	-9.53868
clu	-9.53935
▁Sal	-9.53955
tli	-9.5396
wi	-9.54008
▁sabes	-9.54195
▁virus	-9.54195
▁descubrir	-9.5421
Pero	-9.54268
▁libera	-9.54852
▁paga	-9.54932
▁Pro	-9.55065
ent	-9.55072
▁tierras	-9.5513
▁Mientras	-9.55177
▁artículo	-9.55177
▁viento	-9.55178
▁principales	-9.55499
▁genial	-9.55508
rec	-9.5571
▁vio	-9.55713
▁partir	-9.55846
puesto	-9.55918
▁Ve	-9.56155
▁asunto	-9.56172
▁tratamiento	-9.56228
tec	-9.56349
▁cree	-9.5641
mpa	-9.56495
▁época	-9.56504
▁seres	-9.56778
▁dirección	-9.56839
▁verlo	-9.56899
▁dieron	-9.56919
▁g	-9.56954
▁vas	-9.57065
▁normal	-9.57108
▁Vamos	-9.57155
tt	-9.57185
▁arma	-9.57224
▁meta	-9.57258
▁Ga	-9.57264
▁Padre	-9.57511
▁salió	-9.57541
▁80	-9.57616
ador	-9.57666
▁buenos	-9.57668
▁teníamos	-9.57762
▁Había	-9.5785
▁corre	-9.57857
▁literalmente	-9.57861
ció	-9.5792
▁empresas	-9.57996
▁creado	-9.58076
▁dura	-9.58083
▁deja	-9.58191
▁cocina	-9.58206
▁capa	-9.58274
▁observa	-9.58284
▁cámara	-9.5835
▁Ac	-9.58355
▁cuidado	-9.58444
▁calidad	-9.58583
bia	-9.58607
▁mental	-9.58621
▁reglas	-9.58638
▁usan	-9.58672
▁Ne	-9.58767
▁Ar	-9.58775
▁acceso	-9.58869
▁tampoco	-9.58869
▁recordar	-9.58885
En	-9.58955
▁llena	-9.59021
▁negocio	-9.5905
▁físico	-9.59211
▁encima	-9.59222
▁sur	-9.59226
▁árboles	-9.59229
ut	-9.5932
▁Google	-9.59555
▁oficina	-9.59555
▁distancia	-9.59555
▁habrá	-9.59566
▁clave	-9.59577
▁rojo	-9.59679
▁llamar	-9.59863
▁diez	-9.599
▁reto	-9.60127
▁detrás	-9.60251
ifica	-9.60387
▁cumpl	-9.60496
▁inglés	-9.60593
▁millón	-9.60593
▁fiesta	-9.606
▁Car	-9.60673
art	-9.60769
cí	-9.60795
lica	-9.6087
▁pieza	-9.60893
tada	-9.60938
»	-9.60942
▁audiencia	-9.60942
▁ocupa	-9.60949
▁junta	-9.61001
▁em	-9.61002
▁–	-9.61023
▁médico	-9.61182
▁norte	-9.61244
▁siente	-9.61245
▁carrera	-9.61292
▁existen	-9.6135
▁Be	-9.61405
dad	-9.61406
▁clases	-9.61482
nder	-9.61488
▁experimento	-9.61541
▁desafío	-9.61642
▁libertad	-9.61642
▁manda	-9.6174
▁veo	-9.61753
▁Martin	-9.6184
▁desarrolla	-9.61844
▁decisiones	-9.61994
▁maravillosa	-9.61994
▁pensaba	-9.61994
▁levanta	-9.62004
▁mirando	-9.62026
▁du	-9.6209
▁puso	-9.62141
imiento	-9.62344
▁patrón	-9.62348
▁«	-9.62349
▁quisiera	-9.62356
▁objetos	-9.62401
▁pesos	-9.62466
▁Tenía	-9.62533
▁ge	-9.62561
▁zona	-9.62629
▁digital	-9.62747
▁señores	-9.62755
▁extra	-9.63045
▁pintura	-9.63058
global	-9.63119
▁Tal	-9.63127
▁N	-9.63212
▁perro	-9.63255
▁verdadero	-9.63287
ay	-9.63376
▁Nuestro	-9.63415
▁espíritu	-9.63415
▁asi	-9.63451
▁Ti	-9.63493
!"	-9.6353
▁caja	-9.63586
▁ru	-9.63726
▁anterior	-9.63775
▁bosque	-9.63776
▁gas	-9.63783
Sí	-9.63791
én	-9.63837
tamos	-9.6384
▁diría	-9.6385
ías	-9.64023
▁suelo	-9.64157
▁issues	-9.64494
▁negro	-9.645
▁convierte	-9.645
▁casos	-9.64501
▁recibir	-9.64528
▁san	-9.64528
nza	-9.64555
,000	-9.64565
▁--¿	-9.64618
▁anti	-9.6478
▁Están	-9.64828
▁ambos	-9.64857
J	-9.64934
ine	-9.65116
▁inteligente	-9.65211
▁escenario	-9.65253
cido	-9.65267
▁podían	-9.65326
▁Soy	-9.65409
▁Miguel	-9.65586
we	-9.65595
▁acá	-9.65606
xo	-9.65727
ki	-9.65744
tivos	-9.65934
▁complejo	-9.65952
▁nacional	-9.65961
▁saca	-9.65963
mbre	-9.65971
▁quieres	-9.66021
▁maneras	-9.66045
▁brillante	-9.66069
▁negocios	-9.66125
▁cambios	-9.66169
▁qui	-9.66268
▁universidad	-9.66319
▁rodea	-9.66335
▁has	-9.66573
▁estrellas	-9.66584
▁Ta	-9.66667
▁goberna	-9.66667
▁serio	-9.66676
▁empezó	-9.66688
▁imposible	-9.66688
▁promedio	-9.66688
▁kilo	-9.6669
▁nuevamente	-9.66753
up	-9.66773
▁gen	-9.66864
▁buscando	-9.66877
▁comprender	-9.66918
▁proyectos	-9.67017
▁estudios	-9.67114
▁fundamental	-9.67119
▁ganar	-9.67124
▁correcto	-9.6716
▁70	-9.67179
▁experimenta	-9.67314
▁pena	-9.67404
▁pecado	-9.6748
▁vienen	-9.67507
▁creen	-9.67507
mé	-9.67702
▁Algunos	-9.67804
▁extraño	-9.67813
▁doctor	-9.67816
▁dirigi	-9.67941
puesta	-9.68201
▁acción	-9.68218
▁hagan	-9.6822
▁hará	-9.68229
▁servicio	-9.68254
▁áreas	-9.6839
▁escuelas	-9.68461
▁voluntad	-9.68554
▁computadoras	-9.68577
▁explica	-9.68592
▁ido	-9.68625
▁página	-9.68633
▁salvar	-9.68634
▁actividad	-9.68646
▁canción	-9.68691
ones	-9.68747
▁rec	-9.68819
▁Otra	-9.68838
▁lengua	-9.68897
▁Espíritu	-9.68931
▁presencia	-9.68933
▁usamos	-9.69003
tur	-9.69226
▁isla	-9.69358
▁robot	-9.6941
▁alimenta	-9.69508
▁cuánto	-9.69663
▁revela	-9.69691
aban	-9.69693
K	-9.69712
▁Ex	-9.69734
▁tercer	-9.69739
▁construcción	-9.69739
▁conciencia	-9.69864
▁superior	-9.70073
▁tribu	-9.7008
▁can	-9.70295
▁cierta	-9.7045
hu	-9.70476
▁repente	-9.70479
▁mejorar	-9.70562
▁piel	-9.70648
biendo	-9.70708
▁innovación	-9.7084
▁muertos	-9.70898
▁coloca	-9.70989
▁serán	-9.71143
▁go	-9.71226
béis	-9.71306
ito	-9.71319
▁So	-9.71376
▁creer	-9.71636
▁pobreza	-9.71643
▁estilo	-9.71654
▁comunicación	-9.71679
▁sale	-9.71713
bor	-9.71719
▁chicos	-9.71734
▁desarrollar	-9.718
▁práctica	-9.71869
▁región	-9.72003
▁David	-9.72017
▁Quizá	-9.72028
▁alimentos	-9.72038
▁publica	-9.72052
▁bar	-9.72143
▁decirles	-9.7215
▁menor	-9.72162
▁genes	-9.7235
▁conferencia	-9.72393
▁eleva	-9.72421
▁ejemplos	-9.72533
▁vuelve	-9.72586
▁determina	-9.72768
▁hermoso	-9.72785
▁rostro	-9.72798
▁conflicto	-9.72813
▁Chi	-9.72818
cua	-9.72848
▁espero	-9.72889
▁comienza	-9.72902
▁tercera	-9.73061
▁tocar	-9.73105
tando	-9.73163
▁central	-9.73167
▁estuvo	-9.73181
eña	-9.73439
end	-9.73518
▁aun	-9.73537
▁pocos	-9.73606
▁mayores	-9.73659
▁década	-9.73793
fo	-9.73794
quí	-9.73863
ecto	-9.74108
▁inf	-9.74155
▁darles	-9.74219
dé	-9.74269
▁bio	-9.74311
▁Santo	-9.74312
▁conoce	-9.74312
▁enviar	-9.7433
▁micro	-9.74361
▁capital	-9.7437
▁contenido	-9.74373
dió	-9.74423
▁encontré	-9.74468
▁esperar	-9.74482
▁pagar	-9.74503
▁guarda	-9.74551
▁tira	-9.74736
▁hermana	-9.74769
▁vuestra	-9.74769
▁podamos	-9.7477
ah	-9.74863
▁oro	-9.74951
▁nu	-9.74953
50	-9.74994
▁solía	-9.75119
▁profundo	-9.75171
▁secuencia	-9.75172
▁debajo	-9.75191
cional	-9.75213
▁llaman	-9.75258
design	-9.75282
▁juegos	-9.7533
▁comen	-9.75408
▁sueño	-9.75436
gencia	-9.75572
▁H	-9.75659
▁Podría	-9.75701
▁científico	-9.7585
▁suma	-9.75857
▁crisis	-9.75979
▁pública	-9.75979
▁aumenta	-9.76021
cue	-9.76028
pas	-9.76051
▁d	-9.76089
▁Muy	-9.76144
▁imagina	-9.76294
▁llamaba	-9.76312
▁versión	-9.76328
▁combustible	-9.76386
▁conjunto	-9.76386
▁propósito	-9.76395
▁indica	-9.76406
ju	-9.76469
▁matar	-9.76605
damente	-9.76647
▁chino	-9.76731
jan	-9.76734
▁duda	-9.76749
▁im	-9.76791
▁sensación	-9.76794
▁tuviera	-9.76797
▁Santa	-9.76863
▁original	-9.76945
illo	-9.77082
tón	-9.77182
▁contexto	-9.77204
▁Diego	-9.77204
▁útil	-9.77204
▁17	-9.77206
▁dejó	-9.77217
▁vieron	-9.77248
▁Nunca	-9.77251
▁tuvimos	-9.77345
▁aspecto	-9.77527
▁temperatura	-9.77615
▁hermosa	-9.77615
of	-9.77653
▁Necesitamos	-9.77675
▁tengan	-9.77717
▁hospital	-9.77717
▁invita	-9.77746
osa	-9.77756
▁aquella	-9.77802
▁post	-9.77908
▁belleza	-9.78028
▁templo	-9.78029
▁reino	-9.78174
Ha	-9.78201
▁ju	-9.78213
▁pat	-9.78244
▁organiza	-9.78282
▁amenaza	-9.78443
▁humanidad	-9.78444
▁reducir	-9.78451
▁New	-9.78508
caso	-9.78655
▁darle	-9.78712
▁mala	-9.78728
▁mover	-9.78852
▁Tenochtitlan	-9.7886
▁permitir	-9.7886
▁perdido	-9.78862
▁coche	-9.78881
▁relaciona	-9.78888
▁edificios	-9.78902
gó	-9.78974
culture	-9.78981
idas	-9.79018
idades	-9.79022
▁esfuerzo	-9.79278
▁terrible	-9.79278
▁tienda	-9.79281
▁entorno	-9.79342
▁doble	-9.79379
▁bebé	-9.79411
▁venido	-9.79491
▁viven	-9.79534
▁autor	-9.79601
▁Ge	-9.79691
▁Técpatl	-9.79699
▁empezamos	-9.79699
▁limpia	-9.7997
▁convertir	-9.80025
ler	-9.80117
▁democracia	-9.80121
▁revolución	-9.80135
cien	-9.8026
▁redes	-9.8026
▁radio	-9.80317
ática	-9.80337
bar	-9.80383
▁hecha	-9.80386
▁alguno	-9.80534
▁interés	-9.80551
▁obviamente	-9.80582
▁veía	-9.80626
▁evitar	-9.8078
bla	-9.80808
▁discípulos	-9.80919
▁vaya	-9.80953
▁arquitectura	-9.8097
▁fotografía	-9.80975
▁crecer	-9.81051
▁realiza	-9.81091
▁tendría	-9.81181
▁principios	-9.81261
▁fruto	-9.81397
▁idioma	-9.81397
▁adapta	-9.81398
▁diseñar	-9.81401
▁Ri	-9.81431
▁calor	-9.81483
▁perder	-9.81508
icos	-9.81525
▁pared	-9.8157
▁sirve	-9.81606
▁completa	-9.81704
▁habilidad	-9.81742
em	-9.81815
▁violencia	-9.81826
▁caminar	-9.81844
▁santo	-9.82006
▁tasa	-9.82125
▁evidencia	-9.82257
▁llamó	-9.82258
▁lava	-9.82364
▁estudiar	-9.82391
▁líderes	-9.82414
▁90	-9.82441
▁valores	-9.82478
▁cola	-9.82507
▁gu	-9.82588
arse	-9.82632
▁John	-9.82678
▁carbono	-9.8269
▁patrones	-9.82691
▁avión	-9.82697
▁Tienen	-9.82709
▁produce	-9.8289
▁personaje	-9.829
Oh	-9.8293
▁distintas	-9.82936
▁probar	-9.82944
”.	-9.83087
▁jamás	-9.83125
▁relaciones	-9.83126
▁tejido	-9.83127
▁nueve	-9.83128
▁condiciones	-9.83128
aria	-9.83156
▁pusieron	-9.83179
▁Pi	-9.83193
▁correcta	-9.83428
▁María	-9.83449
▁comienzo	-9.83562
▁plazo	-9.83562
▁km	-9.8361
▁qual	-9.83668
▁regresa	-9.83829
izada	-9.83882
esta	-9.83921
▁naturales	-9.83933
▁próxima	-9.84
▁enfoque	-9.84001
▁decidí	-9.84002
▁concentra	-9.84018
mor	-9.84037
▁noticia	-9.84083
▁necesidad	-9.8413
▁hablamos	-9.84157
tán	-9.84178
▁Maria	-9.84225
ard	-9.84256
▁confianza	-9.84441
▁tendencia	-9.84441
▁amplia	-9.84441
▁texto	-9.84442
▁frío	-9.84444
▁activa	-9.84448
▁caliente	-9.84453
▁dispositivo	-9.84532
▁profesor	-9.84573
ner	-9.84592
▁pul	-9.84682
▁propios	-9.84735
▁armas	-9.84804
▁evento	-9.84885
▁peces	-9.84932
ándolo	-9.84941
▁artista	-9.84998
▁parecía	-9.85055
▁autoridad	-9.85068
¡	-9.85071
▁niña	-9.85156
▁profunda	-9.85194
▁llamo	-9.85329
▁secreto	-9.85333
▁Hijo	-9.85353
▁posibilidad	-9.85464
▁verán	-9.85604
sha	-9.8565
▁climático	-9.85774
▁integra	-9.85775
▁biología	-9.85791
▁pobre	-9.85892
▁Ven	-9.85969
nia	-9.86038
▁entend	-9.86065
▁informa	-9.86095
▁Pu	-9.861
▁obras	-9.8612
▁lucha	-9.86217
▁España	-9.86223
▁funcione	-9.86223
▁señales	-9.8627
▁gráfico	-9.86308
dero	-9.86332
▁cap	-9.86358
▁planta	-9.86408
▁chi	-9.86422
▁robots	-9.86587
▁hojas	-9.86619
▁agujero	-9.86673
▁gloria	-9.86673
▁responsabilidad	-9.86673
▁Hombre	-9.86723
W	-9.86833
▁contrario	-9.86872
cula	-9.86897
ñe	-9.86939
▁creemos	-9.87013
▁cura	-9.8708
▁mezcla	-9.87126
▁extremo	-9.87128
▁nota	-9.87281
▁modelos	-9.87368
▁h	-9.8748
▁frecuencia	-9.8758
▁vinieron	-9.87581
▁agrega	-9.87582
▁director	-9.87603
▁observar	-9.87608
▁fo	-9.87636
gos	-9.87727
▁especialmente	-9.87775
dura	-9.87899
▁mismas	-9.87951
▁respondió	-9.8805
▁traer	-9.88121
▁lanza	-9.88186
▁educa	-9.88192
▁Otro	-9.88209
▁herramienta	-9.88228
▁cama	-9.88265
pero	-9.88319
▁compara	-9.88335
▁graba	-9.8836
▁plástico	-9.88496
▁abrir	-9.88515
zó	-9.88517
▁volar	-9.8853
▁Calli	-9.88545
▁números	-9.88656
▁conocemos	-9.88743
▁trabaja	-9.88748
▁canta	-9.88806
▁debía	-9.88815
▁visita	-9.88844
pil	-9.88904
▁Go	-9.88953
▁producción	-9.88956
▁Más	-9.89051
▁flor	-9.89085
▁similar	-9.89109
antes	-9.89233
ular	-9.89249
▁tri	-9.89404
▁económica	-9.89419
tion	-9.89491
▁señora	-9.89498
▁medir	-9.89519
▁Fe	-9.89658
▁comunidades	-9.8976
ley	-9.898
catl	-9.89851
▁Incluso	-9.89884
▁electricidad	-9.89884
▁requiere	-9.89884
▁genoma	-9.89885
▁copia	-9.899
▁estudia	-9.90004
cida	-9.90094
▁piso	-9.90099
▁funcionar	-9.90107
▁estén	-9.90151
▁opera	-9.90211
▁ja	-9.90311
▁quita	-9.90314
▁ó	-9.90333
▁exterior	-9.90352
▁genética	-9.90355
▁antiguos	-9.90382
▁absolutamente	-9.90385
▁Duran	-9.90439
▁pinta	-9.90467
▁españoles	-9.90635
▁deberían	-9.90658
Yo	-9.90685
▁camina	-9.90724
▁Tom	-9.90777
▁Colhuacan	-9.90821
Dónde	-9.90821
▁cadena	-9.90823
▁médicos	-9.90969
▁ropa	-9.91046
▁máquinas	-9.91111
osos	-9.91166
bro	-9.91276
▁Nadie	-9.91293
▁divertido	-9.91303
▁blog	-9.91315
▁pudo	-9.91315
▁haría	-9.91343
▁centra	-9.91349
cial	-9.9137
▁depende	-9.91419
▁vivimos	-9.91424
para	-9.91425
▁ventana	-9.91503
▁colores	-9.91515
▁entrada	-9.91592
▁increíblemente	-9.91643
¿	-9.91692
▁instrumento	-9.91767
▁memoria	-9.91768
▁misterio	-9.91769
▁comencé	-9.91772
▁software	-9.91789
▁damos	-9.91805
ko	-9.91821
▁estadounidenses	-9.91834
).	-9.91839
▁segundos	-9.91845
cept	-9.91914
▁Nuestra	-9.92243
▁firma	-9.92247
duci	-9.92253
▁cero	-9.92293
▁ruido	-9.92338
▁motor	-9.92486
▁etapa	-9.92724
▁pedir	-9.92745
▁lleno	-9.92877
▁cable	-9.92895
▁tomamos	-9.92966
▁Siempre	-9.93202
▁Tochtli	-9.93202
▁jefe	-9.93203
▁dedica	-9.93214
▁peso	-9.93253
▁oh	-9.93258
▁banda	-9.93263
▁marcha	-9.93304
▁propiedad	-9.93374
▁vuestro	-9.93542
▁propias	-9.93635
▁aprendizaje	-9.93685
▁ataque	-9.93701
▁aldea	-9.93717
▁Realmente	-9.93734
▁Primero	-9.93771
▁Je	-9.93788
▁contarles	-9.93812
▁oír	-9.9384
▁ingresos	-9.9387
▁regresar	-9.93875
▁Tla	-9.93896
bio	-9.93957
▁alcanza	-9.94074
▁VIH	-9.94171
▁cirugía	-9.94171
▁escribió	-9.94171
▁opinión	-9.94171
▁sentimiento	-9.94171
▁caballo	-9.94171
▁soluciones	-9.94171
▁aproximadamente	-9.94173
▁vale	-9.9418
▁Éste	-9.94189
▁negros	-9.94219
▁Fi	-9.94234
▁canto	-9.94289
▁utilizar	-9.94352
▁Cam	-9.94464
ieran	-9.94486
▁hacían	-9.94589
▁pesca	-9.9464
▁café	-9.94659
▁cuesta	-9.9469
▁directamente	-9.94704
Me	-9.94951
val	-9.94986
▁ponen	-9.9501
▁estable	-9.95105
▁desarrollado	-9.95123
▁popular	-9.95149
entertainment	-9.95149
▁Nosotros	-9.9518
▁presta	-9.95264
ris	-9.95303
▁traje	-9.95308
▁religiosos	-9.95349
ot	-9.95475
▁Tra	-9.95485
▁dando	-9.95503
ud	-9.9561
▁estuviera	-9.95641
▁recuerdo	-9.95641
▁abandona	-9.95642
▁descubrimiento	-9.95646
▁lu	-9.9565
ándole	-9.95718
▁judíos	-9.95791
ist	-9.95807
▁doy	-9.95862
▁vender	-9.95863
cé	-9.95867
▁Gu	-9.96022
eta	-9.96061
au	-9.96091
▁vuelo	-9.96095
▁estudiante	-9.96098
▁química	-9.96136
▁vieja	-9.96138
▁gira	-9.96146
▁poderoso	-9.96149
▁extraña	-9.96159
▁calles	-9.96194
▁comparte	-9.96195
▁cambiado	-9.96259
▁célula	-9.96566
▁oye	-9.96611
▁búsqueda	-9.96634
▁inteligencia	-9.96634
▁supone	-9.96658
▁golpe	-9.96769
pal	-9.96777
▁Lu	-9.9687
ity	-9.96905
▁Mundial	-9.97134
▁científica	-9.97134
▁extraordinario	-9.97134
▁pedazo	-9.97134
▁ensayo	-9.97138
▁familiar	-9.97156
0	-9.9716
▁continua	-9.97193
aca	-9.97264
▁hogar	-9.97325
▁Hi	-9.97329
▁acto	-9.97443
▁éstos	-9.97457
pl	-9.97477
▁acepta	-9.97496
▁roja	-9.97513
▁sector	-9.97525
▁mor	-9.97525
▁Sus	-9.97533
▁proteger	-9.97556
dí	-9.97571
▁celular	-9.97636
▁virrey	-9.97637
▁sexual	-9.97637
▁multitud	-9.9764
He	-9.97648
▁madera	-9.97656
mal	-9.97682
mil	-9.97693
▁demanda	-9.97716
▁fuimos	-9.97738
▁tuvieron	-9.97755
▁Cha	-9.97853
▁barco	-9.97918
▁interesantes	-9.97953
▁amar	-9.98035
▁24	-9.98079
▁hablaba	-9.98105
▁apenas	-9.98145
▁convirtió	-9.98149
▁verdadera	-9.98154
▁parecen	-9.98201
▁fuerzas	-9.98309
Que	-9.98362
▁tomado	-9.98552
ff	-9.98563
ster	-9.98576
ey	-9.9859
▁fenómeno	-9.98649
▁captura	-9.98663
eros	-9.98782
flu	-9.9884
▁Per	-9.98847
tió	-9.98998
▁suficientemente	-9.99022
▁quiera	-9.99032
▁América	-9.99159
▁complejidad	-9.99159
business	-9.99159
▁presidente	-9.9916
▁musical	-9.9916
▁revista	-9.99161
▁encontrado	-9.99202
▁conecta	-9.99248
▁mono	-9.99282
▁ves	-9.99301
stro	-9.99321
▁español	-9.99362
▁subir	-9.99405
ice	-9.99441
▁cultural	-9.99464
▁Norte	-9.99469
▁nace	-9.99486
▁felices	-9.99672
▁curso	-9.99674
▁decisión	-9.9968
▁verano	-9.99687
ima	-9.99721
▁río	-9.99756
▁daño	-9.99757
▁creación	-9.99984
bido	-9.99987
dera	-10.0009
▁Universidad	-10.0019
▁Universo	-10.0019
▁conexión	-10.0019
▁antigua	-10.0019
▁clima	-10.002
▁testigo	-10.0021
▁mamá	-10.0022
▁controlar	-10.0034
▁hambre	-10.0037
Lo	-10.0039
▁respuestas	-10.0042
▁asocia	-10.0056
▁elementos	-10.0058
▁poderosa	-10.0058
▁creatividad	-10.0071
▁consciente	-10.0072
▁prob	-10.0075
▁bebés	-10.0076
▁hacerse	-10.0083
▁500	-10.0087
▁apare	-10.0088
▁fuese	-10.0091
▁W	-10.0093
▁salva	-10.0095
▁tendrá	-10.0115
▁Pe	-10.0123
▁siembra	-10.0123
▁virtual	-10.0123
▁cuyo	-10.013
▁gigante	-10.0133
▁matemáticas	-10.0174
▁vehículo	-10.0175
▁contacto	-10.0175
▁provoca	-10.0175
▁inteligentes	-10.0176
▁volvió	-10.0177
▁aprendido	-10.0177
▁dispara	-10.0178
0.000	-10.018
▁minuto	-10.0182
▁comenzaron	-10.0184
torio	-10.0201
▁organismos	-10.0206
▁pruebas	-10.021
▁Fui	-10.0216
▁pon	-10.0218
strucción	-10.0221
▁sucediendo	-10.0228
▁Guerra	-10.0228
▁Ésta	-10.0231
▁próximo	-10.0236
▁Fa	-10.0237
▁organización	-10.0244
▁venta	-10.0246
▁error	-10.025
cierto	-10.0251
aciones	-10.0255
▁obtiene	-10.0268
han	-10.0268
jos	-10.0271
▁próximos	-10.0273
▁vacuna	-10.0281
tales	-10.0283
▁derechos	-10.0289
▁pasión	-10.029
▁viejo	-10.029
▁alcanzar	-10.0291
▁funcionan	-10.0296
▁sitios	-10.0297
▁nuclear	-10.0303
▁monte	-10.0304
met	-10.0308
▁responder	-10.0313
▁construye	-10.032
▁colabora	-10.0321
▁entera	-10.0328
▁etiqueta	-10.0334
▁método	-10.0334
▁período	-10.0334
▁inventa	-10.0335
▁aleja	-10.0338
▁listo	-10.0346
▁cita	-10.0349
▁escuchado	-10.035
her	-10.0352
ciente	-10.0369
▁carta	-10.0374
▁cabo	-10.0376
▁aprendí	-10.0377
▁quedar	-10.0382
▁reciente	-10.0385
▁multi	-10.0387
▁diapositiva	-10.0387
▁occidental	-10.0387
▁reserva	-10.0387
▁viva	-10.0389
▁programas	-10.0406
▁posición	-10.0413
cciones	-10.0414
lico	-10.0415
gente	-10.0421
huac	-10.0424
▁temas	-10.0428
taba	-10.0429
▁mueve	-10.0429
▁gasta	-10.043
▁religión	-10.0441
▁oscura	-10.0441
▁entrega	-10.0445
▁ingeniería	-10.0446
▁aplica	-10.0461
▁vaca	-10.0474
▁combina	-10.0482
▁servicios	-10.0485
▁piensen	-10.0495
▁aumento	-10.0495
▁silla	-10.0503
▁grado	-10.0508
▁estrella	-10.051
▁explora	-10.0511
▁películas	-10.0512
▁fueran	-10.0523
▁involucra	-10.0527
▁civil	-10.0549
▁ignora	-10.0549
▁ninguno	-10.0549
▁recompensa	-10.0549
▁ciclo	-10.055
▁ritmo	-10.055
▁punta	-10.0553
vio	-10.0553
▁nube	-10.0553
▁niveles	-10.0566
▁Saben	-10.0572
▁kilómetros	-10.0592
▁pueblos	-10.0597
eza	-10.0598
▁individuos	-10.0599
▁atmósfera	-10.0604
▁sabiduría	-10.0604
▁Muchos	-10.0604
▁pregunté	-10.0605
land	-10.0606
▁fascinante	-10.0614
▁autos	-10.0614
▁Paul	-10.0614
▁Medio	-10.0616
▁ojo	-10.0621
▁llevado	-10.0631
▁fija	-10.0635
▁continuar	-10.0639
▁soldados	-10.0639
▁conectar	-10.064
▁conocen	-10.0641
▁habilidades	-10.0644
▁habita	-10.0645
▁presentar	-10.0648
▁cha	-10.0656
▁miramos	-10.0657
▁circun	-10.0659
▁empezando	-10.0659
▁lluvia	-10.0659
▁función	-10.0659
▁acelera	-10.0659
▁elegir	-10.0659
ua	-10.0659
▁significado	-10.0662
ura	-10.068
▁corto	-10.0688
▁llevan	-10.0688
▁mando	-10.069
▁gobiernos	-10.0695
▁líneas	-10.0696
▁techo	-10.0703
▁dibujo	-10.0714
▁financia	-10.0714
▁televisión	-10.0714
▁juicio	-10.0715
▁Ahí	-10.0719
▁claramente	-10.0723
▁reales	-10.0725
pr	-10.0726
▁intenta	-10.073
▁familias	-10.0732
▁montaña	-10.0737
iste	-10.0738
▁tomando	-10.0739
▁reconocer	-10.074
iéndose	-10.0751
▁Asi	-10.0754
▁defini	-10.0756
▁trabajan	-10.0767
▁pérdida	-10.077
▁policía	-10.077
▁ancho	-10.0776
▁interesado	-10.0777
vin	-10.0782
▁estuve	-10.0785
▁toman	-10.0788
▁cargo	-10.0791
ier	-10.0793
▁mostraré	-10.0798
▁oportunidades	-10.0803
▁Am	-10.0803
▁intento	-10.0814
▁miembros	-10.082
▁Pienso	-10.0826
▁pájaro	-10.0826
▁sobrevivir	-10.0826
▁puente	-10.0829
▁habitación	-10.0839
dy	-10.0843
▁t	-10.0851
▁duro	-10.0852
▁volv	-10.0871
▁instala	-10.0878
▁respond	-10.0879
▁canal	-10.0882
▁perfecto	-10.0882
itos	-10.0882
▁simula	-10.0883
▁vivía	-10.0883
▁escena	-10.0883
▁Ustedes	-10.0892
ana	-10.0896
▁verdaderamente	-10.0897
cita	-10.0901
▁controla	-10.0913
▁diseñado	-10.0916
▁Wi	-10.0921
▁presión	-10.0922
▁golpea	-10.0923
▁niñas	-10.0925
▁artistas	-10.0926
table	-10.0931
▁frontera	-10.0938
▁placer	-10.0938
▁borde	-10.0939
▁esquina	-10.094
▁pierde	-10.094
▁implica	-10.0941
▁Bar	-10.096
vil	-10.097
▁Somos	-10.0971
▁compañero	-10.0995
▁probabilidad	-10.0995
▁entró	-10.0995
▁opciones	-10.0995
▁premio	-10.0995
▁dientes	-10.0996
▁viviendo	-10.0996
▁muestran	-10.0998
▁juez	-10.1004
ere	-10.1017
▁usado	-10.1019
▁simples	-10.1035
▁anima	-10.104
▁neuronas	-10.1045
▁realizar	-10.1049
▁obliga	-10.1051
▁Richard	-10.1052
▁absoluto	-10.1052
▁estrategia	-10.1052
▁aparato	-10.1053
▁Dr	-10.1057
▁salieron	-10.1062
Te	-10.1072
ab	-10.1072
▁Ana	-10.1081
▁compren	-10.1091
▁rápida	-10.1096
▁cruz	-10.1099
Mi	-10.1101
▁alma	-10.1103
bl	-10.1106
▁of	-10.1107
▁%	-10.1108
▁círculo	-10.111
▁desierto	-10.111
▁hiciera	-10.111
▁declara	-10.111
▁apoyo	-10.111
▁gusto	-10.1112
aje	-10.1112
▁emocional	-10.1116
iana	-10.1133
▁computador	-10.1141
▁Du	-10.1148
▁Marte	-10.1149
▁sentía	-10.115
▁sorprend	-10.1164
▁cambió	-10.1168
▁000	-10.1168
▁aquello	-10.1172
▁conversación	-10.1172
yan	-10.1176
▁Ki	-10.1184
fí	-10.1189
▁Toma	-10.1202
bert	-10.1222
▁É	-10.1224
▁triste	-10.1225
▁silencio	-10.1226
▁parecido	-10.1226
▁maestros	-10.1226
▁vean	-10.1233
▁quedó	-10.1236
▁Acatl	-10.1242
▁Asia	-10.1251
▁diseñadores	-10.1251
▁explorar	-10.1253
iz	-10.1254
▁beneficios	-10.1269
cina	-10.1271
▁respira	-10.1271
▁políticos	-10.128
▁partículas	-10.1282
▁Huehue	-10.1284
▁oxígeno	-10.1284
▁riqueza	-10.1284
▁blanca	-10.1284
▁complicado	-10.1284
▁compleja	-10.1284
▁Algunas	-10.1284
▁TV	-10.1289
rca	-10.129
udi	-10.1298
▁Pas	-10.13
▁miran	-10.131
▁moléculas	-10.132
▁posibilidades	-10.1325
▁probable	-10.1331
▁logra	-10.1337
▁Básicamente	-10.1343
▁infantil	-10.1343
▁influencia	-10.1343
▁Existe	-10.1344
iento	-10.135
▁atrapa	-10.1353
▁digamos	-10.1361
▁éstas	-10.1364
▁leyes	-10.1377
quién	-10.138
▁regla	-10.1383
ería	-10.1387
▁adultos	-10.1394
▁frase	-10.1396
▁sencillo	-10.1402
▁Londres	-10.1402
▁carbón	-10.1402
▁Oriente	-10.1402
▁terreno	-10.1402
▁sexo	-10.1409
▁Miren	-10.1414
▁zonas	-10.1415
▁caza	-10.1428
▁ofrece	-10.1429
▁For	-10.1442
▁cuán	-10.1444
▁enfrenta	-10.1445
▁asegurar	-10.1458
▁estará	-10.1461
▁California	-10.1462
▁arquitecto	-10.1462
▁enemigo	-10.1462
▁Allí	-10.1462
▁eje	-10.1464
▁cer	-10.1465
▁emocionante	-10.1474
▁Au	-10.1485
▁compañías	-10.1488
uta	-10.149
▁chico	-10.1491
▁presentación	-10.1492
▁gobernador	-10.1502
▁breve	-10.1508
▁gracia	-10.1509
▁Israel	-10.1522
▁Jerusalén	-10.1522
▁gobernó	-10.1522
▁abuela	-10.1522
fica	-10.1523
▁suceder	-10.1533
▁definición	-10.1536
▁tumor	-10.1537
ega	-10.1539
▁Ce	-10.154
▁hongos	-10.1541
▁esperando	-10.1549
Quiere	-10.1552
dón	-10.1552
▁peligro	-10.1553
verdad	-10.1556
▁300	-10.1561
ores	-10.1563
▁básica	-10.1568
leta	-10.158
▁preguntar	-10.1581
▁Japón	-10.1582
▁abierta	-10.1582
▁encuentro	-10.1582
▁extraordinaria	-10.1582
▁paisaje	-10.1582
▁pensado	-10.1582
▁emociones	-10.1582
▁moderno	-10.1582
▁navega	-10.1582
toria	-10.1583
▁remo	-10.1586
▁teniendo	-10.1587
quil	-10.1595
▁--¡	-10.1604
▁alcalde	-10.1604
▁CO	-10.1605
▁pocas	-10.1612
▁necesitaba	-10.1615
▁altura	-10.1617
▁quitar	-10.1618
cuál	-10.1619
▁bomba	-10.1642
▁Afganistán	-10.1642
▁accidente	-10.1642
▁continente	-10.1642
▁corriente	-10.1642
▁entrevista	-10.1643
▁locales	-10.1645
▁Luis	-10.1647
▁miren	-10.1653
▁recientemente	-10.1658
▁verse	-10.1665
ticos	-10.1672
▁Com	-10.1675
▁parecer	-10.1688
uc	-10.1689
▁llevaron	-10.1693
▁Todas	-10.1702
Porque	-10.1702
▁construido	-10.1703
▁fábrica	-10.1703
▁maíz	-10.1703
▁conforme	-10.1704
ual	-10.1705
▁emb	-10.1708
▁dé	-10.1708
▁viaja	-10.1714
▁intentando	-10.1721
▁experimentos	-10.1721
▁Wa	-10.1728
▁Sé	-10.173
▁Pre	-10.1734
presión	-10.1739
▁hablado	-10.1753
vier	-10.1753
▁comercial	-10.176
lante	-10.1764
▁Sabemos	-10.1765
▁moderna	-10.1765
▁espacial	-10.1765
▁mantiene	-10.1766
op	-10.1772
▁naciones	-10.1777
▁diario	-10.1783
▁21	-10.1803
▁cien	-10.1808
▁estadounidense	-10.1822
▁acompaña	-10.1822
▁transforma	-10.1825
▁Jesucristo	-10.1826
▁profeta	-10.1827
▁peligroso	-10.1833
▁luna	-10.1839
bur	-10.1841
▁z	-10.1843
▁actualmente	-10.1858
chu	-10.1862
zos	-10.1869
▁compar	-10.187
▁necesidades	-10.187
▁bacterias	-10.1878
▁Quería	-10.188
▁Además	-10.1889
▁dinámica	-10.1889
▁eléctrica	-10.1889
▁matemático	-10.1889
▁músculo	-10.1889
▁licencia	-10.1889
▁basura	-10.1889
▁extremadamente	-10.1889
▁tren	-10.1894
▁muchacho	-10.19
▁Solo	-10.19
▁independiente	-10.1907
▁estima	-10.1908
▁cruza	-10.1909
ip	-10.1917
▁evoluciona	-10.192
ok	-10.1925
▁enfermo	-10.1926
▁diferencias	-10.1933
▁piernas	-10.1939
▁gr	-10.194
▁correo	-10.1941
osas	-10.1945
lta	-10.1945
▁Imaginen	-10.1951
▁poquito	-10.1951
▁habló	-10.1951
▁curva	-10.1951
▁enfoca	-10.1953
▁crece	-10.1955
▁art	-10.1956
▁ganado	-10.1958
▁preguntó	-10.1961
▁distintos	-10.1968
by	-10.197
▁normalmente	-10.1976
posición	-10.198
▁puse	-10.1981
▁colegas	-10.1982
▁favorito	-10.1982
hui	-10.1986
▁efectos	-10.2011
▁diversidad	-10.2014
▁Ver	-10.2016
▁creando	-10.2018
▁detener	-10.2026
▁falla	-10.2027
▁cae	-10.2033
▁piezas	-10.2035
▁mejora	-10.2051
▁errores	-10.2051
▁cen	-10.2056
▁elección	-10.2071
mpl	-10.2071
poniendo	-10.2078
▁famoso	-10.2078
▁sienta	-10.2079
▁juzg	-10.2079
▁pega	-10.2081
▁caer	-10.2088
▁Wal	-10.2099
▁palo	-10.2104
réis	-10.2105
▁décadas	-10.2106
▁tradicional	-10.211
▁similares	-10.212
▁industrial	-10.2122
▁interpreta	-10.2128
▁Man	-10.213
▁maestro	-10.214
▁artificial	-10.2141
▁ejército	-10.2141
▁fantástico	-10.2141
▁inferior	-10.2141
▁infraestructura	-10.2141
▁instituciones	-10.2141
▁flujo	-10.2141
▁consumo	-10.2141
▁opción	-10.2142
▁vía	-10.2142
▁importancia	-10.2147
▁administra	-10.2147
▁tomaron	-10.215
▁coches	-10.215
▁record	-10.2151
▁moda	-10.2165
▁responde	-10.2167
♫	-10.2175
▁corte	-10.2192
tlan	-10.2194
doras	-10.2201
▁espiritual	-10.2205
▁radical	-10.2205
▁sacerdote	-10.2206
▁matemática	-10.2206
▁raro	-10.2207
▁abejas	-10.2209
icia	-10.2212
▁Puedo	-10.2213
▁salvo	-10.2215
▁dirá	-10.2226
▁comunes	-10.2234
gin	-10.2235
▁roca	-10.2236
ografía	-10.2236
▁llegamos	-10.2269
▁ambiental	-10.227
▁oscuro	-10.227
americano	-10.227
▁técnica	-10.2272
▁inmediatamente	-10.2272
▁basa	-10.228
▁encuentran	-10.2284
▁tome	-10.2286
▁Sh	-10.2288
▁Uso	-10.2296
▁conectado	-10.2298
▁disfruta	-10.2302
▁cerebral	-10.2303
▁individual	-10.2303
▁llegan	-10.231
▁tantas	-10.2321
▁dimensiones	-10.2335
▁quinientos	-10.2335
▁Mexico	-10.2335
▁Aunque	-10.2335
▁avance	-10.2336
▁internet	-10.2336
▁banco	-10.2337
ese	-10.2338
▁político	-10.2339
how	-10.2346
▁apaga	-10.2353
net	-10.2368
Bien	-10.237
▁inspira	-10.2371
del	-10.2391
▁contiene	-10.2392
steis	-10.2396
▁consecuencias	-10.2399
▁eficiente	-10.24
▁escribí	-10.24
▁políticas	-10.2404
▁dispuesto	-10.2404
▁asiento	-10.2405
▁nombres	-10.2416
▁construyendo	-10.2417
▁pude	-10.2422
▁coral	-10.2426
▁Mc	-10.2437
▁profesores	-10.2446
▁dará	-10.2454
▁tanta	-10.2458
▁periódico	-10.2466
▁inmediato	-10.2466
▁ballena	-10.2466
▁hablo	-10.2466
▁Antonio	-10.2466
▁asombroso	-10.2467
▁arena	-10.2471
amiento	-10.2473
rico	-10.2481
ólogo	-10.2482
ves	-10.2484
▁chica	-10.2486
▁insectos	-10.2489
▁participar	-10.249
ani	-10.249
▁transformar	-10.2494
▁pez	-10.2497
▁crean	-10.2506
?¿	-10.2509
▁olvida	-10.2512
▁basado	-10.2526
▁malas	-10.253
▁Resulta	-10.2532
▁figura	-10.2532
▁estaría	-10.2535
▁existencia	-10.2541
▁semilla	-10.2542
▁restaurante	-10.2556
▁criaturas	-10.2566
▁querían	-10.2568
▁cambiando	-10.2583
▁Ud	-10.2584
Los	-10.2587
▁difíciles	-10.2587
Está	-10.2588
▁plano	-10.2589
▁ciudadanos	-10.2593
▁sienten	-10.2594
▁campaña	-10.2599
▁descubierto	-10.2599
▁intelectual	-10.2599
▁horrible	-10.2599
▁provee	-10.26
▁Steve	-10.26
▁madres	-10.26
▁mercados	-10.2604
arlo	-10.2609
▁bloque	-10.261
▁imaginación	-10.262
20	-10.262
▁querido	-10.2624
▁adopta	-10.2631
icio	-10.2645
▁Gra	-10.2654
vió	-10.2659
▁creamos	-10.2665
▁automóvil	-10.2666
▁murieron	-10.2666
▁vestido	-10.2666
▁Pen	-10.2667
▁ponemos	-10.2672
▁disponible	-10.2679
▁suena	-10.2682
▁estructuras	-10.2686
▁dichas	-10.2695
▁abre	-10.2695
ólogos	-10.2702
▁mayo	-10.2705
▁Dan	-10.2711
tiene	-10.2719
▁tí	-10.2721
▁compromiso	-10.2733
▁procesión	-10.2733
▁universal	-10.2733
▁refiero	-10.2733
▁impulsa	-10.2733
▁procesa	-10.2733
▁Cruz	-10.2733
▁pareja	-10.2733
▁brazas	-10.2736
▁vecinos	-10.2741
▁creencia	-10.2743
grama	-10.2744
▁decimos	-10.2747
cito	-10.2748
▁OK	-10.2752
▁entero	-10.2753
▁monta	-10.2753
▁predi	-10.2768
▁Ben	-10.2769
▁páginas	-10.2787
▁150	-10.28
▁cárcel	-10.2801
▁responsable	-10.2801
▁resultó	-10.2801
▁abuelo	-10.2801
▁actuar	-10.2801
▁título	-10.2801
▁origen	-10.2801
▁electrónico	-10.2803
▁luces	-10.2803
▁rama	-10.2805
▁Har	-10.2807
bru	-10.2817
▁límites	-10.2817
ense	-10.2818
▁aplicar	-10.2822
▁quedan	-10.2829
▁internacional	-10.2839
▁ricos	-10.2846
▁bienes	-10.2849
tic	-10.2859
▁básico	-10.287
▁pudiéramos	-10.287
▁recuerda	-10.287
▁bolsa	-10.287
▁Trabaj	-10.2871
▁botella	-10.2872
▁saludable	-10.2875
▁siguen	-10.2892
ly	-10.2898
▁nación	-10.2898
▁Tú	-10.2899
▁llev	-10.2902
▁envió	-10.2908
gio	-10.2908
ting	-10.2913
▁sociedades	-10.2913
▁generar	-10.292
▁doce	-10.2929
▁identidad	-10.2939
▁médica	-10.2939
▁profundidad	-10.2939
▁batería	-10.2939
▁Parece	-10.2939
▁adentro	-10.2939
▁cultivo	-10.2939
▁museo	-10.2939
▁rueda	-10.2939
▁Todavía	-10.2943
▁EEUU	-10.2944
▁creía	-10.2944
▁comun	-10.2946
▁sana	-10.2946
▁Bill	-10.2961
▁consiste	-10.2974
▁vimos	-10.2977
▁Oh	-10.2977
tud	-10.2996
fil	-10.3002
▁ingenieros	-10.3006
▁inicia	-10.3007
▁anuncia	-10.3008
▁practica	-10.3008
▁secundaria	-10.3008
▁testimonio	-10.3008
▁empleo	-10.3008
▁abril	-10.3008
▁ambas	-10.3008
▁consejo	-10.301
▁Ok	-10.3011
▁pelo	-10.3017
▁pal	-10.3018
▁vuestros	-10.3029
▁podíamos	-10.3058
▁químicos	-10.3066
▁segura	-10.3066
▁hablarles	-10.3067
▁tratado	-10.3069
▁billones	-10.3078
▁cálculo	-10.3078
▁domingo	-10.3078
▁metáfora	-10.3078
▁progreso	-10.3078
▁sábado	-10.3078
▁batalla	-10.3078
▁asesina	-10.3078
▁cuerda	-10.3079
▁creciendo	-10.3079
▁firme	-10.3082
▁alegría	-10.3082
cado	-10.3085
▁Dijo	-10.3094
top	-10.3096
▁venía	-10.3096
▁convertido	-10.31
▁cla	-10.31
▁cuándo	-10.311
áramos	-10.3111
Esta	-10.3112
▁marido	-10.3128
▁prima	-10.3146
▁arzobispo	-10.3149
▁plataforma	-10.3149
▁juguete	-10.3149
▁llegue	-10.3149
▁mecanismo	-10.3149
▁afirma	-10.3149
▁vacío	-10.3149
▁teatro	-10.3149
▁decidir	-10.3149
health	-10.3149
▁vota	-10.3151
▁necesito	-10.3152
▁organizaciones	-10.3156
▁averiguar	-10.3157
▁ventaja	-10.3162
▁legal	-10.3163
▁océanos	-10.3168
ónica	-10.317
▁molécula	-10.3176
▁conocí	-10.3179
▁chichimecas	-10.32
▁salta	-10.3206
▁cima	-10.3212
war	-10.3213
▁motiva	-10.3218
▁azúcar	-10.3219
▁clínica	-10.3219
▁positivo	-10.3219
▁comenzamos	-10.3219
▁denomina	-10.322
▁seguido	-10.322
▁yendo	-10.3228
▁activo	-10.3228
izo	-10.3238
iano	-10.3238
▁mentes	-10.3242
▁—	-10.3249
▁ancianos	-10.3255
—	-10.3261
▁zapatos	-10.3264
▁Algo	-10.3265
▁nombra	-10.3276
▁emplea	-10.3281
▁sostenible	-10.3291
▁papá	-10.3291
▁cuento	-10.3291
▁plato	-10.3294
▁tomé	-10.3294
zi	-10.3296
▁inicial	-10.3299
▁cuadrado	-10.3301
▁increíbles	-10.3304
▁rico	-10.3308
Ma	-10.3309
▁habido	-10.3309
▁encend	-10.3316
▁trabajado	-10.3319
▁bal	-10.3326
▁coste	-10.3328
▁vuel	-10.334
Le	-10.334
▁permiten	-10.3342
▁diga	-10.3343
▁vuelven	-10.3344
▁aprende	-10.335
▁dimos	-10.3356
▁documenta	-10.3363
▁héroe	-10.3363
▁ocurrir	-10.3363
▁tendremos	-10.3363
▁apasiona	-10.3363
▁lección	-10.3364
▁Ru	-10.3364
▁Sur	-10.3366
▁neg	-10.3368
▁Hasta	-10.3378
▁maneja	-10.3378
▁equivocado	-10.3379
▁detalles	-10.3382
▁fre	-10.3385
▁bajar	-10.3386
▁mirada	-10.3395
▁cercano	-10.3401
Saben	-10.3406
▁haré	-10.3411
▁ciertas	-10.3411
▁Her	-10.3413
liz	-10.3413
fic	-10.3417
ificación	-10.3421
ándola	-10.3423
▁podrán	-10.3428
▁pase	-10.3429
▁Probablemente	-10.3435
▁dueño	-10.3435
▁ecosistema	-10.3435
▁maravilla	-10.3435
▁ocurriendo	-10.3435
▁oficial	-10.3435
▁ubica	-10.3435
▁repeti	-10.3436
▁conozco	-10.3436
▁explota	-10.3436
▁aprendiendo	-10.3437
▁grita	-10.3438
▁impresionante	-10.3446
▁invi	-10.3447
uro	-10.3457
ui	-10.3469
▁manejar	-10.3493
▁viejos	-10.3495
▁importar	-10.3497
▁acumula	-10.3508
▁septiembre	-10.3508
▁vídeo	-10.3508
▁débil	-10.3509
▁propaga	-10.3509
▁imita	-10.3513
▁recibe	-10.3515
▁SIDA	-10.3515
▁qu	-10.353
▁esencia	-10.3536
▁Cre	-10.354
una	-10.355
▁particularmente	-10.3555
▁fácilmente	-10.3563
▁perfecta	-10.3568
▁proviene	-10.3582
▁ochenta	-10.3582
▁estimula	-10.3582
▁percib	-10.3582
▁invisible	-10.3584
▁establecer	-10.3586
▁grados	-10.3588
▁enormes	-10.3592
▁marzo	-10.3593
▁seguía	-10.3595
ear	-10.36
teuctli	-10.3604
▁Dos	-10.361
▁órganos	-10.3616
▁venga	-10.3633
▁llevaba	-10.3638
▁preciosa	-10.365
act	-10.3653
fund	-10.3655
▁agricultura	-10.3656
▁huevo	-10.3656
▁escritura	-10.3656
▁diablo	-10.3656
▁dulce	-10.3656
▁almacena	-10.3656
▁Aún	-10.3656
rum	-10.3657
▁partido	-10.3657
▁percepción	-10.3657
▁podrá	-10.3663
▁movimientos	-10.3664
▁vuelto	-10.3666
▁constantemente	-10.3668
▁galaxias	-10.3674
▁experimentar	-10.3679
▁dinosaurios	-10.368
▁gui	-10.3688
tendemos	-10.3696
▁limita	-10.3706
▁aprend	-10.372
▁análisis	-10.3731
▁bicicleta	-10.3731
▁computación	-10.3731
▁enseñoreó	-10.3731
▁positiva	-10.3731
▁gripe	-10.3731
ther	-10.3731
▁arroja	-10.3731
▁barato	-10.3731
▁alternativa	-10.3731
▁salen	-10.3742
▁aspectos	-10.3746
tim	-10.3748
▁fines	-10.3752
▁Bi	-10.3755
kin	-10.3756
▁comunica	-10.3766
▁estadísticas	-10.3767
▁hormigas	-10.3773
▁preparado	-10.3776
▁Antes	-10.379
▁neuro	-10.3794
▁400	-10.3798
#	-10.3806
▁Occidente	-10.3806
▁cebolla	-10.3806
▁hubiese	-10.3806
▁pertenece	-10.3806
▁siervo	-10.3806
▁tercio	-10.3806
▁invento	-10.3807
▁consigo	-10.3807
▁magia	-10.3807
▁daba	-10.3819
▁loco	-10.3824
▁temor	-10.3825
▁llora	-10.3826
▁Dije	-10.3827
▁aves	-10.3831
▁vivi	-10.3839
▁Col	-10.3841
fra	-10.3849
▁descubr	-10.3852
▁pila	-10.3853
▁ataca	-10.3859
▁Ten	-10.3862
ál	-10.3874
lógico	-10.3877
como	-10.3881
▁Einstein	-10.3881
▁muchísimo	-10.3881
▁terminó	-10.3881
▁tlatoque	-10.3881
▁compromet	-10.3881
▁apunta	-10.3881
▁variedad	-10.3881
▁proporciona	-10.3882
▁espalda	-10.3883
▁mortalidad	-10.3884
▁nacido	-10.3884
▁chile	-10.3884
▁expresión	-10.3885
▁reproduc	-10.3886
▁inicio	-10.3891
▁beber	-10.39
▁tele	-10.3901
ecta	-10.3901
dición	-10.391
icamente	-10.3922
▁campos	-10.3927
ección	-10.3936
▁recibido	-10.3938
▁pico	-10.394
▁sencilla	-10.3944
media	-10.3956
▁expertos	-10.3957
▁ingeni	-10.3957
▁Piensen	-10.3958
▁espectro	-10.3958
▁financiero	-10.3958
▁libra	-10.3958
▁molesta	-10.3958
▁amarillo	-10.3959
▁apareció	-10.3959
▁onda	-10.3965
▁cuya	-10.3969
▁incluyendo	-10.397
▁empiezan	-10.3975
▁china	-10.398
▁caminando	-10.398
▁cuadro	-10.3981
▁sueños	-10.3984
▁ciertamente	-10.3984
▁tratamos	-10.3991
▁160	-10.3999
▁misión	-10.4011
▁Ber	-10.4021
▁roba	-10.4029
ix	-10.4032
▁presentes	-10.4034
▁inversión	-10.4035
▁modifica	-10.4035
▁generaciones	-10.4046
▁necesariamente	-10.4047
▁intent	-10.4047
▁nave	-10.405
▁mosca	-10.4052
▁cine	-10.4053
▁poli	-10.4069
▁creativo	-10.407
▁plat	-10.4071
▁trae	-10.4078
tones	-10.408
Señor	-10.4083
▁servi	-10.4085
▁dias	-10.4095
▁estuvieron	-10.4098
sible	-10.41
▁k	-10.4103
▁adolescente	-10.4112
▁argumento	-10.4112
▁corrupción	-10.4112
▁manifesta	-10.4112
▁referencia	-10.4112
▁tarjeta	-10.4112
▁globo	-10.4112
▁Chalco	-10.4112
▁favorita	-10.412
▁pasé	-10.4121
▁Qui	-10.4123
▁observ	-10.4125
omb	-10.4126
▁debate	-10.4146
ónico	-10.4151
▁parque	-10.4151
▁conocía	-10.4159
▁africanos	-10.4165
▁Van	-10.4167
fina	-10.4169
▁chicas	-10.4185
▁jug	-10.4189
▁competencia	-10.419
▁jardín	-10.419
▁reemplaza	-10.419
▁excepto	-10.419
▁ciego	-10.419
▁titula	-10.4191
▁demostrar	-10.4192
▁film	-10.4199
▁hablan	-10.421
Con	-10.4213
▁hip	-10.4226
▁Xi	-10.4236
▁móvil	-10.4238
▁dejaron	-10.4239
▁alcaldes	-10.424
▁pasaba	-10.4241
▁galaxia	-10.4249
▁detalle	-10.4253
▁emerge	-10.4269
▁Tlatelolco	-10.4269
▁Washington	-10.4269
▁epidemia	-10.4269
▁reunión	-10.4269
▁temprana	-10.4269
▁demonio	-10.4269
▁transporta	-10.4269
▁calentamiento	-10.4269
▁fotografías	-10.4269
▁distribución	-10.427
▁flota	-10.427
▁patio	-10.4272
▁cerrar	-10.4275
▁empezaron	-10.429
▁ben	-10.4313
▁correr	-10.4315
▁fila	-10.4316
Cuántos	-10.4348
▁anuncio	-10.4348
▁escrivano	-10.4348
▁músico	-10.4348
▁registro	-10.4348
▁sorpresa	-10.4348
▁símbolo	-10.4348
▁registra	-10.4348
▁colonia	-10.4348
▁truco	-10.4349
▁identifica	-10.4357
▁empleados	-10.4359
▁caña	-10.4365
igo	-10.4372
▁profundamente	-10.4372
▁adora	-10.4388
tuve	-10.4416
▁constante	-10.4417
▁Naturaleza	-10.4428
▁circuito	-10.4428
▁corazones	-10.4428
▁gráfica	-10.4428
▁innovador	-10.4428
▁honor	-10.4428
▁reacción	-10.4429
▁destino	-10.443
▁Nacional	-10.443
▁pregunt	-10.4431
▁basada	-10.4438
▁Volv	-10.4443
▁apoya	-10.445
▁rayos	-10.4453
▁cerdo	-10.4462
▁mama	-10.4473
▁colocar	-10.4479
ética	-10.4495
▁contamina	-10.4496
▁viajar	-10.4498
▁diseñador	-10.4505
▁levantar	-10.4508
▁Africa	-10.4509
▁llegué	-10.4509
▁columna	-10.4509
▁recién	-10.4509
▁honra	-10.4509
▁masiva	-10.4509
▁civilización	-10.451
▁sujeto	-10.4511
▁Can	-10.4512
▁jugando	-10.4512
▁conserva	-10.4513
▁enviado	-10.452
huatl	-10.4522
▁Fu	-10.4535
▁plumas	-10.4538
▁avanza	-10.4563
▁lento	-10.4577
▁proteínas	-10.4587
▁terror	-10.4589
▁MIT	-10.459
▁caballero	-10.459
▁árabe	-10.459
▁recibí	-10.459
▁reunir	-10.459
▁desastre	-10.4591
▁prensa	-10.4591
▁espejo	-10.4592
▁suave	-10.4592
▁plantea	-10.4596
80	-10.4599
▁Che	-10.4603
▁nació	-10.4608
▁inspirado	-10.461
▁creó	-10.4623
▁analiza	-10.4625
▁características	-10.4635
▁riesgos	-10.4639
▁diré	-10.4644
▁Mira	-10.4652
▁vecino	-10.4663
▁enfrentar	-10.4667
▁sube	-10.467
▁Amaquemecan	-10.4672
▁continúa	-10.4672
▁presupuesto	-10.4672
▁privado	-10.4672
▁recicla	-10.4672
▁reloj	-10.4673
▁conocida	-10.4673
▁engaña	-10.4673
ográfica	-10.4673
▁entendimiento	-10.4674
▁obvio	-10.4674
▁talento	-10.4675
▁tradición	-10.4675
▁ayer	-10.4676
▁barra	-10.4678
▁clientes	-10.4678
▁tercero	-10.4687
▁perfectamente	-10.4687
▁salido	-10.4687
▁moverse	-10.4691
▁descubrí	-10.4694
▁comunicar	-10.4699
▁negra	-10.4703
▁condena	-10.4715
Entonces	-10.4725
▁pista	-10.4726
▁ponga	-10.4737
▁alimento	-10.4748
▁biblioteca	-10.4755
▁discurso	-10.4755
▁economista	-10.4755
▁específico	-10.4755
▁ilustra	-10.4755
▁nacimiento	-10.4755
▁interacción	-10.4755
▁transporte	-10.4755
▁hierba	-10.4755
▁podido	-10.4755
▁equilibrio	-10.4755
▁juega	-10.4756
▁dobla	-10.4757
▁comercio	-10.4762
▁precisamente	-10.4764
▁recibi	-10.4766
▁tubo	-10.4767
▁acciones	-10.4773
▁and	-10.4777
▁posee	-10.4782
▁cuida	-10.4784
▁cámaras	-10.4798
▁Mon	-10.4799
▁analizar	-10.4804
▁Ah	-10.4807
▁calcula	-10.4813
har	-10.4815
ciendo	-10.4823
▁pasamos	-10.4828
bí	-10.483
▁nervio	-10.4832
▁mía	-10.4833
▁antiguo	-10.4833
▁99	-10.4834
▁Abraham	-10.4838
▁Audiencia	-10.4838
▁Nigeria	-10.4838
▁Simplemente	-10.4838
▁hombro	-10.4838
▁refleja	-10.4838
▁tráfico	-10.4838
▁coopera	-10.4838
▁genético	-10.4838
▁manipula	-10.4838
▁negocia	-10.4838
▁mandó	-10.4838
▁poema	-10.4839
▁amiga	-10.484
▁esfera	-10.4842
▁voces	-10.4843
▁rural	-10.4843
▁encontró	-10.4848
▁esencial	-10.4851
▁granja	-10.4853
▁Times	-10.4858
▁estándar	-10.486
cle	-10.4881
▁esperaba	-10.4892
É	-10.4893
▁meter	-10.4895
▁gato	-10.4918
▁testigos	-10.4919
▁detectar	-10.492
▁crítico	-10.4922
▁oscuridad	-10.4922
▁prototipo	-10.4922
▁Charles	-10.4922
▁consigue	-10.4922
▁elecciones	-10.4923
▁araña	-10.4924
▁edifica	-10.4925
▁retira	-10.4925
▁nieto	-10.4925
▁sabéis	-10.4925
▁metro	-10.4926
▁bienestar	-10.4926
▁sabor	-10.4926
▁enferma	-10.4929
▁contesta	-10.4931
▁transformación	-10.494
▁acaso	-10.4941
30	-10.496
gia	-10.497
▁esperamos	-10.4982
▁incluye	-10.4993
human	-10.5001
▁Déjenme	-10.5007
▁aceite	-10.5007
▁predecir	-10.5007
▁pudimos	-10.5007
▁convencer	-10.5007
▁Pensé	-10.5007
▁regalo	-10.5008
▁fracaso	-10.501
▁2000	-10.5011
▁cumplir	-10.5018
▁pecho	-10.5022
▁clara	-10.5022
oh	-10.5029
▁sentí	-10.5035
▁limpiar	-10.5037
▁23	-10.5041
▁Rein	-10.5051
▁logrado	-10.5059
▁líder	-10.5062
▁factor	-10.5067
▁dispositivos	-10.5075
▁necesaria	-10.5079
▁Hernandez	-10.5093
▁agradable	-10.5093
▁beneficia	-10.5093
▁carretera	-10.5093
▁describir	-10.5093
▁emisiones	-10.5093
▁temprano	-10.5093
▁vergüenza	-10.5093
▁impulso	-10.5093
▁dijimos	-10.5093
▁oculta	-10.5093
▁ratón	-10.5093
▁decidió	-10.5093
▁contigo	-10.5093
▁consecuencia	-10.5094
▁pide	-10.5096
▁Niño	-10.5096
▁cena	-10.5097
▁trozo	-10.51
▁Wo	-10.5107
▁quedaron	-10.5117
▁Web	-10.5122
▁tla	-10.513
▁hallar	-10.5142
tuvimos	-10.5149
▁fund	-10.5149
ezca	-10.515
lista	-10.5157
▁sentar	-10.5166
▁participa	-10.5166
▁domina	-10.5167
ach	-10.517
ign	-10.5173
▁Anderson	-10.5179
▁entusiasma	-10.5179
▁incrementa	-10.5179
▁simetría	-10.5179
▁aprecia	-10.5179
▁infecta	-10.518
▁Cuauh	-10.5181
▁pelea	-10.5185
▁pescado	-10.5194
▁celebra	-10.5199
▁trataba	-10.5215
grafía	-10.5222
▁ofrecer	-10.5226
▁fabrica	-10.5238
▁componentes	-10.5241
ándonos	-10.5242
▁George	-10.5266
▁cirujano	-10.5266
▁terapia	-10.5266
▁átomo	-10.5266
▁fibra	-10.5266
▁asusta	-10.5267
▁Claro	-10.5268
▁equivalente	-10.5273
▁ordenador	-10.5274
▁cam	-10.5277
titlan	-10.5278
▁salida	-10.5282
▁Irán	-10.5288
▁Unido	-10.5298
▁juntas	-10.5298
▁decirle	-10.5304
▁veamos	-10.5306
▁pasan	-10.5306
▁decirlo	-10.5307
▁producen	-10.5313
▁encarg	-10.5327
bieron	-10.5328
ham	-10.5344
▁cartas	-10.5351
▁Entre	-10.5351
▁narra	-10.5352
▁demuestra	-10.5353
▁invertir	-10.5353
▁matrimonio	-10.5353
▁religiosa	-10.5353
▁viernes	-10.5353
▁Irak	-10.5354
▁solicit	-10.5354
▁Segundo	-10.5354
▁test	-10.5354
▁José	-10.5355
▁volviendo	-10.5357
▁permanece	-10.5357
▁torno	-10.5358
▁gradu	-10.5358
▁rara	-10.5358
▁baño	-10.5359
▁bello	-10.5359
▁miembro	-10.5362
▁individuo	-10.5362
▁salón	-10.5365
plan	-10.538
▁neurona	-10.5384
▁muro	-10.5384
▁Digo	-10.5384
▁guía	-10.5393
▁señala	-10.5396
▁sabían	-10.5405
▁militar	-10.5411
▁asistencia	-10.5424
▁gustan	-10.5425
▁semillas	-10.5429
▁sacerdotes	-10.5441
▁Facebook	-10.5442
▁protección	-10.5442
▁promesa	-10.5442
▁escolar	-10.5442
▁descubrimos	-10.5444
▁tío	-10.5446
▁vital	-10.5446
▁creí	-10.5448
▁hoja	-10.5453
▁Alguien	-10.5461
▁muere	-10.5467
▁suyo	-10.5472
▁venían	-10.5478
▁potencia	-10.5479
Sabes	-10.5482
▁arregl	-10.5483
org	-10.5483
▁estarán	-10.5494
▁montañas	-10.5497
▁profesional	-10.55
▁grano	-10.5507
▁Nada	-10.551
Esto	-10.5516
▁técnicas	-10.5528
▁burbuja	-10.5531
▁eléctrico	-10.5531
▁decidimos	-10.5531
▁urbano	-10.5531
▁examina	-10.5531
▁pensó	-10.5531
▁sugiere	-10.5531
▁comentario	-10.5531
▁incentivo	-10.5531
▁biológica	-10.5532
▁esposo	-10.5533
▁cinta	-10.5536
▁Mal	-10.5539
▁marina	-10.5545
▁terminado	-10.5547
▁dia	-10.5548
▁educativo	-10.555
▁principalmente	-10.5569
▁Cal	-10.5572
▁escuchando	-10.5575
▁reconoce	-10.558
▁planea	-10.5591
dónde	-10.5603
▁disponibles	-10.5604
▁visualiza	-10.5604
▁veremos	-10.5605
▁enseguida	-10.5621
▁conexiones	-10.5621
▁déjen	-10.5621
▁ejercicio	-10.5622
▁alcance	-10.5622
▁dirige	-10.5623
▁rol	-10.5625
▁pidió	-10.5625
▁cantar	-10.5628
▁efectivamente	-10.5628
▁pollo	-10.5629
▁recuperar	-10.5631
▁crecen	-10.5632
▁bacteria	-10.5637
TE	-10.5641
▁convertirse	-10.5642
▁sois	-10.5647
▁suele	-10.565
lly	-10.5651
▁cerro	-10.5661
▁millas	-10.5664
▁dejado	-10.5665
vit	-10.5666
berg	-10.5666
▁ángel	-10.5681
▁servir	-10.5682
▁actividades	-10.5696
▁identificar	-10.5702
▁caro	-10.5707
line	-10.5711
▁NASA	-10.5712
▁sombra	-10.5712
▁tiburones	-10.5712
▁colegio	-10.5712
▁prisión	-10.5712
▁cayó	-10.5712
▁pusimos	-10.5712
▁gravedad	-10.5713
▁1608	-10.5714
▁viviente	-10.5714
▁22	-10.5715
▁compuesto	-10.5717
▁clic	-10.5721
▁merece	-10.5723
▁trabajadores	-10.5723
▁diaria	-10.5724
▁investigadores	-10.5731
▁pesa	-10.5746
▁té	-10.575
▁rota	-10.575
▁olor	-10.5753
▁drogas	-10.5762
▁motivo	-10.5781
▁mueren	-10.5781
▁envía	-10.5785
▁evalua	-10.5804
▁Thomas	-10.5804
▁podremos	-10.5804
▁Michael	-10.5804
▁situaciones	-10.5804
▁supongo	-10.5804
▁lentamente	-10.5804
▁caída	-10.5804
▁gratis	-10.5805
▁exhibi	-10.5805
▁cifra	-10.5805
▁acero	-10.5811
▁escribano	-10.5813
▁Tuve	-10.5813
Hay	-10.5814
▁daré	-10.5814
▁malaria	-10.5815
▁saliendo	-10.5815
▁agr	-10.5817
▁fase	-10.5824
▁Estado	-10.5845
▁grasa	-10.5846
▁trabajamos	-10.5847
music	-10.5851
11	-10.586
95	-10.586
▁medicamentos	-10.5869
▁paredes	-10.5871
▁relacionado	-10.5891
vó	-10.5892
▁documento	-10.5897
▁regreso	-10.5897
▁complicada	-10.5897
▁ayude	-10.5897
▁bandera	-10.5897
▁rechaza	-10.5897
▁seguida	-10.5897
▁cabello	-10.5898
▁corteza	-10.5902
▁orienta	-10.5908
▁esencialmente	-10.5911
98	-10.592
▁regula	-10.592
▁elemento	-10.5921
ker	-10.5922
▁metal	-10.5935
▁utilizando	-10.594
▁viola	-10.595
mm	-10.5955
▁tro	-10.5968
▁escultura	-10.5971
▁mencionado	-10.5972
▁víctimas	-10.5972
▁dibujar	-10.5975
▁35	-10.5979
▁cuidar	-10.5979
▁electro	-10.5988
▁desplaza	-10.599
▁sucedido	-10.599
▁dormir	-10.599
▁semejante	-10.599
▁levantó	-10.599
▁admira	-10.599
▁religiones	-10.599
politics	-10.599
▁emoción	-10.599
▁tabla	-10.5992
▁conducir	-10.6003
▁llevaban	-10.6009
15	-10.601
▁tendrán	-10.6017
dul	-10.6017
▁intercambio	-10.6025
▁funda	-10.6036
ult	-10.6041
▁observamos	-10.6052
▁reina	-10.6064
▁pingüinos	-10.6068
▁superar	-10.6074
▁escriba	-10.6083
▁Finalmente	-10.6084
▁evangelio	-10.6084
▁traficantes	-10.6084
▁crimen	-10.6084
▁polvo	-10.6084
▁manzana	-10.6084
▁siguiendo	-10.6084
eve	-10.6086
▁decenas	-10.6087
▁comprensión	-10.6087
▁marino	-10.6092
▁dieta	-10.6094
▁bella	-10.6096
▁disco	-10.6103
▁pretend	-10.6105
▁extendi	-10.6106
▁vasos	-10.6107
▁abra	-10.6112
▁tomada	-10.6112
▁ángeles	-10.6117
▁mito	-10.6128
iedad	-10.6133
▁gasto	-10.6145
▁usuarios	-10.6146
our	-10.6146
Podría	-10.615
▁aceptar	-10.6159
tábamos	-10.6162
10	-10.6171
▁XX	-10.6178
ney	-10.6179
▁Darwin	-10.618
▁brinda	-10.618
▁voluntario	-10.618
▁escalera	-10.618
▁hotel	-10.618
▁algoritmo	-10.618
▁falso	-10.618
▁piloto	-10.618
cabo	-10.6181
▁locura	-10.6182
▁tomo	-10.6183
▁refiere	-10.6185
▁creativa	-10.6187
▁Habla	-10.6189
▁cantidades	-10.6193
▁ingrediente	-10.6195
education	-10.62
▁bailar	-10.6206
▁odia	-10.6219
▁45	-10.6223
▁vuelva	-10.6255
▁directo	-10.6271
Q	-10.6274
▁corresponde	-10.6276
▁dificultad	-10.6276
▁octubre	-10.6276
▁ocurrido	-10.6276
▁periodista	-10.6276
▁sacrificio	-10.6276
▁supervivencia	-10.6276
▁atravesa	-10.6276
▁playa	-10.6276
▁corriendo	-10.6276
▁periodo	-10.6276
▁aviones	-10.6276
▁vendrá	-10.6278
▁revisa	-10.628
▁trampa	-10.6282
▁disciplina	-10.6282
▁Veamos	-10.6284
▁Toda	-10.6291
▁ajusta	-10.6294
▁ideal	-10.6294
▁mueven	-10.6299
▁pregunto	-10.6302
▁marco	-10.6302
▁elimina	-10.6309
just	-10.631
▁ésto	-10.631
▁término	-10.631
▁personalidad	-10.632
▁encontraron	-10.6328
▁pelota	-10.633
ph	-10.6336
▁emociona	-10.6343
▁surge	-10.6355
▁abordar	-10.6361
▁aumentar	-10.6363
ak	-10.6367
▁Inglaterra	-10.6373
▁adquiri	-10.6373
▁expectativa	-10.6373
▁glamur	-10.6373
▁adecuada	-10.6373
▁discusión	-10.6373
▁cosecha	-10.6373
▁regiones	-10.6373
tépec	-10.6373
▁respeto	-10.6373
▁existía	-10.6373
▁James	-10.6374
Puede	-10.6374
▁mandamiento	-10.6377
▁finales	-10.6381
ight	-10.6385
▁mencionar	-10.639
▁trato	-10.6393
itz	-10.6437
96	-10.6438
▁bote	-10.6439
▁rap	-10.6443
▁expresar	-10.6453
▁ponía	-10.646
logía	-10.6468
▁azules	-10.6471
▁categoría	-10.6471
▁curiosidad	-10.6471
▁sacrifica	-10.6471
▁cristal	-10.6471
▁amplio	-10.6471
▁fruta	-10.6471
▁vidrio	-10.6471
▁veinte	-10.6471
▁radiación	-10.6473
gel	-10.6473
▁acusa	-10.6483
▁pedí	-10.6487
▁imaginen	-10.6493
▁huesos	-10.6493
▁aplicación	-10.6495
▁considerar	-10.6495
▁empuja	-10.6496
▁organismo	-10.6511
lito	-10.6513
▁Rob	-10.652
▁Usa	-10.6521
▁investiga	-10.653
▁llevarlo	-10.6533
▁propiedades	-10.6535
▁añad	-10.6537
Dios	-10.6541
▁humor	-10.6541
▁haz	-10.6552
▁27	-10.6556
▁Wikipedia	-10.657
▁fragmento	-10.657
▁liderazgo	-10.657
▁permitió	-10.657
▁telescopio	-10.657
▁técnico	-10.657
▁invierno	-10.657
▁psico	-10.657
▁aspira	-10.657
▁intereses	-10.6571
▁derrota	-10.6571
▁Robert	-10.6572
▁borra	-10.6572
▁aparte	-10.6573
▁asombrosa	-10.6578
▁aplicaciones	-10.6578
▁congela	-10.658
▁recibió	-10.6584
▁Hola	-10.6586
▁trabajaba	-10.6589
▁cambian	-10.6593
▁beneficio	-10.6596
▁calent	-10.66
▁observando	-10.6613
▁distinta	-10.6613
▁irá	-10.6625
▁care	-10.6638
X	-10.6639
▁dejamos	-10.6648
present	-10.665
▁pasada	-10.6662
▁cuestiones	-10.667
▁fantástica	-10.667
▁febrero	-10.667
▁comenzando	-10.667
▁huella	-10.667
▁ingresa	-10.667
▁molecular	-10.667
▁inunda	-10.667
catzin	-10.6671
▁receta	-10.6674
▁crecí	-10.6677
▁aprenden	-10.6678
▁extraer	-10.6688
▁TEDx	-10.6693
▁Ob	-10.6693
▁colaboración	-10.6694
▁Tan	-10.6695
▁reforma	-10.6695
safortunadamente	-10.6696
Ah	-10.6696
▁llevando	-10.6699
▁móviles	-10.671
▁bendi	-10.6712
▁droga	-10.6716
▁visitar	-10.6718
ológica	-10.673
▁prefier	-10.6732
▁sabíamos	-10.6754
Ven	-10.6758
5%	-10.6768
▁Twitter	-10.6771
▁arrecife	-10.6771
▁suministro	-10.6771
▁chalcas	-10.6771
▁elegido	-10.6771
▁negativo	-10.6771
▁entrenamiento	-10.6771
▁barrera	-10.6771
▁circula	-10.6772
▁tenéis	-10.6774
▁asegura	-10.6782
▁torre	-10.6783
▁dibuja	-10.6787
▁expresa	-10.6791
▁significativa	-10.6792
▁cumplen	-10.6794
▁fría	-10.6797
▁operación	-10.6799
12	-10.6807
▁criatura	-10.682
▁salía	-10.6823
▁nombrado	-10.6824
70	-10.6826
▁vayan	-10.6842
▁ira	-10.6844
hual	-10.6872
▁Empeza	-10.6873
▁duplica	-10.6873
▁espectacular	-10.6873
▁frustr	-10.6873
▁incorpora	-10.6873
▁satélite	-10.6873
▁videojuego	-10.6873
▁colectiva	-10.6873
▁sufrimiento	-10.6873
▁pareció	-10.6873
▁pudieron	-10.6873
▁moneda	-10.6873
▁lunes	-10.6877
▁logro	-10.6878
▁arrastra	-10.6879
▁pongo	-10.6881
▁dixo	-10.6885
▁lógica	-10.6888
▁agregar	-10.6889
▁Debemos	-10.6893
▁consumidores	-10.6893
▁Pon	-10.6899
▁cortar	-10.6903
▁muda	-10.6905
▁Roma	-10.6908
▁prácticamente	-10.6908
▁factores	-10.691
▁ponerlo	-10.6927
poder	-10.6936
▁desaparece	-10.6939
▁eliminar	-10.6941
dra	-10.6949
▁Dej	-10.6955
▁sobr	-10.6969
▁Harvard	-10.6976
▁centavos	-10.6976
▁mostró	-10.6976
▁porcentaje	-10.6976
▁junio	-10.6976
▁alumnos	-10.6976
▁engaño	-10.6976
▁baile	-10.6977
▁raza	-10.6977
▁enfermera	-10.6977
▁respeta	-10.6978
▁cartel	-10.6982
▁propuesta	-10.6986
▁Luna	-10.6991
▁macho	-10.6994
▁llevamos	-10.7
▁grave	-10.7001
▁preguntaba	-10.7003
▁quieran	-10.7009
▁salsa	-10.701
▁notable	-10.7016
▁aula	-10.7024
▁dí	-10.7029
▁preocupado	-10.7035
?”	-10.7036
▁cultiva	-10.704
▁Sch	-10.7041
▁realizado	-10.7048
▁abs	-10.7053
▁culpa	-10.7062
▁refugi	-10.7079
tlaxilacalli	-10.708
▁Cualquier	-10.708
▁Recuerdo	-10.708
▁izquierdo	-10.708
▁paradigma	-10.708
▁rendimiento	-10.708
▁sentimos	-10.708
▁racional	-10.708
▁vibra	-10.708
▁preserva	-10.7081
▁pregon	-10.7082
▁descubrió	-10.7083
▁llegando	-10.7085
▁nieve	-10.7087
▁tonto	-10.709
▁predica	-10.7095
mita	-10.7098
▁Tlaco	-10.7099
▁inspiración	-10.7101
Re	-10.7101
▁daña	-10.7113
▁nano	-10.7115
▁alimentar	-10.7131
▁regular	-10.7159
social	-10.7164
▁querer	-10.7165
▁familiares	-10.7166
▁iguales	-10.7177
▁Moisés	-10.7185
▁hábito	-10.7185
▁núcleo	-10.7185
▁raíz	-10.7185
▁relativamente	-10.7185
▁optimista	-10.7186
▁molde	-10.7186
▁selección	-10.7186
▁seguimos	-10.7186
▁The	-10.7186
▁orilla	-10.7186
▁suceda	-10.7187
▁enseñanza	-10.7188
▁traslad	-10.7193
▁nervioso	-10.7193
▁guardia	-10.7193
▁equivoca	-10.7195
▁rata	-10.72
▁encontr	-10.7209
▁hable	-10.7214
▁aprovechar	-10.7215
▁panel	-10.7217
tracción	-10.7221
▁entiende	-10.7225
▁logramos	-10.7225
▁tradicionales	-10.7237
▁religioso	-10.7248
tú	-10.7262
▁geo	-10.7269
▁leche	-10.7291
▁fotografi	-10.7292
▁campamento	-10.7292
▁privada	-10.7292
▁sanguíneo	-10.7292
▁urbana	-10.7292
▁frecuente	-10.7292
▁granjero	-10.7293
▁esclavo	-10.7293
▁replica	-10.7295
▁sufre	-10.7306
▁Ley	-10.7321
▁docena	-10.7337
▁intentamos	-10.7337
▁dejando	-10.7349
▁danza	-10.7352
▁ingreso	-10.7358
abri	-10.7366
▁tengamos	-10.7368
▁sano	-10.7382
▁significativo	-10.7384
▁design	-10.7384
▁disminu	-10.7395
▁She	-10.7395
▁obstáculo	-10.7399
▁Permítan	-10.7399
▁milagro	-10.7399
▁abrió	-10.7399
▁instante	-10.7399
▁ejecuta	-10.74
▁cobra	-10.74
flexi	-10.7401
▁biológico	-10.7401
ándome	-10.7404
▁poca	-10.7408
▁gris	-10.7408
▁cercana	-10.7409
▁sustenta	-10.7411
▁chip	-10.742
▁escritorio	-10.7426
▁estudiando	-10.7431
▁personales	-10.7434
▁voto	-10.7437
▁biólogo	-10.7438
▁pluma	-10.7469
▁culture	-10.7477
▁avanzar	-10.749
▁32	-10.7494
▁ilumina	-10.7495
▁introduc	-10.7505
▁impu	-10.7506
▁Instituto	-10.7508
▁Pacífico	-10.7508
▁asteroide	-10.7508
▁contribuye	-10.7508
▁crítica	-10.7508
▁divertida	-10.7508
▁hidrógeno	-10.7508
▁polen	-10.7509
▁construí	-10.7509
▁asigna	-10.7509
▁Frank	-10.7511
▁“¿	-10.7511
▁habitantes	-10.7514
▁describe	-10.7515
▁recuperación	-10.7517
▁hiper	-10.7526
▁fecha	-10.7527
▁hor	-10.753
▁suya	-10.7544
▁explicación	-10.7546
▁Vale	-10.7557
▁hongo	-10.7582
▁Ante	-10.7583
▁queríamos	-10.7583
▁comienzan	-10.7585
serv	-10.7588
▁misa	-10.7591
uela	-10.7602
94	-10.7612
▁Domingo	-10.7618
▁Xuarez	-10.7618
▁arriesga	-10.7618
▁implementa	-10.7618
▁mecánica	-10.7618
▁resolución	-10.7618
▁surgió	-10.7618
▁conclusión	-10.7618
▁diagnóstico	-10.7618
▁informe	-10.7618
▁eterna	-10.7618
▁broma	-10.7618
▁procede	-10.7619
▁tarda	-10.7619
▁seleccion	-10.7619
▁famosa	-10.762
▁comprob	-10.7621
ológico	-10.7622
▁resistencia	-10.7623
▁solucionar	-10.7625
▁volví	-10.7626
▁pasaron	-10.7628
▁cansa	-10.7629
▁visible	-10.7631
▁canciones	-10.7632
▁funcionamiento	-10.7635
▁ofreci	-10.7637
▁trajo	-10.7646
▁profesionales	-10.7656
▁vivido	-10.7662
▁Debería	-10.7674
▁Cua	-10.7675
▁hospitales	-10.7702
▁normales	-10.7721
▁Egipto	-10.7729
▁Sudáfrica	-10.7729
▁chimpancé	-10.7729
▁cuestiona	-10.7729
▁interactuar	-10.7729
▁magestad	-10.7729
▁recolecta	-10.7729
▁terrestre	-10.7729
▁ministro	-10.7729
▁mosquito	-10.7729
▁gentiles	-10.7729
▁mostrado	-10.7729
▁ofrenda	-10.7729
▁preciso	-10.7729
▁cuello	-10.7729
▁fué	-10.7729
▁golf	-10.7729
▁tridimensional	-10.7729
▁Trata	-10.773
▁encuesta	-10.773
▁sensible	-10.773
▁sustancia	-10.773
▁engendr	-10.773
▁terrorismo	-10.7731
▁prohibi	-10.7733
brain	-10.7733
▁2008	-10.7735
▁pica	-10.7744
▁jugadores	-10.7748
▁combinación	-10.7756
▁ética	-10.7771
▁0	-10.7787
▁alegr	-10.7795
▁distinto	-10.781
▁hagamos	-10.7811
▁luchar	-10.7814
▁lanzar	-10.7814
▁use	-10.7816
▁darse	-10.782
▁condición	-10.7822
▁600	-10.7825
500	-10.783
▁Pasa	-10.7831
▁convirt	-10.7838
▁Bretaña	-10.7841
▁extiende	-10.7841
▁flecha	-10.7841
▁lidiar	-10.7842
▁aventura	-10.7842
▁camisa	-10.7842
▁potente	-10.7842
▁Mujer	-10.7842
▁manual	-10.7845
▁signo	-10.7847
life	-10.7865
ku	-10.7867
▁verá	-10.7886
▁Debe	-10.7887
▁Polo	-10.79
poli	-10.7911
iéramos	-10.7917
▁representación	-10.7922
▁AB	-10.7923
▁dólar	-10.7924
sentarse	-10.7936
▁reciben	-10.7945
1⁄2	-10.7955
▁Santiago	-10.7955
▁YouTube	-10.7955
▁ancestro	-10.7955
▁archivo	-10.7955
▁clínico	-10.7955
▁cubierto	-10.7955
▁eficiencia	-10.7955
▁espectáculo	-10.7955
▁fariseos	-10.7955
▁limpio	-10.7955
▁mostrando	-10.7955
▁permítan	-10.7955
▁territorio	-10.7955
▁exitoso	-10.7955
▁manteca	-10.7955
▁poesía	-10.7955
▁cuarta	-10.7955
▁Ácatl	-10.7955
▁impresión	-10.7956
▁reduce	-10.7957
▁orgulloso	-10.7961
▁volvieron	-10.7961
▁gesto	-10.7964
vision	-10.7973
▁digan	-10.798
▁exploración	-10.7982
▁posiblemente	-10.7987
▁romper	-10.801
▁nucleares	-10.8022
▁pura	-10.8027
▁motores	-10.803
▁lograrlo	-10.803
▁entregar	-10.8039
correcto	-10.804
▁límite	-10.8044
▁hueso	-10.8044
▁fascina	-10.805
▁difunto	-10.807
▁frijol	-10.807
▁inevitable	-10.807
▁tecnológico	-10.807
▁infancia	-10.807
▁típica	-10.807
▁empatía	-10.807
▁Francia	-10.8071
▁iniciativa	-10.8073
▁sabio	-10.8074
▁♪	-10.8074
▁muger	-10.8077
99	-10.808
▁fiel	-10.8086
▁Casi	-10.8091
▁socio	-10.8092
97	-10.8105
▁ahorrar	-10.8111
▁Hub	-10.8115
▁amado	-10.8115
▁entrenado	-10.812
▁usarlo	-10.8149
▁acud	-10.8156
Tiene	-10.8157
60	-10.8163
▁Australia	-10.8186
▁capítulo	-10.8186
▁construyó	-10.8186
▁efectivo	-10.8186
▁entretenimiento	-10.8186
▁índice	-10.8186
▁evidente	-10.8186
▁permiso	-10.8186
▁julio	-10.8186
▁elabora	-10.8187
▁laptop	-10.8187
parecieron	-10.8187
▁tolera	-10.8187
▁celda	-10.8188
▁brota	-10.8189
▁oración	-10.819
▁escapar	-10.8193
▁sumerg	-10.8194
▁50%	-10.8198
▁20%	-10.8207
▁obtienen	-10.8217
Verdad	-10.8243
▁fabricar	-10.8248
▁Fueron	-10.8249
▁conect	-10.8259
▁26	-10.8268
▁hol	-10.8272
▁paraliza	-10.8282
▁fundamentales	-10.8285
roll	-10.8287
▁digitales	-10.8289
▁gastar	-10.829
▁precisa	-10.8291
▁carro	-10.8298
▁Agustín	-10.8304
▁Preparación	-10.8304
▁fantasma	-10.8304
▁orquesta	-10.8304
▁príncipe	-10.8304
▁publicidad	-10.8304
▁relevante	-10.8304
▁vulnerable	-10.8304
▁ángulo	-10.8304
▁prevenir	-10.8304
▁proyecta	-10.8304
▁retroced	-10.8304
▁tronco	-10.8304
▁empresarial	-10.8305
▁descarga	-10.8305
▁agosto	-10.8305
bien	-10.8305
▁posesión	-10.8306
▁contento	-10.831
▁espina	-10.8312
▁Intent	-10.8313
▁10.000	-10.8328
▁ansi	-10.8335
▁calcular	-10.8342
▁lecciones	-10.8343
▁escudo	-10.8348
▁evita	-10.8358
▁Tz	-10.8373
▁salto	-10.8381
▁Part	-10.8394
▁investigar	-10.8404
▁copa	-10.8413
▁extrema	-10.8422
organiz	-10.8423
▁Moteuczoma	-10.8423
▁actitud	-10.8423
▁apariencia	-10.8423
▁excelente	-10.8423
▁improvisa	-10.8423
▁orgánico	-10.8423
▁tecnológica	-10.8423
▁Brasil	-10.8423
▁Chicago	-10.8423
▁asimismo	-10.8423
▁resucita	-10.8423
▁defensa	-10.8423
▁confirma	-10.8423
▁corporal	-10.8423
▁ecuación	-10.8423
▁bonito	-10.8423
▁trastorno	-10.8423
▁diagrama	-10.8424
▁interna	-10.8424
▁conducta	-10.8424
▁Vida	-10.8424
▁vertical	-10.8426
▁quinto	-10.8426
▁exposición	-10.8428
▁vistazo	-10.8436
▁recuerden	-10.8441
▁deriva	-10.8443
▁salga	-10.8448
▁polio	-10.8461
▁arreglar	-10.8488
part	-10.8507
tener	-10.8509
▁calma	-10.8523
ística	-10.8527
▁avanzada	-10.8543
▁Alemania	-10.8544
▁británico	-10.8544
▁líquido	-10.8544
▁raíces	-10.8544
▁revolucion	-10.8544
▁apropiada	-10.8544
▁tremenda	-10.8544
creativity	-10.8544
▁palacio	-10.8544
▁obedec	-10.8544
▁producido	-10.8544
▁justifica	-10.8544
▁hierve	-10.8544
▁modela	-10.8544
▁Comenz	-10.8545
▁permita	-10.8547
▁electrónica	-10.8548
▁densidad	-10.8548
▁sentada	-10.8549
▁determinar	-10.8549
▁salvaje	-10.8551
▁Islam	-10.8551
▁1.000	-10.8556
▁conduce	-10.8559
To	-10.8572
85	-10.8574
▁tienden	-10.8583
▁quiénes	-10.8591
Pueden	-10.8597
▁rica	-10.8613
▁alegra	-10.862
▁entienden	-10.862
▁hidr	-10.8624
▁Gal	-10.8637
▁escribe	-10.8637
▁120	-10.8641
▁Primer	-10.8644
▁daban	-10.865
▁haremos	-10.8664
▁Canadá	-10.8665
▁ONU	-10.8665
▁chocolate	-10.8665
▁dominio	-10.8665
▁eventualmente	-10.8665
▁filosofía	-10.8665
▁financiera	-10.8665
▁multiplica	-10.8665
▁máximo	-10.8665
▁regenera	-10.8665
▁escribiendo	-10.8665
▁brecha	-10.8666
▁lectura	-10.8666
▁certifica	-10.8666
óxido	-10.8667
▁sexto	-10.8667
▁Habl	-10.8668
▁polar	-10.8669
▁2007	-10.867
▁sesenta	-10.8675
▁deporte	-10.8682
dujo	-10.8685
▁recorrer	-10.8686
▁cuan	-10.8697
▁enfrentamos	-10.871
▁cultivar	-10.8713
▁internacionales	-10.8721
▁Llega	-10.8725
▁amable	-10.8732
▁28	-10.8734
pend	-10.8734
▁preguntaron	-10.8736
Oye	-10.8737
Podemos	-10.8759
▁darnos	-10.876
▁buscamos	-10.8763
ngredientes	-10.8769
▁específica	-10.8776
▁cliente	-10.878
▁acostumbr	-10.8787
▁cromosoma	-10.8789
▁fotógrafo	-10.8789
▁hábitat	-10.8789
▁instrucciones	-10.8789
▁longitud	-10.8789
▁temporal	-10.8789
▁permanente	-10.8789
▁Pensamos	-10.8789
▁enamora	-10.8789
▁conquista	-10.879
▁recaud	-10.879
▁parezca	-10.8793
vertimos	-10.8794
Necesit	-10.8808
▁traza	-10.8811
▁ejerc	-10.8822
▁75	-10.8823
▁calific	-10.8827
▁radi	-10.886
▁transmitir	-10.886
▁hogares	-10.8866
▁restaura	-10.8868
biology	-10.8871
▁brilla	-10.8874
Así	-10.8889
▁lleve	-10.8907
▁Cree	-10.8908
tuvieron	-10.8908
dito	-10.8908
cepción	-10.8909
	-10.8914
▁Empecé	-10.8914
▁bolsillo	-10.8914
▁cubierta	-10.8914
▁terremoto	-10.8914
▁tiburón	-10.8914
▁Ángeles	-10.8914
▁Felipe	-10.8914
▁extinción	-10.8914
▁Apple	-10.8914
▁exponencial	-10.8914
▁sostener	-10.8914
▁elegante	-10.8915
▁Bush	-10.8919
▁Escrib	-10.8919
Mira	-10.8926
▁Bang	-10.8927
▁quiso	-10.8931
▁contaminación	-10.8934
▁aparta	-10.8954
▁aporta	-10.8957
▁indio	-10.8962
▁dejé	-10.8964
row	-10.8967
▁comerciales	-10.8978
puso	-10.8986
–	-10.9011
Para	-10.9012
saben	-10.9012
▁especiales	-10.904
▁humo	-10.904
▁Golfo	-10.904
▁crédito	-10.904
▁departamento	-10.904
▁dignidad	-10.904
▁extranjero	-10.904
▁funcionó	-10.904
▁iPhone	-10.904
▁incremento	-10.904
▁misericordia	-10.904
▁existir	-10.904
▁explosión	-10.904
▁podéis	-10.904
▁direcciones	-10.9041
▁ocasiones	-10.9041
▁pidieron	-10.9041
▁serpiente	-10.9041
▁adonde	-10.9041
▁intención	-10.9041
ensambla	-10.9041
▁cerrado	-10.9043
▁primaria	-10.9045
▁aguja	-10.9045
▁Jack	-10.905
ling	-10.905
▁Aquel	-10.9052
▁entendido	-10.9058
▁reparti	-10.9061
▁Big	-10.9063
▁vela	-10.907
▁olvidar	-10.9079
▁labra	-10.908
▁comparación	-10.9081
▁peligrosa	-10.9088
▁usarse	-10.909
▁comprende	-10.9094
▁vengan	-10.9103
▁tendríamos	-10.9105
▁puro	-10.9106
▁transmiti	-10.911
▁Teníamos	-10.912
ístico	-10.9125
hichimecateuctli	-10.9131
▁apoyar	-10.9138
▁barca	-10.9144
▁Coca	-10.9166
cultura	-10.9166
▁Testigo	-10.9169
▁ayudó	-10.9169
▁diagnostica	-10.9169
▁diciembre	-10.9169
▁discutir	-10.9169
▁histórico	-10.9169
▁práctico	-10.9169
economics	-10.9169
▁gratuita	-10.9169
▁testamento	-10.9169
▁Kenia	-10.9169
▁desgracia	-10.9169
▁primavera	-10.9169
▁nariz	-10.9169
▁cueva	-10.9169
▁volando	-10.9169
▁exitosa	-10.9169
▁acercó	-10.9169
▁ocasión	-10.9169
▁procura	-10.9169
▁experto	-10.917
Cuánto	-10.9171
▁29	-10.9173
▁investigaciones	-10.9174
▁darme	-10.9175
▁fósiles	-10.9179
stituye	-10.9181
▁emprendedores	-10.9187
▁capacit	-10.9191
prendió	-10.92
▁espada	-10.9202
cker	-10.9209
▁gota	-10.9215
▁Wil	-10.922
▁interno	-10.9228
▁individuales	-10.9231
▁papa	-10.9255
▁pose	-10.926
iéndolo	-10.9266
▁celebrar	-10.9268
▁Inter	-10.9276
dministración	-10.9286
▁pasaría	-10.9294
▁Obviamente	-10.9299
▁aburrido	-10.9299
▁naranja	-10.9299
▁sinagoga	-10.9299
▁volumen	-10.9299
▁America	-10.9299
▁convencido	-10.9299
▁demostrado	-10.9299
▁dispersa	-10.9299
▁Rusia	-10.9299
▁Lleva	-10.9299
Todo	-10.9299
▁sabrá	-10.93
▁amarilla	-10.9301
▁poeta	-10.9303
▁proteína	-10.9303
▁agarra	-10.9304
▁ingeniero	-10.9306
▁especializa	-10.9315
47	-10.9318
cuántas	-10.9357
ciencia	-10.9379
▁Th	-10.9394
▁baila	-10.9396
puede	-10.9401
▁Azcapotzalco	-10.943
▁encuentre	-10.943
▁hipótesis	-10.943
▁privilegio	-10.943
▁síntomas	-10.943
▁actúa	-10.943
▁interfaz	-10.943
▁ahorro	-10.943
▁viruela	-10.943
▁demostración	-10.943
▁inventó	-10.943
▁perdiendo	-10.943
▁Obama	-10.943
▁bonita	-10.943
▁Simón	-10.9431
▁escuche	-10.9431
▁equipa	-10.9431
▁excepción	-10.9433
▁anual	-10.9433
▁laboral	-10.9434
▁sacud	-10.9436
▁2005	-10.9438
▁justa	-10.944
▁$	-10.9441
▁subió	-10.9442
▁cubre	-10.9443
▁específicamente	-10.9444
▁martes	-10.9449
▁tapa	-10.9449
▁Vean	-10.9459
▁militares	-10.9477
▁gobernando	-10.948
▁tono	-10.9482
▁involucrado	-10.9485
ificado	-10.9507
▁Real	-10.9524
▁We	-10.9532
Su	-10.9532
Cuando	-10.9534
ísimo	-10.9542
72	-10.9548
▁comporta	-10.9562
medicine	-10.9563
▁Pakistán	-10.9563
▁Tuvimos	-10.9563
▁absorbe	-10.9563
▁abundancia	-10.9563
▁coordina	-10.9563
▁cumpleaños	-10.9563
▁diccionario	-10.9563
▁género	-10.9563
▁mamífero	-10.9563
▁reconocimiento	-10.9563
▁sucesivamente	-10.9563
▁águila	-10.9563
▁obispo	-10.9563
▁rodilla	-10.9564
▁típico	-10.9564
▁convencional	-10.9564
▁estrés	-10.9564
▁comenzado	-10.9564
▁provincia	-10.9564
▁reducción	-10.9564
▁valioso	-10.9564
▁psicología	-10.9564
▁ritual	-10.9564
▁consulta	-10.9564
▁razonable	-10.9564
▁quetzal	-10.9564
▁creciente	-10.9565
▁crecido	-10.9566
▁gal	-10.9567
▁rato	-10.9567
▁anillo	-10.9568
▁piano	-10.9568
▁recorrido	-10.957
▁dependien	-10.9576
▁mandado	-10.9578
plicó	-10.958
▁Tres	-10.9606
▁Dado	-10.9618
MA	-10.9627
▁guard	-10.9636
▁quedado	-10.9641
▁DE	-10.9642
▁pensaron	-10.9648
▁únicamente	-10.9651
▁repit	-10.9657
Alguien	-10.9669
Soy	-10.9669
▁Tim	-10.9676
▁publicado	-10.9682
▁Atl	-10.9684
▁Salud	-10.9685
▁reacciona	-10.9699
▁Microsoft	-10.9699
▁acabó	-10.9699
▁aeropuerto	-10.9699
▁cristiano	-10.9699
▁desconocido	-10.9699
▁ilegal	-10.9699
▁inclina	-10.9699
▁resonancia	-10.9699
▁declaro	-10.9699
▁extender	-10.9699
▁change	-10.9699
▁General	-10.9699
▁castiga	-10.9699
▁muestro	-10.9699
▁presentó	-10.9699
▁ácido	-10.9699
▁hablé	-10.9699
▁sagrado	-10.9699
▁Video	-10.9699
▁Boston	-10.9699
▁falsa	-10.9699
▁Banco	-10.9699
▁rasgo	-10.9699
▁Quere	-10.9699
▁conozca	-10.9699
▁placa	-10.9699
▁barata	-10.9699
▁digno	-10.9699
▁narrativa	-10.9701
sky	-10.9703
▁confiar	-10.9704
▁ciber	-10.9704
▁agricultores	-10.9705
▁leyendo	-10.9705
▁burla	-10.9706
huatzin	-10.9708
▁Unidas	-10.9708
▁encender	-10.9714
▁taza	-10.9718
▁Naciones	-10.9725
duje	-10.9729
▁respiración	-10.9729
▁palma	-10.9736
▁cerebrales	-10.9764
▁intercambi	-10.9785
▁Ku	-10.9794
▁roto	-10.9794
visión	-10.9802
▁mortal	-10.9816
▁agradec	-10.9829
▁carácter	-10.9836
▁construimos	-10.9836
▁láser	-10.9836
▁mostré	-10.9836
▁origami	-10.9836
▁portátil	-10.9836
▁prisionero	-10.9836
▁sólido	-10.9836
▁órbita	-10.9836
▁Tenanco	-10.9836
▁cubrir	-10.9836
▁elefante	-10.9836
▁moviendo	-10.9836
▁Haití	-10.9836
▁resistente	-10.9836
▁sensores	-10.9836
▁cohete	-10.9836
▁ánimo	-10.9836
▁sonrisa	-10.9837
▁Jim	-10.9837
▁collar	-10.984
▁novela	-10.9841
▁miró	-10.9845
▁querría	-10.9847
▁2.000	-10.9849
▁Isla	-10.9855
▁adulto	-10.9856
▁rosa	-10.9857
▁recorr	-10.9858
▁tinta	-10.9858
▁seguramente	-10.9862
▁permanecer	-10.9871
▁detecta	-10.9887
▁evolucionado	-10.9905
200	-10.9917
▁entraron	-10.9923
▁entrando	-10.9927
▁permanec	-10.9933
▁aprovecha	-10.9936
▁llorar	-10.9939
bró	-10.9948
▁bebe	-10.9962
Sabía	-10.9962
▁inusual	-10.9974
▁juramento	-10.9974
▁musulmanes	-10.9974
▁psicólogo	-10.9974
▁resuelto	-10.9974
▁tragedia	-10.9974
▁Congreso	-10.9974
▁decidieron	-10.9974
▁diversas	-10.9974
▁gracioso	-10.9974
▁negativa	-10.9974
▁logró	-10.9975
▁plaza	-10.9975
▁grandioso	-10.9975
▁Museo	-10.9975
▁maestra	-10.9975
▁rescate	-10.9975
▁receptor	-10.9975
scripción	-10.9975
▁vagina	-10.9975
▁protesta	-10.9975
▁oficio	-10.9975
▁tropas	-10.9976
▁retrato	-10.9976
▁acceder	-10.9977
tepec	-10.9978
▁Sobre	-10.9978
▁XXI	-10.9979
▁partió	-10.9982
▁tristeza	-10.9983
ificó	-10.9988
▁expone	-10.999
▁siguió	-10.9994
▁químico	-10.9998
▁recurso	-10.9999
▁Monte	-11.0003
▁gustaba	-11.0003
▁250	-11.0005
▁trasero	-11.0005
▁animación	-11.0006
▁correctamente	-11.0017
▁recta	-11.0018
▁luchando	-11.0018
▁tenia	-11.0019
▁llegaba	-11.0024
▁transformado	-11.003
CA	-11.0031
▁intentado	-11.0049
primido	-11.0078
ástica	-11.0079
Pues	-11.0087
▁conservador	-11.0093
▁Vivi	-11.0101
▁difundi	-11.0112
▁aproxima	-11.0115
▁Angeles	-11.0115
▁almuerzo	-11.0115
▁despues	-11.0115
▁destruye	-11.0115
▁escuché	-11.0115
▁literatura	-11.0115
▁universitario	-11.0115
▁construida	-11.0115
▁transmisión	-11.0115
▁compartimos	-11.0115
▁paquete	-11.0115
▁derrame	-11.0116
▁Unión	-11.0116
▁Donde	-11.0116
▁intensa	-11.0116
▁editor	-11.0116
▁numero	-11.0117
▁pastor	-11.0117
▁admitir	-11.0118
▁emergencia	-11.0118
▁posesion	-11.0118
▁recoger	-11.0119
▁cuantas	-11.0119
▁diciéndo	-11.0119
▁define	-11.0121
▁oeste	-11.0122
▁definitivamente	-11.0125
▁gozo	-11.0126
▁diera	-11.0126
▁corona	-11.0135
▁pierna	-11.0144
qua	-11.0145
▁ruta	-11.0151
▁Mucha	-11.0156
▁desaparecer	-11.0167
▁Hici	-11.0172
92	-11.0174
40	-11.0181
▁destaca	-11.0184
▁rompe	-11.019
▁quisi	-11.0201
publi	-11.0206
▁decide	-11.0223
▁salario	-11.0233
▁directa	-11.0245
▁comparado	-11.0253
Tú	-11.0254
▁preocupe	-11.0258
▁Biblia	-11.0258
▁agrícola	-11.0258
▁diálogo	-11.0258
▁hígado	-11.0258
▁obstante	-11.0258
▁reuniones	-11.0258
▁secundario	-11.0258
▁supermercado	-11.0258
▁éramos	-11.0258
▁precisión	-11.0258
▁cómic	-11.0258
▁ascenso	-11.0258
▁examen	-11.0258
▁vincula	-11.0258
▁filtra	-11.0258
▁Italia	-11.0258
▁excava	-11.0258
▁sostiene	-11.0258
▁anticipa	-11.0258
▁Brown	-11.0258
▁perdona	-11.0259
▁inventado	-11.026
▁ése	-11.026
▁mínimo	-11.026
▁presiona	-11.026
▁menciona	-11.0261
▁selva	-11.0261
▁consume	-11.0262
▁desecha	-11.0264
▁herida	-11.0265
▁cría	-11.0265
▁2004	-11.0266
▁Peter	-11.0267
▁cambie	-11.0271
▁encaja	-11.0282
▁pasará	-11.0283
▁conectada	-11.0285
▁interpretación	-11.0288
▁Media	-11.0292
▁precioso	-11.0299
▁limitado	-11.03
▁sentirse	-11.0318
▁enseñando	-11.0327
▁Día	-11.0327
▁cabe	-11.0329
▁ahorra	-11.0352
▁Sam	-11.0363
qu	-11.0376
▁paseo	-11.038
▁trabajadora	-11.0397
▁Público	-11.0403
▁Street	-11.0403
▁accesible	-11.0403
▁francés	-11.0403
▁lámpara	-11.0403
▁reconstruir	-11.0403
▁regresó	-11.0403
▁órdenes	-11.0403
▁adecuado	-11.0403
▁crucial	-11.0403
▁griego	-11.0403
▁obtenemos	-11.0403
▁posterior	-11.0403
▁Uganda	-11.0403
▁ocurra	-11.0403
▁Suecia	-11.0403
▁merced	-11.0403
▁invención	-11.0403
▁Sistema	-11.0403
▁apertura	-11.0403
▁descansa	-11.0403
▁plena	-11.0403
▁vegetal	-11.0403
▁ratones	-11.0405
▁noventa	-11.0405
▁2009	-11.0407
▁conversaciones	-11.0407
▁sección	-11.0411
güe	-11.0415
▁operaciones	-11.0417
▁iluminación	-11.0421
▁encontraba	-11.0445
▁trono	-11.0451
▁Mark	-11.0465
▁Crea	-11.0471
▁avanzado	-11.0477
▁salí	-11.0512
▁pesado	-11.0519
▁Necesita	-11.0531
▁giro	-11.054
▁clásica	-11.055
▁diversión	-11.055
▁empezado	-11.055
▁hembra	-11.055
▁interactúa	-11.055
▁parábola	-11.055
▁procedimiento	-11.055
▁productividad	-11.055
▁simplicidad	-11.055
▁trabajé	-11.055
▁vulnerabilidad	-11.055
▁balance	-11.055
▁filtro	-11.055
▁jueves	-11.055
▁microbios	-11.055
▁transición	-11.055
▁curioso	-11.055
▁rango	-11.055
▁Corea	-11.055
▁plaga	-11.0551
▁concreto	-11.0551
Cuánta	-11.0551
▁permitie	-11.0552
▁postura	-11.0552
▁otorga	-11.0553
▁leído	-11.0553
▁disposición	-11.0555
▁perdón	-11.0556
▁reside	-11.056
▁Jacobo	-11.0564
prime	-11.057
▁Gore	-11.057
▁quedaba	-11.0574
▁esparci	-11.0578
▁dedicado	-11.0611
clav	-11.0612
▁orgullo	-11.0692
▁obvia	-11.0697
▁camello	-11.0698
▁Oxford	-11.0699
▁World	-11.0699
▁alguacil	-11.0699
▁estómago	-11.0699
▁governador	-11.0699
▁infinita	-11.0699
▁invernadero	-11.0699
▁magnética	-11.0699
▁pirámide	-11.0699
▁transparente	-11.0699
▁PIB	-11.0699
▁expansión	-11.0699
▁histórica	-11.0699
▁Ghana	-11.0699
▁rumbo	-11.0699
▁billete	-11.07
▁choque	-11.07
▁autopista	-11.07
▁disminuye	-11.07
▁pedido	-11.07
▁reporte	-11.0702
▁conejo	-11.0705
quatro	-11.0705
▁lujo	-11.0715
▁fabricación	-11.0722
▁sencillamente	-11.0726
▁motivación	-11.0727
86	-11.0738
▁medicamento	-11.0745
▁componente	-11.0748
▁horno	-11.0763
5.000	-11.0764
▁recogi	-11.0773
▁Fre	-11.0801
▁doctrina	-11.0851
▁enseñó	-11.0851
▁fútbol	-11.0851
▁informático	-11.0851
▁lágrimas	-11.0851
▁mágico	-11.0851
▁permitido	-11.0851
▁ámbito	-11.0851
▁íbamos	-11.0851
▁Segunda	-11.0851
▁lucro	-11.0851
invention	-11.0851
▁desorden	-11.0851
hildren	-11.0851
▁conseguí	-11.0851
▁convertí	-11.0851
culares	-11.0852
▁trayectoria	-11.0852
▁atún	-11.0853
Cuándo	-11.0853
▁secreta	-11.0853
▁recurr	-11.0853
▁detector	-11.0854
▁Á	-11.0859
▁degrada	-11.0861
azón	-11.0861
▁comiendo	-11.0877
▁continuación	-11.0889
ugh	-11.0895
▁africano	-11.0901
▁observación	-11.0913
clasifica	-11.094
post	-11.0943
▁preguntarle	-11.0944
Tengo	-11.0975
cuánto	-11.0975
vié	-11.0981
▁Huitzilopochtli	-11.1005
▁Huitzilíhuitl	-11.1005
▁Stanford	-11.1005
▁activista	-11.1005
▁caricatura	-11.1005
▁filósofo	-11.1005
▁innovaciones	-11.1005
▁institución	-11.1005
▁Supongo	-11.1005
▁envejece	-11.1005
wood	-11.1005
▁futura	-11.1005
▁trabaje	-11.1005
▁Centro	-11.1005
▁pleito	-11.1005
▁ficción	-11.1005
▁muerta	-11.1005
▁codifica	-11.1005
▁propone	-11.1007
▁botón	-11.1011
▁remonta	-11.1011
▁sabia	-11.1012
▁agradecer	-11.1012
▁nací	-11.1012
▁2006	-11.1014
▁reproducir	-11.1014
▁actores	-11.1018
▁taller	-11.1028
▁participación	-11.1029
▁conservación	-11.103
▁encantaría	-11.1032
▁toque	-11.105
▁lograron	-11.1058
▁usuario	-11.106
▁soldado	-11.1064
▁lineal	-11.107
▁remoto	-11.111
▁despertar	-11.1113
84	-11.1121
gráfico	-11.1131
Como	-11.1132
▁resumi	-11.1132
viaron	-11.1154
storytelling	-11.1161
▁Florea	-11.1161
▁William	-11.1161
▁argumenta	-11.1161
▁aztecas	-11.1161
▁cerveza	-11.1161
▁envejecimiento	-11.1161
▁magnífico	-11.1161
▁monasterio	-11.1161
▁vínculo	-11.1161
▁Muchísim	-11.1161
▁ONG	-11.1161
▁demasiada	-11.1161
▁montones	-11.1161
▁arroz	-11.1161
▁Alonso	-11.1161
▁llanto	-11.1161
▁pedimos	-11.1161
▁compartido	-11.1161
▁partida	-11.1161
▁Allá	-11.1161
▁apartamento	-11.1162
▁oraciones	-11.1163
▁perfora	-11.1164
▁2010	-11.1166
▁produjo	-11.1166
▁dicta	-11.1166
▁sabiendo	-11.1167
▁perdió	-11.117
▁RB	-11.117
▁chiste	-11.1171
▁instalaciones	-11.1173
▁comedia	-11.1178
▁1000	-11.1183
▁adicionales	-11.1184
▁fundador	-11.119
▁brevemente	-11.1196
▁india	-11.1206
▁pozo	-11.123
Guau	-11.1244
▁Hy	-11.1268
▁equivocada	-11.1269
▁lamenta	-11.1277
▁consumidor	-11.1289
▁pago	-11.13
▁sustitu	-11.1304
▁arco	-11.1307
Estoy	-11.1311
pósito	-11.1316
environment	-11.132
▁Alzheimer	-11.132
▁García	-11.132
▁Hollywood	-11.132
▁Sebastian	-11.132
▁Xochimilco	-11.132
▁avergonz	-11.132
▁francamente	-11.132
▁microscopio	-11.132
▁perecieron	-11.132
▁préstamo	-11.132
▁publicó	-11.132
▁residuos	-11.132
▁terminé	-11.132
▁dimensión	-11.132
▁aparentemente	-11.132
▁concluir	-11.132
world	-11.132
▁Quisiera	-11.132
▁asombra	-11.132
▁Xoco	-11.132
▁desechos	-11.132
▁cafetal	-11.132
▁depredador	-11.132
▁reunido	-11.132
▁muele	-11.1322
▁seriamente	-11.1322
▁ciega	-11.1322
▁creció	-11.1323
▁90%	-11.1326
▁Estudi	-11.1326
▁apóstoles	-11.1335
▁tigre	-11.1336
▁florea	-11.1343
▁fundación	-11.1346
▁Casa	-11.137
76	-11.1372
ionista	-11.1384
▁mentira	-11.1409
▁Gene	-11.1416
Ve	-11.1427
prendí	-11.1428
▁recoge	-11.143
▁Asimismo	-11.1481
▁Atonaltzin	-11.1481
▁Manhattan	-11.1481
▁casualidad	-11.1481
▁cotidiana	-11.1481
▁ligeramente	-11.1481
▁orgánica	-11.1481
▁sensorial	-11.1481
▁violento	-11.1481
Vosotros	-11.1481
▁fluye	-11.1481
▁Aztlan	-11.1481
▁fortuna	-11.1481
▁inútil	-11.1481
▁Ruanda	-11.1481
▁proporción	-11.1481
▁diseñada	-11.1481
▁Escuela	-11.1481
▁implanta	-11.1481
▁traído	-11.1482
▁predicciones	-11.1482
▁establecido	-11.1484
▁usó	-11.1485
▁automáticamente	-11.1487
▁participantes	-11.1487
▁añadir	-11.1487
▁80%	-11.1489
▁confundi	-11.1489
▁colina	-11.1491
▁Espera	-11.1496
▁trigo	-11.1496
▁KB	-11.1497
▁baña	-11.1499
▁Dicen	-11.1503
▁culpable	-11.151
▁cuadra	-11.1515
▁satisfac	-11.1529
well	-11.1539
▁devolver	-11.1543
▁hormiga	-11.1552
▁jade	-11.1557
iller	-11.1575
▁especialista	-11.1608
▁recupera	-11.1614
Z	-11.1615
RA	-11.1628
▁volvía	-11.1641
▁refrigera	-11.1645
▁Departamento	-11.1645
▁Fundación	-11.1645
▁Joseph	-11.1645
▁Leonardo	-11.1645
▁aposento	-11.1645
▁criminal	-11.1645
▁cáscara	-11.1645
▁embarazada	-11.1645
▁epazote	-11.1645
▁esclavitud	-11.1645
▁oculto	-11.1645
▁rastrea	-11.1645
▁romántico	-11.1645
▁régimen	-11.1645
▁cardíaco	-11.1645
▁conmovedor	-11.1645
▁adivina	-11.1645
▁bestia	-11.1645
▁africana	-11.1645
▁Bronx	-11.1645
▁Descubr	-11.1645
▁formula	-11.1645
▁partieron	-11.1645
▁hormona	-11.1645
▁arranca	-11.1645
▁defender	-11.1645
▁Atenco	-11.1645
▁preferi	-11.1646
▁torna	-11.1646
▁anoche	-11.1646
▁recibieron	-11.1647
▁Recib	-11.1651
▁casco	-11.1657
▁aborda	-11.1667
écatl	-11.1669
▁dominante	-11.1673
▁Nu	-11.1682
▁cocer	-11.1685
▁Hic	-11.1711
▁agita	-11.1712
▁foco	-11.1712
▁característica	-11.1721
▁impacta	-11.177
▁Usted	-11.1781
▁Galilea	-11.1812
▁tlatoani	-11.1812
▁totolimpanecas	-11.1812
▁traducción	-11.1812
▁destreza	-11.1812
▁tradiciones	-11.1812
▁reunieron	-11.1812
future	-11.1812
▁club	-11.1812
▁galería	-11.1812
▁posicion	-11.1814
▁poblado	-11.1814
▁abundante	-11.1814
▁promete	-11.1815
▁detección	-11.1815
▁fuma	-11.1816
▁escrita	-11.1817
▁división	-11.1817
▁lidera	-11.182
▁Marina	-11.1824
▁margen	-11.1828
▁Compar	-11.1833
▁King	-11.1833
▁morada	-11.1839
▁mancha	-11.1842
▁quise	-11.1855
transform	-11.1875
▁mentir	-11.1887
▁Hill	-11.1927
74	-11.1932
▁efectiva	-11.1968
▁compone	-11.1979
▁alterna	-11.198
▁Howard	-11.1981
▁XIX	-11.1981
▁apropiado	-11.1981
▁castigo	-11.1981
▁gubernamental	-11.1981
▁ilusión	-11.1981
▁noviembre	-11.1981
▁pandemia	-11.1981
▁silvestre	-11.1981
▁tormenta	-11.1981
▁tremendo	-11.1981
▁Ciudad	-11.1981
▁combatir	-11.1981
▁fiebre	-11.1981
▁infinito	-11.1981
▁instinto	-11.1981
▁revés	-11.1981
▁súper	-11.1981
▁Smith	-11.1981
▁cruel	-11.1981
▁sistemática	-11.1981
▁inyecta	-11.1981
▁llamé	-11.1981
▁flexible	-11.1981
▁valiente	-11.1981
▁sugerir	-11.1981
▁Moore	-11.1981
▁enfrente	-11.1981
▁estrecha	-11.1981
▁Julia	-11.1983
▁oyó	-11.1984
▁planificación	-11.1984
▁cuántica	-11.1985
▁despleg	-11.1985
▁aprendimos	-11.1986
▁genio	-11.1988
▁madura	-11.1989
▁igualdad	-11.1989
▁parcial	-11.1992
▁sacó	-11.1993
▁rana	-11.1996
▁100%	-11.1997
▁paralelo	-11.1998
▁haciéndolo	-11.1998
ógrafo	-11.1999
93	-11.2002
▁actualidad	-11.2008
▁emprend	-11.2019
▁invasi	-11.2029
▁comido	-11.2029
ER	-11.203
▁Decía	-11.2041
▁Bob	-11.2048
fiere	-11.2065
▁estadística	-11.2069
▁anciano	-11.207
▁colega	-11.2072
▁bautiz	-11.2112
▁necesite	-11.2126
▁Actualmente	-11.2154
▁amanecer	-11.2154
▁conseguimos	-11.2154
▁mutuamente	-11.2154
▁robótica	-11.2154
▁submarino	-11.2154
▁tlatelolcas	-11.2154
▁transparencia	-11.2154
▁atractivo	-11.2154
▁capitán	-11.2154
▁escáner	-11.2154
▁mágica	-11.2154
▁persuad	-11.2154
▁honesto	-11.2154
▁ecológica	-11.2154
▁levadura	-11.2154
▁exager	-11.2154
▁Termina	-11.2154
▁obesidad	-11.2154
▁tortura	-11.2154
▁Indus	-11.2154
▁federal	-11.2154
▁medusa	-11.2154
▁saldrá	-11.2155
▁Comenc	-11.2156
▁sorprendió	-11.2159
▁respondiendo	-11.216
▁facial	-11.2162
▁patente	-11.2163
▁Life	-11.2164
▁Island	-11.2168
▁Hong	-11.2172
árselo	-11.2198
▁órgano	-11.2248
OK	-11.2309
Vamos	-11.2319
▁Shi	-11.2324
▁Presidente	-11.2329
▁Proyecto	-11.2329
▁catástrofe	-11.2329
▁centímetro	-11.2329
▁colectivo	-11.2329
▁cráneo	-11.2329
▁facilita	-11.2329
▁informática	-11.2329
▁sofisticado	-11.2329
collaboration	-11.2329
▁arruina	-11.2329
▁energética	-11.2329
▁frágil	-11.2329
▁glaciar	-11.2329
▁umbral	-11.2329
▁óptica	-11.2329
▁dividir	-11.2329
▁inocente	-11.2329
americana	-11.2329
▁hierro	-11.2329
▁contempla	-11.2329
▁muestre	-11.2329
▁Garcia	-11.2329
activism	-11.2329
▁progresa	-11.2329
▁articul	-11.2329
▁inmensa	-11.2329
▁Gaspar	-11.2329
▁tabaco	-11.2329
▁fluido	-11.2329
▁campana	-11.2329
▁pausa	-11.233
▁exporta	-11.233
▁camiones	-11.2331
▁camellones	-11.2331
▁Viene	-11.2331
▁criado	-11.2332
▁relato	-11.2333
▁alarma	-11.2334
▁globalización	-11.2336
▁masivo	-11.2338
▁congrega	-11.2339
▁limitaciones	-11.2339
▁Trans	-11.2358
▁conversa	-11.2363
▁enlace	-11.2379
sociación	-11.2388
▁130	-11.2394
49	-11.2407
▁insist	-11.2413
▁700	-11.242
▁origina	-11.2441
▁guiar	-11.2465
▁jugador	-11.2478
▁oriental	-11.2486
iésemos	-11.2487
▁asegur	-11.25
▁Florida	-11.2508
▁costumbre	-11.2508
▁creyente	-11.2508
▁glorifica	-11.2508
▁prioridad	-11.2508
▁produciendo	-11.2508
▁eficaz	-11.2508
▁expandir	-11.2508
▁extensión	-11.2508
▁parecida	-11.2508
▁inmenso	-11.2508
▁entienda	-11.2508
▁Cinco	-11.2508
▁externa	-11.2508
▁muriendo	-11.2508
▁aterrador	-11.2508
▁viniendo	-11.2508
▁señorío	-11.2508
▁curiosa	-11.2508
▁brote	-11.2508
▁Tony	-11.2508
▁derriba	-11.2508
▁esquema	-11.2513
▁asesor	-11.2513
▁cancer	-11.2516
▁2003	-11.252
▁cualidades	-11.2523
▁West	-11.2524
Maestro	-11.2527
▁Fran	-11.253
▁labios	-11.253
▁invad	-11.2541
▁alinea	-11.2586
▁prest	-11.2604
▁mexica	-11.2611
▁bloquea	-11.2659
Ahora	-11.266
▁Plan	-11.2674
89	-11.2677
▁visit	-11.2683
▁Chicomóztoc	-11.2689
▁académico	-11.2689
▁angustia	-11.2689
▁antibiótico	-11.2689
▁continuo	-11.2689
▁descifrar	-11.2689
▁evolutiva	-11.2689
▁incertidumbre	-11.2689
▁miércoles	-11.2689
▁poblaciones	-11.2689
▁ridículo	-11.2689
▁Saturno	-11.2689
▁incendio	-11.2689
▁increible	-11.2689
▁Amazon	-11.2689
▁París	-11.2689
▁Velasco	-11.2689
psychology	-11.2689
▁Navidad	-11.2689
▁cardíaca	-11.2689
▁Pilato	-11.2689
▁Consejo	-11.2689
▁aérea	-11.2689
▁considero	-11.2689
▁reacciones	-11.269
▁seguimiento	-11.269
▁triunf	-11.269
▁variación	-11.269
▁gusano	-11.269
▁horror	-11.269
▁oferta	-11.269
▁ganó	-11.269
▁derrama	-11.2691
▁Whit	-11.2691
▁residencia	-11.2692
▁tendré	-11.2692
▁paciencia	-11.2693
▁vendido	-11.2693
▁viniera	-11.2693
▁lejano	-11.2693
▁procesamiento	-11.2694
▁mexicanos	-11.2694
▁enciende	-11.2696
▁disminuir	-11.2696
▁supiera	-11.2696
río	-11.2697
▁Perú	-11.2698
▁primo	-11.2698
▁cadera	-11.2701
▁volado	-11.2723
▁investigador	-11.2724
▁disfrut	-11.2782
▁fabricante	-11.2808
DH	-11.2816
centr	-11.2834
▁Vol	-11.2859
▁absoluta	-11.2861
kuouit	-11.2875
performance	-11.2875
▁Desarroll	-11.2875
▁Etiopía	-11.2875
▁Normalmente	-11.2875
▁Significa	-11.2875
▁TEDTalk	-11.2875
▁amaquemecas	-11.2875
▁diabetes	-11.2875
▁femenina	-11.2875
▁fórmula	-11.2875
▁imagino	-11.2875
▁lápiz	-11.2875
▁oxitocina	-11.2875
▁perfeccion	-11.2875
▁renovable	-11.2875
▁sepulcro	-11.2875
▁tambien	-11.2875
▁tortuga	-11.2875
▁computacional	-11.2875
▁comunitario	-11.2875
▁legisla	-11.2875
▁sombrero	-11.2875
▁cayendo	-11.2875
history	-11.2875
▁Ciencia	-11.2875
▁censura	-11.2875
▁acorda	-11.2875
▁reúne	-11.2875
▁valiosa	-11.2875
▁siguieron	-11.2875
▁bebida	-11.2875
▁duerme	-11.2875
▁imperio	-11.2875
▁dilema	-11.2875
▁neurociencia	-11.2875
▁artística	-11.2875
▁pastel	-11.2875
▁bombarde	-11.2876
▁Revolución	-11.2876
▁convierta	-11.2876
▁garra	-11.2878
▁regidor	-11.2881
ómetro	-11.2883
▁2001	-11.2887
▁enreda	-11.2892
modern	-11.2901
▁Adam	-11.2907
▁viaj	-11.291
▁impactante	-11.2921
calco	-11.2938
ísima	-11.2948
90	-11.2969
▁insecto	-11.2997
▁fij	-11.3
58	-11.3008
▁empuj	-11.3016
▁razon	-11.3031
▁cognitivo	-11.3063
▁reflexiona	-11.3063
▁tambor	-11.3063
▁Cuahuitzatzin	-11.3063
▁National	-11.3063
▁Turquía	-11.3063
▁afortunado	-11.3063
▁desagradable	-11.3063
▁etcétera	-11.3063
▁europeo	-11.3063
▁fortaleza	-11.3063
▁inesperado	-11.3063
▁infierno	-11.3063
▁muchísima	-11.3063
▁médula	-11.3063
▁sospecho	-11.3063
▁Quetzal	-11.3063
▁honesta	-11.3063
▁hostil	-11.3063
▁muñeca	-11.3063
▁termine	-11.3063
▁gallina	-11.3063
▁Daniel	-11.3063
▁desnudo	-11.3063
▁familiarizados	-11.3063
▁mostraba	-11.3063
▁Mendoza	-11.3063
▁analogía	-11.3063
▁traducir	-11.3064
▁intriga	-11.3064
▁suicida	-11.3064
▁Nobel	-11.3064
Cierto	-11.3065
▁Pascua	-11.3066
▁1960	-11.3068
▁choca	-11.3069
▁lanzamiento	-11.307
▁descubrieron	-11.3071
▁invertido	-11.3072
▁perfil	-11.3074
▁comunicaciones	-11.3074
▁25%	-11.3077
tendiendo	-11.3077
▁operativo	-11.3085
▁renunci	-11.3087
RE	-11.3159
▁linea	-11.3179
▁dinosaurio	-11.3192
▁impresiona	-11.3227
Más	-11.3241
onozco	-11.3254
greg	-11.3255
▁Atlántico	-11.3256
▁aficionado	-11.3256
▁biodiversidad	-11.3256
▁candidato	-11.3256
▁democrático	-11.3256
▁desapareció	-11.3256
▁genocidio	-11.3256
▁helicóptero	-11.3256
▁precipita	-11.3256
▁reflejo	-11.3256
▁resurrección	-11.3256
▁convincente	-11.3256
▁humilde	-11.3256
▁pudiese	-11.3256
Recuerda	-11.3256
▁Sanchez	-11.3256
▁certeza	-11.3256
▁Escritura	-11.3256
▁productivo	-11.3256
▁promover	-11.3256
▁abrumado	-11.3256
▁asumir	-11.3256
▁clip	-11.3256
▁cruce	-11.3256
▁mínima	-11.3256
▁variable	-11.3256
▁sentencia	-11.3256
▁hiciste	-11.3256
▁Regres	-11.3257
▁propuls	-11.3258
▁versiones	-11.3258
▁Johnson	-11.3261
▁emite	-11.3264
▁Gates	-11.3265
vertido	-11.3267
Vaya	-11.3268
▁tocó	-11.3271
▁estatus	-11.3274
▁enlaza	-11.329
▁bautizado	-11.3303
▁Bell	-11.331
87	-11.3322
▁Lleg	-11.3361
▁judío	-11.3392
▁rayo	-11.3392
vuelve	-11.3422
Voy	-11.3422
71	-11.3431
▁definitiva	-11.3445
lailotlacteuctli	-11.3452
Í	-11.3452
▁Castilla	-11.3452
▁Investig	-11.3452
▁arrepentimiento	-11.3452
▁clásico	-11.3452
▁cognitiva	-11.3452
▁contribuir	-11.3452
▁dígitos	-11.3452
▁inalámbrica	-11.3452
▁intensidad	-11.3452
▁intestino	-11.3452
▁japoneses	-11.3452
▁magnífica	-11.3452
▁telefónica	-11.3452
▁Humanidad	-11.3452
▁cautivos	-11.3452
▁cuarenta	-11.3452
▁habitual	-11.3452
▁recomenda	-11.3452
▁sintetiza	-11.3452
▁fortalec	-11.3452
▁instancia	-11.3452
▁decidido	-11.3452
▁Texas	-11.3452
▁critica	-11.3452
▁puerto	-11.3452
▁vivienda	-11.3452
▁herencia	-11.3452
▁miseria	-11.3452
▁toalla	-11.3452
▁incómodo	-11.3453
▁distante	-11.3454
▁atender	-11.3454
▁colección	-11.3454
▁recibiendo	-11.3454
▁Eric	-11.3457
▁introducir	-11.3458
▁dependencia	-11.3458
▁laguna	-11.3459
▁Damas	-11.3461
▁padeci	-11.3462
▁veneno	-11.3502
ifique	-11.3576
Debería	-11.3622
cruz	-11.3624
tlaxilacalleque	-11.3652
▁Central	-11.3652
▁Iglesia	-11.3652
▁Recuerden	-11.3652
▁Tampoco	-11.3652
▁cucharada	-11.3652
▁entropía	-11.3652
▁gasolina	-11.3652
▁hambruna	-11.3652
▁intuición	-11.3652
▁magnético	-11.3652
▁mosquitero	-11.3652
▁panorama	-11.3652
▁precedentes	-11.3652
▁secuoya	-11.3652
▁subyacente	-11.3652
▁tóxico	-11.3652
▁usualmente	-11.3652
zacualtitlan	-11.3652
▁estacionamiento	-11.3652
▁pendiente	-11.3652
▁colapso	-11.3652
▁concurso	-11.3652
▁diseñando	-11.3652
▁muebles	-11.3652
▁camión	-11.3652
▁prisa	-11.3652
▁monjas	-11.3652
▁victoria	-11.3652
▁pasillo	-11.3652
astronom	-11.3652
▁pasiones	-11.3652
▁Tercer	-11.3652
▁Brian	-11.3652
energy	-11.3652
▁cabra	-11.3652
▁enriquec	-11.3653
▁Cuanto	-11.3654
▁enfria	-11.3654
▁jubil	-11.3654
▁espinos	-11.3655
▁barril	-11.3655
▁acostumbrados	-11.3655
▁élite	-11.3657
▁satisfacer	-11.3659
▁Podía	-11.366
▁interrog	-11.366
▁Junto	-11.3661
69	-11.3663
▁protege	-11.3686
lógica	-11.37
▁tiende	-11.3789
▁140	-11.3798
▁hundi	-11.3803
78	-11.381
▁arrastr	-11.3845
▁orador	-11.3848
’	-11.3856
▁Cambridge	-11.3856
▁Philip	-11.3856
▁abstracto	-11.3856
▁controversia	-11.3856
▁democrática	-11.3856
▁descendencia	-11.3856
▁discapacidad	-11.3856
▁discusiones	-11.3856
▁extraterrestre	-11.3856
▁fármaco	-11.3856
▁geometría	-11.3856
▁indígena	-11.3856
▁injusticia	-11.3856
▁institucional	-11.3856
▁japonés	-11.3856
▁marketing	-11.3856
▁monstruo	-11.3856
▁temporada	-11.3856
▁treinta	-11.3856
▁triángulo	-11.3856
▁inconsciente	-11.3856
▁instantánea	-11.3856
▁inversiones	-11.3856
▁mamografía	-11.3856
▁Ártico	-11.3856
▁violenta	-11.3856
▁interacciones	-11.3856
▁adopción	-11.3856
▁ocasiona	-11.3856
▁singular	-11.3856
architecture	-11.3856
▁fiscal	-11.3856
▁fusión	-11.3856
▁soporte	-11.3856
▁bondad	-11.3856
▁Tollan	-11.3856
▁diamante	-11.3856
▁excusa	-11.3856
▁Martín	-11.3856
▁Consider	-11.3856
▁contagio	-11.3856
▁reducido	-11.3856
▁parientes	-11.3856
▁pulgada	-11.3856
▁artístico	-11.3856
▁compró	-11.3857
▁surgir	-11.3858
▁divide	-11.3858
▁poliniza	-11.3859
▁Cuatro	-11.386
▁despega	-11.3861
▁elige	-11.3864
▁concebi	-11.387
▁grito	-11.3885
Pregunt	-11.3981
q	-11.3998
▁monitor	-11.4022
▁adicional	-11.4033
siguió	-11.4034
Cree	-11.4053
▁Acamapichtli	-11.4064
▁Jerónimo	-11.4064
▁Occidental	-11.4064
▁Vietnam	-11.4064
▁acontecimiento	-11.4064
▁cuervos	-11.4064
▁desperdicio	-11.4064
▁diminuta	-11.4064
▁embarazo	-11.4064
▁empiece	-11.4064
▁estupendo	-11.4064
▁iPod	-11.4064
▁juventud	-11.4064
▁opiniones	-11.4064
▁protegida	-11.4064
▁transcurso	-11.4064
▁Lorenzo	-11.4064
▁fractura	-11.4064
happiness	-11.4064
▁amistad	-11.4064
▁pensemos	-11.4064
▁parásito	-11.4064
▁solitario	-11.4064
women	-11.4064
▁melodía	-11.4064
▁Larry	-11.4065
▁forestal	-11.4065
▁enseño	-11.4065
▁resalta	-11.4067
▁haciéndo	-11.4069
▁agenda	-11.4072
▁percibir	-11.4074
▁abarca	-11.4075
▁captar	-11.4082
▁sujeta	-11.4083
interface	-11.4091
émonos	-11.4112
▁emprendedor	-11.4246
tiempo	-11.4247
humor	-11.425
▁Compañía	-11.4277
▁Cuetzalan	-11.4277
▁Isabel	-11.4277
▁alfombra	-11.4277
▁empecemos	-11.4277
▁prótesis	-11.4277
▁volcán	-11.4277
▁Nuevo	-11.4277
▁cangrejo	-11.4277
▁compositor	-11.4277
▁israelí	-11.4277
▁profesión	-11.4277
▁trasplante	-11.4277
▁conceptual	-11.4277
▁dividido	-11.4277
métrico	-11.4277
▁pionero	-11.4277
▁ruego	-11.4277
▁embriaga	-11.4277
work	-11.4277
▁confiable	-11.4277
▁desconect	-11.4277
▁asistente	-11.4277
▁exceso	-11.4277
▁asesino	-11.4277
▁compartida	-11.4277
▁gustó	-11.4277
▁defecto	-11.4278
▁fomenta	-11.4278
▁Dentro	-11.4278
▁suponía	-11.4278
▁Jeff	-11.4279
▁pregonero	-11.4281
▁reporta	-11.4282
▁anciana	-11.4282
▁jurado	-11.4282
▁admit	-11.4282
Alguna	-11.4287
iéndonos	-11.4317
77	-11.4404
▁Qu	-11.4407
▁resisti	-11.4445
Hola	-11.4465
tendrá	-11.4471
▁Bautista	-11.4494
▁Stephen	-11.4494
▁acústica	-11.4494
▁cazuela	-11.4494
▁cilindro	-11.4494
▁civilizaciones	-11.4494
▁episodio	-11.4494
▁existido	-11.4494
▁expresiones	-11.4494
▁gestión	-11.4494
▁guerrero	-11.4494
▁interruptor	-11.4494
▁magnitud	-11.4494
▁mecánico	-11.4494
▁máxima	-11.4494
▁peculiar	-11.4494
▁protocélula	-11.4494
▁sensibilidad	-11.4494
▁sostenibilidad	-11.4494
▁tinieblas	-11.4494
▁tropical	-11.4494
▁tsunami	-11.4494
▁tuviese	-11.4494
▁yihad	-11.4494
▁zapatistas	-11.4494
▁arroyo	-11.4494
▁bombero	-11.4494
▁exhorta	-11.4494
▁expedición	-11.4494
▁soportar	-11.4494
▁Herodes	-11.4494
▁nutrientes	-11.4494
▁ícono	-11.4494
▁ecológico	-11.4494
▁obtenido	-11.4494
▁consumir	-11.4494
▁alemán	-11.4494
▁ecología	-11.4494
▁predicción	-11.4494
▁perturba	-11.4494
▁colapsa	-11.4494
▁Delhi	-11.4494
▁extingu	-11.4494
▁intenso	-11.4494
▁otoño	-11.4494
▁sufrir	-11.4494
▁termino	-11.4495
▁ausencia	-11.4495
▁disparo	-11.4495
▁gerente	-11.4495
▁escucho	-11.4495
▁caído	-11.4495
▁perdida	-11.4496
▁oriente	-11.4496
▁fresco	-11.4496
▁fundamento	-11.4496
▁padece	-11.4496
▁cereal	-11.4496
▁abrazar	-11.4499
▁helado	-11.4501
▁ahoga	-11.4509
sistencia	-11.4513
▁delgada	-11.4528
fracción	-11.4541
▁comercializa	-11.4628
59	-11.4639
sistir	-11.464
material	-11.4687
nunció	-11.4688
own	-11.4712
&	-11.4716
▁Antártida	-11.4716
▁Benjamin	-11.4716
▁Empieza	-11.4716
▁Groenlandia	-11.4716
▁Imagínense	-11.4716
▁LED	-11.4716
▁Observen	-11.4716
▁acxotecas	-11.4716
▁auténtico	-11.4716
▁desempeño	-11.4716
▁diámetro	-11.4716
▁egoísta	-11.4716
▁estúpido	-11.4716
▁independencia	-11.4716
▁micrófono	-11.4716
▁peregrino	-11.4716
▁vecindario	-11.4716
▁interactivo	-11.4716
▁medioambiental	-11.4716
▁neandertal	-11.4716
▁sobrevive	-11.4716
▁teclado	-11.4716
▁textura	-11.4716
▁Blanca	-11.4716
▁adelanta	-11.4716
▁oscurec	-11.4716
▁sugerencia	-11.4716
evolution	-11.4716
▁ópera	-11.4717
▁Green	-11.4717
▁Premio	-11.4717
▁penetra	-11.4717
▁perdieron	-11.4717
▁distrito	-11.4717
▁espiral	-11.4717
▁soborno	-11.4717
▁envidia	-11.4717
▁iraní	-11.4717
▁ultra	-11.4717
▁combate	-11.4717
▁pintor	-11.4717
▁sopla	-11.4718
▁Cerca	-11.4718
▁audio	-11.4719
▁bits	-11.472
▁1990	-11.472
▁refugiados	-11.4721
▁potable	-11.4721
▁Busca	-11.4727
▁opt	-11.4737
▁apreta	-11.4773
avel	-11.4797
▁mentor	-11.4802
79	-11.4821
puse	-11.4854
Cola	-11.4892
Quiero	-11.4914
▁Jacob	-11.4923
dimensional	-11.4943
▁Bangladesh	-11.4944
▁Empecemos	-11.4944
▁Monterrey	-11.4944
▁clérigo	-11.4944
▁cobertura	-11.4944
▁continuó	-11.4944
▁criterio	-11.4944
▁cápita	-11.4944
▁evolutivo	-11.4944
▁hectárea	-11.4944
▁hemisferio	-11.4944
▁inaugura	-11.4944
▁inclusive	-11.4944
▁jardines	-11.4944
▁octavo	-11.4944
▁perseguir	-11.4944
▁pliegue	-11.4944
▁recipiente	-11.4944
▁reputación	-11.4944
▁billón	-11.4944
▁distinguir	-11.4944
▁escasez	-11.4944
▁inesperada	-11.4944
▁voluntaria	-11.4944
▁mencioné	-11.4944
▁regocij	-11.4944
▁bajó	-11.4944
▁incluir	-11.4944
▁niñito	-11.4944
▁irracional	-11.4944
▁milenio	-11.4944
▁ánima	-11.4944
▁puñado	-11.4944
short	-11.4944
▁tomines	-11.4944
▁eólica	-11.4944
▁prevención	-11.4944
▁linaje	-11.4944
▁Escucha	-11.4944
▁Judea	-11.4944
▁orbita	-11.4944
▁autismo	-11.4944
▁tablero	-11.4944
▁agrupa	-11.4944
▁falsific	-11.4944
▁cierra	-11.4944
▁frontal	-11.4944
▁inversa	-11.4944
▁Madre	-11.4945
▁cacao	-11.4945
▁galleta	-11.4945
▁expande	-11.4945
▁regala	-11.4945
▁infección	-11.4946
▁externo	-11.4946
▁simplific	-11.4946
▁imprimir	-11.4947
▁electrones	-11.4948
▁convirtiendo	-11.4948
▁enviamos	-11.4949
▁impone	-11.4951
primir	-11.4952
▁deportivo	-11.4954
▁visor	-11.4969
▁oiga	-11.4974
▁monitorea	-11.499
▁descart	-11.499
incidencia	-11.4991
▁Compr	-11.5018
ecían	-11.5069
▁expuls	-11.5081
Puedo	-11.5147
▁Francis	-11.5168
está	-11.5168
▁neutral	-11.5176
▁sándwich	-11.5176
strónomo	-11.5176
▁Huitzil	-11.5176
▁Tetzcoco	-11.5176
▁Valeriano	-11.5176
▁adolescencia	-11.5176
▁autobús	-11.5176
▁calendario	-11.5176
▁contemporáneo	-11.5176
▁cricket	-11.5176
▁cuchillo	-11.5176
▁garantiza	-11.5176
▁generosidad	-11.5176
▁hardware	-11.5176
▁humildad	-11.5176
▁islámico	-11.5176
▁proclama	-11.5176
▁séptimo	-11.5176
▁Kevin	-11.5176
▁Wright	-11.5176
▁competir	-11.5176
▁calienta	-11.5176
▁disculp	-11.5176
▁jazz	-11.5176
▁mexitin	-11.5176
▁realizó	-11.5176
▁pulmón	-11.5176
▁asentaron	-11.5176
▁vientre	-11.5176
▁virtud	-11.5176
▁Piensa	-11.5176
▁exacto	-11.5176
▁Voz	-11.5176
▁humilla	-11.5176
▁aplasta	-11.5176
▁moviliza	-11.5176
▁crudo	-11.5177
▁enojado	-11.5177
▁escribo	-11.5177
▁aborrec	-11.5177
▁desigualdad	-11.5177
▁online	-11.5177
▁considere	-11.5177
▁culto	-11.5177
▁hueco	-11.5177
peace	-11.5177
▁cerrada	-11.5177
▁anduv	-11.5178
▁mierda	-11.5178
▁escanea	-11.5179
▁vacía	-11.5179
▁tumba	-11.5181
▁comodidad	-11.5182
▁setenta	-11.5185
formación	-11.5217
▁llen	-11.5268
Sól	-11.5358
▁abeja	-11.54
▁Maldonado	-11.5414
▁actuando	-11.5414
▁alcohol	-11.5414
▁calabaza	-11.5414
▁cincuenta	-11.5414
▁cuauhtlato	-11.5414
▁dopamina	-11.5414
▁encarcela	-11.5414
▁estuviese	-11.5414
▁predecible	-11.5414
▁primitiva	-11.5414
▁pronuncia	-11.5414
▁satisfecho	-11.5414
▁sepultado	-11.5414
▁tranquilidad	-11.5414
▁Watson	-11.5414
▁compasivo	-11.5414
▁indigna	-11.5414
▁intimidad	-11.5414
▁retroalimenta	-11.5414
▁turquesa	-11.5414
▁tuviéramos	-11.5414
▁Scott	-11.5414
▁excitante	-11.5414
▁reverendo	-11.5414
▁bahía	-11.5414
▁transistor	-11.5414
▁ansiedad	-11.5414
computers	-11.5414
▁obreros	-11.5414
▁divino	-11.5414
▁cabina	-11.5415
▁conduciendo	-11.5415
▁inmune	-11.5415
▁demográfico	-11.5415
▁razonamiento	-11.5415
▁reinventa	-11.5415
▁mueva	-11.5416
▁marqués	-11.5416
▁Anton	-11.5421
▁aferra	-11.5424
▁conforma	-11.5427
▁viral	-11.5429
▁nutr	-11.5444
▁severa	-11.5456
volve	-11.5478
▁afro	-11.5522
pusieron	-11.5579
País	-11.5582
▁braza	-11.5648
tribución	-11.5656
▁egipcio	-11.5658
▁preferencia	-11.5658
▁Baltasar	-11.5658
▁Seguridad	-11.5658
▁Virginia	-11.5658
▁auténtica	-11.5658
▁autónomo	-11.5658
▁ceremonia	-11.5658
▁desarrolló	-11.5658
▁empeora	-11.5658
▁energético	-11.5658
▁estímulo	-11.5658
▁fabuloso	-11.5658
▁fantasía	-11.5658
▁femenino	-11.5658
▁filantropía	-11.5658
▁hamburguesa	-11.5658
▁horizontal	-11.5658
▁horizonte	-11.5658
▁mantenimiento	-11.5658
▁moviéndose	-11.5658
▁récord	-11.5658
▁aburrida	-11.5658
▁diarrea	-11.5658
▁espontánea	-11.5658
▁incapac	-11.5658
▁productiva	-11.5658
▁televisor	-11.5658
▁escondido	-11.5658
poverty	-11.5658
▁intervención	-11.5658
▁nacieron	-11.5658
▁Nathan	-11.5658
▁altitud	-11.5658
▁imprenta	-11.5658
▁colhuas	-11.5658
▁embarca	-11.5658
▁Etapa	-11.5658
▁rastro	-11.5659
▁delibera	-11.5659
▁Ambos	-11.5659
▁compensa	-11.5659
▁necesitábamos	-11.5659
▁enferm	-11.5659
▁esforza	-11.5659
▁llave	-11.5659
▁fatiga	-11.566
food	-11.566
▁huele	-11.5661
▁referi	-11.5662
▁especula	-11.5664
▁Gold	-11.5665
patía	-11.5695
▁cuadr	-11.5748
bueno	-11.5879
normal	-11.588
▁asombro	-11.5883
▁Intel	-11.5885
iéndome	-11.59
communication	-11.5908
▁Aconteció	-11.5908
▁Chalchiuh	-11.5908
▁Lincoln	-11.5908
▁Norteamérica	-11.5908
▁Prize	-11.5908
▁circuncisión	-11.5908
▁climática	-11.5908
▁conseguido	-11.5908
▁empezaba	-11.5908
▁exámenes	-11.5908
▁facilidad	-11.5908
▁facultad	-11.5908
▁hallazgo	-11.5908
▁idéntico	-11.5908
▁influye	-11.5908
▁macehuales	-11.5908
▁prosperidad	-11.5908
▁próstata	-11.5908
▁reconcili	-11.5908
▁sabroso	-11.5908
▁sanitaria	-11.5908
▁válvula	-11.5908
▁Clinton	-11.5908
▁Gandhi	-11.5908
▁defensor	-11.5908
▁pulmones	-11.5908
▁fríe	-11.5908
▁Earth	-11.5908
▁Craig	-11.5908
▁descanso	-11.5908
▁claridad	-11.5908
▁conveniente	-11.5908
▁sufrido	-11.5908
▁recesión	-11.5908
▁prospera	-11.5908
▁veinti	-11.5908
▁delfines	-11.5909
▁Fuerza	-11.5909
▁trivial	-11.5909
▁colmena	-11.5909
▁lectores	-11.5909
▁molino	-11.5909
▁conectoma	-11.5909
▁busque	-11.591
▁Norden	-11.591
▁ético	-11.5911
▁caiga	-11.5911
▁canoa	-11.5913
▁despoj	-11.592
▁reuní	-11.5946
echó	-11.6056
▁devolv	-11.6132
Nunca	-11.6135
iéndole	-11.6139
▁equivale	-11.6144
▁McDonald	-11.6165
cademia	-11.6165
▁DVD	-11.6165
▁Everest	-11.6165
▁Geographic	-11.6165
▁Gobierno	-11.6165
▁Internacional	-11.6165
▁Irlanda	-11.6165
▁Número	-11.6165
▁Shakespeare	-11.6165
▁Ximenez	-11.6165
▁angiogénesis	-11.6165
▁desesperación	-11.6165
▁despierta	-11.6165
▁excepcional	-11.6165
▁hervir	-11.6165
▁jitomate	-11.6165
▁lóbulo	-11.6165
▁reconocido	-11.6165
▁síndrome	-11.6165
▁dificil	-11.6165
▁difusión	-11.6165
▁dramática	-11.6165
▁exclusiva	-11.6165
▁gruesa	-11.6165
▁infecciones	-11.6165
▁protegido	-11.6165
▁simultánea	-11.6165
▁automático	-11.6165
▁estricta	-11.6165
▁niñez	-11.6165
▁sincroniza	-11.6165
▁ejecutivo	-11.6165
▁Mandela	-11.6165
▁afrontar	-11.6165
▁calamar	-11.6165
▁elemental	-11.6165
▁sucedía	-11.6165
▁decepcion	-11.6165
▁contestó	-11.6165
oceans	-11.6165
▁segmento	-11.6165
▁Lewis	-11.6165
▁trauma	-11.6166
▁mascota	-11.6166
▁arroj	-11.6166
▁Yemen	-11.6166
▁recluta	-11.6167
▁adulta	-11.6167
▁dispone	-11.6167
▁falda	-11.6167
▁paraíso	-11.6167
▁fresca	-11.6167
▁ésa	-11.6168
▁caracol	-11.6176
▁Emma	-11.6178
▁Iraq	-11.6179
contramos	-11.6245
▁persiste	-11.6257
conociendo	-11.626
▁particip	-11.6319
elect	-11.6352
▁junt	-11.6387
Gracias	-11.6398
▁cadáver	-11.6428
▁Hospital	-11.6428
▁Ministro	-11.6428
▁Sacramento	-11.6428
▁Sebastián	-11.6428
▁alimenticia	-11.6428
▁alucinaciones	-11.6428
▁desaparecido	-11.6428
▁diplomático	-11.6428
▁disputa	-11.6428
▁gobierna	-11.6428
▁improbable	-11.6428
▁instituto	-11.6428
▁longevidad	-11.6428
▁micelio	-11.6428
▁nocturno	-11.6428
▁orígenes	-11.6428
▁publicita	-11.6428
▁puzzle	-11.6428
▁sofisticada	-11.6428
▁suburbios	-11.6428
▁tuberculosis	-11.6428
▁Diablo	-11.6428
▁aparición	-11.6428
▁armonía	-11.6428
▁atributo	-11.6428
▁esqueleto	-11.6428
▁leopardo	-11.6428
▁magnific	-11.6428
▁pastilla	-11.6428
photography	-11.6428
▁distinción	-11.6428
▁Historia	-11.6428
▁ecuaciones	-11.6428
▁acuerda	-11.6428
▁sensaciones	-11.6428
▁remedio	-11.6428
▁joya	-11.6428
▁movido	-11.6428
▁llego	-11.6428
▁cuidadosamente	-11.6428
▁perecer	-11.6428
▁desciende	-11.6428
▁aislado	-11.6428
▁caverna	-11.6428
▁porciento	-11.6428
▁Ciro	-11.6428
▁Sierra	-11.6429
▁vieran	-11.6429
▁logré	-11.6429
▁Brad	-11.6429
▁focal	-11.6429
▁mutila	-11.6431
Mexica	-11.6436
▁partícula	-11.6438
▁sobrepasa	-11.6439
▁recrea	-11.6443
▁imprim	-11.6445
▁edita	-11.6449
palanca	-11.6452
▁desperta	-11.6513
ology	-11.6519
Silicon	-11.6556
▁coincide	-11.6642
Tenemos	-11.6669
▁celestial	-11.6698
▁Satanás	-11.6698
▁Tliltecatzin	-11.6698
▁biotecnología	-11.6698
▁crímenes	-11.6698
▁escuchó	-11.6698
▁fusiona	-11.6698
▁inspiró	-11.6698
▁libélula	-11.6698
▁metabolismo	-11.6698
▁milímetro	-11.6698
▁prejuicio	-11.6698
▁psicópata	-11.6698
▁regresé	-11.6698
▁resuelve	-11.6698
▁ultrasonido	-11.6698
▁afligi	-11.6698
▁flauta	-11.6698
▁inquieta	-11.6698
▁secuestra	-11.6698
▁tranquilo	-11.6698
▁biomasa	-11.6698
▁dolares	-11.6698
▁Kenya	-11.6698
▁cariño	-11.6698
▁Black	-11.6698
▁premisa	-11.6698
▁variaciones	-11.6698
▁Kong	-11.6698
▁cineasta	-11.6698
▁olvide	-11.6698
▁regazo	-11.6698
▁intenciones	-11.6698
▁divina	-11.6698
▁liviano	-11.6698
▁Juego	-11.6698
▁psicológica	-11.6698
▁pleno	-11.6698
▁editorial	-11.6698
▁grandiosa	-11.6699
▁perdemos	-11.6699
▁pacto	-11.6699
▁introduj	-11.6699
▁movía	-11.67
▁enzima	-11.6701
▁Louis	-11.6702
▁vendría	-11.6702
▁túnel	-11.6702
▁podré	-11.6704
▁vestir	-11.6706
▁oblig	-11.672
invest	-11.6759
jill	-11.6793
sumido	-11.6861
sistió	-11.6878
duró	-11.6888
▁turno	-11.6891
podemos	-11.6947
development	-11.6976
▁1614	-11.6976
▁Camboya	-11.6976
▁Chapoltépec	-11.6976
▁Feynman	-11.6976
▁Parkinson	-11.6976
▁académica	-11.6976
▁arquitectónica	-11.6976
▁atraviesa	-11.6976
▁blasfem	-11.6976
▁calpul	-11.6976
▁consentimiento	-11.6976
▁cotidiano	-11.6976
▁demostró	-11.6976
▁descendiente	-11.6976
▁desconocida	-11.6976
▁híbrido	-11.6976
▁incidente	-11.6976
▁ladrillo	-11.6976
▁masculino	-11.6976
▁membrana	-11.6976
▁nitrógeno	-11.6976
▁ojalá	-11.6976
▁pacífica	-11.6976
▁pedacito	-11.6976
▁plátano	-11.6976
▁píldora	-11.6976
▁rebelde	-11.6976
▁sospecha	-11.6976
▁susodicho	-11.6976
▁temblor	-11.6976
▁César	-11.6976
▁Salvador	-11.6976
▁espectador	-11.6976
▁intuitiva	-11.6976
▁mostramos	-11.6976
▁pánico	-11.6976
▁travesía	-11.6976
▁cayeron	-11.6976
▁cautiva	-11.6976
▁protector	-11.6976
▁tamales	-11.6976
▁marginal	-11.6976
▁acorde	-11.6976
▁correlación	-11.6976
▁mosaico	-11.6976
▁abrimos	-11.6976
▁cheque	-11.6976
▁ósea	-11.6976
▁clona	-11.6976
▁Mateo	-11.6977
▁tesoro	-11.6977
▁Pensaba	-11.6978
▁hebra	-11.6978
▁consultor	-11.6979
▁amplifica	-11.6979
▁sincero	-11.698
▁concreta	-11.698
▁Park	-11.6987
▁Totol	-11.6989
▁alberga	-11.6992
▁servía	-11.6995
▁ciudadano	-11.7003
▁trep	-11.7041
▁giga	-11.7203
nergía	-11.7253
religion	-11.7262
ernández	-11.7262
▁Afortunadamente	-11.7262
▁Aristóteles	-11.7262
▁Arthur	-11.7262
▁Babilonia	-11.7262
▁Carolina	-11.7262
▁Europea	-11.7262
▁Ninguno	-11.7262
▁SETI	-11.7262
▁Shanghai	-11.7262
▁Soviética	-11.7262
▁cigarrillo	-11.7262
▁crianza	-11.7262
▁idéntica	-11.7262
▁intuitivo	-11.7262
▁italiano	-11.7262
▁maquinaria	-11.7262
▁ministerio	-11.7262
▁oceánica	-11.7262
▁subestima	-11.7262
▁sólida	-11.7262
▁zanahoria	-11.7262
innovation	-11.7262
▁Noruega	-11.7262
▁comience	-11.7262
▁descendió	-11.7262
▁errónea	-11.7262
▁fenomenal	-11.7262
▁flexibilidad	-11.7262
▁pimienta	-11.7262
▁primordial	-11.7262
▁reflexión	-11.7262
▁solemne	-11.7262
▁superficial	-11.7262
▁Isaac	-11.7262
▁Nelson	-11.7262
▁aleatorio	-11.7262
▁mariposa	-11.7262
▁pareciera	-11.7262
▁aleatoria	-11.7262
▁arcilla	-11.7262
▁construya	-11.7262
▁Rosling	-11.7262
▁vejez	-11.7262
▁disfraz	-11.7262
▁creyó	-11.7262
▁Disney	-11.7262
▁vendiendo	-11.7262
▁Henry	-11.7262
▁deposita	-11.7262
▁Río	-11.7262
▁drama	-11.7262
▁sagrada	-11.7262
ámonos	-11.7262
▁Funciona	-11.7262
▁petición	-11.7262
▁suplica	-11.7262
ristób	-11.7262
▁bolso	-11.7262
▁quince	-11.7262
▁ligero	-11.7262
▁entrelaza	-11.7262
▁complace	-11.7263
▁fractal	-11.7263
▁florece	-11.7263
▁pantano	-11.7263
▁soñar	-11.7264
▁tostado	-11.7266
▁Dueñ	-11.7275
▁mapea	-11.7277
africa	-11.7282
▁discípulo	-11.7296
▁Chichimeca	-11.7347
▁adopt	-11.7445
volución	-11.7535
▁equilibr	-11.7554
▁Charlie	-11.7556
▁Itzcohuatzin	-11.7556
▁Máquina	-11.7556
▁Océano	-11.7556
▁Respondió	-11.7556
▁Seattle	-11.7556
▁Sylvia	-11.7556
▁Tanzania	-11.7556
▁actuación	-11.7556
▁compañera	-11.7556
▁declaró	-11.7556
▁dinámico	-11.7556
▁extranjera	-11.7556
▁fabulosa	-11.7556
▁grueso	-11.7556
▁gérmenes	-11.7556
▁incorrecta	-11.7556
▁jerarquía	-11.7556
▁movilidad	-11.7556
▁pantalones	-11.7556
▁parálisis	-11.7556
▁parámetros	-11.7556
▁perseverancia	-11.7556
▁propietario	-11.7556
▁restricciones	-11.7556
▁sucedieron	-11.7556
explorat	-11.7556
▁acertijo	-11.7556
▁banquero	-11.7556
▁creyeron	-11.7556
▁humedad	-11.7556
▁juvenil	-11.7556
▁GPS	-11.7556
▁estabiliza	-11.7556
▁intermedio	-11.7556
▁proyección	-11.7556
▁sanitario	-11.7556
▁violín	-11.7556
physics	-11.7556
▁provecho	-11.7556
▁abrieron	-11.7556
▁feminista	-11.7556
▁teórico	-11.7556
▁ladrones	-11.7556
▁Derecho	-11.7556
▁lienzo	-11.7556
▁maduro	-11.7556
▁requerir	-11.7556
▁Sarah	-11.7556
▁fuéramos	-11.7556
▁aéreo	-11.7556
▁Suponga	-11.7556
▁hacéis	-11.7556
▁mutación	-11.7556
▁buceo	-11.7556
▁digna	-11.7556
palestino	-11.7557
▁Humano	-11.7557
▁rebota	-11.7565
▁poniéndo	-11.7656
cogí	-11.7656
invent	-11.7694
product	-11.7743
tructura	-11.7756
▁imagine	-11.7791
Bienaventurado	-11.7859
Qaeda	-11.7859
engineering	-11.7859
tlahtoani	-11.7859
táctil	-11.7859
▁Alexander	-11.7859
▁Bernabé	-11.7859
▁Oriental	-11.7859
▁Qatar	-11.7859
▁Tasmania	-11.7859
▁Tziuhtlacauhqui	-11.7859
▁artefacto	-11.7859
▁despierto	-11.7859
▁diplomacia	-11.7859
▁déficit	-11.7859
▁emperador	-11.7859
▁escéptico	-11.7859
▁farmacéutica	-11.7859
▁genómica	-11.7859
▁mazorca	-11.7859
▁monumento	-11.7859
▁pedernal	-11.7859
▁proveniente	-11.7859
▁revestido	-11.7859
▁riñón	-11.7859
▁sobreviviente	-11.7859
▁subsahariana	-11.7859
▁suministra	-11.7859
▁trabajó	-11.7859
▁arbusto	-11.7859
▁persigue	-11.7859
▁minerales	-11.7859
▁Organiza	-11.7859
▁abriendo	-11.7859
▁aprobado	-11.7859
▁gratuito	-11.7859
▁auditorio	-11.7859
▁azotea	-11.7859
▁nutrición	-11.7859
▁ocurría	-11.7859
▁urbaniza	-11.7859
▁idiota	-11.7859
▁niebla	-11.7859
▁pidiendo	-11.7859
▁sensual	-11.7859
▁Igual	-11.7859
▁festival	-11.7859
▁ribera	-11.7859
▁surgido	-11.7859
▁inmoral	-11.7859
▁maligno	-11.7859
▁devastador	-11.7859
▁rellena	-11.7859
▁cierre	-11.7859
▁Aprende	-11.7859
▁halló	-11.7859
▁carrito	-11.7859
▁molesto	-11.7859
▁redonda	-11.7861
▁variante	-11.7861
▁elegí	-11.7861
▁tribunal	-11.7865
▁floreci	-11.7871
▁cuece	-11.7871
Escuche	-11.7891
▁pingüino	-11.7911
▁electromagnétic	-11.8115
control	-11.8146
▁inmediata	-11.8158
visualizations	-11.8171
▁Axayacatzin	-11.8171
▁Axayácatl	-11.8171
▁Ciertamente	-11.8171
▁Copenhague	-11.8171
▁Enseguida	-11.8171
▁Indonesia	-11.8171
▁Kennedy	-11.8171
▁Ministerio	-11.8171
▁Square	-11.8171
▁Zelanda	-11.8171
▁abstracta	-11.8171
▁acantilado	-11.8171
▁agradezco	-11.8171
▁caracteriza	-11.8171
▁cólera	-11.8171
▁desacuerdo	-11.8171
▁distribuido	-11.8171
▁dormido	-11.8171
▁durmiendo	-11.8171
▁encubierto	-11.8171
▁esquelético	-11.8171
▁evolucionó	-11.8171
▁hélice	-11.8171
▁integridad	-11.8171
▁interactiva	-11.8171
▁mandíbula	-11.8171
▁maniobra	-11.8171
▁mercancía	-11.8171
▁optimiza	-11.8171
▁quimioterapia	-11.8171
▁sinapsis	-11.8171
▁sosteniendo	-11.8171
▁sugiriendo	-11.8171
▁vigilancia	-11.8171
▁vocabulario	-11.8171
▁Berlín	-11.8171
▁accidental	-11.8171
▁evapora	-11.8171
▁homosexual	-11.8171
▁inherente	-11.8171
▁innovar	-11.8171
▁restring	-11.8171
▁rompió	-11.8171
▁obtuvo	-11.8171
▁pondré	-11.8171
▁ceguera	-11.8171
▁ejecución	-11.8171
▁gradualmente	-11.8171
▁impedir	-11.8171
▁perfume	-11.8171
trópico	-11.8171
munity	-11.8171
▁bronce	-11.8171
▁urgente	-11.8171
▁Bosnia	-11.8171
▁movemos	-11.8171
▁novedad	-11.8171
▁recibo	-11.8172
▁ironía	-11.8172
▁calzada	-11.8172
▁inserta	-11.8172
▁maqueta	-11.8172
▁memoriza	-11.8175
▁purifica	-11.8177
▁víctima	-11.8233
▁exige	-11.8246
▁apóstol	-11.8463
Hombre	-11.8464
podría	-11.8466
entrepreneur	-11.8494
▁desconcert	-11.8494
auhtecatlteuctli	-11.8494
▁Biblioteca	-11.8494
▁Láctea	-11.8494
▁Sánchez	-11.8494
▁Teszler	-11.8494
▁aluminio	-11.8494
▁asentamiento	-11.8494
▁atractiva	-11.8494
▁brócoli	-11.8494
▁conviene	-11.8494
▁crucificado	-11.8494
▁cuadrícula	-11.8494
▁césped	-11.8494
▁demócrata	-11.8494
▁desperdicia	-11.8494
▁doméstico	-11.8494
▁dormitorio	-11.8494
▁dramático	-11.8494
▁embajador	-11.8494
▁estereotipo	-11.8494
▁finanzas	-11.8494
▁garabato	-11.8494
▁ilusiones	-11.8494
▁lucrativo	-11.8494
▁líquida	-11.8494
▁manufactura	-11.8494
▁musulmana	-11.8494
▁optimismo	-11.8494
▁paracaídas	-11.8494
▁primitivo	-11.8494
▁protocolo	-11.8494
▁quarenta	-11.8494
▁robótico	-11.8494
▁satelital	-11.8494
▁toxinas	-11.8494
▁tránsito	-11.8494
▁IBM	-11.8494
▁Kelly	-11.8494
▁Narrador	-11.8494
▁Santísimo	-11.8494
▁pesadilla	-11.8494
▁regional	-11.8494
▁sabrosa	-11.8494
▁maguey	-11.8494
▁Montana	-11.8494
▁Buenas	-11.8494
▁rescatar	-11.8494
▁sintético	-11.8494
▁Observa	-11.8494
▁arruga	-11.8494
▁generoso	-11.8494
▁mutaciones	-11.8494
▁Cordero	-11.8494
▁incluido	-11.8494
▁Muestra	-11.8494
▁indicio	-11.8494
scripciones	-11.8494
▁resorte	-11.8494
▁Tendría	-11.8494
▁remodela	-11.8494
▁Depende	-11.8495
▁Doug	-11.8496
▁Wood	-11.8496
▁tierno	-11.8496
▁hubiér	-11.85
▁reprend	-11.8543
▁Hernand	-11.8551
▁kilómetro	-11.8567
▁averigu	-11.8785
SIDA	-11.8797
▁acced	-11.8825
▁Brooklyn	-11.8827
▁Defensa	-11.8827
▁Galápagos	-11.8827
▁Huexotzinco	-11.8827
▁Inglés	-11.8827
▁Júpiter	-11.8827
▁Keith	-11.8827
▁Singapur	-11.8827
▁Stewart	-11.8827
▁TEDGlobal	-11.8827
▁adhesiva	-11.8827
▁alfabeto	-11.8827
▁aniversario	-11.8827
▁británica	-11.8827
▁cafetería	-11.8827
▁camiseta	-11.8827
▁cerámica	-11.8827
▁desayuno	-11.8827
▁diminuto	-11.8827
▁diseñó	-11.8827
▁distribuye	-11.8827
▁disturbio	-11.8827
▁enciclopedia	-11.8827
▁espagueti	-11.8827
▁garganta	-11.8827
▁homicidio	-11.8827
▁inalámbrico	-11.8827
▁interactuando	-11.8827
▁interconectado	-11.8827
▁jeringa	-11.8827
▁legítimo	-11.8827
▁logotipo	-11.8827
▁nigeriano	-11.8827
▁omnipresente	-11.8827
▁ordinario	-11.8827
▁remordimiento	-11.8827
▁teomama	-11.8827
▁vanguardia	-11.8827
▁Kosovo	-11.8827
▁biosfera	-11.8827
▁difunta	-11.8827
▁discutiendo	-11.8827
▁distorsion	-11.8827
▁divulg	-11.8827
▁estúpida	-11.8827
▁guardián	-11.8827
▁intacto	-11.8827
▁patrocina	-11.8827
▁pensábamos	-11.8827
▁prudente	-11.8827
xiuit	-11.8827
Ú	-11.8827
▁Natasha	-11.8827
▁Recientemente	-11.8827
▁atómica	-11.8827
▁especifica	-11.8827
▁gestiona	-11.8827
▁intrínseca	-11.8827
▁rediseña	-11.8827
▁alcanzó	-11.8827
▁chorro	-11.8827
▁influir	-11.8827
▁mostaza	-11.8827
▁surgieron	-11.8827
▁Xochi	-11.8827
▁Angelin	-11.8827
▁quisiéramos	-11.8827
▁respalda	-11.8827
▁reverencia	-11.8827
▁cerrito	-11.8827
▁Alaska	-11.8827
▁enseñándo	-11.8827
▁migraña	-11.8827
▁sofá	-11.8827
▁bienvenida	-11.8827
adivinen	-11.8827
▁causó	-11.8827
▁electoral	-11.8827
▁Atlanta	-11.8827
▁estropea	-11.8827
▁décimo	-11.8827
▁tangible	-11.8827
▁mantenga	-11.8828
osaurio	-11.8832
▁ultim	-11.884
▁descuid	-11.8852
▁atrevi	-11.8856
▁maltrat	-11.8863
iéndola	-11.8939
cendiendo	-11.8977
▁nombr	-11.912
visible	-11.9134
$	-11.9142
personal	-11.9142
▁soluciona	-11.9151
▁exacta	-11.9159
▁literal	-11.9159
▁huérfano	-11.9172
society	-11.9172
▁Fellow	-11.9172
▁Guardia	-11.9172
▁Hawaii	-11.9172
▁Imagina	-11.9172
▁Lázaro	-11.9172
▁Personas	-11.9172
▁Pérez	-11.9172
▁Wolfram	-11.9172
▁advertencia	-11.9172
▁albaceas	-11.9172
▁alienígena	-11.9172
▁autonomía	-11.9172
▁cruji	-11.9172
▁desaceler	-11.9172
▁erradicación	-11.9172
▁fertilizante	-11.9172
▁inglesa	-11.9172
▁intangible	-11.9172
▁perseguido	-11.9172
▁pesticidas	-11.9172
▁precipicio	-11.9172
▁prefrontal	-11.9172
▁profecía	-11.9172
▁promueve	-11.9172
▁reemplazo	-11.9172
▁toltecas	-11.9172
▁tripula	-11.9172
▁trágico	-11.9172
▁Increíble	-11.9172
▁consumimos	-11.9172
▁declive	-11.9172
▁robusto	-11.9172
▁absurdo	-11.9172
▁agresivo	-11.9172
▁impactó	-11.9172
▁manteniendo	-11.9172
▁obteniendo	-11.9172
▁surgimiento	-11.9172
▁suspendida	-11.9172
▁trueno	-11.9172
▁plática	-11.9172
▁sumergible	-11.9172
▁movieron	-11.9172
▁bonobo	-11.9172
▁codicia	-11.9172
▁sufriendo	-11.9172
▁bailarines	-11.9172
▁nosotras	-11.9172
▁camarón	-11.9172
▁materna	-11.9172
▁producida	-11.9172
▁pistola	-11.9172
▁pizarra	-11.9172
▁destruido	-11.9172
▁aconsej	-11.9172
▁plegar	-11.9172
▁contenedor	-11.9172
▁comenzaba	-11.9173
▁tropez	-11.9173
▁comendador	-11.9177
▁peticion	-11.9188
▁chichimeca	-11.9269
ü	-11.9498
▁princip	-11.9522
▁trayecto	-11.9527
Levántate	-11.9529
tlalmantli	-11.9529
°	-11.9529
▁Excelente	-11.9529
▁Nazaret	-11.9529
▁Ninguna	-11.9529
▁Sputnik	-11.9529
▁Tiacapan	-11.9529
▁anestesia	-11.9529
▁beneficencia	-11.9529
▁bombilla	-11.9529
▁béisbol	-11.9529
▁camioneta	-11.9529
▁caricaturista	-11.9529
▁celebró	-11.9529
▁configuración	-11.9529
▁desapareciendo	-11.9529
▁desventaja	-11.9529
▁distribuir	-11.9529
▁honestidad	-11.9529
▁intensivo	-11.9529
▁permitimos	-11.9529
▁republicano	-11.9529
▁resucitó	-11.9529
▁sembrar	-11.9529
▁sótano	-11.9529
▁tatuaje	-11.9529
▁vestidura	-11.9529
▁étnico	-11.9529
▁Quauh	-11.9529
▁aeronave	-11.9529
▁mezquita	-11.9529
▁multinacional	-11.9529
▁orgasmo	-11.9529
▁presidencial	-11.9529
iosphere	-11.9529
▁tabú	-11.9529
▁propongo	-11.9529
▁cráter	-11.9529
▁guitarra	-11.9529
▁consistía	-11.9529
▁Caribe	-11.9529
▁teatral	-11.9529
génico	-11.9529
▁ídolo	-11.9529
▁desafía	-11.9529
▁campus	-11.9529
▁miserable	-11.9529
▁austral	-11.9529
▁inmortal	-11.953
▁sabría	-11.953
▁blue	-11.953
▁menospreci	-11.9531
▁rendir	-11.9531
▁enterrar	-11.9539
Suena	-11.9842
ingeniería	-11.987
kuamekat	-11.9899
Ahuexotl	-11.99
tecuanipantlacas	-11.99
▁Ahuitzotzin	-11.99
▁Columbia	-11.99
▁Coxcoxtli	-11.99
▁Cuepopan	-11.99
*	-11.99
[	-12.0254
	-12.0284
+	-12.1536
>	-12.2466
Á	-12.2936
ì	-12.3493
<	-12.3493
=	-12.4048
à	-12.4636
ö	-12.5261
®	-12.5928
♪	-12.8215
­	-12.9154
@	-12.9154
`	-13.0154
Ñ	-13.1265
ä	-13.3944
─	-13.561
ò	-13.561
“	-13.7581
(	-13.7581
£	-13.761
ã	-13.761
©	-14.011
è	-14.011
ë	-14.3444
î	-14.3444
ň	-14.3444
个	-14.3444
你	-14.3444
我	-14.3444
ç	-14.3444
«	-14.8415
啊	-14.8444
洋	-14.8444
	-14.8444
¥	-14.8444
â	-14.8444
ð	-14.8444
ō	-14.8444
€	-14.8444
。	-14.8444
妈	-14.8444
ù	-14.8444
游	-15.8426
来	-15.8427
有	-15.8428
历	-15.8429
了	-15.843
̊	-15.8431
ī	-15.8432
ø	-15.8433
ï	-15.8434
È	-15.8435
ê	-15.8436
	-15.8437
	-15.8438
́	-15.8439
Ó	-15.844
̈	-15.8441
ń	-15.8442
‘	-15.8443
出	-15.8443
喜	-15.8443
外	-15.8443
太	-15.8443
界	-15.8443
阳	-15.8443
{	-15.8444
Т	-15.8444
^	-15.8444
}	-15.8444
ô	-15.8444
ā	-15.8444
ć	-15.8444
Ľ	-15.8444
ľ	-15.8444
ŕ	-15.8444
š	-15.8444
а	-15.8444
一	-15.8444
下	-15.8444
不	-15.8444
世	-15.8444
中	-15.8444
以	-15.8444
可	-15.8444
唱	-15.8444
声	-15.8444
大	-15.8444
妨	-15.8444
姐	-15.8444
心	-15.8444
教	-15.8444
曲	-15.8444
王	-15.8444
等	-15.8444
给	-15.8444
葱	-15.8444
送	-15.8444
面	-15.8444
音	-15.8444
⁄	-15.8444
歌	-15.8444
的	-15.8444
