<pad>	0
<unk>	0
<s>	0
</s>	0
<es_to_en>	0
<es_to_nah>	0
,	-3.05815
.	-3.20827
s	-3.44757
▁the	-3.61288
▁to	-4.06262
'	-4.07183
▁a	-4.12361
▁of	-4.16376
▁in	-4.28257
▁and	-4.30292
▁that	-4.43542
▁I	-4.45946
▁it	-4.72825
▁is	-4.73158
▁you	-4.73987
▁we	-4.92028
▁on	-4.96999
t	-4.99868
▁And	-5.01797
▁this	-5.16955
▁	-5.2709
▁--	-5.42328
▁was	-5.50874
▁for	-5.55758
re	-5.57198
▁yn	-5.58948
ing	-5.61523
▁have	-5.61792
▁are	-5.63216
d	-5.63697
▁they	-5.67407
▁can	-5.7045
-	-5.72068
▁with	-5.73207
ed	-5.7683
▁So	-5.77255
▁what	-5.81839
▁be	-5.8348
?	-5.83572
▁about	-5.85083
:	-5.87293
m	-5.90488
a	-5.92534
▁do	-5.97405
▁"	-5.98981
▁at	-6.00074
▁all	-6.0142
▁not	-6.0279
▁one	-6.06294
▁there	-6.09611
n	-6.10829
▁so	-6.14616
▁like	-6.16066
▁It	-6.17133
▁from	-6.18279
▁people	-6.18395
▁as	-6.20074
▁no	-6.2053
▁an	-6.20937
▁my	-6.21303
ve	-6.29537
y	-6.29698
▁just	-6.32152
▁me	-6.32697
▁but	-6.33656
▁know	-6.34285
▁very	-6.35184
▁out	-6.36611
▁niman	-6.37423
▁We	-6.37615
▁or	-6.37669
▁But	-6.38286
▁if	-6.40174
▁our	-6.40259
▁these	-6.40496
▁going	-6.42774
▁up	-6.42861
▁The	-6.43067
ly	-6.43723
▁he	-6.45442
j	-6.47563
▁by	-6.49183
e	-6.5116
_	-6.5126
▁see	-6.52151
▁them	-6.52768
▁think	-6.55847
▁when	-6.5658
▁because	-6.56991
▁had	-6.57688
▁which	-6.57708
c	-6.58249
▁more	-6.6058
o	-6.6068
▁get	-6.60858
▁who	-6.6146
▁really	-6.62309
."	-6.62613
ca	-6.6406
▁how	-6.64781
▁your	-6.65947
er	-6.67565
▁would	-6.67565
▁don	-6.67605
▁yejhuan	-6.68073
l	-6.68575
i	-6.69191
▁here	-6.69842
;	-6.70572
ll	-6.70831
▁has	-6.70916
▁their	-6.70961
▁were	-6.71868
r	-6.72889
▁This	-6.73367
▁time	-6.74047
▁us	-6.74128
▁world	-6.74204
co	-6.75377
al	-6.77067
▁then	-6.79698
▁You	-6.7975
▁actually	-6.80699
▁some	-6.81105
▁ye	-6.81142
▁way	-6.81831
▁into	-6.822
h	-6.82272
▁want	-6.84466
▁go	-6.84499
▁things	-6.85281
te	-6.86044
▁ca	-6.89272
▁ipan	-6.89378
▁ica	-6.89697
▁now	-6.9044
▁In	-6.90536
▁will	-6.90921
▁other	-6.91101
▁years	-6.91305
▁where	-6.91383
▁de	-6.92223
▁make	-6.93502
es	-6.93824
li	-6.96003
▁A	-6.97141
▁Now	-6.97644
to	-6.98653
▁ma	-6.99063
▁They	-6.99184
▁could	-7.00353
z	-7.01078
▁said	-7.01707
▁been	-7.02311
in	-7.03516
▁tla	-7.03581
que	-7.0419
▁♫	-7.05956
▁se	-7.06025
▁i	-7.06491
▁something	-7.07416
▁right	-7.07647
▁y	-7.08245
▁mo	-7.08515
▁thing	-7.09966
pa	-7.11409
u	-7.12499
▁little	-7.12614
▁two	-7.12919
▁much	-7.13045
▁got	-7.13582
ta	-7.14468
▁para	-7.15067
▁first	-7.16505
▁over	-7.17073
▁say	-7.17841
▁look	-7.1795
▁back	-7.18911
ti	-7.19351
qui	-7.19709
g	-7.19785
▁than	-7.20109
▁o	-7.20501
mo	-7.21902
le	-7.2236
▁work	-7.22647
▁his	-7.23005
▁those	-7.23192
ma	-7.23198
▁kind	-7.23525
▁That	-7.2504
▁life	-7.25079
▁also	-7.25305
▁ne	-7.25455
▁qui	-7.25761
▁te	-7.2635
on	-7.26862
▁she	-7.27735
an	-7.29366
tla	-7.29376
▁need	-7.29525
ch	-7.32407
p	-7.32446
▁take	-7.33296
▁lot	-7.34625
can	-7.3649
▁Dios	-7.36801
▁most	-7.37166
▁He	-7.37433
▁only	-7.38108
▁new	-7.38157
▁good	-7.39842
▁even	-7.40187
▁did	-7.41383
▁There	-7.4162
▁around	-7.41896
▁ynic	-7.41939
ya	-7.43319
▁down	-7.43445
▁many	-7.44556
x	-7.45907
ne	-7.46044
▁What	-7.46102
en	-7.46154
▁different	-7.46324
me	-7.46887
▁use	-7.47964
th	-7.48319
/	-7.48323
▁come	-7.48874
▁her	-7.50505
▁through	-7.5104
▁being	-7.51724
lo	-7.52043
▁Auh	-7.52563
po	-7.52896
▁put	-7.53536
▁re	-7.54464
pan	-7.55112
tzin	-7.5579
ra	-7.55804
no	-7.56866
ic	-7.56903
▁same	-7.57017
ro	-7.58128
or	-7.58133
squej	-7.58248
k	-7.58259
b	-7.58274
▁doing	-7.58609
la	-7.5963
ri	-7.60202
I	-7.60839
▁every	-7.60878
▁three	-7.61482
ted	-7.62392
▁If	-7.64872
se	-7.65092
▁day	-7.67932
▁called	-7.67957
▁talk	-7.68047
▁tlen	-7.68211
ar	-7.68691
▁yejhua	-7.69432
hui	-7.6984
▁well	-7.70714
▁any	-7.71688
▁give	-7.72276
▁made	-7.73548
▁fact	-7.73714
mi	-7.74475
▁quen	-7.74964
▁human	-7.75492
"	-7.75542
▁tell	-7.75589
▁e	-7.75676
ation	-7.76419
▁year	-7.77137
▁oqui	-7.77677
▁Well	-7.77909
▁own	-7.78014
quej	-7.78431
▁percent	-7.78473
ce	-7.78752
▁why	-7.78769
▁S	-7.78928
ni	-7.79698
▁change	-7.80668
▁great	-7.80771
▁part	-7.80779
S	-7.80798
▁idea	-7.80853
▁find	-7.81498
ion	-7.81696
w	-7.81846
?"	-7.82952
na	-7.82953
hua	-7.83316
▁yhuan	-7.83657
▁thought	-7.8393
com	-7.84011
▁last	-7.84279
▁ihuan	-7.85358
tic	-7.85396
▁should	-7.8543
ci	-7.85525
▁let	-7.86246
▁big	-7.86965
▁show	-7.87323
▁E	-7.87419
▁Ma	-7.87436
▁didn	-7.87477
▁con	-7.87521
f	-7.8826
▁went	-7.88842
▁oncan	-7.88912
▁today	-7.88985
▁ti	-7.89331
▁after	-7.89614
pe	-7.89759
▁off	-7.89972
▁bit	-7.9003
▁course	-7.90033
A	-7.90208
man	-7.90423
▁quin	-7.90585
ck	-7.91119
ers	-7.91321
ur	-7.9161
▁B	-7.91812
ment	-7.9211
▁C	-7.9228
chi	-7.92357
▁start	-7.92446
▁T	-7.92678
▁another	-7.92707
▁started	-7.9272
▁system	-7.92981
▁Jesús	-7.93897
▁auh	-7.93951
▁problem	-7.94179
▁before	-7.95201
▁brain	-7.954
il	-7.95764
▁story	-7.96408
▁yc	-7.96476
▁important	-7.96825
▁place	-7.97296
▁never	-7.97662
▁mean	-7.97664
▁x	-7.98586
▁came	-7.98928
▁long	-7.98968
▁xihuitl	-7.99048
▁call	-7.99865
▁Thank	-7.99996
▁better	-8.00191
▁sort	-8.00448
▁end	-8.00867
▁might	-8.01254
▁able	-8.0126
▁ago	-8.01684
yo	-8.02228
▁him	-8.0247
▁next	-8.02471
▁real	-8.02514
▁together	-8.03151
▁ijcuac	-8.03356
▁does	-8.03738
▁again	-8.03885
el	-8.04042
▁point	-8.04144
▁water	-8.04228
▁itech	-8.04702
▁co	-8.0553
▁ompa	-8.06079
huan	-8.06129
ua	-8.06465
▁love	-8.07014
▁un	-8.07134
▁10	-8.07364
▁still	-8.07554
▁ican	-8.0756
▁each	-8.07645
ive	-8.0769
▁pampa	-8.07856
▁technology	-8.0787
▁Because	-8.07992
able	-8.07998
▁few	-8.09375
tia	-8.09411
▁ypan	-8.09503
▁man	-8.1019
▁light	-8.11372
!	-8.1152
▁question	-8.11621
▁U	-8.11638
▁whole	-8.11673
▁between	-8.11861
▁quite	-8.12399
tli	-8.12734
▁found	-8.12815
▁No	-8.12852
▁tlacatl	-8.13504
▁used	-8.13858
▁understand	-8.14067
▁nochi	-8.14316
▁done	-8.14345
▁ce	-8.14487
▁ni	-8.1511
▁When	-8.15218
us	-8.15475
▁feel	-8.16311
▁looking	-8.16313
,"	-8.16991
▁million	-8.17008
▁example	-8.17568
▁F	-8.17594
▁amo	-8.17616
aj	-8.17707
▁ic	-8.17733
est	-8.17759
▁doesn	-8.17947
de	-8.18036
▁help	-8.18217
▁huel	-8.18357
▁nican	-8.18532
▁too	-8.18738
▁sa	-8.18741
▁car	-8.21083
▁20	-8.21084
▁children	-8.21092
▁design	-8.21106
as	-8.21456
▁space	-8.216
tin	-8.21859
▁believe	-8.2282
ol	-8.23021
ity	-8.23087
▁create	-8.23205
▁f	-8.23294
▁always	-8.23476
▁live	-8.236
▁data	-8.23656
▁try	-8.23755
ter	-8.23792
▁wanted	-8.24053
▁person	-8.24058
▁four	-8.24778
▁may	-8.25086
▁P	-8.2567
www	-8.25677
talks	-8.26035
://	-8.26279
C	-8.26608
▁O	-8.26764
html	-8.26799
▁tic	-8.2681
▁ht	-8.26812
ry	-8.26884
▁school	-8.27249
lli	-8.27294
▁power	-8.27336
tp	-8.27506
▁trying	-8.27521
▁away	-8.28167
▁Niman	-8.28201
et	-8.28317
▁play	-8.28345
ent	-8.28436
▁home	-8.29012
Niman	-8.29094
▁working	-8.29326
▁ever	-8.29342
▁―	-8.29426
▁How	-8.29684
▁oc	-8.30636
v	-8.31321
▁women	-8.3134
it	-8.31497
▁sense	-8.3168
ness	-8.32873
▁san	-8.32935
▁Te	-8.33175
ge	-8.33338
xi	-8.33398
▁kids	-8.33888
▁country	-8.34265
▁One	-8.34503
the	-8.34619
2	-8.34636
▁second	-8.34724
▁everything	-8.35009
▁money	-8.35323
▁five	-8.35326
ist	-8.35775
▁On	-8.36113
▁took	-8.36119
▁stuff	-8.36335
▁cuajli	-8.36718
▁small	-8.3755
Pero	-8.38326
at	-8.38565
▁She	-8.38979
▁To	-8.38992
cui	-8.39149
▁information	-8.39335
▁future	-8.39363
▁food	-8.39465
▁maybe	-8.3955
▁using	-8.39555
ton	-8.39621
▁high	-8.39692
T	-8.40196
▁old	-8.40604
▁enough	-8.40817
▁side	-8.40822
is	-8.40983
▁getting	-8.41156
▁interesting	-8.4123
▁19	-8.41367
▁bring	-8.41486
▁number	-8.41588
▁building	-8.4163
ia	-8.41691
▁Africa	-8.41715
▁thinking	-8.41723
▁left	-8.41919
▁energy	-8.4225
▁art	-8.424
▁These	-8.42495
▁catca	-8.42538
▁po	-8.42737
▁planet	-8.4327
▁experience	-8.43441
M	-8.43564
▁become	-8.43685
▁moment	-8.43794
▁oquin	-8.44167
▁hand	-8.4435
uh	-8.44432
▁For	-8.44763
▁G	-8.45275
▁K	-8.453
▁probably	-8.45404
6	-8.46176
▁happened	-8.46423
8	-8.46661
▁simple	-8.46664
ate	-8.46784
▁means	-8.46857
▁Here	-8.47089
▁making	-8.47296
▁best	-8.47616
▁hard	-8.47814
▁ask	-8.48357
min	-8.48611
▁move	-8.48675
▁room	-8.49105
▁coming	-8.49229
▁dollars	-8.49274
▁g	-8.49344
▁talking	-8.49395
▁comes	-8.49475
7	-8.49495
tion	-8.49551
▁far	-8.49772
zque	-8.49773
▁says	-8.4985
un	-8.49924
▁process	-8.5
age	-8.50078
▁Mo	-8.50151
▁build	-8.50287
▁nic	-8.50314
ting	-8.50519
▁project	-8.51292
▁head	-8.51299
▁under	-8.51712
▁ijqui	-8.51765
▁My	-8.51915
ke	-8.52195
▁anything	-8.52315
ac	-8.52347
▁ya	-8.52767
▁tej	-8.52932
▁answer	-8.53213
tlan	-8.53334
▁Ca	-8.53398
▁pretty	-8.53438
▁billion	-8.53448
D	-8.53547
▁without	-8.53557
▁social	-8.53725
▁set	-8.53889
9	-8.53998
▁less	-8.54057
▁happen	-8.54285
ul	-8.54429
yaj	-8.54734
cua	-8.54774
▁form	-8.54797
▁body	-8.54843
▁half	-8.55089
X	-8.55218
toca	-8.5522
tica	-8.55361
’	-8.55841
▁¿	-8.55916
O	-8.56031
3	-8.56121
▁care	-8.56151
aya	-8.56214
ye	-8.56377
▁picture	-8.56543
▁itoca	-8.56603
ian	-8.56761
cu	-8.56831
ty	-8.5695
▁science	-8.56984
▁goes	-8.5723
tz	-8.57302
▁tlacamej	-8.57372
▁reason	-8.57511
ual	-8.57588
]	-8.5783
N	-8.57851
▁face	-8.57877
▁across	-8.57948
▁book	-8.58147
▁çan	-8.5829
▁bad	-8.58438
▁open	-8.58484
▁New	-8.58824
▁war	-8.59049
di	-8.59257
▁p	-8.59284
va	-8.5956
▁X	-8.59786
▁saw	-8.59798
▁else	-8.59858
mp	-8.60115
▁case	-8.60157
▁Mexico	-8.60222
cal	-8.60253
▁mind	-8.60265
oc	-8.60548
▁la	-8.60664
▁Earth	-8.60828
▁such	-8.61098
pi	-8.61195
tequi	-8.61337
▁business	-8.61517
▁ta	-8.6157
▁matter	-8.61725
▁pa	-8.61737
be	-8.61747
tl	-8.61747
1	-8.61809
▁am	-8.61855
qua	-8.62346
mej	-8.62367
▁computer	-8.6241
▁told	-8.627
▁w	-8.62731
▁six	-8.62954
▁15	-8.63269
▁countries	-8.63419
▁seen	-8.63587
▁basically	-8.63797
▁read	-8.6384
▁dis	-8.63919
ho	-8.63952
▁per	-8.6417
ha	-8.64246
ui	-8.64367
▁Let	-8.6441
▁living	-8.64422
▁campa	-8.64501
▁zan	-8.6458
▁learn	-8.64761
▁uan	-8.65072
ir	-8.65216
4	-8.65573
▁health	-8.65738
▁OK	-8.65758
▁hope	-8.65761
▁having	-8.65947
▁happens	-8.66031
▁keep	-8.66143
▁All	-8.66169
id	-8.66257
▁años	-8.66461
▁TED	-8.66533
▁lives	-8.66788
▁both	-8.67208
5	-8.67301
▁music	-8.67396
▁M	-8.67401
▁global	-8.67419
go	-8.67488
nt	-8.67717
▁name	-8.67846
con	-8.67886
tor	-8.68087
▁child	-8.68338
▁video	-8.68543
▁language	-8.68955
▁saying	-8.68991
ru	-8.69129
▁mi	-8.69273
▁inside	-8.69615
▁Mi	-8.7024
▁asked	-8.70391
▁[	-8.70469
▁ideas	-8.70731
▁line	-8.70837
▁later	-8.70913
▁San	-8.7107
jquej	-8.71119
do	-8.71189
▁single	-8.71227
P	-8.71453
▁self	-8.71814
▁As	-8.72191
▁once	-8.72215
▁times	-8.72371
ba	-8.72413
▁guy	-8.72473
Yejhua	-8.7265
ten	-8.72937
▁beautiful	-8.72979
ling	-8.73037
▁history	-8.73159
rs	-8.73281
▁cancer	-8.734
▁family	-8.73531
▁makes	-8.73633
▁Quemaj	-8.73713
▁days	-8.73868
▁pre	-8.74041
▁más	-8.74123
▁universe	-8.74245
sh	-8.74465
▁...	-8.74481
▁pro	-8.74507
▁problems	-8.74541
▁Juan	-8.74577
he	-8.74721
▁top	-8.74739
▁imagine	-8.74782
▁remember	-8.74782
less	-8.74854
ec	-8.74872
ant	-8.75004
▁12	-8.75414
▁run	-8.75785
▁heart	-8.75866
▁wrong	-8.7605
▁ki	-8.76243
am	-8.7626
▁almost	-8.76334
▁possible	-8.76476
▁yet	-8.76589
▁yej	-8.76651
▁piece	-8.772
▁young	-8.7732
▁mother	-8.77401
E	-8.77503
▁share	-8.77555
ies	-8.77662
▁omo	-8.78151
▁culture	-8.78543
▁nemejhuamej	-8.78634
▁within	-8.78886
L	-8.78965
▁order	-8.79084
▁cells	-8.79188
▁turn	-8.79201
▁group	-8.79442
▁Why	-8.79495
▁while	-8.79523
▁Ro	-8.7958
vi	-8.79622
▁India	-8.79755
▁sure	-8.79823
maca	-8.79827
▁couple	-8.801
▁nothing	-8.80256
▁whether	-8.80544
▁control	-8.80561
up	-8.80672
▁“	-8.80692
▁yehuatl	-8.80763
ous	-8.80802
▁heard	-8.8084
▁yejhuamej	-8.80896
ga	-8.8105
▁amazing	-8.81138
▁ocean	-8.81184
ver	-8.8129
▁na	-8.81385
da	-8.81395
lti	-8.81634
▁ijcon	-8.81737
▁sanoyej	-8.81738
ism	-8.82097
▁research	-8.82298
ster	-8.8243
▁already	-8.82792
▁true	-8.82797
bi	-8.8327
hual	-8.8328
▁ex	-8.83346
▁often	-8.83424
▁age	-8.83587
▁difference	-8.83707
▁figure	-8.83964
bo	-8.84599
▁everybody	-8.84633
▁ways	-8.8464
▁looked	-8.84723
em	-8.84794
huaj	-8.84851
zo	-8.85114
▁V	-8.8519
▁Cristo	-8.85271
▁nature	-8.85279
▁looks	-8.85419
▁months	-8.85468
▁God	-8.85498
▁must	-8.85642
▁Co	-8.85865
ki	-8.85975
▁United	-8.86029
ka	-8.86105
▁public	-8.86108
▁Or	-8.86184
▁quimo	-8.86196
▁nemo	-8.86282
▁Sa	-8.86285
▁men	-8.86313
ary	-8.86421
▁axcan	-8.86504
▁land	-8.87089
▁stop	-8.87302
▁city	-8.87388
▁stories	-8.87769
▁tlaca	-8.87854
▁30	-8.87923
▁front	-8.88459
▁W	-8.88473
lan	-8.88534
B	-8.8856
▁community	-8.88587
▁ba	-8.88752
old	-8.88853
▁environment	-8.889
op	-8.89021
ph	-8.89046
▁test	-8.8922
▁myself	-8.89236
▁50	-8.89329
▁free	-8.89444
▁nejhua	-8.89535
ach	-8.89715
▁taking	-8.90038
ized	-8.90141
▁species	-8.90189
▁Y	-8.9027
ard	-8.903
▁built	-8.90349
▁yo	-8.9043
▁Be	-8.90469
▁Le	-8.90593
▁model	-8.90902
cy	-8.91106
▁itself	-8.9112
▁words	-8.91153
▁view	-8.91252
R	-8.91479
▁though	-8.91653
der	-8.91727
yol	-8.9173
▁omoteneuh	-8.91742
▁Tla	-8.91969
▁Do	-8.92028
catl	-8.92032
▁night	-8.92165
one	-8.92189
▁D	-8.9225
▁someone	-8.92274
The	-8.92344
▁Internet	-8.92498
▁woman	-8.92498
▁until	-8.92518
▁word	-8.92559
▁places	-8.92797
▁t	-8.93316
▁oil	-8.93343
os	-8.93437
chan	-8.93452
▁house	-8.93603
▁tech	-8.93634
▁decided	-8.93788
ated	-8.93799
▁level	-8.93799
▁somebody	-8.93854
and	-8.94103
▁past	-8.94176
▁happening	-8.94212
▁ytoca	-8.94304
H	-8.94441
▁job	-8.94444
▁Ye	-8.94498
▁government	-8.94657
▁States	-8.94841
fi	-8.94891
▁At	-8.949
und	-8.95094
▁disease	-8.95153
che	-8.95253
▁large	-8.95424
▁completely	-8.95435
▁huge	-8.95572
▁sound	-8.95883
▁since	-8.96247
▁3	-8.96302
▁ourselves	-8.96417
um	-8.96447
▁education	-8.96496
llo	-8.96625
▁Then	-8.96699
▁China	-8.96795
▁exactly	-8.96962
▁De	-8.9703
▁hear	-8.97127
▁St	-8.97246
▁America	-8.97371
▁works	-8.97439
hi	-8.97538
▁im	-8.97579
za	-8.97768
▁air	-8.98036
ally	-8.98387
ah	-8.98391
▁cenca	-8.98508
▁leave	-8.98524
ine	-8.98548
ful	-8.986
▁color	-8.98703
▁rather	-8.98703
No	-8.98747
▁game	-8.98755
▁en	-8.99248
▁economic	-8.99415
▁step	-8.99478
▁Re	-8.99629
▁along	-8.99824
▁Ba	-8.99846
▁di	-8.99867
▁animals	-8.99951
ran	-9.00183
les	-9.00619
ak	-9.00698
▁won	-9.00946
▁Al	-9.0095
ng	-9.0096
▁Yn	-9.01026
mic	-9.01162
ko	-9.01333
io	-9.01343
▁minutes	-9.01583
▁structure	-9.01587
▁100	-9.01744
▁Ne	-9.0177
▁learned	-9.01854
ber	-9.01859
▁melahuac	-9.01966
▁Se	-9.02021
▁wasn	-9.02077
we	-9.0225
ix	-9.02253
▁became	-9.02324
ther	-9.02428
▁themselves	-9.02506
▁issues	-9.02596
▁company	-9.02876
ue	-9.03011
▁wonderful	-9.0309
▁short	-9.03105
▁third	-9.03141
mon	-9.03254
▁shape	-9.03271
▁particular	-9.03274
ating	-9.03348
▁quichihua	-9.03367
▁Francisco	-9.03444
▁image	-9.0352
▁tlahtohuani	-9.03621
▁grow	-9.03938
▁N	-9.03951
ex	-9.04205
ica	-9.04261
▁pi	-9.04326
▁early	-9.04419
▁close	-9.04681
▁happy	-9.04749
▁cell	-9.04753
▁society	-9.04775
▁population	-9.04937
▁York	-9.05126
▁least	-9.05316
tzinco	-9.05412
▁machine	-9.05422
▁tlajtlamach	-9.05506
▁knew	-9.05507
▁market	-9.05626
tlaca	-9.05653
▁created	-9.05742
▁study	-9.05906
▁c	-9.05976
▁turns	-9.0599
▁seven	-9.06082
tle	-9.06245
▁xcuajli	-9.0627
K	-9.06287
ish	-9.06289
▁li	-9.0634
▁guys	-9.06476
▁film	-9.06494
▁non	-9.06721
▁sometimes	-9.06849
▁couldn	-9.06994
▁La	-9.07047
son	-9.07195
▁phone	-9.07233
▁amount	-9.07234
▁state	-9.07291
huica	-9.07619
▁inic	-9.07648
mach	-9.0767
▁outside	-9.07745
▁ome	-9.07747
tur	-9.07912
On	-9.07913
▁An	-9.08035
▁ten	-9.08042
line	-9.08259
0	-9.08267
▁speak	-9.08432
▁Pa	-9.08569
▁nemi	-9.08717
tra	-9.08752
▁18	-9.08973
king	-9.09057
▁natural	-9.09064
▁eight	-9.09218
▁kinds	-9.09228
,000	-9.09241
▁nen	-9.09407
▁against	-9.09447
▁ha	-9.09486
▁cost	-9.09535
Ma	-9.09607
ance	-9.09727
az	-9.09753
▁American	-9.09761
▁moving	-9.09783
▁hours	-9.09791
▁beginning	-9.09792
ence	-9.09922
▁Pedro	-9.09982
▁gave	-9.09983
Well	-9.10123
cahua	-9.10367
▁hu	-9.10582
▁team	-9.10664
▁isn	-9.10805
▁deal	-9.10826
▁metztli	-9.10985
▁paper	-9.10998
G	-9.11061
wa	-9.11191
▁everyone	-9.11242
▁sh	-9.11526
▁common	-9.11592
▁shows	-9.1173
▁difficult	-9.11788
▁scale	-9.11922
fe	-9.11952
▁feeling	-9.12124
ome	-9.1219
chihua	-9.12296
▁friends	-9.12324
ey	-9.12379
▁worked	-9.12424
ize	-9.12485
▁otla	-9.12499
▁mani	-9.12523
▁walk	-9.12605
▁terms	-9.12619
▁entire	-9.12647
▁b	-9.12647
▁toTeco	-9.1266
tech	-9.12971
▁learning	-9.12983
▁Ce	-9.12987
▁century	-9.13278
▁taken	-9.13282
▁size	-9.13285
F	-9.13522
▁area	-9.13523
lin	-9.1357
▁surface	-9.13629
tij	-9.13807
▁hueyi	-9.13918
ities	-9.14048
▁pay	-9.14116
▁certain	-9.14298
▁buy	-9.14512
▁black	-9.14666
mati	-9.14692
▁Yejhua	-9.15016
▁iuh	-9.15095
▁students	-9.15248
▁fish	-9.15288
é	-9.15294
▁full	-9.15362
▁ho	-9.15382
ut	-9.15452
▁Can	-9.1549
lia	-9.15901
▁nochimej	-9.15976
▁sea	-9.16063
▁Okay	-9.16233
technology	-9.16471
▁relationship	-9.16562
▁local	-9.16583
▁eat	-9.16585
▁cut	-9.16641
▁map	-9.16673
pil	-9.16709
▁week	-9.16746
dy	-9.16865
▁blue	-9.16987
cauh	-9.17062
▁mexica	-9.17214
▁friend	-9.17342
▁begin	-9.17406
▁middle	-9.17415
ani	-9.17459
▁news	-9.17537
▁behavior	-9.1754
cha	-9.17587
▁present	-9.17588
▁yquac	-9.1763
ot	-9.17722
▁Me	-9.17802
cac	-9.17819
▁field	-9.17896
huac	-9.17963
▁questions	-9.18112
▁fun	-9.18125
▁powerful	-9.18152
of	-9.1818
▁instead	-9.18276
▁media	-9.18288
ning	-9.18493
▁rest	-9.18553
▁thousands	-9.18615
▁4	-9.1898
iti	-9.1911
▁whatever	-9.19148
lic	-9.19207
▁center	-9.19209
▁pero	-9.19331
▁finally	-9.19432
▁st	-9.1945
▁perhaps	-9.20021
ijli	-9.20103
▁experiment	-9.20218
▁nech	-9.20224
during	-9.20323
▁hual	-9.20503
▁mochiuh	-9.20535
▁quipia	-9.20635
▁cr	-9.20671
▁program	-9.2071
▁eyes	-9.21043
▁nenqui	-9.21105
tzi	-9.21134
▁seeing	-9.21321
▁support	-9.2135
▁bo	-9.21386
▁ono	-9.21815
▁sp	-9.22415
▁measure	-9.22471
▁explain	-9.22611
▁oquijlij	-9.22655
▁father	-9.22699
▁oquimijlij	-9.22923
▁cannot	-9.22935
▁yourself	-9.22946
▁low	-9.2307
▁Ijcuac	-9.23112
mac	-9.23262
vo	-9.23328
▁Some	-9.2343
▁easy	-9.23605
per	-9.23798
▁interested	-9.24058
▁wall	-9.24129
end	-9.24271
liz	-9.24364
▁pe	-9.24398
so	-9.24679
▁ixquich	-9.24725
▁thank	-9.2473
▁turned	-9.2501
year	-9.25083
▁lots	-9.25131
▁||	-9.25214
▁feet	-9.25214
▁sub	-9.25288
tza	-9.25312
tiuh	-9.25361
▁mech	-9.25519
▁personal	-9.25572
▁vi	-9.25675
▁behind	-9.25679
▁spend	-9.25792
▁ability	-9.25961
▁Mar	-9.2611
iz	-9.26207
▁stand	-9.26253
▁systems	-9.26274
▁Ra	-9.2635
▁death	-9.26381
▁tried	-9.26501
loc	-9.26528
ie	-9.2653
▁photograph	-9.26796
▁gone	-9.26809
▁tonajli	-9.2685
▁red	-9.26883
▁given	-9.26914
▁produce	-9.26966
▁chi	-9.2718
ger	-9.2741
▁hands	-9.27479
mer	-9.27539
▁comp	-9.27591
▁began	-9.27701
tlal	-9.27712
▁11	-9.27748
lla	-9.27752
▁40	-9.27784
▁longer	-9.28016
ticatca	-9.28085
▁stage	-9.28092
▁movement	-9.28116
▁ocse	-9.28178
What	-9.28236
▁risk	-9.28275
▁Just	-9.28326
▁quickly	-9.28344
▁poor	-9.28362
▁green	-9.28366
cen	-9.28533
bu	-9.28556
You	-9.28567
way	-9.28723
▁deep	-9.29037
▁Na	-9.29319
▁changed	-9.29348
ble	-9.29373
▁takes	-9.29396
▁die	-9.29621
▁realized	-9.2982
▁focus	-9.29892
▁cool	-9.30057
▁act	-9.30158
ring	-9.30414
▁generation	-9.30731
▁People	-9.30937
▁special	-9.3094
▁R	-9.30983
om	-9.31025
▁fall	-9.31071
▁simply	-9.31182
▁oncaj	-9.31306
▁situation	-9.31429
▁break	-9.31429
pia	-9.31435
▁Right	-9.31436
▁plan	-9.31444
▁complex	-9.31649
yan	-9.3191
▁political	-9.31923
▁arm	-9.31975
▁14	-9.32235
▁hebreos	-9.32452
gen	-9.32535
cho	-9.32646
▁xqui	-9.32655
▁DNA	-9.32669
▁ice	-9.32884
▁Pablo	-9.32919
ial	-9.33017
▁lo	-9.33185
▁rate	-9.33351
▁Go	-9.33359
▁Not	-9.3342
▁incredible	-9.33421
xo	-9.3343
▁parts	-9.33445
▁ground	-9.33506
▁qua	-9.33509
▁individual	-9.33541
▁force	-9.33645
▁World	-9.33673
▁key	-9.34035
▁write	-9.34149
▁fast	-9.34307
▁ilhuicac	-9.34328
▁ynin	-9.3434
toc	-9.3453
▁blood	-9.34687
▁sitting	-9.34707
▁lost	-9.34709
▁needed	-9.34808
▁gets	-9.3484
▁challenge	-9.34852
▁ipampa	-9.3499
▁k	-9.35012
▁Ha	-9.35126
▁hi	-9.3514
▁imp	-9.35161
▁approach	-9.35198
▁exist	-9.3523
▁nice	-9.35283
jli	-9.35348
ff	-9.35367
▁fly	-9.35398
▁16	-9.35701
▁spent	-9.3574
▁connect	-9.35806
▁Jo	-9.35813
▁stay	-9.3584
▁value	-9.35911
▁books	-9.35919
▁audience	-9.35969
▁Bo	-9.36057
▁brought	-9.36227
▁allow	-9.36591
▁watch	-9.36593
oj	-9.36919
▁L	-9.36966
▁either	-9.37007
rt	-9.37054
▁economy	-9.37268
▁xi	-9.37637
▁bottom	-9.37792
▁known	-9.3781
uc	-9.3785
val	-9.37899
mal	-9.37929
ij	-9.3798
▁starting	-9.38043
▁opportunity	-9.38055
▁movie	-9.38057
▁animal	-9.3806
▁drive	-9.38092
▁hold	-9.38228
fa	-9.38245
▁dream	-9.38319
00	-9.38369
ite	-9.3838
▁voice	-9.38584
▁material	-9.38607
▁growth	-9.38664
nequi	-9.38821
tac	-9.3884
ço	-9.39397
▁Ho	-9.39586
▁quinequi	-9.39727
▁nochipa	-9.39763
▁lab	-9.39796
▁itlaj	-9.39824
▁dark	-9.39893
▁Ja	-9.40128
U	-9.4021
▁English	-9.40455
tter	-9.4066
▁technologies	-9.40726
▁spread	-9.40729
▁climate	-9.40765
listli	-9.40934
▁v	-9.40974
▁growing	-9.40979
▁hit	-9.40993
▁cities	-9.41014
▁forward	-9.41082
▁yuh	-9.41132
bre	-9.41174
▁wrote	-9.41268
▁felt	-9.41269
ça	-9.41309
▁office	-9.41341
▁based	-9.41708
▁weeks	-9.41755
▁action	-9.41759
▁eye	-9.41761
▁wind	-9.41798
▁concept	-9.41814
▁average	-9.41815
▁message	-9.41823
▁miles	-9.41887
▁parents	-9.41936
▁patient	-9.41944
▁ocsequimej	-9.42101
▁theory	-9.4213
▁gr	-9.42158
huiz	-9.42256
uan	-9.42517
ze	-9.42528
▁touch	-9.42544
▁Da	-9.42604
▁morning	-9.42638
▁born	-9.42732
▁sign	-9.42811
ud	-9.42902
▁object	-9.43113
side	-9.43135
▁Di	-9.43144
▁needs	-9.43146
▁expect	-9.43157
til	-9.43279
nemi	-9.43397
▁Hu	-9.43579
▁miyec	-9.43757
▁pick	-9.43777
▁Chi	-9.43837
▁met	-9.43843
macac	-9.43852
▁1	-9.43861
▁sun	-9.44001
▁village	-9.44027
ped	-9.44084
▁images	-9.44251
▁literally	-9.44307
ep	-9.44442
▁tle	-9.44541
ler	-9.44814
by	-9.44855
▁attention	-9.4487
▁fire	-9.44878
▁white	-9.44962
led	-9.45125
▁visual	-9.45146
▁mass	-9.45202
▁companies	-9.45436
science	-9.45488
▁reality	-9.45547
▁clear	-9.4556
ap	-9.45769
▁evolution	-9.45781
▁reach	-9.45792
▁super	-9.45863
ight	-9.4593
▁understanding	-9.45933
▁camera	-9.45948
▁modern	-9.46291
au	-9.46352
▁Yeah	-9.46441
▁guess	-9.46579
▁impact	-9.46583
▁tlalticpactli	-9.46591
ris	-9.46593
▁song	-9.46684
▁da	-9.46705
caj	-9.46721
▁developed	-9.46866
▁girl	-9.46872
▁aman	-9.4708
quiz	-9.47106
▁represent	-9.47109
▁knowledge	-9.47152
▁result	-9.47171
▁mil	-9.47202
▁si	-9.47453
▁cause	-9.47671
▁realize	-9.47713
▁Chinese	-9.47731
▁dead	-9.47745
▁wouldn	-9.47767
▁areas	-9.47782
lar	-9.4779
▁table	-9.47823
▁discovered	-9.47932
▁nion	-9.48006
▁mine	-9.48037
▁running	-9.48045
▁por	-9.48111
▁kid	-9.48159
▁intech	-9.48172
titlan	-9.48187
▁13	-9.48265
.”	-9.48545
mat	-9.48549
▁Po	-9.48604
▁smart	-9.48606
ever	-9.48612
▁J	-9.48696
▁tools	-9.48895
▁giving	-9.48908
ward	-9.49106
ple	-9.49198
▁xo	-9.49363
col	-9.49408
▁site	-9.49486
▁huelis	-9.49542
▁r	-9.49651
xihuitl	-9.49665
ping	-9.49717
▁development	-9.49878
▁patients	-9.49939
lis	-9.49986
ious	-9.50075
▁scientists	-9.50094
▁others	-9.50201
▁u	-9.5021
liztli	-9.50269
á	-9.50339
▁noso	-9.50363
▁period	-9.50379
▁network	-9.5051
zquia	-9.50562
▁character	-9.50671
▁suggest	-9.50677
▁25	-9.50741
▁atl	-9.50805
▁7	-9.50918
▁Chris	-9.50976
▁late	-9.51014
▁physical	-9.51116
▁South	-9.51241
▁mu	-9.51259
▁Cha	-9.51325
▁save	-9.51485
▁issue	-9.51491
▁access	-9.51572
▁Ni	-9.51577
land	-9.51582
▁chance	-9.51585
▁alone	-9.51589
▁baby	-9.51592
ical	-9.51608
▁teach	-9.51864
▁inter	-9.52159
▁playing	-9.52222
”	-9.52246
▁CA	-9.5226
▁meet	-9.52462
▁provide	-9.52487
▁follow	-9.52728
tric	-9.52854
▁sit	-9.52909
▁du	-9.52932
▁product	-9.53013
▁major	-9.53096
▁fear	-9.53111
▁compassion	-9.53116
▁tlinon	-9.5317
▁source	-9.53252
▁similar	-9.53404
▁road	-9.53404
▁price	-9.53405
▁African	-9.53446
▁innovation	-9.53459
namiqui	-9.53499
art	-9.5356
quixti	-9.53667
▁telling	-9.53704
▁industry	-9.53712
▁absolutely	-9.53765
▁rich	-9.53856
out	-9.53874
▁Ga	-9.5389
▁develop	-9.53928
Oh	-9.53945
▁type	-9.5409
▁anyone	-9.54105
▁pass	-9.54183
▁Li	-9.54294
▁xoc	-9.54368
ship	-9.54521
▁seem	-9.54629
▁incredibly	-9.54641
▁hospital	-9.54952
▁ahmo	-9.54971
▁Con	-9.55134
W	-9.55165
▁mis	-9.55212
▁developing	-9.55319
▁calli	-9.55366
▁huey	-9.55466
tec	-9.55474
▁talked	-9.55714
▁Si	-9.55814
▁cha	-9.55888
▁star	-9.55946
▁6	-9.55955
▁list	-9.55996
ors	-9.56115
matl	-9.56138
teca	-9.562
▁creating	-9.56208
▁changes	-9.56278
▁interest	-9.56284
▁pull	-9.56303
▁worth	-9.56312
▁Europe	-9.56458
nahuati	-9.56548
▁humans	-9.56571
ions	-9.56629
▁normal	-9.56698
nic	-9.56763
tal	-9.56811
▁ça	-9.56839
▁post	-9.5685
▁pattern	-9.56866
▁goal	-9.56979
▁bar	-9.57049
▁seems	-9.57089
▁computers	-9.57307
ps	-9.57317
▁hueli	-9.57341
▁2	-9.57415
▁effect	-9.57495
ative	-9.57618
▁motla	-9.57634
▁gas	-9.57686
▁oquijtoj	-9.57759
▁200	-9.578
▁track	-9.57801
▁digital	-9.57801
▁listen	-9.57819
tiaya	-9.57884
▁Maria	-9.58046
▁solve	-9.58099
ay	-9.5818
▁recently	-9.58207
▁general	-9.58287
▁pan	-9.58289
▁quitla	-9.58384
▁mar	-9.58388
▁soon	-9.58423
▁screen	-9.58445
▁region	-9.58445
▁oti	-9.58457
▁push	-9.58459
squia	-9.58479
▁solution	-9.58521
ig	-9.58545
▁vision	-9.5864
jca	-9.58812
▁showed	-9.58867
design	-9.5891
▁perfect	-9.58933
ón	-9.59024
yotl	-9.5905
▁continue	-9.59062
▁treat	-9.59078
ology	-9.59079
▁device	-9.59192
▁Ta	-9.59207
oh	-9.59383
ili	-9.59407
▁recognize	-9.59419
gg	-9.59425
▁yacaj	-9.59443
ana	-9.59457
▁Our	-9.59555
▁rec	-9.59612
ists	-9.59865
▁cal	-9.6002
▁basic	-9.60064
ization	-9.6007
toj	-9.60073
▁tiny	-9.60116
▁mochiua	-9.60248
▁putting	-9.60257
pal	-9.60269
men	-9.604
▁Google	-9.60402
chiuh	-9.60421
▁success	-9.60519
▁mochi	-9.60715
time	-9.6074
J	-9.60891
ner	-9.61023
▁available	-9.61064
▁send	-9.61067
▁mitz	-9.61088
▁Car	-9.61318
▁record	-9.61386
▁truth	-9.61396
▁anybody	-9.61404
▁report	-9.61442
▁bigger	-9.61453
▁rules	-9.61472
ina	-9.61535
▁strong	-9.61602
ow	-9.61623
▁quijtohua	-9.61765
▁hundreds	-9.61811
▁Lo	-9.61825
▁involved	-9.61864
▁dog	-9.61901
▁lose	-9.61929
▁wish	-9.62095
▁Sh	-9.62219
▁month	-9.62263
huatl	-9.6246
▁travel	-9.6271
▁speed	-9.62737
▁hole	-9.62753
ny	-9.62894
nk	-9.63002
▁draw	-9.6305
▁millions	-9.63052
▁subject	-9.63074
▁clean	-9.63074
quetza	-9.63236
▁add	-9.63241
▁join	-9.63413
▁revolution	-9.63414
▁By	-9.635
rate	-9.63515
▁yes	-9.63595
▁designed	-9.63685
▁ijquin	-9.6373
▁yehuantin	-9.63755
cent	-9.63776
▁happiness	-9.63854
nce	-9.63897
▁hundred	-9.6401
▁moral	-9.64149
▁5	-9.64242
▁class	-9.64275
▁Of	-9.64335
▁su	-9.64365
▁towards	-9.64411
▁depend	-9.64413
▁beyond	-9.64437
nan	-9.6446
row	-9.64466
▁nine	-9.64517
▁cover	-9.64554
▁Ti	-9.64776
▁attack	-9.64783
▁slow	-9.64983
▁reasons	-9.65023
▁War	-9.65062
huili	-9.651
▁pictures	-9.65113
▁itla	-9.65114
▁favorite	-9.65128
tlajtla	-9.6519
▁changing	-9.65235
▁door	-9.65355
▁law	-9.65384
▁choice	-9.65433
▁magic	-9.65497
tiz	-9.65516
▁Su	-9.6552
▁numbers	-9.65569
cue	-9.65599
pro	-9.65617
nel	-9.65745
▁8	-9.65828
▁store	-9.65837
▁main	-9.66038
har	-9.66041
▁bio	-9.66062
▁Sant	-9.66339
▁Ka	-9.6639
▁becomes	-9.66391
for	-9.66469
▁robot	-9.66485
▁medical	-9.66525
▁religion	-9.66577
▁writing	-9.66588
▁60	-9.66597
▁materials	-9.66836
▁Amo	-9.6684
▁H	-9.66846
▁especially	-9.66867
▁tlajtojli	-9.66867
▁doctor	-9.66875
▁mote	-9.66888
use	-9.66909
▁le	-9.67007
ita	-9.67073
ice	-9.67194
▁protect	-9.67211
▁Oh	-9.67214
▁stick	-9.67227
▁nation	-9.67338
▁predict	-9.674
global	-9.67411
ros	-9.67448
▁slide	-9.67579
Tla	-9.67611
▁Man	-9.67612
den	-9.67617
quen	-9.67617
▁box	-9.67677
▁certainly	-9.67846
▁cen	-9.67852
temo	-9.6799
▁carbon	-9.67995
▁resources	-9.68202
▁Martin	-9.68328
▁died	-9.68343
▁flow	-9.68355
▁lived	-9.68361
▁obviously	-9.68382
ab	-9.68384
tique	-9.68439
▁tend	-9.68476
▁om	-9.685
huiya	-9.68625
▁girls	-9.68629
▁connection	-9.68794
▁potential	-9.68838
tili	-9.68948
yollo	-9.68973
▁80	-9.69003
▁skin	-9.69172
mana	-9.692
▁quim	-9.6921
▁mix	-9.69268
▁function	-9.69272
▁safe	-9.69287
▁detail	-9.69397
▁nobody	-9.69399
▁ihcuac	-9.69411
▁Where	-9.69444
▁cualli	-9.69449
ohua	-9.69502
seli	-9.69703
▁further	-9.6972
▁visit	-9.69726
▁With	-9.69758
mil	-9.69788
▁asking	-9.69976
▁plant	-9.70067
▁response	-9.70082
▁several	-9.70082
▁feed	-9.70084
▁among	-9.70143
omic	-9.70248
tiaque	-9.70305
light	-9.7036
▁cars	-9.70374
▁quemaj	-9.70446
▁scientific	-9.70447
izing	-9.70453
▁serious	-9.7065
▁street	-9.70682
▁Don	-9.70683
▁biology	-9.70906
ide	-9.71015
▁chemical	-9.71177
▁code	-9.71181
▁increase	-9.71187
▁tejhua	-9.71287
neltoc	-9.71309
▁haven	-9.71318
▁Miguel	-9.71544
▁evidence	-9.71544
▁tlanahuatijli	-9.71544
▁East	-9.71565
▁cua	-9.71566
▁offer	-9.71642
▁version	-9.71646
ehua	-9.71684
▁thousand	-9.71705
ron	-9.71812
▁mom	-9.71907
▁direction	-9.71961
▁groups	-9.72087
▁aren	-9.72209
▁Maybe	-9.72263
▁exciting	-9.72284
▁David	-9.72287
▁pain	-9.72322
▁showing	-9.72351
huitl	-9.72406
▁Z	-9.72557
▁solar	-9.7257
▁path	-9.72607
▁note	-9.72619
nal	-9.72634
▁cu	-9.72636
▁agree	-9.72672
ama	-9.72679
fin	-9.72705
▁positive	-9.72711
▁position	-9.72763
▁hot	-9.72906
▁Lu	-9.72941
▁architecture	-9.73059
▁sent	-9.73129
lahto	-9.7322
ax	-9.73246
culture	-9.73263
▁Gu	-9.73343
ajsi	-9.73367
▁Every	-9.73389
ub	-9.73408
▁17	-9.73431
▁kill	-9.7344
▁altepetl	-9.73628
chtli	-9.73663
▁Dr	-9.73785
▁block	-9.73789
▁extraordinary	-9.73805
▁ima	-9.73877
▁count	-9.73985
▁timo	-9.74009
▁journey	-9.74156
▁trust	-9.74157
▁Yes	-9.7423
▁finger	-9.74544
▁genetic	-9.74547
like	-9.74642
▁mic	-9.74665
▁ixpan	-9.74677
▁successful	-9.74781
ticaj	-9.74817
▁First	-9.74916
▁HIV	-9.74916
▁plastic	-9.74916
▁software	-9.74916
▁throw	-9.74916
act	-9.75059
▁boy	-9.75101
▁walking	-9.75211
▁del	-9.75231
▁West	-9.75232
▁nuclear	-9.75297
▁near	-9.75298
▁role	-9.75303
▁treatment	-9.7534
huia	-9.7546
work	-9.7555
▁games	-9.75571
▁son	-9.75608
▁card	-9.75623
xiuh	-9.75674
▁schools	-9.757
ically	-9.75784
▁moved	-9.75805
oz	-9.7581
▁inhuan	-9.75977
▁progress	-9.76065
otl	-9.76089
▁wait	-9.76101
▁content	-9.76166
▁Most	-9.76211
▁sex	-9.76271
zi	-9.76312
▁―¿	-9.76463
▁drop	-9.76464
quetz	-9.76484
port	-9.76547
▁Who	-9.76601
day	-9.76611
▁lead	-9.76647
▁Per	-9.7669
▁sta	-9.76752
▁mountain	-9.76839
▁everywhere	-9.76847
▁quijtosnequi	-9.76885
atl	-9.77048
▁named	-9.77119
▁appear	-9.7722
▁bunch	-9.77228
▁perspective	-9.77228
▁dance	-9.77241
ify	-9.7725
▁text	-9.77277
▁security	-9.77279
nti	-9.77293
miqui	-9.77412
▁online	-9.77448
des	-9.77516
▁plants	-9.77531
▁iquac	-9.77619
▁tool	-9.77666
▁extremely	-9.77701
▁foot	-9.77817
▁app	-9.77843
istic	-9.77975
ier	-9.77985
▁sleep	-9.78011
ez	-9.78027
▁sell	-9.78113
▁Com	-9.78161
▁hour	-9.78214
▁please	-9.78404
▁secret	-9.78404
▁totally	-9.78536
▁Qui	-9.78563
▁teacher	-9.78566
▁medicine	-9.78577
tch	-9.78681
▁particularly	-9.78744
▁explore	-9.78799
▁minute	-9.78908
uit	-9.78991
▁flu	-9.79179
▁za	-9.79202
▁fix	-9.79256
▁nemech	-9.79258
▁supposed	-9.79328
tlaj	-9.79337
▁fine	-9.79357
▁ix	-9.79527
▁notice	-9.79531
▁quality	-9.79595
▁cross	-9.79596
▁nimitz	-9.79596
▁ayac	-9.7971
if	-9.7979
▁rock	-9.79968
▁account	-9.79995
▁prevent	-9.79995
▁yol	-9.8007
▁series	-9.80076
▁ran	-9.80078
▁consider	-9.80085
tzon	-9.80147
▁quihual	-9.802
taj	-9.80226
▁capital	-9.80435
▁invest	-9.80452
ixpan	-9.80462
▁affect	-9.80487
mpa	-9.80502
▁rise	-9.80623
ign	-9.8076
▁conversation	-9.80799
▁context	-9.808
▁search	-9.808
Y	-9.80823
▁trial	-9.80885
Quemaj	-9.81095
▁national	-9.81134
▁remain	-9.81205
▁pesos	-9.81206
pilhuan	-9.81247
ile	-9.81258
▁student	-9.81293
▁train	-9.81344
▁North	-9.81351
▁bacteria	-9.81611
ible	-9.81789
tzino	-9.81965
▁led	-9.82019
▁wife	-9.82429
▁grew	-9.8243
▁perform	-9.82434
▁enter	-9.82505
▁projects	-9.82506
▁allowed	-9.82511
▁fit	-9.82572
lhui	-9.82611
tlajsojtla	-9.82832
▁Diego	-9.8284
▁biggest	-9.82841
▁ocsejpa	-9.82841
▁conflict	-9.82897
▁shift	-9.8291
▁poverty	-9.82931
▁bi	-9.8298
huey	-9.83033
▁meaning	-9.83046
▁onto	-9.83168
▁complicated	-9.83254
▁creative	-9.83254
▁After	-9.83254
▁itechcopa	-9.83307
▁connected	-9.83338
ified	-9.83432
!"	-9.83494
▁lower	-9.8352
▁interact	-9.83528
▁com	-9.83645
▁John	-9.83661
▁activity	-9.83673
▁bank	-9.83689
We	-9.83692
▁tlalli	-9.83765
▁objects	-9.83786
In	-9.83825
▁yon	-9.83898
kin	-9.83915
▁fundamental	-9.83924
tzintli	-9.83976
▁survive	-9.84085
▁temperature	-9.84085
tinemi	-9.84151
▁sl	-9.84236
▁Acatl	-9.84336
tetl	-9.84457
▁eventually	-9.84504
▁beauty	-9.84504
▁tonaltin	-9.84505
▁fuel	-9.84547
▁page	-9.84553
▁oh	-9.8459
▁sounds	-9.84642
▁Look	-9.84718
▁examples	-9.84774
▁jump	-9.84942
▁essentially	-9.84996
▁higher	-9.85042
▁genes	-9.85071
▁pu	-9.85071
▁ready	-9.85112
ado	-9.85264
▁return	-9.85347
▁micro	-9.85476
▁tree	-9.85589
bra	-9.85595
ability	-9.85653
▁teachers	-9.85825
aci	-9.85842
▁meeting	-9.85856
▁suddenly	-9.8586
lock	-9.85885
▁watching	-9.85938
▁painting	-9.86071
▁killed	-9.86124
oya	-9.86126
▁Espíritu	-9.86195
▁charge	-9.86196
▁above	-9.86203
▁standard	-9.8622
polo	-9.86234
hue	-9.86288
▁nu	-9.86446
▁alcalde	-9.86622
▁check	-9.86623
▁taught	-9.86629
▁tr	-9.86645
ral	-9.86684
▁ball	-9.86697
quetl	-9.86702
▁dr	-9.86742
▁titla	-9.86787
itz	-9.86794
entrepreneur	-9.87051
▁Which	-9.87052
▁famous	-9.87052
▁deliver	-9.87053
▁task	-9.87057
▁traditional	-9.8709
▁wonder	-9.87205
qu	-9.87284
V	-9.87356
▁peace	-9.87407
▁otic	-9.87411
ray	-9.87434
▁democracy	-9.87483
▁website	-9.87483
elo	-9.87519
▁communication	-9.87564
▁Cu	-9.87603
▁original	-9.8761
cohua	-9.87621
0,000	-9.8763
ee	-9.87712
▁base	-9.87725
▁21	-9.87788
Yejhuamej	-9.87891
cate	-9.8805
▁sky	-9.88065
▁farm	-9.88081
▁bed	-9.88095
▁otech	-9.88242
▁critical	-9.88324
▁military	-9.8835
pajti	-9.88512
▁finding	-9.88599
top	-9.88636
ook	-9.8865
tol	-9.88677
▁immo	-9.88681
▁drug	-9.88693
▁rule	-9.88707
▁college	-9.88787
▁enjoy	-9.88787
▁practice	-9.88787
▁tiopan	-9.88788
▁likely	-9.88819
▁largest	-9.88842
ej	-9.88855
▁onic	-9.88962
▁yoqui	-9.89009
▁ended	-9.89078
▁starts	-9.89146
▁results	-9.89196
▁Even	-9.89229
▁bomb	-9.89233
▁somewhere	-9.89247
▁somehow	-9.89314
ld	-9.89315
▁decision	-9.89594
▁crazy	-9.89666
▁quimati	-9.89671
▁trees	-9.89869
▁leaders	-9.89906
pen	-9.89996
▁square	-9.90109
▁Vi	-9.90129
rry	-9.9026
chihuili	-9.90526
▁Jesucristo	-9.90553
▁tonatiuh	-9.90554
▁indeed	-9.90577
▁Santo	-9.90599
▁strange	-9.90618
▁alive	-9.90625
▁Je	-9.9072
▁reading	-9.90951
▁service	-9.90971
▁written	-9.90999
▁kikua	-9.91
▁TV	-9.91036
▁press	-9.91093
ech	-9.91109
quin	-9.91275
ker	-9.9128
ries	-9.91307
▁print	-9.9137
Ijcuac	-9.91383
▁accept	-9.91448
▁purpose	-9.91448
▁excited	-9.91448
pampa	-9.9148
ctli	-9.9151
▁impossible	-9.91898
▁Tecpatl	-9.91903
▁discover	-9.91936
▁Nican	-9.92033
▁smaller	-9.92038
▁faster	-9.92124
low	-9.92197
▁cheap	-9.92351
▁wild	-9.92353
▁window	-9.92362
▁tells	-9.92382
▁transform	-9.92454
▁older	-9.92476
temachti	-9.92519
tilia	-9.92568
▁lesson	-9.92635
ilia	-9.9264
▁oquimo	-9.92641
cau	-9.92642
▁meant	-9.92668
calli	-9.92736
▁tejhuamej	-9.92828
▁stars	-9.92842
▁board	-9.92864
▁products	-9.92954
▁letter	-9.93067
▁Pro	-9.93115
▁Mu	-9.93141
ologist	-9.93171
▁address	-9.93262
▁okay	-9.93262
▁shot	-9.93287
▁listening	-9.93322
log	-9.93348
▁Ju	-9.93404
▁factor	-9.9341
▁link	-9.93432
▁Indian	-9.93514
▁tiqui	-9.93534
▁shown	-9.93577
ek	-9.93702
▁including	-9.93721
▁studies	-9.93721
▁worse	-9.93721
▁anywhere	-9.9373
▁floor	-9.93747
▁Ri	-9.93862
▁Th	-9.94167
▁communities	-9.94182
▁enormous	-9.94182
▁trade	-9.94189
▁himself	-9.94193
▁upon	-9.9423
ochi	-9.94262
form	-9.94284
▁fight	-9.94323
Ca	-9.94425
▁larger	-9.94498
auh	-9.94508
▁Ar	-9.94596
▁urban	-9.94644
▁Calli	-9.94789
▁zero	-9.94822
▁standing	-9.949
catzin	-9.94911
▁cla	-9.94922
▁achieve	-9.95074
tel	-9.95087
▁niqui	-9.95087
▁truly	-9.9511
▁instance	-9.95111
▁serve	-9.95157
▁artist	-9.95273
▁individuals	-9.95354
my	-9.9539
▁current	-9.95416
▁yeah	-9.9542
sum	-9.95421
▁9	-9.95534
motla	-9.95543
▁climb	-9.95577
▁television	-9.95577
▁reduce	-9.95581
▁math	-9.95668
▁environmental	-9.95693
▁conditions	-9.95823
▁ichan	-9.95845
▁ship	-9.95919
ging	-9.95935
▁except	-9.95946
▁range	-9.95989
▁pieces	-9.96014
▁crisis	-9.96046
▁sequence	-9.96047
▁trick	-9.96089
▁physics	-9.96152
▁require	-9.96166
dor	-9.9627
her	-9.9627
ium	-9.96297
notza	-9.96445
ft	-9.96456
▁patterns	-9.96483
ration	-9.96484
▁choose	-9.96518
▁international	-9.96518
▁respect	-9.96518
▁yxquich	-9.96518
▁policy	-9.96518
▁dangerous	-9.96525
▁Mars	-9.96528
▁extra	-9.9654
▁town	-9.96566
▁rey	-9.96602
ito	-9.96707
van	-9.96724
pping	-9.96739
ztli	-9.96749
▁ju	-9.96842
lij	-9.96984
▁expensive	-9.96992
▁fantastic	-9.96992
▁glass	-9.96992
▁Mon	-9.9703
▁fat	-9.97397
▁kept	-9.97476
▁multi	-9.97521
▁ual	-9.97532
▁buildings	-9.97625
▁kilo	-9.97824
▁trouble	-9.97947
▁Those	-9.97947
board	-9.97957
▁Tenochtitlan	-9.97971
gan	-9.98041
air	-9.98086
▁bone	-9.98104
▁forms	-9.9815
ged	-9.98164
ltia	-9.98352
▁training	-9.98376
▁influence	-9.98427
▁Another	-9.98428
▁protein	-9.98428
▁win	-9.9844
▁etc	-9.98477
▁nauh	-9.98496
▁models	-9.98498
▁Asia	-9.98505
▁limit	-9.98599
cahuili	-9.98647
▁Col	-9.98758
▁90	-9.98858
han	-9.98875
ute	-9.98888
ned	-9.98892
▁genome	-9.98911
▁heat	-9.98915
▁hair	-9.98953
▁gu	-9.9899
▁cold	-9.98999
▁drugs	-9.99021
▁mochihua	-9.99123
uch	-9.99188
▁¡	-9.9922
▁instrument	-9.99396
▁earlier	-9.99396
▁usually	-9.99397
▁blog	-9.99422
▁Tochtli	-9.99426
▁wide	-9.99453
▁saj	-9.99457
▁cultural	-9.99475
▁teaching	-9.99494
▁wave	-9.99522
huil	-9.99693
pie	-9.99817
▁sorts	-9.99843
▁ciudad	-9.99884
ntin	-9.99889
▁collect	-9.99953
▁anyway	-9.99975
▁ke	-9.99998
▁onech	-10.0003
▁His	-10.0011
▁organization	-10.0016
▁forest	-10.0033
ug	-10.0035
teuhctli	-10.0037
▁conference	-10.0037
▁daughter	-10.0037
▁effort	-10.0037
▁tlahtoque	-10.0037
▁blind	-10.0037
▁unique	-10.0037
▁remind	-10.0038
▁electricity	-10.0039
▁spot	-10.004
▁Like	-10.0041
▁web	-10.005
gram	-10.0061
▁photo	-10.0067
▁actual	-10.0074
▁Are	-10.0102
▁greater	-10.0102
aqui	-10.0105
▁complete	-10.0121
▁skills	-10.0122
▁tea	-10.0124
▁forth	-10.0128
▁xmo	-10.0131
▁virus	-10.0136
▁reflect	-10.0136
▁significant	-10.0136
▁separate	-10.0136
▁freedom	-10.0136
▁therefore	-10.0136
▁rain	-10.0137
▁cap	-10.0138
▁healthy	-10.0157
maquixti	-10.016
▁minds	-10.0169
tlah	-10.0174
▁Ipan	-10.0178
▁fund	-10.0183
▁Bar	-10.0183
▁familiar	-10.0186
▁anymore	-10.0186
▁yehuatzin	-10.0195
▁24	-10.0196
▁intla	-10.0197
▁uel	-10.0198
▁corner	-10.0199
▁creativity	-10.0204
copa	-10.0216
▁legs	-10.0217
ltin	-10.0225
ley	-10.0225
▁ytech	-10.0232
▁surprising	-10.0236
▁document	-10.0236
▁contain	-10.0236
▁robots	-10.0236
dia	-10.024
tiaj	-10.0241
inomachtijcahuan	-10.0241
▁Zan	-10.0243
own	-10.0244
▁decisions	-10.0244
▁invented	-10.0253
ía	-10.0258
uaj	-10.0265
▁race	-10.0287
▁Pi	-10.0293
huicac	-10.0309
uel	-10.031
▁humanity	-10.0312
▁final	-10.0321
▁muscle	-10.0337
▁drink	-10.0337
▁motenehua	-10.0337
▁allows	-10.0345
huic	-10.0345
▁mental	-10.0347
▁brains	-10.035
▁emotional	-10.0356
▁waste	-10.0357
▁machines	-10.036
tlalli	-10.0361
▁walked	-10.0363
▁sat	-10.0364
▁aquin	-10.037
iqui	-10.0381
▁private	-10.0387
▁brother	-10.0387
▁testigo	-10.0387
▁worry	-10.0387
▁lu	-10.039
▁bus	-10.0391
▁earth	-10.0392
▁vote	-10.0393
▁income	-10.0394
50	-10.0418
▁solutions	-10.0426
Ijcon	-10.0438
▁threat	-10.0438
▁remarkable	-10.0438
▁roll	-10.0439
▁Ijcon	-10.044
▁points	-10.0449
▁iuan	-10.0455
▁opeu	-10.0461
illi	-10.0469
▁organ	-10.0469
▁balance	-10.049
▁civilization	-10.049
▁immediately	-10.0494
▁niquin	-10.0513
▁scan	-10.0514
huacan	-10.0523
▁Paul	-10.0523
▁violence	-10.0551
▁Her	-10.0551
▁performance	-10.0559
▁Web	-10.0569
▁ci	-10.0573
▁trans	-10.0582
▁que	-10.0583
▁Fa	-10.0584
Nejhua	-10.0593
nahui	-10.0594
▁notion	-10.0596
▁player	-10.0597
▁active	-10.06
▁following	-10.0603
squiaj	-10.061
▁flying	-10.0615
calaqui	-10.0622
▁specific	-10.0623
▁financial	-10.0645
▁respond	-10.0645
▁Ru	-10.0645
▁mistake	-10.0645
▁sihuatl	-10.0646
▁nemilistli	-10.0647
▁fray	-10.0649
ably	-10.0649
cuep	-10.0658
▁term	-10.0658
▁hueyican	-10.0662
▁evolved	-10.0663
▁describe	-10.0665
ula	-10.0669
our	-10.0686
▁camp	-10.0689
cul	-10.0691
▁improve	-10.0695
▁babies	-10.0698
▁various	-10.0698
▁vehicle	-10.0698
▁Israel	-10.0698
▁Second	-10.0698
▁emerge	-10.0698
▁adapt	-10.0698
▁biological	-10.0698
▁summer	-10.0698
tlatol	-10.0703
▁itlanahuatil	-10.0704
▁ticchihua	-10.0705
▁aid	-10.0722
▁xiuitl	-10.0723
tlalia	-10.0723
▁clearly	-10.0727
atzin	-10.0741
pohualli	-10.0742
▁Western	-10.075
entertainment	-10.0751
sequimej	-10.0753
hueli	-10.0756
▁throughout	-10.076
▁quito	-10.0764
▁catch	-10.0766
▁decide	-10.0768
▁quitemaca	-10.0769
cayo	-10.0785
▁equal	-10.0787
▁seat	-10.0791
▁cual	-10.0793
▁Wi	-10.0802
▁landscape	-10.0803
▁Two	-10.0803
▁driving	-10.0804
mix	-10.0804
▁xhueli	-10.0807
▁massive	-10.0809
▁sing	-10.0813
life	-10.082
▁raise	-10.0821
▁fold	-10.0828
notz	-10.0834
▁miqui	-10.0839
▁layer	-10.0842
▁dynamic	-10.0856
▁surgery	-10.0856
▁omochiuh	-10.0859
▁decade	-10.086
▁cue	-10.0862
car	-10.0867
▁jobs	-10.0881
loque	-10.0887
í	-10.0892
▁unit	-10.0902
▁hualmo	-10.0909
▁disappear	-10.091
▁totecuiyo	-10.091
▁expert	-10.091
▁pressure	-10.091
▁generate	-10.0911
▁becoming	-10.0911
▁funny	-10.0912
oa	-10.0928
jo	-10.0929
▁engineering	-10.0942
callaqui	-10.0945
▁circle	-10.0964
▁tissue	-10.0964
▁tremendous	-10.0964
▁police	-10.0964
▁University	-10.0964
ó	-10.0967
cuilo	-10.0967
▁boat	-10.0977
▁ytla	-10.0983
▁City	-10.0988
huiyan	-10.0998
▁pen	-10.1005
▁quick	-10.1011
▁fl	-10.1011
▁Afghanistan	-10.1018
▁random	-10.1018
▁production	-10.1025
▁tlal	-10.104
▁net	-10.1041
hand	-10.1044
▁politics	-10.1048
nacayo	-10.1055
tlajtol	-10.1066
▁birth	-10.1071
▁accident	-10.1072
▁understood	-10.1072
temaquixtilistli	-10.1072
▁cor	-10.1093
cahuan	-10.1094
cle	-10.1094
▁trip	-10.1098
▁Americans	-10.1122
vis	-10.1123
▁London	-10.1127
▁include	-10.1127
▁visurrey	-10.1127
▁double	-10.1127
xic	-10.1133
pilli	-10.1136
▁passion	-10.1137
▁neurons	-10.1138
▁500	-10.1141
▁tlacua	-10.1144
▁paint	-10.116
masqui	-10.1163
▁weight	-10.1164
▁waiting	-10.1178
▁brand	-10.1183
▁edge	-10.1183
▁values	-10.1194
▁sad	-10.1209
▁anti	-10.1212
▁semi	-10.1214
quij	-10.1217
pit	-10.1227
▁Richard	-10.1237
▁families	-10.1237
▁saving	-10.1238
uhqui	-10.1248
▁taman	-10.1254
pres	-10.1257
▁leg	-10.1261
▁oyaj	-10.1269
uil	-10.1274
▁prove	-10.1274
▁Aman	-10.128
▁xochi	-10.128
▁career	-10.1285
▁terrible	-10.1292
▁central	-10.1292
▁National	-10.1292
▁atmosphere	-10.1292
▁bridge	-10.1293
tijquej	-10.1295
▁complexity	-10.1298
▁radio	-10.1299
▁lines	-10.1305
▁sold	-10.1329
▁Xi	-10.133
nia	-10.1334
stitution	-10.1344
▁although	-10.1348
▁airplane	-10.1348
▁bodies	-10.1348
▁Huehue	-10.1348
▁straight	-10.135
how	-10.1358
huij	-10.1366
▁useful	-10.1366
▁consumer	-10.1368
▁70	-10.1372
▁teo	-10.1379
▁intelligence	-10.1404
▁oxygen	-10.1404
▁blow	-10.1406
▁flight	-10.1409
▁xquen	-10.141
How	-10.1412
▁partner	-10.1412
quez	-10.1417
▁wire	-10.1419
▁nonequi	-10.1419
▁inspired	-10.142
▁apart	-10.1437
▁mid	-10.1443
▁engine	-10.1445
▁none	-10.1445
▁Your	-10.1445
▁Un	-10.1451
off	-10.1455
▁carry	-10.1456
cuica	-10.1456
▁Middle	-10.1461
▁demand	-10.1461
iuh	-10.1465
Dios	-10.1466
▁cases	-10.1471
head	-10.1477
▁El	-10.151
▁male	-10.1515
▁possibly	-10.1518
▁Iraq	-10.1518
▁article	-10.1518
▁rid	-10.1518
▁profound	-10.1518
▁match	-10.1533
▁interview	-10.1533
▁fail	-10.1544
fer	-10.1552
▁forces	-10.1563
tihui	-10.1571
▁tri	-10.1572
▁effective	-10.1572
▁Imagine	-10.1575
▁tlajtlacojli	-10.1575
▁sister	-10.1578
▁focused	-10.1591
▁oquichiu	-10.1598
▁greatest	-10.1604
huaque	-10.1616
bb	-10.1616
▁obvious	-10.1616
▁weren	-10.1624
▁release	-10.1632
▁memory	-10.1632
▁forget	-10.1634
Why	-10.1639
▁lie	-10.1641
▁Hi	-10.1658
let	-10.1658
▁played	-10.1663
▁tepetl	-10.1668
▁closer	-10.1668
hcuac	-10.1682
▁talks	-10.1687
▁destroy	-10.169
▁president	-10.169
▁cycle	-10.169
▁technique	-10.169
▁bottle	-10.169
▁symbol	-10.169
▁yancuic	-10.169
▁drawing	-10.1694
▁boys	-10.1708
yaca	-10.171
war	-10.1732
huaya	-10.1737
▁express	-10.1738
pohualxihuitl	-10.1742
▁civil	-10.1748
▁argue	-10.1748
▁commercial	-10.1748
▁popular	-10.1748
▁supply	-10.1748
▁method	-10.1748
yauh	-10.1758
▁mark	-10.1762
▁station	-10.1763
▁plane	-10.1765
ima	-10.177
▁tlatla	-10.1774
ef	-10.1789
▁types	-10.1794
▁br	-10.1801
▁damage	-10.1807
▁Sanct	-10.1807
▁laugh	-10.1807
▁wealth	-10.1808
▁bear	-10.1811
▁pack	-10.1822
▁En	-10.1827
▁apply	-10.183
▁produced	-10.1836
▁nahui	-10.1841
▁graph	-10.1842
tlaco	-10.1843
▁beat	-10.1851
▁organisms	-10.1853
▁inin	-10.1854
ase	-10.1854
▁ahead	-10.1856
yec	-10.1858
▁determine	-10.1866
▁distance	-10.1866
▁sample	-10.1866
▁bought	-10.1866
▁nemiya	-10.1868
▁willing	-10.1873
▁directly	-10.1878
▁gene	-10.1898
▁Za	-10.1898
▁omotla	-10.19
▁designers	-10.191
ih	-10.1911
▁Ke	-10.1913
▁speaking	-10.1916
▁loved	-10.1924
▁neighbor	-10.1924
▁Moisés	-10.1925
▁nemechijlia	-10.1925
▁switch	-10.1925
▁xitlaj	-10.1926
▁Ya	-10.193
▁sick	-10.1934
▁nel	-10.1934
▁ypampa	-10.1936
▁Yhuan	-10.1936
jticaj	-10.1938
cuepa	-10.1944
▁seconds	-10.1947
▁motor	-10.1965
▁nemij	-10.1972
tik	-10.1978
▁causes	-10.1978
▁aware	-10.1984
▁España	-10.1984
▁breast	-10.1984
▁failure	-10.1984
▁sector	-10.1984
▁expand	-10.1984
▁occe	-10.2009
▁below	-10.2023
▁component	-10.2044
▁continent	-10.2044
▁justicia	-10.2044
▁teopixque	-10.2044
▁Arab	-10.2045
▁Life	-10.2046
▁omic	-10.2052
tlatla	-10.2054
len	-10.2054
▁spin	-10.2058
▁Dan	-10.2063
term	-10.2064
ampa	-10.207
▁park	-10.2072
▁costs	-10.2099
bin	-10.21
▁architect	-10.2104
▁capacity	-10.2104
▁communicate	-10.2104
▁feature	-10.2104
▁twice	-10.2104
▁kitoka	-10.2104
▁tumor	-10.2104
▁yeyi	-10.2106
▁Ph	-10.2107
▁Today	-10.2108
▁matlac	-10.2111
▁Bi	-10.2112
tlajtlacolmaca	-10.2121
tisquej	-10.2136
nahuac	-10.2139
20	-10.2141
cia	-10.2146
▁engineer	-10.2156
yoan	-10.2157
▁Sp	-10.2158
ham	-10.216
▁eating	-10.2161
▁recent	-10.2164
▁fashion	-10.2165
▁belief	-10.2165
▁momiquilli	-10.2165
▁basis	-10.2165
▁creatures	-10.2166
▁paid	-10.2174
▁levels	-10.2201
▁artists	-10.2216
bar	-10.2217
▁mayor	-10.2221
▁author	-10.2223
▁Jerusalén	-10.2226
▁honest	-10.2226
▁mobile	-10.2226
▁From	-10.2226
▁desire	-10.2226
▁gain	-10.2226
▁poll	-10.2226
ihua	-10.223
▁replace	-10.223
▁ear	-10.2234
tlalij	-10.2236
▁10,000	-10.2237
▁reward	-10.2237
pohua	-10.2239
pla	-10.2245
▁attract	-10.2246
ik	-10.2258
huel	-10.2258
tema	-10.2267
▁molecules	-10.227
▁pop	-10.2286
▁female	-10.2287
▁California	-10.2287
▁Think	-10.2287
▁sensor	-10.2287
▁neighborhood	-10.2288
▁bread	-10.2288
lotl	-10.2298
meter	-10.2306
▁cihua	-10.2307
room	-10.2314
▁loss	-10.2314
tepec	-10.2322
▁hualla	-10.2323
▁ika	-10.2323
tzacu	-10.2325
▁tito	-10.2329
▁tlalticpac	-10.2346
▁nepa	-10.2348
▁Antonio	-10.2349
▁argument	-10.2349
▁crime	-10.2349
▁nohuian	-10.2349
▁chair	-10.2352
▁yuhqui	-10.2354
▁hearing	-10.2354
▁nino	-10.2368
▁era	-10.2372
▁tinemi	-10.2373
mar	-10.2374
▁mostly	-10.2381
▁dad	-10.2381
yc	-10.239
▁quipiaya	-10.2403
▁Abraham	-10.2411
▁target	-10.2411
▁fu	-10.2412
▁sustainable	-10.2413
toquej	-10.2413
▁tetl	-10.2414
▁Fe	-10.2427
▁pig	-10.2429
▁Ex	-10.2439
▁shared	-10.244
rio	-10.2441
▁azo	-10.2457
iving	-10.2457
du	-10.2461
lique	-10.2467
ick	-10.2471
▁scientist	-10.2471
▁xe	-10.2471
▁infrastructure	-10.2474
▁root	-10.2474
▁vast	-10.2474
▁ohual	-10.2479
▁professional	-10.2484
▁mess	-10.2487
▁labor	-10.2488
▁ja	-10.2493
▁mission	-10.2501
ification	-10.2505
▁quote	-10.2511
▁moon	-10.2515
stan	-10.2518
▁total	-10.252
ept	-10.2525
▁doctors	-10.2535
▁Muslim	-10.2536
▁Yectlajcuilojli	-10.2537
▁imagination	-10.2537
▁metaphor	-10.2537
▁shoot	-10.2537
▁ancient	-10.2537
▁yellow	-10.2537
▁operation	-10.2538
▁experiments	-10.2543
▁broken	-10.255
tlauh	-10.2554
▁secan	-10.2568
▁nochihua	-10.2587
mama	-10.2588
calti	-10.2592
▁spirit	-10.2598
▁occur	-10.26
▁miyequej	-10.26
▁xqueman	-10.26
▁divide	-10.26
▁shock	-10.26
▁tough	-10.2607
▁Quauh	-10.2607
yoj	-10.2612
▁challenges	-10.2622
pin	-10.2623
▁gotten	-10.264
▁300	-10.2649
rin	-10.2653
▁event	-10.266
▁elements	-10.2661
yaxca	-10.2663
▁aspect	-10.2663
▁attempt	-10.2663
▁definition	-10.2663
▁responsibility	-10.2663
▁restaurant	-10.2663
▁slightly	-10.2663
▁Nigeria	-10.2664
▁gather	-10.2664
▁sentence	-10.2665
▁institutions	-10.2669
▁choices	-10.2671
dding	-10.2683
▁burn	-10.2692
▁Har	-10.2693
It	-10.2708
ney	-10.271
▁coffee	-10.2728
▁Axcan	-10.2728
▁chichimeca	-10.2728
tsin	-10.2729
tlac	-10.2732
▁nicchihua	-10.2734
▁Yo	-10.2737
▁quix	-10.2758
▁ocon	-10.2785
win	-10.2786
▁tradition	-10.2786
over	-10.2787
quixtili	-10.279
uitl	-10.2792
▁señor	-10.2792
▁email	-10.2792
▁worst	-10.2792
▁huehuetque	-10.2793
▁collective	-10.2796
▁stem	-10.2797
▁hang	-10.2797
▁farmers	-10.2798
▁benefit	-10.28
▁fo	-10.2802
▁nochihuas	-10.2804
tlanahuatil	-10.2805
▁workers	-10.2813
▁birds	-10.2817
▁Sun	-10.2835
▁possibility	-10.2857
tlalili	-10.2861
polihui	-10.2864
▁industrial	-10.2866
▁Am	-10.287
ake	-10.2872
▁interaction	-10.2876
▁wood	-10.2884
right	-10.2901
▁disc	-10.2906
▁quichihuaj	-10.2912
▁prison	-10.2914
lco	-10.2922
▁espíritu	-10.2922
▁Again	-10.2922
▁whale	-10.2922
▁mouth	-10.2923
▁classroom	-10.2923
▁noise	-10.2924
nanquili	-10.2924
▁seemed	-10.2927
▁fan	-10.2929
▁Mochiu	-10.2929
▁Good	-10.2931
▁laws	-10.2932
chix	-10.2935
health	-10.2937
▁fairly	-10.2937
▁prop	-10.2939
pehua	-10.2954
▁chichi	-10.2968
tecpan	-10.2976
▁island	-10.2985
▁necessarily	-10.2988
▁sharing	-10.2988
▁consciousness	-10.299
▁investment	-10.2994
▁Mc	-10.2995
▁españoles	-10.2997
▁published	-10.301
▁ski	-10.302
▁tomin	-10.3024
pic	-10.3025
▁devices	-10.3034
▁Au	-10.3042
ilhui	-10.3045
▁tein	-10.3046
▁noticed	-10.3049
▁cloud	-10.3054
▁competition	-10.3054
▁religious	-10.3054
▁horse	-10.3054
piltzin	-10.3057
aging	-10.306
▁AIDS	-10.3068
▁coral	-10.3074
▁oquitlalij	-10.3078
▁sand	-10.3091
▁Many	-10.3097
ily	-10.3103
next	-10.3107
titlani	-10.3114
▁achtopa	-10.3117
▁afford	-10.3118
▁copy	-10.3121
▁societies	-10.3121
▁smell	-10.3121
▁xon	-10.3121
tlamantli	-10.3123
▁missing	-10.3124
▁services	-10.3125
ltzin	-10.3128
tlamachilis	-10.3135
▁CO	-10.3142
▁Bill	-10.3143
uj	-10.3145
▁cook	-10.3154
▁motlalli	-10.3179
conehuan	-10.3182
▁helped	-10.3182
▁advantage	-10.3188
▁diversity	-10.3188
▁cur	-10.3188
▁degrees	-10.3188
▁contact	-10.3188
▁capture	-10.3189
▁calaqui	-10.319
▁background	-10.3192
pacho	-10.3192
toton	-10.3204
ero	-10.3205
▁states	-10.3208
▁xquin	-10.3222
dimensional	-10.3237
▁studying	-10.3249
▁maj	-10.325
▁Instead	-10.3256
▁majtlactli	-10.3256
▁negative	-10.3256
▁xcuajcualtin	-10.3256
▁onochiu	-10.3256
▁joy	-10.3256
▁remove	-10.3256
▁display	-10.3257
▁campaign	-10.3259
▁stopped	-10.3259
▁rare	-10.3259
▁grand	-10.3259
▁metal	-10.3265
yoc	-10.3266
▁Ge	-10.327
▁lack	-10.3277
▁diseases	-10.3278
chijchiu	-10.3283
▁warm	-10.3284
lani	-10.3286
mate	-10.3302
▁virtual	-10.3308
án	-10.3313
sentlali	-10.3322
▁easily	-10.3324
▁traffic	-10.3324
▁yencuic	-10.3324
▁scene	-10.3324
▁giant	-10.3324
▁María	-10.3325
▁trend	-10.3325
▁—	-10.333
▁oquite	-10.3331
▁flower	-10.3337
▁streets	-10.3348
▁macuil	-10.3348
▁governments	-10.3352
▁gun	-10.3359
▁molecule	-10.336
▁achi	-10.3365
tiliz	-10.3365
▁museum	-10.3392
▁option	-10.3392
▁river	-10.3392
▁particles	-10.3402
tenco	-10.3406
▁stream	-10.3409
tlacaita	-10.3412
aving	-10.3416
▁host	-10.3417
▁helping	-10.343
▁xoqui	-10.3431
▁hate	-10.344
eu	-10.3448
▁effects	-10.3451
queh	-10.3452
▁magazine	-10.3461
▁newspaper	-10.3461
▁correct	-10.3461
▁passed	-10.3462
▁Kualtia	-10.3463
▁sum	-10.3484
grad	-10.3501
▁rat	-10.3506
▁See	-10.3507
pul	-10.351
▁More	-10.3517
▁Wal	-10.3523
▁brilliant	-10.3531
▁collapse	-10.3531
▁addition	-10.3531
▁citizens	-10.3533
huetz	-10.3533
▁moch	-10.3536
bul	-10.354
nantzin	-10.3541
▁Japan	-10.3544
▁huejca	-10.3557
▁Mr	-10.3562
▁condition	-10.3573
pped	-10.3584
▁tail	-10.3589
	-10.3601
▁encourage	-10.3601
▁monkey	-10.3601
▁extend	-10.3601
▁promise	-10.3601
ear	-10.3606
zqui	-10.3612
illa	-10.3613
based	-10.3615
▁tlahtocat	-10.3616
▁electric	-10.3619
▁curve	-10.362
pati	-10.3624
▁breath	-10.3638
▁spending	-10.364
▁networks	-10.3641
▁bird	-10.3644
▁yca	-10.3655
nna	-10.366
ú	-10.3671
▁alternative	-10.3671
▁remote	-10.3672
▁technical	-10.3672
▁coast	-10.3673
▁gap	-10.3676
▁tiquin	-10.3685
▁achtoj	-10.3685
▁forever	-10.3693
▁holding	-10.3698
▁Yehua	-10.3705
▁Han	-10.3707
▁Che	-10.3712
▁coco	-10.3728
huaz	-10.3728
▁colleagues	-10.3731
▁decades	-10.3737
cel	-10.374
▁application	-10.3742
▁strength	-10.3742
▁desert	-10.3742
▁oyajquej	-10.3747
▁itlajtol	-10.3755
ox	-10.3762
▁fully	-10.3763
▁nitla	-10.3772
▁Ynic	-10.3776
▁sorry	-10.3778
▁grade	-10.3784
ku	-10.3784
▁Pe	-10.3786
nen	-10.3794
▁fair	-10.3801
cti	-10.3804
nemilis	-10.3806
30	-10.3808
▁fascinating	-10.3813
▁speech	-10.3813
▁Great	-10.3813
▁string	-10.3817
▁programs	-10.3829
▁Big	-10.383
▁figured	-10.3836
▁engage	-10.3846
▁tu	-10.385
▁highly	-10.3858
state	-10.3882
▁puzzle	-10.3885
▁cartoon	-10.3885
▁reveal	-10.3886
▁tocnihuan	-10.3886
▁signal	-10.3886
▁repeat	-10.3887
▁kampa	-10.3887
▁dollar	-10.3887
▁election	-10.3892
▁Very	-10.3895
▁crowd	-10.3902
▁flat	-10.3916
▁markets	-10.3922
hca	-10.3924
▁oquim	-10.3927
uff	-10.3932
Tajtzin	-10.3938
▁legal	-10.3943
mitl	-10.3944
▁opportunities	-10.3958
▁penguin	-10.3958
▁universal	-10.3958
▁creation	-10.3958
▁roof	-10.3958
▁recover	-10.3959
▁clip	-10.3959
▁independent	-10.3959
▁novel	-10.3959
▁nimantzin	-10.396
▁1,000	-10.3961
itl	-10.3964
quich	-10.3967
▁enable	-10.3971
▁oquijlijquej	-10.3971
▁Take	-10.3975
▁Ijcuacon	-10.3981
▁emotions	-10.3987
▁organic	-10.3994
▁fill	-10.4
▁suit	-10.4003
▁adult	-10.4007
lam	-10.4017
teu	-10.4019
tlahtol	-10.402
▁tax	-10.403
▁ecosystem	-10.4031
▁tiopixquej	-10.4031
▁avoid	-10.4031
▁adopt	-10.4031
▁chicahuac	-10.4032
▁Cor	-10.4033
▁yzqui	-10.404
▁profit	-10.4049
zqueh	-10.4052
▁lay	-10.4058
▁turning	-10.4066
gh	-10.4068
lijquej	-10.4069
Tlen	-10.4074
▁related	-10.4075
udi	-10.4086
▁xic	-10.4089
tlacamati	-10.4102
▁Darwin	-10.4104
▁French	-10.4104
▁crash	-10.4104
▁radical	-10.4106
▁harm	-10.4107
▁caught	-10.411
▁mouse	-10.4122
gar	-10.4123
▁spec	-10.413
▁slowly	-10.4139
▁Ben	-10.4156
oni	-10.4159
▁motion	-10.4162
▁benefits	-10.417
çi	-10.4171
▁meat	-10.4173
▁Culhuacan	-10.4178
▁broad	-10.4178
▁husband	-10.4178
▁vaccine	-10.4178
▁wisdom	-10.4178
▁honor	-10.4179
▁odd	-10.4182
▁electronic	-10.4182
▁differently	-10.4187
▁insight	-10.419
▁nehuatl	-10.4194
▁north	-10.4195
▁designer	-10.4197
▁huehue	-10.4214
▁hero	-10.4225
▁galaxies	-10.4253
▁translate	-10.4254
▁dying	-10.4254
▁sugar	-10.4254
▁izqui	-10.4263
▁theater	-10.4267
▁35	-10.4272
▁iron	-10.4275
▁writer	-10.4277
matquej	-10.4289
mani	-10.4291
▁warming	-10.4294
▁events	-10.4296
gel	-10.4303
loz	-10.4303
xico	-10.4305
▁pet	-10.4306
▁cada	-10.4307
▁extreme	-10.4312
▁sudden	-10.4312
nahuatia	-10.4314
▁Ko	-10.4317
▁intelligent	-10.4328
▁versus	-10.4328
▁location	-10.4328
▁British	-10.4329
▁Sal	-10.433
▁unlike	-10.4335
▁driver	-10.4337
hu	-10.4341
▁chicome	-10.4341
▁expression	-10.4342
▁engineers	-10.4351
ounce	-10.4353
▁invention	-10.4361
tatzin	-10.4365
▁statistics	-10.4371
uia	-10.4388
▁circuit	-10.4404
▁diablo	-10.4404
▁graduate	-10.4404
▁stuck	-10.4404
▁Sometimes	-10.4404
▁Everybody	-10.4404
▁conduct	-10.4407
▁Ah	-10.441
cuili	-10.4418
popo	-10.4424
▁title	-10.4425
This	-10.4429
pacti	-10.4439
▁400	-10.4457
▁origin	-10.4458
▁cow	-10.4462
▁150	-10.4463
petla	-10.4465
▁teopan	-10.4466
▁demo	-10.447
gging	-10.4475
▁leading	-10.4475
ough	-10.4477
▁Actually	-10.448
▁Einstein	-10.448
▁algorithm	-10.448
▁phenomenon	-10.448
▁pleasure	-10.448
▁garden	-10.448
▁lunch	-10.448
▁governador	-10.448
▁smile	-10.4481
▁insects	-10.4484
▁reaction	-10.4492
iga	-10.4497
▁date	-10.4507
▁barco	-10.451
▁finish	-10.4526
95	-10.4526
▁opened	-10.4527
vin	-10.4532
read	-10.4534
patla	-10.4534
▁coal	-10.4546
▁cry	-10.4546
▁Any	-10.4552
▁afraid	-10.4557
▁budget	-10.4557
▁laptop	-10.4557
▁previous	-10.4557
▁bright	-10.456
▁acico	-10.456
▁umpa	-10.456
▁efficient	-10.4573
▁Oc	-10.4576
▁Did	-10.4586
oso	-10.4594
▁surprise	-10.4599
▁quima	-10.4616
▁weapons	-10.4623
yohui	-10.4634
▁Charles	-10.4635
▁Washington	-10.4635
▁artificial	-10.4635
▁equivalent	-10.4635
▁perception	-10.4635
▁satellite	-10.4635
▁crack	-10.4635
▁gift	-10.4635
▁ride	-10.4635
▁debate	-10.4635
▁oquitla	-10.4638
▁weird	-10.4639
hnozo	-10.464
tract	-10.4653
liaya	-10.4657
tecatl	-10.4665
▁suffering	-10.4666
namic	-10.4666
▁nearly	-10.4668
poli	-10.467
▁pages	-10.4678
▁Ana	-10.468
▁yehua	-10.4686
▁trained	-10.4695
ological	-10.4696
▁entirely	-10.4696
▁core	-10.47
▁principle	-10.471
▁grandmother	-10.4713
▁opposite	-10.4713
▁practical	-10.4713
▁struggle	-10.4713
▁foreign	-10.4713
▁interface	-10.4713
▁planning	-10.4716
▁capable	-10.4718
oyotica	-10.4719
▁lucky	-10.4724
▁chain	-10.4734
▁party	-10.4737
▁stone	-10.474
▁taste	-10.4741
▁importantly	-10.4752
▁direct	-10.4756
▁iuhqui	-10.4776
point	-10.4781
▁oquito	-10.4784
▁degree	-10.4791
▁escribano	-10.4792
▁galaxy	-10.4792
▁necessary	-10.4792
▁omomiquilli	-10.4792
▁victim	-10.4792
▁MIT	-10.4792
▁opinion	-10.4792
▁fresh	-10.4792
▁childhood	-10.4793
▁grab	-10.4796
▁everyday	-10.4802
▁shoes	-10.4812
▁chica	-10.4813
▁concerned	-10.4817
▁discovery	-10.4823
▁row	-10.4833
znequi	-10.4837
tzitzin	-10.4838
CA	-10.4853
▁members	-10.4854
▁detect	-10.4854
arian	-10.4855
▁Islam	-10.487
▁easier	-10.4871
▁error	-10.4871
▁prefer	-10.4873
▁outcome	-10.4875
▁tlacpac	-10.4877
▁transformation	-10.4879
scale	-10.4881
▁hunt	-10.4884
iv	-10.4891
loni	-10.4902
▁ring	-10.4905
huilli	-10.4905
▁foundation	-10.4916
▁pin	-10.4918
chil	-10.4934
▁construct	-10.4945
¿	-10.4948
▁faith	-10.4951
▁identity	-10.4951
▁pueblo	-10.4951
▁claim	-10.4951
▁Kenya	-10.4951
▁chart	-10.4958
▁drag	-10.4958
▁dimensions	-10.4959
▁icuac	-10.4968
▁European	-10.4968
▁myth	-10.4968
tican	-10.4975
▁tag	-10.4976
¡	-10.4978
▁Santa	-10.4982
▁organizations	-10.4987
▁chanti	-10.4994
iliz	-10.4995
▁master	-10.5003
▁fighting	-10.5014
▁Nic	-10.5019
xayac	-10.502
tepe	-10.5025
▁estimate	-10.5032
▁platform	-10.5032
▁responsible	-10.5032
▁truck	-10.5032
▁Cruz	-10.5032
▁tequitl	-10.5033
▁Amaquemecan	-10.5033
▁shop	-10.5038
▁leads	-10.5043
▁grown	-10.5045
If	-10.5047
▁clinical	-10.5049
▁meters	-10.5053
▁highest	-10.5055
▁chil	-10.5056
▁finished	-10.5064
water	-10.5071
▁justice	-10.5075
▁Have	-10.5078
mark	-10.5085
cuic	-10.5087
▁español	-10.5102
▁Nochi	-10.5104
▁graphic	-10.5108
▁achto	-10.511
▁malaria	-10.5113
▁stress	-10.5113
▁operating	-10.5115
▁sexual	-10.5117
▁bag	-10.5118
rie	-10.5118
▁Art	-10.5122
▁Over	-10.5128
▁Yejhuamej	-10.5136
▁adults	-10.514
lum	-10.5147
▁perfectly	-10.5153
▁impan	-10.5159
▁deeply	-10.5167
▁compared	-10.5169
calco	-10.5171
▁pill	-10.5173
olo	-10.5174
hoan	-10.5176
▁quiet	-10.5184
▁Audience	-10.5195
▁Hernandez	-10.5195
▁demonstrate	-10.5195
▁mathematics	-10.5195
▁regular	-10.5195
▁studied	-10.5195
▁George	-10.5195
▁dinner	-10.5195
▁xacaj	-10.5195
▁mochintin	-10.5196
▁multiple	-10.5196
▁unfortunately	-10.5199
▁wearing	-10.52
▁majority	-10.5202
▁Qua	-10.5203
▁ultimately	-10.5206
▁pair	-10.521
▁cuauh	-10.5213
▁hell	-10.5234
▁load	-10.5237
▁failed	-10.524
▁hall	-10.5246
▁ical	-10.5248
▁oquichiuh	-10.5261
▁typical	-10.5261
tlalnacayo	-10.5275
▁Joseph	-10.5278
▁bubble	-10.5278
▁distribution	-10.5278
▁tomorrow	-10.5278
▁vessel	-10.5278
▁chicken	-10.5278
▁silk	-10.5278
▁oración	-10.5278
▁round	-10.5278
▁oncatca	-10.5278
▁dress	-10.5278
tlatqui	-10.5279
▁160	-10.5286
▁Times	-10.5287
▁dias	-10.5296
▁Sancto	-10.5299
▁operate	-10.5303
bor	-10.531
power	-10.531
▁photos	-10.531
Hey	-10.5316
▁Once	-10.532
nime	-10.5325
llique	-10.5352
▁Du	-10.5357
nonotza	-10.5357
▁swim	-10.5361
▁intellectual	-10.5361
▁equation	-10.5361
▁leaving	-10.5362
▁Anyway	-10.5362
▁iteyo	-10.537
▁cast	-10.5379
▁resource	-10.5384
ualtia	-10.5386
▁nemiyaj	-10.5391
▁quisa	-10.5398
▁Nor	-10.5402
▁quech	-10.5404
machtij	-10.541
uhtli	-10.5417
▁classic	-10.5423
euh	-10.5432
▁discuss	-10.5436
choca	-10.5437
cneli	-10.5444
▁agriculture	-10.5445
▁hueyixticaj	-10.5445
▁survival	-10.5445
▁xhebreos	-10.5445
▁channel	-10.5445
▁disaster	-10.5445
Aman	-10.5445
▁losing	-10.5449
▁contract	-10.5449
▁Island	-10.5455
▁ticpia	-10.5458
▁oquitac	-10.546
▁dive	-10.5461
▁rev	-10.5465
bit	-10.5471
place	-10.5479
▁seriously	-10.5482
teneuh	-10.5489
▁define	-10.5494
berg	-10.5501
▁auto	-10.5501
▁quauh	-10.5512
▁toward	-10.5523
▁99	-10.5527
▁nelli	-10.5527
▁Michael	-10.553
▁Thomas	-10.553
▁mirror	-10.553
▁quiniento	-10.553
▁stupid	-10.553
▁worried	-10.553
tzajtzi	-10.553
▁exchange	-10.553
▁chemistry	-10.5531
▁curious	-10.5531
▁weather	-10.5531
▁hopefully	-10.5531
▁lift	-10.5533
▁discussion	-10.5539
▁poem	-10.5542
▁dinosaurs	-10.5545
▁harder	-10.5545
▁ninemi	-10.5549
▁counter	-10.5563
▁factory	-10.5563
▁believed	-10.5564
▁wa	-10.5568
▁skill	-10.557
pr	-10.5576
▁quiz	-10.5583
malli	-10.5593
▁compare	-10.5602
▁tlaco	-10.5609
tlahuel	-10.5614
▁despite	-10.5615
▁professor	-10.5615
▁click	-10.5615
▁prior	-10.5615
▁pounds	-10.5615
▁aocmo	-10.5616
bro	-10.5617
pper	-10.5624
▁tite	-10.5626
80	-10.5644
tilli	-10.5644
▁conscious	-10.5648
▁held	-10.5648
yah	-10.5648
▁ants	-10.5656
▁normally	-10.5659
vision	-10.5664
▁described	-10.5674
▁xne	-10.5674
▁electrical	-10.5675
lau	-10.5684
now	-10.569
▁treated	-10.5698
▁Nejhua	-10.5701
▁succeed	-10.5701
▁Pakistan	-10.5701
▁arçobispo	-10.5701
▁exercise	-10.5701
▁nervous	-10.5701
▁politician	-10.5701
▁surgeon	-10.5701
▁nurse	-10.5701
▁corruption	-10.5703
▁attach	-10.5703
▁followed	-10.5703
▁niquitohua	-10.5704
▁principles	-10.5705
▁proud	-10.5707
well	-10.571
60	-10.5713
▁chip	-10.5718
motlahtocatlalli	-10.5729
▁manage	-10.5731
▁oquima	-10.5731
range	-10.5738
▁tlama	-10.5747
▁xni	-10.575
He	-10.5754
▁Does	-10.5755
▁raised	-10.576
▁actor	-10.5763
▁closed	-10.5778
▁ideal	-10.5778
▁frame	-10.5788
▁Brazil	-10.5788
▁marriage	-10.5788
▁volunteer	-10.5788
▁yesterday	-10.5788
▁empower	-10.5788
▁joke	-10.5788
▁mechanism	-10.5788
▁oyuh	-10.5789
▁dozen	-10.5789
▁nan	-10.5791
▁tribe	-10.5791
▁2,000	-10.5791
▁peak	-10.5793
▁logic	-10.5794
▁desk	-10.5795
▁construction	-10.5795
▁band	-10.5795
rob	-10.58
▁bull	-10.5807
▁neuro	-10.581
▁ka	-10.5819
▁signals	-10.5823
▁managed	-10.5824
▁designing	-10.5826
▁soldiers	-10.5834
▁Ten	-10.584
▁involve	-10.584
▁launch	-10.5845
▁fourth	-10.5847
▁Tu	-10.5871
▁tape	-10.5875
▁fell	-10.5876
▁ancestor	-10.5876
▁border	-10.5876
▁incentive	-10.5876
▁hydrogen	-10.5877
▁fellow	-10.5877
▁awful	-10.5878
tocayotia	-10.5878
▁Luis	-10.5883
▁quimaca	-10.5883
▁nicmati	-10.5885
▁icon	-10.5887
▁constantly	-10.5887
▁Would	-10.589
▁presentation	-10.5894
▁invited	-10.5897
ball	-10.5898
cihua	-10.5901
▁noTajtzin	-10.5901
media	-10.5901
▁ilhuitl	-10.5917
▁45	-10.5926
hood	-10.5931
xochi	-10.5932
▁folks	-10.595
▁weak	-10.5956
▁south	-10.5958
bur	-10.5963
▁Facebook	-10.5964
▁property	-10.5964
▁invisible	-10.5965
▁monitor	-10.5965
▁ordinary	-10.5965
▁rural	-10.5965
▁battle	-10.5965
▁gang	-10.5965
▁plate	-10.5965
▁rap	-10.5967
▁solid	-10.5968
▁tlaneltocaquej	-10.5968
▁pray	-10.5969
▁evolutionary	-10.5969
▁otherwise	-10.5969
▁grid	-10.5971
▁zone	-10.5973
▁wine	-10.5975
▁bill	-10.5986
▁soil	-10.5989
▁mentioned	-10.5993
uac	-10.5995
▁nose	-10.6005
▁mode	-10.601
▁tepe	-10.6012
▁quil	-10.6024
Yes	-10.6028
▁clinic	-10.6035
uaya	-10.6037
▁chicue	-10.6041
▁consequences	-10.6043
▁quinmo	-10.6045
▁Angeles	-10.6054
▁contribute	-10.6054
▁economist	-10.6054
▁battery	-10.6054
▁Street	-10.6054
▁medium	-10.6054
▁Chalco	-10.6055
▁Anderson	-10.6055
▁sport	-10.6058
▁hurt	-10.6058
ivity	-10.606
▁reform	-10.6064
▁tube	-10.6066
▁Iran	-10.6083
▁Bra	-10.6089
▁invent	-10.6096
▁suffer	-10.6108
laca	-10.6111
tzontec	-10.6121
▁dig	-10.6129
▁scar	-10.6132
▁select	-10.614
▁Domingo	-10.6144
▁NASA	-10.6144
▁empty	-10.6144
▁Everything	-10.6144
▁sphere	-10.6144
▁lung	-10.6146
▁queman	-10.6152
▁reef	-10.6153
▁comment	-10.6153
▁director	-10.6155
▁miec	-10.6155
quauh	-10.6159
tzatzi	-10.617
politics	-10.6183
▁inner	-10.6184
hin	-10.6188
tene	-10.6189
mol	-10.6191
flu	-10.6196
ohuaya	-10.6198
illo	-10.6199
Can	-10.6202
tlapal	-10.6211
▁Ome	-10.6212
▁spoke	-10.6213
▁dealing	-10.622
▁tap	-10.622
▁Chichimeca	-10.6235
▁spectrum	-10.6235
▁sweet	-10.6235
▁married	-10.6235
▁Three	-10.6235
▁quihto	-10.6236
▁1608	-10.6237
▁pump	-10.6239
▁opening	-10.6239
fish	-10.6245
▁icome	-10.6249
▁tlajli	-10.6267
liztica	-10.6269
▁parent	-10.6288
nehua	-10.6289
▁introduce	-10.6291
tequitquetl	-10.6293
▁keeping	-10.6311
▁businesses	-10.6312
▁leader	-10.6315
▁huajlas	-10.6318
melahua	-10.6322
▁employ	-10.6326
▁abril	-10.6327
▁according	-10.6327
▁epidemic	-10.6327
▁fossil	-10.6327
▁strategy	-10.6327
▁Japanese	-10.6327
▁convert	-10.6328
▁monequiz	-10.6333
▁cognitive	-10.6334
▁However	-10.6334
▁roughly	-10.6336
▁assume	-10.6339
▁sharks	-10.6341
▁arrived	-10.6346
▁initial	-10.6347
▁lifetime	-10.6347
▁orbit	-10.6348
▁aging	-10.636
▁due	-10.6374
▁tequiti	-10.6376
▁chane	-10.638
ngu	-10.6383
tiayaj	-10.6397
▁essential	-10.6403
▁tlami	-10.6404
▁School	-10.6419
▁emerging	-10.6419
▁explanation	-10.6419
▁hidden	-10.6419
▁mathematical	-10.6419
▁possibilities	-10.6419
▁temachtijli	-10.6419
▁spider	-10.6419
storytelling	-10.6419
▁quineltoca	-10.642
▁lady	-10.6428
▁Ci	-10.6429
▁100,000	-10.6431
law	-10.6435
▁emotion	-10.644
char	-10.6451
▁23	-10.6452
org	-10.6464
98	-10.6476
chiua	-10.6485
▁tlahtocati	-10.6491
▁absolute	-10.6497
Que	-10.6508
▁equipment	-10.6513
▁narrative	-10.6513
▁filter	-10.6513
▁worldwide	-10.6513
▁evil	-10.6513
▁admit	-10.6513
▁país	-10.6513
▁passionate	-10.6516
namicti	-10.652
▁quenin	-10.6525
▁aquinon	-10.6526
▁setting	-10.6533
▁pehua	-10.6539
▁van	-10.6545
▁yuhquin	-10.6547
tlamati	-10.6551
▁dry	-10.6554
▁nano	-10.656
house	-10.6561
▁xochitl	-10.6567
yotzin	-10.6567
▁ilhui	-10.6571
chichi	-10.6572
tail	-10.6584
▁paying	-10.6584
huallo	-10.6601
▁optim	-10.6606
▁diet	-10.6606
▁England	-10.6607
▁Twitter	-10.6607
▁Wikipedia	-10.6607
▁abstract	-10.6607
▁disorder	-10.6607
▁studio	-10.6607
▁pocket	-10.6607
▁hyper	-10.6607
▁grain	-10.6607
▁zo	-10.6614
▁wheel	-10.6619
▁quicua	-10.6622
▁acid	-10.6625
macuilli	-10.6635
▁bra	-10.6638
tlama	-10.6641
▁ilhuicactequit	-10.6648
▁motlalia	-10.6649
▁dots	-10.665
▁quitlali	-10.6669
▁consume	-10.6671
▁publish	-10.6671
▁whi	-10.6674
back	-10.6675
graph	-10.6683
▁relative	-10.6686
▁xnech	-10.6691
▁heavy	-10.6702
▁client	-10.6702
▁steel	-10.6702
▁liquid	-10.6702
▁command	-10.6702
▁ojtli	-10.6702
▁juez	-10.6703
▁chalca	-10.6704
▁existence	-10.6706
▁extract	-10.6707
▁react	-10.6709
▁nicnequi	-10.671
▁nima	-10.6711
▁picked	-10.6714
▁carefully	-10.6715
▁omech	-10.672
▁script	-10.6723
▁Their	-10.6723
That	-10.6747
▁surround	-10.6767
enta	-10.6779
uatl	-10.6781
Do	-10.6784
▁huitz	-10.6785
▁processes	-10.6793
▁Institute	-10.6798
▁conclusion	-10.6798
▁establish	-10.6798
▁physicist	-10.6798
▁kilometers	-10.6798
rous	-10.6799
▁James	-10.6799
▁daily	-10.68
▁Oqui	-10.6803
▁shut	-10.6804
print	-10.6806
▁otiqui	-10.6809
▁ijtic	-10.681
▁nozo	-10.6831
▁launched	-10.6833
Nemejhuamej	-10.6844
▁omoteneuhque	-10.6849
▁melt	-10.6853
Yej	-10.6854
▁May	-10.6859
▁advance	-10.686
▁concern	-10.6864
▁mayo	-10.6865
ltic	-10.6866
▁broke	-10.6874
▁opera	-10.6877
▁mention	-10.6878
▁killing	-10.6893
▁Australia	-10.6895
▁Xuarez	-10.6895
▁combination	-10.6895
▁identify	-10.6895
▁mortality	-10.6895
▁producing	-10.6895
▁university	-10.6895
▁maintain	-10.6895
▁sculpture	-10.6895
▁teenage	-10.6895
▁Robert	-10.6896
▁oquitlajtoltij	-10.6896
▁feedback	-10.6896
▁reference	-10.6897
▁rational	-10.6897
▁imixpan	-10.69
▁urge	-10.6903
▁refer	-10.6906
▁poder	-10.6909
▁22	-10.6909
▁musician	-10.691
▁miac	-10.6911
Te	-10.6912
down	-10.6913
▁saved	-10.6914
▁unless	-10.6918
chipahua	-10.6921
▁testing	-10.6921
▁currently	-10.6929
Ijquin	-10.6931
?¿	-10.6931
▁introduced	-10.6933
▁caxtol	-10.6946
yoti	-10.6955
▁relate	-10.6958
▁celebrate	-10.6978
▁molecul	-10.6982
▁soul	-10.6983
▁covered	-10.6984
osphere	-10.6993
▁ingredient	-10.6993
▁stood	-10.6993
▁perceive	-10.6993
▁regard	-10.6993
▁decline	-10.6994
▁talent	-10.6994
▁teeth	-10.6994
▁split	-10.6994
▁Korea	-10.6999
▁27	-10.7
▁leadership	-10.7003
ung	-10.7018
▁input	-10.7034
▁filled	-10.7036
▁TEDx	-10.7037
hop	-10.7038
▁geo	-10.7039
▁King	-10.7041
Quen	-10.7044
▁topic	-10.7045
yehua	-10.7047
▁quintla	-10.7065
▁buying	-10.7067
PA	-10.7067
▁xno	-10.7071
▁Pacific	-10.7092
▁encounter	-10.7092
▁volume	-10.7092
▁balloon	-10.7092
▁computing	-10.7092
▁Frank	-10.7093
▁emissions	-10.7093
▁quino	-10.7093
▁fiber	-10.7093
▁Bank	-10.7096
▁wake	-10.7098
▁season	-10.7099
▁appropriate	-10.7102
▁boom	-10.7103
▁associated	-10.7103
▁suck	-10.7103
▁protection	-10.7106
▁Other	-10.7107
▁belong	-10.7116
▁75	-10.7132
social	-10.7141
▁soft	-10.7149
▁limited	-10.7157
▁shark	-10.7177
▁entertainment	-10.7192
▁gravity	-10.7192
▁importance	-10.7192
▁inspiration	-10.7192
▁prototype	-10.7192
▁underneath	-10.7192
▁valuable	-10.7192
▁oquitaquej	-10.7193
▁Christian	-10.7193
▁buck	-10.7193
▁lawyer	-10.7193
▁primary	-10.7193
▁cequintin	-10.7193
put	-10.7194
▁radiation	-10.7196
▁spring	-10.7197
▁rocket	-10.72
▁cutting	-10.7204
▁Come	-10.7218
▁mile	-10.7221
education	-10.7242
[	-10.7242
public	-10.7242
▁Rob	-10.7245
pixque	-10.7248
▁mone	-10.7272
▁nohuan	-10.7283
part	-10.7289
▁Bur	-10.7289
▁Harvard	-10.7293
▁appreciate	-10.7293
▁tlamandarohua	-10.7293
▁monamaca	-10.7293
▁official	-10.7293
▁credit	-10.7294
▁score	-10.7294
▁III	-10.7295
▁guide	-10.7295
▁quiselia	-10.7295
▁specifically	-10.7296
▁cuix	-10.7297
▁reverse	-10.7299
▁earn	-10.7302
▁shall	-10.7303
▁solved	-10.7304
▁tie	-10.7308
▁quichi	-10.731
▁flip	-10.7311
hqueh	-10.7317
tron	-10.732
▁effectively	-10.7322
15	-10.7327
rai	-10.7343
▁prediction	-10.7343
▁icce	-10.7343
tizque	-10.735
ceppa	-10.735
new	-10.7356
▁evolve	-10.736
▁singing	-10.7364
ppa	-10.7371
▁Tlacatl	-10.7371
xiuhtzin	-10.7373
▁considered	-10.7373
tzitzintin	-10.7395
▁Green	-10.7395
gger	-10.7395
▁definitely	-10.7395
▁Britain	-10.7396
▁infinite	-10.7396
▁status	-10.7396
▁limb	-10.7396
▁Prize	-10.7396
▁nerve	-10.7397
quilli	-10.7397
▁court	-10.7398
▁omitz	-10.7398
▁alien	-10.74
▁loud	-10.74
▁safety	-10.7401
▁saquin	-10.7402
▁rapidly	-10.7404
▁increasingly	-10.7411
pitza	-10.7412
▁viruses	-10.7417
▁kick	-10.7423
▁organized	-10.7427
11	-10.7437
▁ximo	-10.7441
source	-10.7442
load	-10.7444
foot	-10.7447
matica	-10.7449
▁shoulder	-10.7452
gged	-10.7452
▁convince	-10.7463
die	-10.7469
▁nentla	-10.7472
uak	-10.7477
▁selling	-10.7493
▁Gi	-10.7495
▁YouTube	-10.7499
▁accurate	-10.7499
▁escrivano	-10.7499
▁variety	-10.7499
▁yolsehuilistli	-10.7499
▁quarter	-10.7499
▁clever	-10.7499
▁branch	-10.7499
▁drill	-10.7499
▁firm	-10.7499
▁intzajlan	-10.7499
▁strip	-10.7502
▁―¡	-10.7502
▁teconeu	-10.7502
▁tank	-10.7504
tzontli	-10.7507
Wow	-10.7507
ography	-10.7509
▁Pri	-10.7514
▁tlamach	-10.7515
▁nest	-10.7525
▁hip	-10.7529
noço	-10.7531
phy	-10.7536
cular	-10.7538
view	-10.7545
ken	-10.7561
Mo	-10.757
xima	-10.758
ador	-10.7586
▁pure	-10.7586
▁marketing	-10.7593
▁creature	-10.76
▁driven	-10.7601
▁depression	-10.7603
▁distinct	-10.7603
▁Women	-10.7603
▁itlamian	-10.7603
▁facing	-10.7603
▁Center	-10.7603
ibility	-10.7603
▁rescue	-10.7604
▁itequiu	-10.7605
encia	-10.7608
▁winter	-10.7609
▁dios	-10.7613
▁sending	-10.7613
▁king	-10.7622
▁collaboration	-10.763
tok	-10.7655
lloque	-10.7659
Look	-10.766
making	-10.7696
▁relation	-10.7707
▁President	-10.7708
▁consumption	-10.7708
▁telescope	-10.7708
▁Science	-10.7708
▁stock	-10.7708
▁plot	-10.7709
▁zoom	-10.7709
▁critic	-10.7714
12	-10.7715
▁ihtic	-10.7716
human	-10.7725
▁statement	-10.7728
uthern	-10.7731
▁Red	-10.7739
macehual	-10.7752
▁handle	-10.7757
▁generally	-10.7761
business	-10.7763
▁cooking	-10.7765
▁tall	-10.777
▁tip	-10.7778
tinen	-10.778
▁Boy	-10.7783
cuecue	-10.7783
▁Tlaco	-10.7783
atory	-10.7796
▁personally	-10.7798
▁button	-10.7799
▁Act	-10.7805
▁vent	-10.7806
▁yohua	-10.7808
▁comfort	-10.7811
ticpac	-10.7812
▁computation	-10.7814
▁observation	-10.7814
▁paradigm	-10.7814
▁participate	-10.7814
▁motlalilia	-10.7814
▁transmit	-10.7815
▁element	-10.7817
tlahtocauh	-10.7819
▁loop	-10.7821
tlica	-10.7823
▁Last	-10.7826
▁hotel	-10.7827
▁label	-10.7829
▁relatively	-10.7832
oid	-10.784
▁received	-10.7848
ilican	-10.7862
94	-10.7863
▁teu	-10.787
half	-10.7871
▁customer	-10.7873
▁Sch	-10.7874
cuahuitl	-10.7882
▁suppose	-10.7886
▁quipiaj	-10.7889
ción	-10.789
▁increasing	-10.7906
▁arch	-10.7909
verse	-10.7912
▁tehuan	-10.792
▁pulled	-10.792
▁analysis	-10.7922
▁kitchen	-10.7922
▁length	-10.7922
▁trillion	-10.7922
▁xchihuacan	-10.7922
▁style	-10.7922
▁ocachi	-10.7922
▁Xoco	-10.7923
▁tinech	-10.7924
▁1960	-10.7925
▁hualehua	-10.7927
▁mono	-10.7929
▁dense	-10.793
▁crop	-10.793
▁Jack	-10.7937
rise	-10.7937
del	-10.7939
▁infected	-10.7942
▁exploration	-10.7943
▁Ab	-10.7943
▁Gold	-10.7944
▁quinhual	-10.7949
▁gold	-10.7957
▁26	-10.7958
▁journalist	-10.7961
caxtolli	-10.7974
▁forced	-10.7978
tories	-10.7984
▁wondering	-10.8014
▁ignore	-10.8016
▁added	-10.8023
▁1990	-10.8031
▁embrace	-10.8031
▁telephone	-10.8031
yectenehua	-10.8031
▁employees	-10.8031
▁framework	-10.8031
▁propose	-10.8032
tlajtlacolhuan	-10.8034
▁quimicti	-10.8035
▁ought	-10.8038
▁rot	-10.8039
titech	-10.8041
▁instant	-10.8041
▁expected	-10.8044
▁iconehuan	-10.8044
▁Human	-10.8046
juak	-10.8066
▁convinced	-10.8068
▁XI	-10.8071
▁comic	-10.8076
pix	-10.8076
▁xtla	-10.8077
▁surprised	-10.8081
▁quimon	-10.8083
▁deeper	-10.8088
engineer	-10.8089
calac	-10.8093
▁ychan	-10.8095
book	-10.8101
▁affected	-10.8116
loya	-10.8129
▁beach	-10.8129
▁danger	-10.8139
▁circumstance	-10.8141
▁destruction	-10.8141
▁privilege	-10.8141
▁survey	-10.8141
▁symptom	-10.8141
▁technological	-10.8141
▁cortex	-10.8141
▁grass	-10.8141
Tlica	-10.8141
▁doubt	-10.8141
▁spiritual	-10.8144
▁clock	-10.8144
▁hueyilistli	-10.8145
▁wrap	-10.8149
htic	-10.815
▁omemej	-10.8151
▁prepared	-10.8157
▁ticmati	-10.8157
▁State	-10.8171
▁Tim	-10.8183
▁angle	-10.8188
q	-10.8197
music	-10.8201
▁AB	-10.8205
▁historical	-10.8206
▁upper	-10.8225
huetzi	-10.8226
▁Steve	-10.8231
xoxo	-10.8242
kak	-10.8245
tlapacho	-10.8246
▁harvest	-10.8252
▁mosquito	-10.8252
▁inyojlo	-10.8252
▁swimming	-10.8252
▁occurred	-10.8252
▁predator	-10.8252
▁polio	-10.8252
▁biologist	-10.8253
▁snow	-10.8254
▁analog	-10.8254
▁internal	-10.8254
▁comfortable	-10.8255
▁selection	-10.8257
▁lens	-10.8258
grade	-10.8261
▁illusion	-10.8262
▁musical	-10.8263
▁watched	-10.8274
▁exception	-10.8275
paneca	-10.8281
▁researchers	-10.8282
erial	-10.8283
duct	-10.8295
huehue	-10.8297
▁behavioral	-10.8298
▁kite	-10.8306
▁acting	-10.831
▁Nemejhuamej	-10.8311
▁cable	-10.8322
▁Air	-10.8336
▁cup	-10.8336
▁German	-10.8346
play	-10.8348
▁breathe	-10.8358
▁dish	-10.8359
▁Tom	-10.836
rick	-10.8362
▁fabric	-10.8364
▁library	-10.8364
▁magestad	-10.8364
▁transplant	-10.8364
▁unusual	-10.8364
▁variation	-10.8364
▁Gulf	-10.8364
▁calculate	-10.8364
▁transition	-10.8364
▁educate	-10.8364
▁birthday	-10.8365
▁atoms	-10.8369
▁cuica	-10.837
▁review	-10.837
omb	-10.8372
▁inamic	-10.8379
▁quiza	-10.8387
▁xipan	-10.8387
▁member	-10.8389
nepantla	-10.8389
▁organism	-10.839
▁quitohua	-10.8391
▁nicpia	-10.8399
▁habit	-10.8407
tontli	-10.8419
▁bike	-10.8419
▁matlactli	-10.842
Okay	-10.8426
▁carrying	-10.8437
▁bath	-10.8438
▁receive	-10.8442
lalcahui	-10.8461
▁ultimate	-10.8462
▁Cal	-10.8466
▁sustain	-10.8474
▁quicui	-10.8474
<	-10.8478
>	-10.8478
▁Project	-10.8478
▁September	-10.8478
▁assumption	-10.8478
▁democratic	-10.8478
▁domingo	-10.8478
▁visible	-10.8478
▁section	-10.8478
tlajpalo	-10.8478
▁padre	-10.8479
▁apóstoles	-10.8479
▁oquiselij	-10.8483
pilo	-10.8483
▁2008	-10.8485
▁traveling	-10.8486
▁robotic	-10.8487
▁32	-10.85
▁typically	-10.85
▁cure	-10.8502
▁psychology	-10.851
▁Five	-10.8522
rich	-10.8525
▁falling	-10.8533
▁mach	-10.8539
Yeah	-10.8541
gie	-10.8549
▁uncan	-10.856
▁fewer	-10.8562
nemilia	-10.8576
tlazo	-10.8576
xpantzinco	-10.8589
cuauh	-10.8589
▁favor	-10.8592
▁correspond	-10.8593
▁GDP	-10.8593
▁adventure	-10.8593
▁cemilhuitl	-10.8593
▁church	-10.8593
▁pollution	-10.8593
▁properties	-10.8593
▁tiotlajtojquej	-10.8593
▁therapy	-10.8593
▁instruction	-10.8593
▁iyojlo	-10.8593
▁temachtijquej	-10.8593
▁Basically	-10.8593
▁gentlemen	-10.8593
▁intense	-10.8593
▁flash	-10.8595
▁characteristic	-10.8595
▁commitment	-10.8595
▁pitch	-10.8597
▁hoping	-10.8597
▁boring	-10.8598
▁controlled	-10.8599
yecana	-10.86
▁3,000	-10.86
▁bug	-10.8605
▁194	-10.8612
matztoquej	-10.863
▁advanced	-10.8635
matlactli	-10.8657
Z	-10.8658
lhuia	-10.8664
ulation	-10.8683
▁naturally	-10.8687
▁Mark	-10.8691
▁tepan	-10.8693
▁thin	-10.8705
▁tlaneltoca	-10.8707
▁efficiency	-10.8709
▁integrate	-10.8709
▁stretch	-10.8709
▁Canada	-10.8709
▁asteroid	-10.8709
▁Could	-10.8709
▁Bush	-10.8709
▁shame	-10.8709
▁tleyn	-10.8709
lticpactlacamej	-10.8709
▁wireless	-10.8712
▁5,000	-10.8713
▁cheat	-10.8716
▁poetry	-10.8727
▁pilot	-10.8728
fusion	-10.8737
▁nocon	-10.8757
terior	-10.8758
▁height	-10.877
▁apple	-10.8773
medicine	-10.8775
▁compar	-10.8799
cpac	-10.8806
▁pile	-10.8806
ín	-10.8811
ague	-10.8815
▁collaborat	-10.8818
▁transport	-10.8823
▁activities	-10.8826
▁lecture	-10.8826
▁relevant	-10.8826
▁sophisticated	-10.8826
▁tiotlajtojquetl	-10.8826
▁sancto	-10.8827
▁behave	-10.8827
▁parallel	-10.8827
▁yece	-10.8829
▁exhibition	-10.883
▁Sea	-10.8831
▁severe	-10.8831
tlajtlacol	-10.8834
▁productive	-10.8838
tlahuelita	-10.884
under	-10.8874
maker	-10.889
▁sheet	-10.8922
▁icniu	-10.8929
▁observe	-10.8946
▁phenomena	-10.8946
▁fortunate	-10.8946
▁monamaka	-10.8946
▁vegetable	-10.8946
▁Chicago	-10.8946
▁animation	-10.8946
xoxotoni	-10.8946
▁repair	-10.8946
▁applied	-10.8946
▁steal	-10.8946
▁komo	-10.8946
▁spill	-10.8946
▁piano	-10.8946
▁presence	-10.8946
▁activat	-10.8946
▁sesek	-10.8946
▁teotlac	-10.8946
icnihuan	-10.8947
▁dropped	-10.8948
▁confront	-10.8948
▁chanejquej	-10.8951
▁infection	-10.8956
▁pollen	-10.8957
▁ejemplo	-10.8957
▁65	-10.8961
▁2000	-10.8962
▁philosophy	-10.8963
▁kuouit	-10.8964
chilli	-10.8965
cayotl	-10.8966
▁panel	-10.8966
ppy	-10.8968
▁Law	-10.897
Cuix	-10.897
▁nenquin	-10.8996
▁statistic	-10.8998
ridge	-10.9005
▁unca	-10.9006
mission	-10.9011
third	-10.9015
bble	-10.9025
fully	-10.9029
▁fishing	-10.9034
▁ticte	-10.9037
polohua	-10.904
▁protected	-10.9052
▁impress	-10.9058
▁huejhueyi	-10.9066
resolution	-10.9066
▁deploy	-10.9066
▁mathematician	-10.9066
▁nemoyojlo	-10.9066
▁vulnerable	-10.9066
▁witness	-10.9066
▁xonacatl	-10.9066
▁fruit	-10.9066
▁flies	-10.9069
▁xnen	-10.9071
▁Four	-10.9073
nny	-10.9073
ihqui	-10.908
▁oquijtojquej	-10.9082
▁nohuica	-10.9085
▁hide	-10.9087
▁Will	-10.9089
▁poster	-10.9095
TE	-10.9096
tiaz	-10.9099
xochitl	-10.9104
▁busy	-10.9109
▁explained	-10.9112
▁Pol	-10.9114
▁defined	-10.9117
▁cente	-10.9129
peuh	-10.9141
▁combine	-10.9152
▁former	-10.9162
▁Day	-10.9167
mauhti	-10.9167
▁younger	-10.9175
▁exact	-10.9177
▁TEDTalk	-10.9188
▁Congress	-10.9188
▁advice	-10.9188
▁continuous	-10.9188
▁revenue	-10.9188
▁sihuamej	-10.9188
▁diagram	-10.9188
▁regime	-10.9188
▁ipoder	-10.9188
tlajtlanilia	-10.9188
▁afternoon	-10.9188
▁prize	-10.9188
▁session	-10.9188
▁transfer	-10.9189
▁unknown	-10.9189
Tejhua	-10.919
▁management	-10.9193
▁tuna	-10.9195
▁sight	-10.9195
▁clothes	-10.9197
action	-10.9199
▁quitlacamati	-10.92
▁onenqui	-10.9203
▁Tlaca	-10.9204
▁Mor	-10.9213
▁iconeu	-10.9221
▁xte	-10.9222
▁percentage	-10.9235
▁fundamentally	-10.9235
▁poet	-10.924
▁corn	-10.925
teyacan	-10.9263
▁onkak	-10.9266
▁habitat	-10.9266
▁Bang	-10.9274
▁constant	-10.9295
▁luck	-10.9302
▁dramatic	-10.931
kuouj	-10.9311
▁accomplish	-10.9311
▁dancing	-10.9311
▁iPhone	-10.9311
▁ritual	-10.9311
▁unexpected	-10.9311
▁courage	-10.9311
▁heaven	-10.9311
▁implement	-10.9311
▁plug	-10.9311
matzticaj	-10.9311
▁France	-10.9311
▁phase	-10.9311
▁escape	-10.9312
▁thick	-10.9312
▁smoke	-10.9312
tzitzihuan	-10.9314
▁sunlight	-10.9314
▁golf	-10.9314
,500	-10.9318
▁nochihuiyan	-10.9318
▁Also	-10.9321
10	-10.9322
▁reached	-10.9323
▁continued	-10.9323
▁nennech	-10.9326
▁Germany	-10.9332
▁pour	-10.9361
▁nicmaca	-10.9364
▁nonamic	-10.9367
bla	-10.9372
ticac	-10.9377
think	-10.9388
chie	-10.9394
▁required	-10.9405
▁mimic	-10.9413
Ne	-10.9428
▁recorded	-10.9429
▁600	-10.9431
▁increased	-10.9433
tlanahnamic	-10.9436
▁Valley	-10.9436
▁analyze	-10.9436
▁Apple	-10.9436
mahuistili	-10.9437
▁yehica	-10.9437
▁footprint	-10.9437
▁trace	-10.9437
▁Nobody	-10.9439
▁staff	-10.9439
▁Since	-10.9439
nquichihuasquej	-10.9441
▁2007	-10.9444
▁apartment	-10.9445
▁compete	-10.9445
▁Union	-10.9445
▁recording	-10.9448
ught	-10.9448
conetl	-10.945
tzacua	-10.9457
▁hora	-10.9468
▁craft	-10.9482
unclear	-10.9486
▁burning	-10.9508
▁Lab	-10.951
wood	-10.9511
dollar	-10.9511
world	-10.9511
conscious	-10.9511
xiuitl	-10.9517
▁wherever	-10.9522
long	-10.9524
▁Get	-10.9528
▁organize	-10.9531
self	-10.954
▁radi	-10.9541
▁liver	-10.9543
▁challenging	-10.9563
▁disgust	-10.9563
▁physician	-10.9563
▁pyramid	-10.9563
▁tlaxtlahuijli	-10.9563
▁violent	-10.9563
&	-10.9563
▁mimiquej	-10.9563
▁tlaquentli	-10.9563
▁license	-10.9563
▁Quenin	-10.9563
assemble	-10.9563
▁attitude	-10.9563
▁intention	-10.9563
▁implant	-10.9563
▁tlayohua	-10.9565
▁addict	-10.9568
▁awareness	-10.9568
▁fluid	-10.9569
▁fake	-10.957
▁gray	-10.9572
▁polar	-10.9573
▁marine	-10.9574
▁boxes	-10.96
▁quiselis	-10.9602
▁Hy	-10.9608
▁quijto	-10.9611
▁Gene	-10.9613
▁sail	-10.9622
▁engaged	-10.9626
▁tzo	-10.9631
▁agent	-10.9631
But	-10.9648
▁linked	-10.965
nauac	-10.9661
take	-10.9673
To	-10.968
▁largely	-10.9683
▁embarrass	-10.9691
▁centuries	-10.9691
▁chromosome	-10.9691
▁cojnepanojli	-10.9691
▁innovative	-10.9691
▁manufacture	-10.9691
▁manufacturing	-10.9691
▁oninochiu	-10.9691
▁regret	-10.9691
▁romantic	-10.9691
▁reserve	-10.9691
▁Woman	-10.9691
Tlinon	-10.9691
▁depth	-10.9691
▁mihto	-10.9691
▁Park	-10.9692
▁retire	-10.9692
nanquilli	-10.9694
ixmati	-10.97
▁White	-10.9702
▁meaningful	-10.9705
▁electron	-10.9706
puch	-10.9707
▁cents	-10.9707
▁Never	-10.9707
▁quinemilia	-10.9733
cahuilia	-10.9736
piaya	-10.9744
ohuac	-10.9744
▁flag	-10.9747
ç	-10.976
green	-10.977
▁Pan	-10.9778
space	-10.9781
▁wondered	-10.9785
▁weigh	-10.9801
▁closely	-10.9801
ijto	-10.9811
▁edit	-10.9819
▁absorb	-10.9821
)	-10.9821
▁column	-10.9821
▁conclude	-10.9821
▁exponential	-10.9821
▁motivate	-10.9821
▁orchestra	-10.9821
▁nomachtijquej	-10.9821
▁finance	-10.9821
▁poison	-10.9821
▁plus	-10.9821
▁Something	-10.9821
▁mammal	-10.9821
poajli	-10.9821
▁raw	-10.9822
▁patent	-10.9822
▁terrorism	-10.9822
paltzinco	-10.9826
▁somewhat	-10.9828
▁laser	-10.9831
▁DH	-10.9832
▁peuh	-10.9833
▁Bible	-10.9835
▁prisoner	-10.9839
▁iyo	-10.984
▁collection	-10.9842
▁Ypan	-10.9863
▁Part	-10.9871
city	-10.9878
▁physically	-10.9891
▁army	-10.9918
▁brief	-10.9937
▁careful	-10.9951
▁Museum	-10.9953
▁bicycle	-10.9953
▁empathy	-10.9953
▁instinct	-10.9953
▁symmetry	-10.9953
▁tlajcuilolamatl	-10.9953
▁totecuyo	-10.9953
▁Christmas	-10.9953
▁Simón	-10.9953
▁clue	-10.9953
▁department	-10.9953
▁wound	-10.9953
▁Obama	-10.9953
▁enemy	-10.9953
▁vertical	-10.9953
▁Eastern	-10.9953
▁inject	-10.9953
▁underwater	-10.9956
▁centetl	-10.9957
▁Haiti	-10.9958
▁quitqui	-10.9959
▁mochihuaz	-10.9959
Sahara	-10.9961
▁improvement	-10.9962
hour	-10.9966
▁poorest	-10.9968
techcopa	-10.9971
▁output	-10.9976
▁quinmaca	-10.9977
▁humor	-10.9986
▁painful	-10.999
▁existing	-11.0007
▁milk	-11.0011
tlalpan	-11.002
▁Hill	-11.0029
OK	-11.0048
face	-11.0059
▁tune	-11.007
▁photographer	-11.0073
▁tlaxillacal	-11.0083
biodiversity	-11.0086
itzochiyahuizotl	-11.0086
▁academic	-11.0086
▁authentic	-11.0086
▁automatically	-11.0086
▁exploring	-11.0086
▁frankly	-11.0086
▁gesture	-11.0086
▁literature	-11.0086
▁simplicity	-11.0086
▁hook	-11.0086
▁Boston	-11.0086
▁tlatoque	-11.0087
▁mechanical	-11.0087
▁interactive	-11.0096
▁120	-11.0097
▁itlalnacayo	-11.01
▁sensitive	-11.0103
▁chanej	-11.0104
▁cocone	-11.0124
▁itlal	-11.0125
▁wise	-11.0128
▁coin	-11.0129
▁Ompa	-11.0137
▁however	-11.0146
▁xquipia	-11.0146
▁par	-11.0151
▁Q	-11.0152
class	-11.0172
▁quiual	-11.0176
▁elect	-11.0201
▁electro	-11.0205
▁cloth	-11.0211
zero	-11.0214
▁Felipe	-11.0221
▁Garcia	-11.0221
▁Microsoft	-11.0221
▁Rwanda	-11.0221
▁Unfortunately	-11.0221
▁chocolate	-11.0221
▁milagro	-11.0221
▁minister	-11.0221
▁narrow	-11.0221
▁rhythm	-11.0221
▁silence	-11.0221
▁solving	-11.0221
▁viernes	-11.0221
▁Philip	-11.0221
▁liberal	-11.0221
▁nisiu	-11.0221
▁hunger	-11.0221
▁preserve	-11.0221
▁teocuitla	-11.0221
▁ipatiuh	-11.0221
▁rush	-11.0221
nojnotza	-11.0221
▁tlajyohuilistli	-11.0221
▁mystery	-11.0221
▁Brown	-11.0222
▁overall	-11.0223
▁migrat	-11.0226
▁vital	-11.0226
▁salt	-11.0227
▁2005	-11.0228
mpoalli	-11.0232
Teco	-11.0232
▁Pen	-11.0234
▁celebrat	-11.0242
▁Please	-11.0245
▁ohtli	-11.0246
▁yolqui	-11.0247
▁nemohuan	-11.0249
tlacual	-11.025
▁functional	-11.0255
▁quitta	-11.0256
▁monequi	-11.0273
▁notech	-11.0294
huejca	-11.031
▁transformed	-11.0315
catzintli	-11.0331
▁Russia	-11.0336
▁govern	-11.0354
▁advertising	-11.0358
▁exploit	-11.0358
▁Sweden	-11.0358
▁Uganda	-11.0358
▁horizon	-11.0358
▁identical	-11.0358
▁pregnant	-11.0358
▁quantum	-11.0358
▁skull	-11.0358
▁Tenanco	-11.0358
▁defend	-11.0358
▁oniquitac	-11.0358
▁Ghana	-11.0358
▁deserve	-11.0358
▁cyber	-11.0358
▁cruz	-11.0358
▁false	-11.0358
▁judge	-11.0358
▁chest	-11.0359
▁quesqui	-11.036
▁Cuauh	-11.0361
caxitl	-11.0362
▁Wil	-11.0362
▁alter	-11.0363
▁Islamic	-11.0367
▁Nima	-11.0372
▁bend	-11.0379
digit	-11.0384
▁otli	-11.0386
40	-11.0398
▁tlapal	-11.0406
▁Six	-11.0416
▁formula	-11.0423
▁occequi	-11.0424
▁parking	-11.0443
creativity	-11.0445
cholo	-11.045
▁funding	-11.046
▁inspire	-11.0462
▁$1	-11.0497
volving	-11.0497
▁Foundation	-11.0497
▁Perhaps	-11.0497
▁dolphin	-11.0497
▁elephant	-11.0497
▁genius	-11.0497
▁motivation	-11.0497
▁phrase	-11.0497
▁knock	-11.0497
▁nenquipiaj	-11.0497
▁psychological	-11.0497
▁globe	-11.0497
▁complain	-11.0497
▁Girl	-11.0497
▁flew	-11.0497
▁sweat	-11.0497
▁spell	-11.0497
▁productivity	-11.0498
▁aircraft	-11.0498
▁sauce	-11.0501
▁peer	-11.0502
▁Abou	-11.0502
▁Peter	-11.0503
poliuh	-11.0504
▁Paris	-11.0504
▁slum	-11.0504
▁cequi	-11.0507
92	-11.0511
▁Latin	-11.0518
▁aim	-11.0533
popolo	-11.0548
hzo	-11.0549
▁hill	-11.0562
▁Real	-11.057
craft	-11.0585
angle	-11.059
mandaros	-11.0591
▁Wall	-11.0614
▁Cohua	-11.0626
▁28	-11.063
▁prim	-11.0634
▁club	-11.0638
▁gobernador	-11.0638
▁horrible	-11.0638
▁measuring	-11.0638
▁mushroom	-11.0638
▁suspect	-11.0638
▁nenquichihuaj	-11.0638
▁origami	-11.0638
▁smallpox	-11.0638
▁laboratory	-11.0638
▁breed	-11.064
▁honey	-11.064
▁Child	-11.064
▁leap	-11.0641
▁(	-11.0642
▁XIII	-11.0642
▁Mexica	-11.0643
▁Jacobo	-11.0646
tihuitz	-11.0647
▁stack	-11.0651
nacaz	-11.0668
▁tries	-11.0673
▁combined	-11.0679
▁Next	-11.0683
▁mechmaca	-11.0686
▁stronger	-11.0692
ión	-11.0701
▁potentially	-11.0702
▁itocatzin	-11.0703
▁breathing	-11.0711
▁mochipa	-11.0715
tilique	-11.072
pur	-11.0726
called	-11.0744
▁Huel	-11.0749
▁flo	-11.0753
▁momati	-11.0771
▁install	-11.0777
▁concentrate	-11.0781
xiujyo	-11.0781
▁Galilea	-11.0781
▁Number	-11.0781
▁Xochiyoua	-11.0781
▁confidence	-11.0781
▁distributed	-11.0781
▁economies	-11.0781
▁pandemic	-11.0781
▁portrait	-11.0781
▁psychologist	-11.0781
▁smooth	-11.0781
▁xochiyoua	-11.0781
▁Herodes	-11.0781
▁permanent	-11.0781
▁While	-11.0781
▁strand	-11.0781
▁concert	-11.0781
▁ladies	-11.0781
▁extent	-11.0781
▁ticket	-11.0781
▁trigger	-11.0781
▁sharp	-11.0781
▁resist	-11.0783
▁airport	-11.0786
▁ohuajlaj	-11.0787
▁authority	-11.0787
▁iujki	-11.0788
▁2004	-11.0789
▁educational	-11.0789
▁rip	-11.079
cihuatl	-11.0792
▁Ver	-11.0794
▁magnetic	-11.0798
▁transportation	-11.0801
chihuilia	-11.0802
▁noihqui	-11.0805
▁tomines	-11.0806
cauhque	-11.0819
▁neuron	-11.0822
▁pace	-11.0829
▁promote	-11.083
▁notlatol	-11.0837
▁Pole	-11.0843
surge	-11.0861
▁collected	-11.0873
computer	-11.0874
loyan	-11.0878
aries	-11.0878
▁Hue	-11.0888
▁quitoca	-11.0894
▁dinosaur	-11.09
Don	-11.0902
flat	-11.0918
▁scream	-11.0926
▁1970	-11.0926
▁astonishing	-11.0926
▁criminal	-11.0926
▁explosion	-11.0926
▁grandfather	-11.0926
▁judgment	-11.0926
▁proportion	-11.0926
▁sandwich	-11.0926
▁shadow	-11.0926
▁Voice	-11.0926
▁chapter	-11.0926
▁household	-11.0926
▁lifestyle	-11.0926
▁strike	-11.0926
▁Finally	-11.0926
▁gender	-11.0926
▁Grand	-11.0926
▁healthcare	-11.0926
▁ayemo	-11.0927
▁omito	-11.093
tequipacho	-11.093
▁xsan	-11.093
▁Everyone	-11.0931
▁huajlau	-11.0933
quijyohui	-11.0938
▁headline	-11.0941
▁controlling	-11.0942
▁heroes	-11.0947
pantli	-11.0953
▁spoken	-11.096
▁Para	-11.0969
▁surrounded	-11.0973
pixca	-11.0976
▁custom	-11.0992
▁quijtohuaj	-11.0995
87	-11.1021
food	-11.1021
▁particle	-11.1052
ijti	-11.1062
▁commit	-11.1064
▁recommend	-11.1073
▁sketch	-11.1073
▁9/11	-11.1073
▁Before	-11.1073
▁embedded	-11.1073
▁furniture	-11.1073
▁obstacle	-11.1073
▁suicide	-11.1073
▁Pilato	-11.1073
▁demographic	-11.1073
▁domestic	-11.1073
▁manifest	-11.1073
▁properly	-11.1073
▁posesion	-11.1073
▁tajtli	-11.1073
▁Augustín	-11.1073
▁carried	-11.1073
▁huei	-11.1073
▁Jim	-11.1073
▁General	-11.1073
▁copyright	-11.1073
▁causing	-11.1073
▁junio	-11.1074
▁tlacuajli	-11.1075
▁1980	-11.1077
▁guard	-11.1077
▁River	-11.1078
▁quijtohuayaj	-11.1081
▁miak	-11.1088
tlaocol	-11.1091
▁inventor	-11.1092
▁Russian	-11.1096
▁floating	-11.11
▁classes	-11.1118
timani	-11.1132
▁cajli	-11.1133
▁reside	-11.1133
▁xtech	-11.1149
Achto	-11.1158
ario	-11.1171
echajtitlan	-11.1182
▁rig	-11.1188
▁invite	-11.1188
sky	-11.1191
▁hydro	-11.1221
tlajtlajtohuili	-11.1222
▁Alzheimer	-11.1222
▁Antarctic	-11.1222
▁Ethiopia	-11.1222
▁alguacil	-11.1222
▁chimpanzee	-11.1222
▁conservative	-11.1222
▁corporate	-11.1222
▁dioxide	-11.1222
▁discipline	-11.1222
▁eliminat	-11.1222
▁intuitive	-11.1222
▁opposed	-11.1222
▁plenty	-11.1222
▁procedure	-11.1222
▁spectacular	-11.1222
▁dignity	-11.1222
▁inspiring	-11.1222
▁reject	-11.1222
▁translation	-11.1222
▁soldados	-11.1222
▁granted	-11.1222
▁tepitzin	-11.1222
▁Ocean	-11.1222
▁recipe	-11.1222
▁Design	-11.1222
▁mutation	-11.1222
▁indicate	-11.1222
▁occequintin	-11.1222
▁lunes	-11.1223
▁rail	-11.1223
▁overcome	-11.1223
▁itlalcon	-11.1224
▁Xochi	-11.1228
▁jail	-11.123
▁download	-11.1231
▁2009	-11.1231
quiçaco	-11.1234
▁orange	-11.1236
▁sustainability	-11.1243
▁pano	-11.1244
▁representation	-11.1244
tlajsojtlalistli	-11.1247
▁dimension	-11.1249
▁loan	-11.1264
invention	-11.1266
▁illustrate	-11.1268
▁scared	-11.1274
pantlanti	-11.1279
lash	-11.1298
ground	-11.1312
▁29	-11.1332
free	-11.1349
keep	-11.1353
▁killer	-11.1368
▁citizen	-11.1369
▁Hollywood	-11.1373
▁Narrator	-11.1373
▁Oxford	-11.1373
▁cluster	-11.1373
▁frozen	-11.1373
▁immune	-11.1373
▁obsessed	-11.1373
▁description	-11.1373
▁exposed	-11.1373
▁Video	-11.1373
▁ocacquej	-11.1374
▁trait	-11.1374
▁puchteca	-11.1374
▁tlitl	-11.1374
▁afterwards	-11.1374
▁greenhouse	-11.1375
▁Long	-11.138
▁subtle	-11.1382
▁abuse	-11.1383
▁icpac	-11.1384
▁dust	-11.1399
▁oldest	-11.1417
▁equally	-11.142
tepetl	-11.1439
▁cecen	-11.1445
▁chaneque	-11.1446
▁manager	-11.1449
▁dial	-11.145
chijquej	-11.1469
second	-11.1476
star	-11.1482
tetlajsojtlalis	-11.1505
▁insect	-11.1523
▁Egypt	-11.1525
▁moyetztica	-11.1527
▁Azcapotzalco	-11.1527
▁Remember	-11.1527
▁Stanford	-11.1527
▁intuition	-11.1527
▁sábado	-11.1527
▁tlayecanquej	-11.1527
▁constrain	-11.1527
▁facial	-11.1527
▁reduction	-11.1527
▁William	-11.1527
▁architectural	-11.1527
▁compound	-11.1527
▁fiction	-11.1527
▁intlayecanca	-11.1527
▁Blue	-11.1527
▁tiquijto	-11.1527
▁pretend	-11.1527
▁distant	-11.1528
▁senior	-11.1528
cuitlapan	-11.1528
▁Nothing	-11.1528
▁barrier	-11.1528
▁cihuapilli	-11.1528
▁optimistic	-11.1528
▁rising	-11.1529
▁dramatically	-11.1529
▁Adam	-11.1529
▁Talk	-11.1529
▁tonight	-11.1529
▁1950	-11.1534
▁herself	-11.1534
tlatlata	-11.1535
▁Congo	-11.1536
▁ocalac	-11.1538
▁bold	-11.1542
▁precisely	-11.1542
▁ticnequi	-11.1544
▁briefly	-11.1546
▁database	-11.1549
▁huallaque	-11.1549
▁conventional	-11.1554
▁ticpiaj	-11.1556
▁vol	-11.1559
▁gate	-11.1561
lethal	-11.1568
▁VI	-11.1572
▁Rome	-11.1582
born	-11.1587
▁Far	-11.1599
pipil	-11.1628
▁Kar	-11.1629
front	-11.1631
worth	-11.1632
▁uncle	-11.1632
▁trap	-11.1649
Let	-11.166
jack	-11.1673
Coneu	-11.1678
▁interpret	-11.1679
philanthropy	-11.1684
▁Research	-11.1684
▁Tlatilulco	-11.1684
▁boundaries	-11.1684
▁calculation	-11.1684
▁earthquake	-11.1684
▁expedition	-11.1684
▁iConetzin	-11.1684
▁illegal	-11.1684
▁industries	-11.1684
▁iztatl	-11.1684
▁ridiculous	-11.1684
▁contrast	-11.1684
▁density	-11.1684
▁Scott	-11.1684
▁dirty	-11.1684
▁quitocarohua	-11.1684
▁charity	-11.1684
▁bulb	-11.1684
▁drove	-11.1684
▁Aztlan	-11.1684
▁illness	-11.1684
▁stunt	-11.1684
▁Health	-11.1684
▁teopixqui	-11.1684
▁condom	-11.1684
tlajtlanilij	-11.1684
▁football	-11.1685
▁resistance	-11.1685
▁accessible	-11.1686
tlazohtla	-11.1687
▁House	-11.1687
▁dump	-11.1695
▁Time	-11.1696
▁nowhere	-11.1698
▁queen	-11.1703
▁ignor	-11.1705
▁Really	-11.1713
▁niquito	-11.1713
▁scary	-11.1715
▁crow	-11.1726
▁250	-11.1735
▁tiquita	-11.1756
▁lion	-11.1763
tequitilti	-11.1787
performance	-11.1791
ility	-11.1824
iliaya	-11.1826
tequiti	-11.1831
▁Vietnam	-11.1842
▁activist	-11.1842
▁candidate	-11.1842
▁contemporary	-11.1842
▁dedicated	-11.1842
▁defense	-11.1842
▁leverage	-11.1842
▁microscope	-11.1842
▁obispo	-11.1842
▁curiosity	-11.1842
▁murder	-11.1842
▁stroke	-11.1842
▁tlaneltoctli	-11.1842
▁Greek	-11.1842
▁appeal	-11.1842
▁VII	-11.1842
▁José	-11.1843
▁knee	-11.1843
▁Nuev	-11.1843
▁brown	-11.1844
▁kidney	-11.1844
▁irre	-11.1848
▁simulation	-11.1848
▁package	-11.1848
▁toilet	-11.1849
plan	-11.1849
▁extinction	-11.1852
▁Alex	-11.1856
nanacatl	-11.1859
box	-11.1863
▁ohualla	-11.1863
▁KB	-11.1864
▁cajsicamati	-11.1867
▁Bern	-11.1869
level	-11.1871
▁Steven	-11.1873
panahui	-11.1905
tejtemo	-11.1929
Oqui	-11.1931
Q	-11.1938
future	-11.1952
environment	-11.1952
▁tlajtlaco	-11.1953
lacatl	-11.1955
changing	-11.1957
chimal	-11.1971
▁quilhui	-11.1976
▁ethical	-11.1979
▁chose	-11.1982
brain	-11.1988
▁rough	-11.1989
clusive	-11.2004
▁January	-11.2004
▁Sebastian	-11.2004
▁iteicnelilis	-11.2004
▁juramento	-11.2004
▁recognition	-11.2004
▁vacuum	-11.2004
▁vagina	-11.2004
▁vulnerability	-11.2004
▁tlajtlajtohua	-11.2004
▁legacy	-11.2004
▁flood	-11.2004
▁hardware	-11.2004
▁Tlahco	-11.2004
▁relax	-11.2004
▁microbes	-11.2004
▁angry	-11.2004
▁Revolution	-11.2004
▁route	-11.2004
▁backwards	-11.2005
▁partnership	-11.2006
▁fool	-11.2011
▁upset	-11.2017
▁mentor	-11.2025
▁20,000	-11.2029
▁stable	-11.2032
▁bias	-11.2034
▁Matt	-11.2036
▁exam	-11.2038
▁virtually	-11.2042
▁sheep	-11.2044
campa	-11.205
ggle	-11.2068
burg	-11.209
walk	-11.2121
▁infect	-11.2121
person	-11.2128
▁arrive	-11.2132
tepeuh	-11.2148
▁August	-11.2167
▁Olympic	-11.2168
▁adjust	-11.2168
▁philosopher	-11.2168
▁Atonaltzin	-11.2168
▁México	-11.2168
▁conservation	-11.2168
▁intervention	-11.2168
▁probability	-11.2168
▁tragedy	-11.2168
▁CEO	-11.2168
▁Bronx	-11.2168
▁borrow	-11.2168
▁patlahuac	-11.2168
▁tenochca	-11.2168
▁Black	-11.2168
▁Soviet	-11.2168
▁neither	-11.2168
▁freak	-11.2168
▁arrest	-11.2168
▁isihuau	-11.2168
▁elder	-11.2168
▁timitz	-11.2168
▁temech	-11.2168
▁protest	-11.2168
▁bond	-11.2168
huehuentzin	-11.2168
anthrop	-11.2169
▁Titan	-11.217
▁XII	-11.217
▁chief	-11.217
▁quimilhui	-11.217
▁2010	-11.2171
▁tight	-11.2174
tlaxtlahuilis	-11.2176
▁pause	-11.2181
▁50,000	-11.2182
▁lake	-11.2195
▁artistic	-11.2195
▁tower	-11.2202
▁Sir	-11.2218
venta	-11.2236
▁36	-11.2244
▁Give	-11.2248
▁laid	-11.225
▁ciua	-11.2254
▁huajla	-11.2302
▁stranger	-11.2312
itude	-11.2322
▁extinct	-11.2324
▁tlahtoca	-11.2331
anoyej	-11.2333
▁NGO	-11.2334
▁Leonardo	-11.2334
▁Manhattan	-11.2334
▁agricultural	-11.2334
▁breakthrough	-11.2334
▁chinamitl	-11.2334
▁decrease	-11.2334
▁desperate	-11.2334
▁external	-11.2334
▁fascinated	-11.2334
▁hormone	-11.2334
▁scratch	-11.2334
▁tlayecanquetl	-11.2334
▁Alonso	-11.2334
▁shrimp	-11.2334
▁ethnic	-11.2334
ikauín	-11.2334
▁achijtzin	-11.2334
▁çatepan	-11.2334
▁fortune	-11.2334
▁spark	-11.2334
▁otlanahuatij	-11.2334
▁bump	-11.2334
▁elite	-11.2335
▁Moore	-11.2335
▁Turn	-11.2335
▁elsewhere	-11.2336
▁governance	-11.2336
▁investigati	-11.2337
xiuhtique	-11.2337
▁verb	-11.2338
▁shake	-11.2339
▁installation	-11.2339
▁VIII	-11.2339
▁replicate	-11.2345
Nochimej	-11.2346
▁dependent	-11.2346
▁portion	-11.2347
▁prime	-11.2347
▁morality	-11.2347
▁editor	-11.2349
▁consequence	-11.2354
▁ixquichtin	-11.2355
▁lying	-11.2357
▁Atenco	-11.2357
▁Port	-11.2357
▁Bob	-11.2394
Star	-11.2414
history	-11.2452
ocean	-11.2452
▁precise	-11.2488
ihto	-11.249
▁Department	-11.2504
▁aesthetic	-11.2504
▁facility	-11.2504
▁febrero	-11.2504
▁frequency	-11.2504
▁sacred	-11.2504
▁yield	-11.2504
▁federal	-11.2504
▁otzatzic	-11.2504
▁bribe	-11.2504
▁twist	-11.2504
▁oajsic	-11.2504
▁Atlantic	-11.2504
▁northern	-11.2504
▁silent	-11.2504
▁Northern	-11.2504
▁Ysabe	-11.2504
▁Space	-11.2504
▁shelter	-11.2504
▁blame	-11.2504
▁textbook	-11.2505
▁alarm	-11.2506
▁restore	-11.2512
▁2006	-11.2515
▁Julia	-11.2515
RB	-11.2516
▁bless	-11.2518
tlatzacuil	-11.2523
▁personality	-11.2524
▁yeuatl	-11.2526
▁colleague	-11.253
pitz	-11.253
▁weapon	-11.253
▁ethic	-11.2531
▁retina	-11.2533
▁Howard	-11.2535
▁130	-11.2546
▁pool	-11.2549
ujki	-11.255
machtiaya	-11.2559
Xquin	-11.2567
▁xnenqui	-11.2601
friend	-11.2623
happiness	-11.2624
century	-11.2625
Ompa	-11.2633
itta	-11.2637
▁rebuild	-11.2658
fold	-11.2663
▁crucial	-11.2676
▁fulfill	-11.2676
▁glamorous	-11.2676
▁kitokaytiaj	-11.2676
▁providing	-11.2676
▁synthetic	-11.2676
▁Minister	-11.2676
▁Nature	-11.2676
▁struck	-11.2676
▁temojtij	-11.2676
▁yaoyotl	-11.2676
▁Sanchez	-11.2676
▁Saturn	-11.2676
▁pioneer	-11.2676
▁acquire	-11.2676
▁chipahuac	-11.2676
▁dialogue	-11.2676
▁ueue	-11.2676
▁agenda	-11.2676
▁azteca	-11.2677
▁underlying	-11.2677
▁High	-11.2677
▁shore	-11.2678
▁initiative	-11.2678
▁diverse	-11.2678
scribe	-11.268
▁oquichijquej	-11.2681
▁tired	-11.2681
cuatequij	-11.2683
nonotz	-11.2685
avid	-11.2686
▁terrorist	-11.2687
▁Tony	-11.2689
▁colon	-11.269
▁colony	-11.2694
▁ynamic	-11.2696
▁file	-11.2698
▁chosen	-11.2699
▁iteco	-11.2701
▁oiuh	-11.2705
▁ixua	-11.2738
▁55	-11.2751
▁Dur	-11.2766
▁mask	-11.279
control	-11.28
▁printer	-11.28
And	-11.2806
▁magnet	-11.2831
▁east	-11.2849
▁Amazon	-11.2852
▁Gaspar	-11.2852
▁International	-11.2852
▁Iztatl	-11.2852
▁October	-11.2852
▁Tlatilolco	-11.2852
▁automobile	-11.2852
▁concrete	-11.2852
▁guarantee	-11.2852
▁obesity	-11.2852
▁phantom	-11.2852
▁scenario	-11.2852
▁MRI	-11.2852
▁cliff	-11.2852
▁disturb	-11.2852
▁fifth	-11.2852
▁caxtil	-11.2852
▁Smith	-11.2852
▁itakka	-11.2852
▁totonik	-11.2852
▁devil	-11.2852
▁naked	-11.2852
▁barrel	-11.2852
▁neural	-11.2852
▁glad	-11.2852
▁domain	-11.2853
▁jet	-11.2853
▁Nations	-11.2853
▁consistent	-11.2854
▁tonalli	-11.2854
▁persist	-11.2854
▁attend	-11.2856
▁export	-11.2858
tzitzinhuan	-11.2859
▁marzo	-11.286
▁2003	-11.2862
▁compassionate	-11.2864
pixqui	-11.2867
▁darkness	-11.2868
position	-11.2871
▁ypiltzin	-11.2874
▁oquimacac	-11.288
huajlaj	-11.2887
peuhque	-11.2887
▁oquinnotz	-11.2914
body	-11.2946
ogue	-11.2972
energy	-11.2978
product	-11.2979
▁nesi	-11.3008
▁cenpohual	-11.3017
tlapejpeni	-11.302
▁yoni	-11.302
▁Quetzal	-11.303
▁fragment	-11.303
▁Central	-11.303
▁Jewish	-11.303
▁Taliban	-11.303
▁antibiotic	-11.303
▁autonomous	-11.303
▁engaging	-11.303
▁fabulous	-11.303
▁fraction	-11.303
▁happier	-11.303
▁iEspíritu	-11.303
▁interconnect	-11.303
▁miracle	-11.303
▁refugee	-11.303
▁robust	-11.303
▁tlajtlajmatquej	-11.303
▁transparent	-11.303
▁unbelievable	-11.303
▁awesome	-11.303
▁emergency	-11.303
▁qualities	-11.303
▁hypo	-11.303
▁methane	-11.303
▁ylhuitzin	-11.303
▁Daniel	-11.303
▁Nobel	-11.303
▁trash	-11.303
activism	-11.303
▁pulse	-11.303
▁tlatolli	-11.303
ville	-11.303
▁secure	-11.3031
▁transmission	-11.3031
▁ruin	-11.3031
▁slavery	-11.3032
▁huecauh	-11.3032
▁spray	-11.3034
▁ihquac	-11.3036
▁gear	-11.3036
Prince	-11.3036
▁discoveries	-11.3036
yolihuis	-11.3039
▁slice	-11.3042
toquili	-11.3042
▁highway	-11.3047
▁quinmicti	-11.305
▁pink	-11.3059
▁pose	-11.3084
▁85	-11.3106
psychology	-11.316
with	-11.3161
▁occasion	-11.3211
▁sculpt	-11.3212
▁Valeriano	-11.3212
▁Velasco	-11.3212
▁abandon	-11.3212
▁apparently	-11.3212
▁bizarre	-11.3212
▁cheese	-11.3212
▁demonstration	-11.3212
▁depressed	-11.3212
▁kiluiaj	-11.3212
▁purchase	-11.3212
▁scholar	-11.3212
▁enhance	-11.3212
▁telpochtli	-11.3212
▁legislat	-11.3212
▁sensation	-11.3212
▁blank	-11.3212
▁margin	-11.3212
huejhueyixtoquej	-11.3212
▁Children	-11.3212
▁tlahtolli	-11.3212
▁drift	-11.3212
Melahuac	-11.3212
▁kajfentaj	-11.3212
▁trail	-11.3212
▁uncertainty	-11.3213
▁welcome	-11.3213
▁torture	-11.3213
▁Somebody	-11.3213
▁intlaneltoc	-11.3215
▁wipe	-11.3216
▁março	-11.3217
tlajcali	-11.3218
▁quiselisquej	-11.3218
▁omoteneuhtzino	-11.3218
kilit	-11.322
▁chaos	-11.3222
▁Yemen	-11.3224
▁impression	-11.3225
▁achievement	-11.3226
huiquili	-11.3227
▁June	-11.3235
ehuantzitzin	-11.3235
▁slip	-11.3235
▁Italy	-11.3237
machiyo	-11.3237
▁nemotech	-11.3238
Listen	-11.3255
▁chicon	-11.3262
tzitzi	-11.3286
▁rotate	-11.3304
nenquimatztoquej	-11.3336
version	-11.3351
Who	-11.3357
figuring	-11.3397
▁Audiencia	-11.3397
▁Chicomoztoc	-11.3397
▁cooperation	-11.3397
▁hungry	-11.3397
▁mahuiztililoni	-11.3397
▁ocuajtitlan	-11.3397
▁thumb	-11.3397
▁xinachtli	-11.3397
▁punish	-11.3397
noquetztehuas	-11.3397
▁zatepan	-11.3397
▁ecological	-11.3397
▁Texas	-11.3397
▁burst	-11.3397
▁cousin	-11.3397
▁frog	-11.3397
▁housing	-11.3397
▁crystal	-11.3397
▁storm	-11.3397
▁quename	-11.3398
▁locked	-11.3398
▁dumb	-11.3398
▁infant	-11.3398
▁guilt	-11.3399
▁Colhuacan	-11.3399
▁neuroscience	-11.3399
más	-11.3399
▁relief	-11.34
▁miquilistli	-11.34
▁tehuantin	-11.3402
▁hueca	-11.3402
▁mochiuhtzino	-11.3403
▁drum	-11.3403
▁engagement	-11.3407
▁globalization	-11.3407
▁shine	-11.3411
▁passive	-11.3416
▁otlacat	-11.3422
▁boot	-11.3437
teopixca	-11.345
photography	-11.3459
▁techmaca	-11.3488
wise	-11.3524
▁illustrat	-11.3527
▁yxpan	-11.3534
American	-11.3534
tlahuil	-11.3535
teocal	-11.354
Qui	-11.3549
ychpoch	-11.3584
▁comparison	-11.3586
▁explode	-11.3586
▁thrill	-11.3586
Señor	-11.3586
▁Florida	-11.3586
▁Moteuhcçoma	-11.3586
▁Neanderthal	-11.3586
▁Should	-11.3586
▁assignment	-11.3586
▁concentration	-11.3586
▁contribution	-11.3586
▁diabetes	-11.3586
▁oxytocin	-11.3586
▁policies	-11.3586
▁reconstruct	-11.3586
▁substance	-11.3586
▁tsunami	-11.3586
Aquinon	-11.3586
▁expectancy	-11.3586
▁raising	-11.3586
▁xmelahuac	-11.3586
▁Arctic	-11.3586
▁mysterious	-11.3586
▁Third	-11.3586
▁refuse	-11.3586
▁render	-11.3586
tlajtlacolejquej	-11.3586
▁pacto	-11.3586
▁ugly	-11.3586
▁Jesus	-11.3586
generating	-11.3587
▁forgotten	-11.3587
stone	-11.3589
equintin	-11.3589
▁Gates	-11.359
▁Iranian	-11.359
▁collaborative	-11.3591
▁Super	-11.3592
▁golden	-11.3596
▁2001	-11.3597
▁logo	-11.36
▁30,000	-11.3605
coneu	-11.3615
organizing	-11.3616
tiquiz	-11.3624
▁axox	-11.3628
hrew	-11.3653
▁manipulat	-11.3677
▁oquipix	-11.3693
▁otinech	-11.3716
evolution	-11.3725
interest	-11.3726
▁immediate	-11.3762
tlaxtlahuil	-11.3768
▁xiuit	-11.3771
yllotlacteuhctli	-11.3778
▁'70	-11.3778
▁altitude	-11.3778
▁announced	-11.3778
▁confirm	-11.3778
▁corporation	-11.3778
▁dilemma	-11.3778
▁entropy	-11.3778
▁genocide	-11.3778
▁ipromesa	-11.3778
▁jellyfish	-11.3778
▁struggling	-11.3778
▁tzillini	-11.3778
majmasohualti	-11.3778
▁Acamapich	-11.3778
▁nemotzajlan	-11.3778
▁rabbi	-11.3778
▁regulation	-11.3778
▁xejhua	-11.3778
▁garage	-11.3778
▁Queen	-11.3778
▁Judea	-11.3778
xexelo	-11.3778
▁Redwood	-11.3778
▁Italian	-11.3779
▁tliltique	-11.3779
▁damn	-11.3779
▁Turkey	-11.3779
▁Nocnihuan	-11.3779
▁Dutch	-11.378
▁capability	-11.378
▁underground	-11.3781
cellular	-11.3781
Tejhuamej	-11.3781
▁winner	-11.3782
▁emit	-11.3782
▁onocau	-11.3783
▁Johnson	-11.3785
mactilis	-11.379
▁hitting	-11.3795
▁700	-11.3795
▁asset	-11.3804
▁probe	-11.3804
▁bang	-11.3806
ordina	-11.3825
momaquili	-11.3847
▁incident	-11.3848
▁Tecpa	-11.3854
▁altepe	-11.3858
▁Put	-11.3883
mechijlij	-11.3922
When	-11.3923
women	-11.3923
▁capita	-11.3958
▁rapid	-11.3962
ihiyo	-11.3973
▁Ximenez	-11.3974
▁acoustic	-11.3974
▁amaquemeque	-11.3974
▁creator	-11.3974
▁cricket	-11.3974
▁disagree	-11.3974
▁flavor	-11.3974
▁flexible	-11.3974
▁geometry	-11.3974
▁helicopter	-11.3974
▁medication	-11.3974
▁octubre	-11.3974
▁primitive	-11.3974
▁quexquich	-11.3974
▁spontaneous	-11.3974
▁strategies	-11.3974
▁Chalchiuh	-11.3974
▁disrupt	-11.3974
▁macehualtin	-11.3974
▁Peace	-11.3974
▁tragic	-11.3974
▁grasp	-11.3974
▁orphan	-11.3974
▁request	-11.3975
▁ceiling	-11.3975
▁psycho	-11.3975
▁triangle	-11.3975
▁atentli	-11.3976
▁anozo	-11.3976
▁shopping	-11.3976
▁cielo	-11.3976
▁permission	-11.3977
▁Koran	-11.3978
▁rice	-11.398
▁ymixpan	-11.398
▁genetically	-11.3981
▁impampa	-11.3983
▁Way	-11.3983
word	-11.3983
▁consist	-11.3984
▁kimana	-11.3986
▁highlight	-11.3987
mactilij	-11.3991
▁conito	-11.3996
▁detector	-11.4006
▁quiteititi	-11.4006
tlajtohua	-11.4006
▁transcend	-11.4031
▁istak	-11.4037
nextili	-11.404
▁siet	-11.4053
ahuilti	-11.4057
what	-11.4112
▁visualization	-11.4131
▁terror	-11.416
▁tlil	-11.4166
jcuilolnesticaj	-11.4174
▁February	-11.4174
▁Feynman	-11.4174
▁Stephen	-11.4174
▁attribute	-11.4174
▁compelling	-11.4174
▁diamond	-11.4174
▁glamour	-11.4174
▁paralyzed	-11.4174
▁primarily	-11.4174
▁protocell	-11.4174
▁serving	-11.4174
▁signature	-11.4174
▁tlatohuani	-11.4174
▁closing	-11.4174
▁frequent	-11.4174
▁nemotlaneltoc	-11.4174
▁Watch	-11.4174
▁whatsoever	-11.4174
▁leaf	-11.4174
▁dominant	-11.4174
▁nocnihuan	-11.4174
▁julio	-11.4174
▁kikui	-11.4174
▁ihueyi	-11.4174
▁nescayotl	-11.4175
▁begun	-11.4175
▁generous	-11.4175
▁ihueyilis	-11.4175
▁Indus	-11.4176
▁bored	-11.4177
▁gentleman	-11.4177
▁scanner	-11.4177
▁quiteijlia	-11.4177
▁omentin	-11.418
▁twin	-11.418
▁interpretation	-11.418
▁snap	-11.418
▁liberat	-11.418
▁committed	-11.4181
▁agosto	-11.4183
▁affordable	-11.4184
▁nuts	-11.4184
▁cube	-11.4185
▁rebel	-11.4194
▁pursue	-11.4265
ejcuani	-11.4301
molhuili	-11.4303
minute	-11.4335
tlamachti	-11.4347
nauati	-11.4348
palehuil	-11.4378
LLI	-11.4378
assembly	-11.4378
▁LED	-11.4378
▁accelerate	-11.4378
▁buried	-11.4378
▁capitán	-11.4378
▁dictionary	-11.4378
▁diplomat	-11.4378
▁disconnect	-11.4378
▁distinguish	-11.4378
▁fragile	-11.4378
▁garbage	-11.4378
▁immense	-11.4378
▁kuoujtaj	-11.4378
▁mochipaujtani	-11.4378
▁niquijtohua	-11.4378
▁nutrition	-11.4378
▁regidor	-11.4378
▁resolve	-11.4378
▁routine	-11.4378
▁sacrifice	-11.4378
▁threshold	-11.4378
▁uncomfortable	-11.4378
▁ytzticac	-11.4378
▁ciego	-11.4378
▁tendency	-11.4378
▁Delhi	-11.4378
▁insurance	-11.4378
▁oajsiquej	-11.4378
▁uniform	-11.4378
▁excuse	-11.4378
▁precious	-11.4378
▁broadcast	-11.4378
▁Brian	-11.4378
▁augment	-11.4378
▁Judas	-11.4379
▁Eric	-11.4379
▁oquinanquilij	-11.4379
▁array	-11.4379
ocnihuan	-11.4379
▁Play	-11.4379
▁cosmic	-11.4379
▁nonprofit	-11.4379
▁convey	-11.438
▁censor	-11.438
▁oniquin	-11.438
▁quezqui	-11.438
▁Zero	-11.438
▁junk	-11.4381
Cuajli	-11.4382
▁theories	-11.4382
▁itlaneltoc	-11.4382
▁quixmati	-11.4383
▁winning	-11.4383
▁pathway	-11.4383
▁viral	-11.4384
▁missa	-11.4384
▁palm	-11.4385
▁quest	-11.4385
▁missed	-11.4385
▁4,000	-11.4389
tlajcuilol	-11.4389
▁germ	-11.4405
heart	-11.4414
▁rub	-11.4452
▁peaceful	-11.4461
tlauhtil	-11.4462
▁quo	-11.4465
▁believ	-11.4473
axcati	-11.4476
▁soldier	-11.4479
profit	-11.4534
biology	-11.4545
wire	-11.4569
▁Bangladesh	-11.4587
▁Cambridge	-11.4587
▁Obviously	-11.4587
▁administration	-11.4587
▁curriculum	-11.4587
▁cylinder	-11.4587
▁eradicate	-11.4587
▁expansion	-11.4587
▁glacier	-11.4587
▁hypothesis	-11.4587
▁iPod	-11.4587
▁neutral	-11.4587
▁rainforest	-11.4587
▁supermarket	-11.4587
▁trajectory	-11.4587
▁transparency	-11.4587
▁troops	-11.4587
▁variable	-11.4587
▁memories	-11.4587
▁ocatca	-11.4587
otlacuenquetz	-11.4587
▁pouiz	-11.4587
▁moteylhui	-11.4587
▁carpet	-11.4588
▁marketplace	-11.459
▁cuicatl	-11.4591
▁quimotlalili	-11.4591
▁crab	-11.4593
▁pactli	-11.4595
▁subway	-11.4595
▁merely	-11.4597
▁detection	-11.4601
▁float	-11.4607
▁nerd	-11.4611
nechneltoca	-11.4617
yiman	-11.4636
tlaxcal	-11.4695
humor	-11.4748
▁journal	-11.4749
▁promot	-11.4751
school	-11.4756
field	-11.4762
ciuhca	-11.4782
▁jewel	-11.4799
▁Monterey	-11.4799
▁System	-11.4799
▁Through	-11.4799
▁elegant	-11.4799
▁empire	-11.4799
▁inevitable	-11.4799
▁pharmaceutical	-11.4799
▁skeptic	-11.4799
▁tequihuajquej	-11.4799
pajsolo	-11.4799
▁tunnel	-11.4799
▁descend	-11.4799
▁ytencopa	-11.4799
▁kuali	-11.4799
▁itemachtil	-11.4799
▁tlajtoltin	-11.4799
▁consult	-11.4799
▁crush	-11.4799
▁improving	-11.4799
▁potato	-11.4799
▁onechijlij	-11.48
▁amateur	-11.48
▁plain	-11.48
xtololo	-11.48
▁silly	-11.48
▁cotton	-11.48
▁dough	-11.48
▁audio	-11.48
▁commission	-11.48
TLA	-11.4801
▁pursuit	-11.4801
▁outrage	-11.4802
▁Jeff	-11.4803
▁Larry	-11.4805
▁occeppa	-11.4805
▁appearance	-11.4806
▁imaging	-11.4807
▁stamp	-11.481
▁stake	-11.4817
monamicti	-11.4827
thermal	-11.489
related	-11.4906
nechico	-11.4914
▁manipulate	-11.4916
▁ratio	-11.4917
ographic	-11.492
corn	-11.4923
step	-11.4936
tlatlani	-11.4961
stream	-11.4964
Where	-11.4965
found	-11.4965
tlinon	-11.4967
eouh	-11.4977
pojpol	-11.499
shaped	-11.4992
▁Francis	-11.5005
▁Council	-11.5017
▁Sanctiago	-11.5017
▁Shanghai	-11.5017
▁Tanzania	-11.5017
▁Totecuiyo	-11.5017
▁axoxtlantli	-11.5017
▁category	-11.5017
▁despair	-11.5017
▁diagnosed	-11.5017
▁jihad	-11.5017
▁prosthetic	-11.5017
▁screw	-11.5017
▁simultaneously	-11.5017
▁terribly	-11.5017
▁translator	-11.5017
▁Gandhi	-11.5017
▁basket	-11.5017
▁College	-11.5017
▁chamber	-11.5017
▁injury	-11.5017
▁temachtilistli	-11.5017
▁hualquizque	-11.5017
▁quichiuhque	-11.5017
▁essence	-11.5017
▁district	-11.5017
▁ensure	-11.5017
▁mexitin	-11.5017
▁tlamantic	-11.5017
▁dawn	-11.5017
▁tackle	-11.5017
▁crew	-11.5017
▁grandchildren	-11.5017
▁innocent	-11.5017
▁Seven	-11.5017
▁annual	-11.5018
▁programming	-11.5018
▁Kevin	-11.5018
▁unfold	-11.5021
▁itlaquen	-11.5021
▁oncuan	-11.5021
ixiptla	-11.5023
▁besides	-11.5024
▁LG	-11.5026
Huitzil	-11.5026
▁Hong	-11.5027
▁invade	-11.5045
▁yniqu	-11.5048
▁tlayahualo	-11.5097
tejtemohua	-11.5135
▁Jacob	-11.5226
quechol	-11.5237
▁bioluminescen	-11.5239
▁Hawaii	-11.5239
▁Palestinian	-11.5239
▁beneath	-11.5239
▁capabilities	-11.5239
▁cellphone	-11.5239
▁experiencing	-11.5239
▁gallon	-11.5239
▁hybrid	-11.5239
▁renewable	-11.5239
▁reproduce	-11.5239
▁sponsor	-11.5239
▁structural	-11.5239
▁yepazohtli	-11.5239
▁zapatistas	-11.5239
tzotzoma	-11.5239
▁April	-11.5239
▁Democrat	-11.5239
▁burden	-11.5239
▁nihuajlas	-11.5239
▁valley	-11.5239
▁theoretical	-11.5239
▁shrink	-11.5239
▁huehca	-11.5239
▁profile	-11.5239
▁steam	-11.5239
▁ecology	-11.5239
▁harness	-11.5239
▁oquintlajtoltij	-11.5239
▁paradox	-11.5239
▁agency	-11.5239
▁posses	-11.5239
▁venture	-11.524
▁grave	-11.524
▁electrodes	-11.524
▁arrow	-11.524
▁uelik	-11.5241
▁defeat	-11.5241
▁Sunday	-11.5241
▁informed	-11.5241
▁martes	-11.5242
▁brick	-11.5243
▁Without	-11.5243
▁Wright	-11.5244
▁stability	-11.5245
mextin	-11.5248
Wait	-11.5251
tlacanonotz	-11.5261
▁chop	-11.5277
where	-11.5305
▁historic	-11.5334
▁simulat	-11.5342
▁simulate	-11.5354
ichtaca	-11.5404
▁quinexti	-11.5414
physics	-11.5415
peace	-11.5415
short	-11.5416
▁norm	-11.5461
▁crawl	-11.5466
▁scaffold	-11.5466
▁Benjamin	-11.5466
▁Cambodia	-11.5466
▁Jerónimo	-11.5466
▁Mountain	-11.5466
▁advertise	-11.5466
▁anticipate	-11.5466
▁diagnostic	-11.5466
▁disappoint	-11.5466
▁extension	-11.5466
▁facilities	-11.5466
▁flourish	-11.5466
▁gradually	-11.5466
▁interrupt	-11.5466
▁syndrome	-11.5466
▁synthesize	-11.5466
▁tequihuajyotl	-11.5466
▁unprecedented	-11.5466
Temachtijquetl	-11.5466
▁Castilla	-11.5466
▁storage	-11.5466
▁Spanish	-11.5466
▁miserable	-11.5466
▁optical	-11.5466
▁strain	-11.5466
▁moyetzticatca	-11.5466
▁whistle	-11.5466
▁reliable	-11.5466
▁sync	-11.5466
pajpatla	-11.5466
placing	-11.5466
▁shelf	-11.5467
▁temple	-11.5467
▁cenpohuallon	-11.5467
▁marvel	-11.5467
▁forgive	-11.5467
▁Indeed	-11.5467
▁chicuacen	-11.5467
▁Joshua	-11.5467
Sequimej	-11.5468
▁watt	-11.5468
mimilo	-11.5468
▁filmmaker	-11.5469
▁advise	-11.5469
momaquilli	-11.5469
▁Egyptian	-11.5469
▁elementary	-11.5469
▁ongoing	-11.5471
conetzin	-11.5493
tlajcuilhui	-11.5645
collaboration	-11.5647
poverty	-11.5647
▁crap	-11.569
▁exhibit	-11.5691
▁slave	-11.5697
▁Except	-11.5699
▁García	-11.5699
▁carrancista	-11.5699
▁emphasize	-11.5699
▁humanitarian	-11.5699
▁juebes	-11.5699
▁negotiate	-11.5699
▁nenquiselisquej	-11.5699
▁overwhelming	-11.5699
▁suspended	-11.5699
▁totollimpaneca	-11.5699
▁ubiquitous	-11.5699
▁universities	-11.5699
▁virtue	-11.5699
lajcotian	-11.5699
▁ajacatl	-11.5699
▁circulat	-11.5699
▁ikuoujyo	-11.5699
▁spiral	-11.5699
▁expertise	-11.5699
▁downtown	-11.5699
▁woke	-11.5699
▁autism	-11.5699
▁Square	-11.5699
▁submit	-11.5699
tetlacaitalistli	-11.5699
▁chiquacen	-11.5699
▁tlahtocayotl	-11.57
▁Louis	-11.57
chipajquej	-11.57
▁native	-11.57
nisihui	-11.57
▁antenna	-11.57
▁occasionally	-11.57
▁proposition	-11.5701
▁debt	-11.5702
▁rope	-11.5704
▁prostate	-11.5704
▁quahuitl	-11.5704
▁glow	-11.5709
▁devote	-11.571
▁quimpalehui	-11.5712
▁Susan	-11.5725
▁xcajsicamati	-11.575
greg	-11.5768
▁update	-11.578
▁reinvent	-11.5784
script	-11.5894
▁replica	-11.5903
▁tocniu	-11.5905
▁entertain	-11.5933
skeletal	-11.5937
▁December	-11.5937
▁Global	-11.5937
▁Kuesalan	-11.5937
▁Shakespeare	-11.5937
▁Testigo	-11.5937
▁abilities	-11.5937
▁acknowledge	-11.5937
▁acxoteca	-11.5937
▁categories	-11.5937
▁circuncisión	-11.5937
▁confident	-11.5937
▁independence	-11.5937
▁minimum	-11.5937
▁resilience	-11.5937
▁substantial	-11.5937
▁suppress	-11.5937
▁tetlayocolijli	-11.5937
▁Friday	-11.5937
▁impulse	-11.5937
▁mechanics	-11.5937
▁proposal	-11.5937
▁psychopath	-11.5937
▁tiopixqui	-11.5937
▁wheat	-11.5937
tlapojpolhuili	-11.5937
▁fertilize	-11.5937
▁absence	-11.5937
▁snake	-11.5937
▁multiply	-11.5937
▁mutual	-11.5937
mocuitlahui	-11.5937
▁coordinate	-11.5937
▁located	-11.5937
▁voting	-11.5937
▁backyard	-11.5937
▁magnificent	-11.5937
▁Bosnia	-11.5937
▁isolated	-11.5937
tlejhua	-11.5937
eanwhile	-11.5937
▁Court	-11.5937
▁steer	-11.5938
▁mainstream	-11.5938
▁loose	-11.5938
▁surf	-11.5938
▁diving	-11.5938
▁Virginia	-11.5938
▁quistinemi	-11.5938
▁tongue	-11.5938
omilhuitl	-11.594
▁forgot	-11.594
▁spinning	-11.5941
▁examine	-11.5943
NoTeco	-11.5962
defining	-11.5973
▁relie	-11.599
uelita	-11.6026
AIDS	-11.6129
Jesús	-11.6129
cenpohualxihuitl	-11.6145
▁prepare	-11.6146
▁chemist	-11.6178
▁dictator	-11.6181
▁'90	-11.6181
▁Alexander	-11.6181
▁Develop	-11.6181
▁Hospital	-11.6181
▁Quahuitzatzin	-11.6181
▁Tzaqualtitla	-11.6181
▁Watson	-11.6181
▁accumulate	-11.6181
▁aggressive	-11.6181
▁alcohol	-11.6181
▁batteries	-11.6181
▁boundary	-11.6181
▁correlation	-11.6181
▁endangered	-11.6181
▁excellent	-11.6181
▁glimpse	-11.6181
▁gorgeous	-11.6181
▁hallucination	-11.6181
▁identified	-11.6181
▁marqués	-11.6181
▁monasterio	-11.6181
▁navigate	-11.6181
▁puppet	-11.6181
▁tecpoyotl	-11.6181
▁tlalcontli	-11.6181
▁ultrasound	-11.6181
▁unhappy	-11.6181
▁yolmelajqui	-11.6181
▁Church	-11.6181
▁genuine	-11.6181
▁lobby	-11.6181
▁diameter	-11.6181
▁silver	-11.6181
▁transistor	-11.6181
▁enemies	-11.6181
▁reducing	-11.6181
▁pencil	-11.6181
▁smiling	-11.6181
▁conetzintli	-11.6181
▁tlapatlaco	-11.6181
▁wrist	-11.6181
▁mahuiztic	-11.6181
▁monster	-11.6181
▁Iceland	-11.6181
▁squid	-11.6181
▁compress	-11.6181
▁uvas	-11.6181
▁nixpan	-11.6182
▁composition	-11.6182
▁mopaca	-11.6182
▁Hawk	-11.6182
▁rubber	-11.6182
▁cuenta	-11.6183
▁Greenland	-11.6183
▁colonies	-11.6183
▁riot	-11.6184
▁refine	-11.6199
▁quinamaca	-11.6302
manahuis	-11.6315
iquixmati	-11.6327
ToTeco	-11.6353
▁desd	-11.6357
wandering	-11.636
▁shoe	-11.6365
efficient	-11.6379
discover	-11.6379
writing	-11.6379
▁profession	-11.639
write	-11.6402
▁onicchiu	-11.6416
▁Lincoln	-11.6431
▁Maldonado	-11.6431
▁Satanás	-11.6431
▁Swiss	-11.6431
▁astronomy	-11.6431
▁clérigo	-11.6431
▁compromise	-11.6431
▁continuing	-11.6431
▁convenient	-11.6431
▁enterprise	-11.6431
▁recession	-11.6431
▁recycling	-11.6431
▁stunning	-11.6431
▁surgical	-11.6431
▁terrifying	-11.6431
▁Clinton	-11.6431
▁Mandela	-11.6431
▁destiny	-11.6431
▁parachute	-11.6431
▁Craig	-11.6431
▁aspiration	-11.6431
▁drew	-11.6431
▁geographic	-11.6431
▁Water	-11.6431
▁segment	-11.6431
▁texture	-11.6431
▁Geographic	-11.6431
▁trono	-11.6431
▁Anybody	-11.6431
▁intimate	-11.6431
▁spike	-11.6431
▁nutrients	-11.6432
▁girlfriend	-11.6432
chalchiuh	-11.6432
▁mitoz	-11.6432
▁Norden	-11.6433
▁parasite	-11.6433
▁swam	-11.6434
cuerpo	-11.6435
▁encode	-11.6437
▁Macuil	-11.6445
▁Music	-11.6451
▁modul	-11.6462
lapse	-11.6505
ccenca	-11.6557
known	-11.6633
development	-11.6636
virus	-11.6637
▁Turk	-11.6686
▁monjas	-11.6687
▁Bernabé	-11.6687
▁Borreguito	-11.6687
▁Buddha	-11.6687
▁Fellow	-11.6687
▁McDonald	-11.6687
▁Suddenly	-11.6687
▁Tetzcoco	-11.6687
▁frightening	-11.6687
▁kichipaua	-11.6687
▁magnitude	-11.6687
▁motzoyonia	-11.6687
▁pleasant	-11.6687
▁stimulate	-11.6687
▁dopamine	-11.6687
▁grateful	-11.6687
▁mobility	-11.6687
▁oquijcuiloj	-11.6687
▁trauma	-11.6687
▁Everest	-11.6687
▁chronic	-11.6687
▁harbor	-11.6687
▁nenquinequij	-11.6687
▁scheme	-11.6687
▁genomic	-11.6687
▁Beijing	-11.6687
▁huentli	-11.6687
▁xmatican	-11.6687
▁selves	-11.6687
▁drunk	-11.6687
▁diverge	-11.6687
▁Isaac	-11.6687
▁retreat	-11.6687
▁helium	-11.6688
▁Henry	-11.6688
▁outdoor	-11.6688
▁henero	-11.6688
▁Work	-11.6688
▁Publi	-11.6688
▁Nathan	-11.6688
▁insane	-11.6689
▁tlahco	-11.6689
▁deaf	-11.6689
▁awake	-11.6691
▁Brit	-11.6692
tlamantin	-11.6704
▁itocayoca	-11.671
▁pond	-11.6713
▁necoc	-11.675
cniuh	-11.6792
▁tilt	-11.6886
children	-11.6898
exploration	-11.6898
nature	-11.6901
▁extraordinar	-11.6932
yolchicahua	-11.6945
unction	-11.6948
▁Afghan	-11.695
▁Aristotle	-11.695
▁Cyrus	-11.695
▁DVD	-11.695
▁Probably	-11.695
▁Security	-11.695
▁Tequanipan	-11.695
▁artifact	-11.695
▁astronomer	-11.695
▁collision	-11.695
▁controversial	-11.695
▁cuacualaca	-11.695
▁elaborate	-11.695
▁encouraging	-11.695
▁enzyme	-11.695
▁frustrated	-11.695
▁irrational	-11.695
▁negotiation	-11.695
▁nitrogen	-11.695
▁register	-11.695
▁staircase	-11.695
▁tattoo	-11.695
▁tlaxilacall	-11.695
▁champion	-11.695
▁earliest	-11.695
tzotzona	-11.695
▁Almost	-11.695
▁preparing	-11.695
▁summarize	-11.695
▁intensity	-11.695
▁stomach	-11.695
▁Silicon	-11.695
▁biomass	-11.695
▁poliuhque	-11.695
▁kemaj	-11.695
▁strict	-11.695
▁priest	-11.695
▁summit	-11.695
▁competing	-11.6951
▁converge	-11.6951
▁scaling	-11.6951
▁tolerance	-11.6951
▁toyojlo	-11.6951
▁Spain	-11.6951
▁Coast	-11.6951
▁fought	-11.6951
▁gross	-11.6952
▁Jones	-11.6954
otolinia	-11.6955
▁spare	-11.6956
▁animate	-11.6959
cecni	-11.7009
ocaquiti	-11.7021
communication	-11.7169
carbon	-11.7169
million	-11.7169
poalli	-11.7205
▁Huitzillihuit	-11.7221
▁Library	-11.7221
▁Parkinson	-11.7221
▁Qatar	-11.7221
▁Sylvia	-11.7221
▁Tliltecatzin	-11.7221
▁Zealand	-11.7221
▁aggregate	-11.7221
▁angiogenesis	-11.7221
▁breakfast	-11.7221
▁commodity	-11.7221
▁cooperative	-11.7221
▁endeavor	-11.7221
▁exposure	-11.7221
▁gallery	-11.7221
▁membrane	-11.7221
▁mohuicxitia	-11.7221
▁overwhelmed	-11.7221
▁participation	-11.7221
▁persuade	-11.7221
▁prosperity	-11.7221
▁straightforward	-11.7221
▁sulfide	-11.7221
▁survivor	-11.7221
▁welfare	-11.7221
▁iyaxcahuan	-11.7221
▁millimeter	-11.7221
▁nenquipiasquej	-11.7221
▁recruit	-11.7221
▁jazz	-11.7221
▁Sierra	-11.7221
▁Tullam	-11.7221
▁declare	-11.7221
▁Berlin	-11.7221
▁fetus	-11.7221
▁threatened	-11.7221
▁Disney	-11.7221
▁blend	-11.7221
▁thread	-11.7221
▁cojtli	-11.7221
▁Ladies	-11.7221
▁Natural	-11.7221
▁oyster	-11.7221
▁lottery	-11.7221
▁quimijlia	-11.7222
▁indoor	-11.7225
▁Read	-11.724
mitalhui	-11.7241
▁grip	-11.726
▁wander	-11.7298
▁tlayahuallo	-11.7321
▁deposit	-11.7383
majma	-11.7387
hquac	-11.744
natural	-11.7447
why	-11.7448
▁convention	-11.7451
foie	-11.7451
▁hebreo	-11.7463
▁corrupt	-11.7494
▁gentle	-11.7495
▁1614	-11.7498
▁Catholic	-11.7498
▁Copenhagen	-11.7498
▁Gabriel	-11.7498
▁Sacramento	-11.7498
▁agencies	-11.7498
▁anxiety	-11.7498
▁approved	-11.7498
▁arguing	-11.7498
▁chalchihuitl	-11.7498
▁cigarette	-11.7498
▁diarrhea	-11.7498
▁embryo	-11.7498
▁exhaust	-11.7498
▁fluctuat	-11.7498
▁fractal	-11.7498
▁frustration	-11.7498
▁licenciado	-11.7498
▁maximum	-11.7498
▁mycelium	-11.7498
▁regulate	-11.7498
▁schedule	-11.7498
▁sesetlamantic	-11.7498
▁storyteller	-11.7498
▁supplies	-11.7498
▁symmetries	-11.7498
▁territory	-11.7498
▁wheelchair	-11.7498
▁yglesia	-11.7498
▁yourselves	-11.7498
▁worship	-11.7498
▁Lewis	-11.7498
▁Arthur	-11.7498
▁blob	-11.7498
▁straw	-11.7498
▁calories	-11.7498
▁harmony	-11.7498
▁premise	-11.7498
▁pride	-11.7498
▁excess	-11.7498
▁inhibit	-11.7499
▁composer	-11.7499
▁loving	-11.7499
▁tlatoani	-11.7499
▁valid	-11.7499
osentlalijquej	-11.7499
▁saniman	-11.7499
▁firing	-11.7499
tocayotique	-11.7499
▁chef	-11.7499
▁seemingly	-11.7499
▁minus	-11.7499
▁yequene	-11.7499
umbling	-11.7499
▁Lord	-11.75
▁interfere	-11.7502
▁assure	-11.751
violence	-11.7538
mimicry	-11.7584
tlacuilol	-11.7638
innovation	-11.7732
film	-11.7734
panoque	-11.776
▁satisfy	-11.7784
chiuhcnahui	-11.7784
▁Architect	-11.7784
▁Egipto	-11.7784
▁Indonesia	-11.7784
▁Mumbai	-11.7784
▁SETI	-11.7784
▁abundance	-11.7784
▁calendar	-11.7784
▁catastrophe	-11.7784
▁communicating	-11.7784
▁contributing	-11.7784
▁huehyi	-11.7784
▁kuamekat	-11.7784
▁luxury	-11.7784
▁peculiar	-11.7784
▁receptor	-11.7784
▁scrap	-11.7784
▁skeleton	-11.7784
▁strategic	-11.7784
▁Tonatiuh	-11.7784
▁famine	-11.7784
▁nanakat	-11.7784
▁psychiatri	-11.7784
▁redefine	-11.7784
▁reputation	-11.7784
▁striking	-11.7784
atlactlomome	-11.7784
▁GPS	-11.7784
▁Seattle	-11.7784
▁kingdom	-11.7784
▁monotsa	-11.7784
▁ocuicaquej	-11.7784
▁smoking	-11.7784
▁Nelson	-11.7784
▁brush	-11.7784
▁violin	-11.7784
▁separation	-11.7784
▁cocaine	-11.7784
▁vivid	-11.7784
▁investigate	-11.7784
▁omomiquili	-11.7784
▁geek	-11.7784
▁silicon	-11.7784
▁lonely	-11.7784
▁Saulo	-11.7784
▁blink	-11.7784
vascular	-11.7784
▁swing	-11.7784
▁chew	-11.7785
▁onstage	-11.7785
▁nochtin	-11.7785
▁slope	-11.7785
▁yahque	-11.7785
▁crude	-11.7785
▁clone	-11.7785
teyaxcahuan	-11.7785
▁Rosling	-11.7785
mahuiço	-11.7786
tetlayocolil	-11.7786
▁neurologic	-11.7788
oquintlapejpenij	-11.78
cnopil	-11.7803
▁Treat	-11.7815
▁chicueyi	-11.7834
horn	-11.7883
▁swo	-11.7991
Please	-11.8026
religion	-11.8026
government	-11.8027
from	-11.8027
maceual	-11.8075
yolihuitij	-11.8078
▁Building	-11.8078
▁Carolina	-11.8078
▁Victoria	-11.8078
▁approximately	-11.8078
▁choosing	-11.8078
▁exquisite	-11.8078
▁hemisphere	-11.8078
▁inequality	-11.8078
▁introduction	-11.8078
▁leopard	-11.8078
▁metabolism	-11.8078
▁nenquinemiliaj	-11.8078
▁nurture	-11.8078
▁oquitecaquiti	-11.8078
▁otlejcoc	-11.8078
▁swallow	-11.8078
▁technician	-11.8078
▁terrific	-11.8078
▁timacehualtin	-11.8078
▁tiotlajtojli	-11.8078
▁toachtojtajhuan	-11.8078
▁vibration	-11.8078
sufficient	-11.8078
▁destination	-11.8078
▁fault	-11.8078
▁nowadays	-11.8078
▁tlamatquilistli	-11.8078
▁trivial	-11.8078
▁guitar	-11.8078
▁minimal	-11.8078
▁XXI	-11.8078
▁pipiltin	-11.8078
▁therapies	-11.8078
▁Doctor	-11.8078
Qaeda	-11.8078
▁tonaltzintli	-11.8078
▁whisper	-11.8078
▁choir	-11.8078
▁oyeya	-11.8078
▁unseen	-11.8078
▁cream	-11.8078
▁ultra	-11.8078
▁Sarah	-11.8078
▁Jill	-11.8078
▁browse	-11.8079
▁civic	-11.8079
▁tropic	-11.8079
▁blast	-11.808
eastern	-11.8084
▁mechpalehui	-11.8109
▁merge	-11.8129
▁Medica	-11.8135
apachiuh	-11.8177
▁stereo	-11.8215
mahuizo	-11.825
driven	-11.833
chicome	-11.833
shift	-11.8331
maquili	-11.8356
▁unfortunate	-11.8365
nformation	-11.8379
ustainable	-11.838
cuitlaxcol	-11.8381
▁Babylon	-11.8381
▁Education	-11.8381
▁Environment	-11.8381
▁Jupiter	-11.8381
▁Sebastián	-11.8381
▁anonymous	-11.8381
▁chunk	-11.8381
▁configuration	-11.8381
▁currency	-11.8381
▁generosity	-11.8381
▁inevitably	-11.8381
▁intimacy	-11.8381
▁intriguing	-11.8381
▁introvert	-11.8381
▁maxitico	-11.8381
▁miércoles	-11.8381
▁quimatzticatca	-11.8381
▁spaghetti	-11.8381
▁synapse	-11.8381
▁tianquizco	-11.8381
▁uejueyi	-11.8381
▁veteran	-11.8381
▁ahcico	-11.8381
▁ambition	-11.8381
▁delicious	-11.8381
▁passenger	-11.8381
▁tlahuejli	-11.8381
▁trading	-11.8381
▁contaminat	-11.8381
▁expense	-11.8381
▁nennemij	-11.8381
tequipanoj	-11.8381
▁workforce	-11.8381
▁historian	-11.8381
▁trunk	-11.8381
▁intrinsic	-11.8381
▁omacoc	-11.8381
atlactlomey	-11.8381
▁brutal	-11.8381
▁Half	-11.8381
▁admire	-11.8381
▁bombsight	-11.8381
▁blade	-11.8381
▁IBM	-11.8382
▁shining	-11.8382
tequipanohua	-11.8382
▁combat	-11.8382
Patient	-11.8385
quiçato	-11.84
huaxca	-11.8416
rrier	-11.8423
tiochihualistli	-11.8447
visualizations	-11.8455
monequilti	-11.847
▁quinemili	-11.8604
cultural	-11.8642
▁Quema	-11.8687
▁counsel	-11.8694
▁maneuver	-11.8694
iapóstol	-11.8694
machiztico	-11.8694
▁Although	-11.8694
▁Elizabeth	-11.8694
▁Monamaka	-11.8694
▁Namibia	-11.8694
▁November	-11.8694
▁Stewart	-11.8694
▁Switzerland	-11.8694
▁accelerating	-11.8694
▁adolescent	-11.8694
▁alphabet	-11.8694
▁calculator	-11.8694
▁calculus	-11.8694
▁devastating	-11.8694
▁diagnosis	-11.8694
▁diplomacy	-11.8694
▁episode	-11.8694
▁explicit	-11.8694
▁festival	-11.8694
▁grandparents	-11.8694
▁huallehuaque	-11.8694
▁literacy	-11.8694
▁microphone	-11.8694
▁millennia	-11.8694
▁nesehuijli	-11.8694
▁obtain	-11.8694
▁palacio	-11.8694
▁philosophical	-11.8694
▁prevalence	-11.8694
▁recognizing	-11.8694
▁regenerate	-11.8694
▁sensitivity	-11.8694
▁squeeze	-11.8694
▁symmetrical	-11.8694
▁tecpatl	-11.8694
▁vaccinat	-11.8694
▁Wood	-11.8694
▁algae	-11.8694
▁eternal	-11.8694
▁helmet	-11.8694
▁knife	-11.8694
▁majyá	-11.8694
▁octopus	-11.8694
▁onotelquetz	-11.8694
▁surgeries	-11.8694
▁Martín	-11.8694
▁Santiago	-11.8694
▁audiencia	-11.8694
▁contrary	-11.8694
▁gasoline	-11.8694
▁volcano	-11.8694
mpoyon	-11.8694
▁Tokyo	-11.8694
▁onimitz	-11.8694
▁statue	-11.8694
▁blur	-11.8694
▁conceive	-11.8694
▁pigeon	-11.8694
▁checklist	-11.8694
▁Tibet	-11.8694
▁turtle	-11.8694
▁mayanquej	-11.8694
oriented	-11.8694
▁unveil	-11.8694
▁copied	-11.8694
▁Lyn	-11.8694
▁inherit	-11.8694
tzauhc	-11.8694
▁crank	-11.8694
▁entry	-11.8695
▁tayi	-11.8698
▁initiat	-11.8727
▁Melch	-11.8743
ightened	-11.8793
▁oquinisihuij	-11.8816
Xitlaj	-11.885
programmed	-11.8917
▁tlajyohui	-11.9016
Lástima	-11.9016
▁Brooklyn	-11.9016
▁Buddhist	-11.9016
▁Charlie	-11.9016
▁Galapagos	-11.9016
▁Jonathan	-11.9016
▁Journal	-11.9016
▁Kennedy	-11.9016
▁Natasha	-11.9016
▁Singapore	-11.9016
▁Teszler	-11.9016
▁authoritarian	-11.9016
▁broccoli	-11.9016
▁centimeter	-11.9016
▁chemotherapy	-11.9016
▁congestion	-11.9016
▁dragonflies	-11.9016
▁entrance	-11.9016
▁frequencies	-11.9016
▁glorious	-11.9016
▁hamburger	-11.9016
▁hierarchy	-11.9016
▁huajmostla	-11.9016
▁iglesia	-11.9016
▁improvise	-11.9016
▁institute	-11.9016
▁intersection	-11.9016
▁juvenile	-11.9016
▁longevity	-11.9016
▁maintenance	-11.9016
▁meditation	-11.9016
▁migraine	-11.9016
▁minority	-11.9016
▁oztomeca	-11.9016
▁pesticide	-11.9016
▁pricing	-11.9016
▁temporal	-11.9016
▁tlanamactin	-11.9016
▁tlatilulca	-11.9016
▁stadium	-11.9016
▁xitomatl	-11.9016
▁Civil	-11.9016
▁fiscal	-11.9016
▁ohualajquej	-11.9016
enquiselijquej	-11.9016
▁tlahuijli	-11.9016
▁obese	-11.9016
▁piltzintli	-11.9016
▁Montana	-11.9017
▁huicci	-11.9017
▁Power	-11.9017
▁Atlanta	-11.9017
▁blah	-11.9017
▁proceed	-11.9017
▁Kelly	-11.9017
▁headache	-11.9017
nextijquej	-11.9018
▁digitize	-11.9018
▁fungi	-11.9021
yolcoco	-11.9023
nochili	-11.9026
▁kidnap	-11.9032
▁strap	-11.9033
▁overlap	-11.9121
▁quipalehui	-11.917
quitzqui	-11.9187
kuouit	-11.9298
Would	-11.9298
generation	-11.9298
universe	-11.9298
▁associate	-11.9314
namacaya	-11.932
▁Whit	-11.9327
+	-11.935
ernández	-11.935
▁Ahuexotl	-11.935
▁Austria	-11.935
▁Brothers	-11.935
▁Canadian	-11.935
▁Caribbean	-11.935
▁Compassion	-11.935
▁Kosovo	-11.935
▁Macedonia	-11.935
▁Nazaret	-11.935
▁Phoenix	-11.935
▁Pretty	-11.935
▁Student	-11.935
▁TEDGlobal	-11.935
▁Technology	-11.935
▁Telescope	-11.935
▁Tziuhtlacauhqui	-11.935
▁aluminum	-11.935
▁anniversary	-11.935
▁awkward	-11.935
▁coordination	-11.935
▁deficit	-11.935
▁divorce	-11.935
▁electromagnetic	-11.935
▁estacas	-11.935
▁gadget	-11.935
▁gravitational	-11.935
▁heavily	-11.935
▁innovator	-11.935
▁integrity	-11.935
▁iregión	-11.935
▁mahtlactli	-11.935
▁mojmostla	-11.935
▁nohpalli	-11.935
▁noviembre	-11.935
▁occupy	-11.935
▁reproduction	-11.935
▁submarine	-11.935
▁submersible	-11.935
▁suspicious	-11.935
▁uejka	-11.935
▁virgin	-11.935
▁Computer	-11.935
▁inexpensive	-11.935
▁prescription	-11.935
▁prince	-11.935
▁tlamachalistli	-11.935
▁Alaska	-11.935
▁calpolli	-11.935
▁invitation	-11.935
▁peanut	-11.935
▁soccer	-11.935
▁purple	-11.935
▁swarm	-11.935
illennium	-11.935
▁FDA	-11.935
▁leather	-11.935
▁hualmochiuhtia	-11.935
▁Keith	-11.935
▁heritage	-11.935
▁noyojlo	-11.935
HUA	-11.935
▁mysteries	-11.935
uhtecatlteuhctli	-11.935
generative	-11.935
▁warrior	-11.935
▁erupt	-11.935
▁bonus	-11.935
▁cubic	-11.935
▁Uitzil	-11.935
▁ocualan	-11.935
▁xchipahuac	-11.935
▁greet	-11.9351
▁generic	-11.9352
tlatocauh	-11.9353
▁momiquili	-11.9353
mahuiztili	-11.9357
▁mitohua	-11.9362
▁ytocayoca	-11.937
ncidentally	-11.9569
positive	-11.9643
society	-11.9643
Cristo	-11.9643
climate	-11.9643
building	-11.9679
gnostic	-11.9695
quintlajyohuilti	-11.9695
▁1613	-11.9695
▁Columbia	-11.9695
▁Country	-11.9695
▁César	-11.9695
▁Empire	-11.9695
▁Fernando	-11.9695
▁Mendoça	-11.9695
▁Netherlands	-11.9695
▁Tasmanian	-11.9695
▁Tuesday	-11.9695
▁Twenty	-11.9695
▁Venezuela	-11.9695
▁adolescence	-11.9695
▁advocate	-11.9695
▁assistance	-11.9695
▁association	-11.9695
▁calculating	-11.9695
▁catastrophic	-11.9695
▁cholera	-11.9695
▁comendador	-11.9695
▁convincing	-11.9695
▁cuajcualtin	-11.9695
▁default	-11.9695
▁executive	-11.9695
▁fantasy	-11.9695
▁happiest	-11.9695
▁infrared	-11.9695
▁injuries	-11.9695
▁janitor	-11.9695
▁matrix	-11.9695
▁parliament	-11.9695
▁significance	-11.9695
▁stabilize	-11.9695
▁stumble	-11.9695
▁sympath	-11.9695
▁terrain	-11.9695
▁album	-11.9695
▁cocoxquej	-11.9695
▁deliberate	-11.9695
▁elevate	-11.9695
▁gecko	-11.9695
▁imperative	-11.9695
▁ixochiyo	-11.9695
▁ocontilan	-11.9695
▁generator	-11.9695
▁jungle	-11.9695
▁sneak	-11.9695
pajpata	-11.9695
▁intensive	-11.9695
▁spatial	-11.9695
▁tlalnacayotl	-11.9695
▁Lopez	-11.9695
▁Rachel	-11.9695
▁faint	-11.9695
▁Elías	-11.9695
▁Little	-11.9695
▁applies	-11.9695
▁memorize	-11.9695
▁opanoc	-11.9695
▁ahuilnemi	-11.9695
▁creep	-11.9695
▁xtlaneltoca	-11.9695
▁morph	-11.9695
▁missile	-11.9695
▁crater	-11.9695
▁xinech	-11.9695
▁Angelin	-11.9695
telpoch	-11.9696
▁correlate	-11.9793
yectlali	-11.9793
▁tlamachijchi	-11.9906
▁tlanamaca	-11.9921
tlahtocatlalli	-11.9943
philosophy	-12
industrial	-12
etween	-12.0051
▁sweep	-12.0052
lajsojcaicnihuan	-12.0052
▁Academy	-12.0052
▁Business	-12.0052
▁Chapoltepec	-12.0052
▁Christóval	-12.0052
▁Momochco	-12.0052
▁Society	-12.0052
▁Sputnik	-12.0052
▁Thailand	-12.0052
▁absurd	-12.0052
▁accuracy	-12.0052
▁ambitious	-12.0052
▁borreguito	-12.0052
▁convicted	-12.0052
▁council	-12.0052
▁elevator	-12.0052
▁envelope	-12.0052
▁eradication	-12.0052
▁ethanol	-12.0052
▁grocery	-12.0052
▁intangible	-12.0052
▁integration	-12.0052
▁legitimate	-12.0052
▁libraries	-12.0052
▁monsoon	-12.0052
▁obsession	-12.0052
▁occupation	-12.0052
▁onoquetzteu	-12.0052
▁oyejcoc	-12.0052
▁remarkably	-12.0052
▁septiembre	-12.0052
▁stimulation	-12.0052
▁sulfur	-12.0052
▁surviving	-12.0052
▁tangible	-12.0052
▁teixhuiu	-12.0052
▁temachtijquetl	-12.0052
▁thrive	-12.0052
▁tlahuicxitilli	-12.0052
▁tofirma	-12.0052
▁tojlamej	-12.0052
▁unleash	-12.0052
▁xnenquimatij	-12.0052
▁anthropologist	-12.0052
▁chord	-12.0052
▁enthusiast	-12.0052
▁humility	-12.0052
▁stereotype	-12.0052
▁plankton	-12.0052
herently	-12.0052
zcatqui	-12.0052
▁protocol	-12.0052
▁suitcase	-12.0052
▁tiotlac	-12.0052
▁geography	-12.0052
▁debris	-12.0052
▁mankind	-12.0052
▁shaking	-12.0052
▁orgasm	-12.0052
▁steep	-12.0052
▁Siberia	-12.0052
▁grape	-12.0052
▁chaotic	-12.0052
▁resonate	-12.0053
▁prophet	-12.0053
▁Large	-12.0055
▁swap	-12.0055
oquinemilij	-12.0058
▁niquijtos	-12.0235
▁pursu	-12.0252
sustainability	-12.037
conflict	-12.037
▁Univers	-12.0421
equichihuilijcau	-12.0422
▁Food	-12.0422
▁Government	-12.0422
▁Himalaya	-12.0422
▁Jerusalem	-12.0422
▁Ministry	-12.0422
▁Organization	-12.0422
▁Secretary	-12.0422
▁abundant	-12.0422
▁cathedral	-12.0422
▁circular	-12.0422
▁cocktail	-12.0422
▁criteria	-12.0422
▁flexibility	-12.0422
▁kindergarten	-12.0422
▁offspring	-12.0422
▁oquetzteu	-12.0422
▁principal	-12.0422
▁sequencing	-12.0422
▁terrified	-12.0422
▁ultraviolet	-12.0422
▁vocabulary	-12.0422
castigaros	-12.0422
▁Hindu	-12.0422
▁appliance	-12.0422
▁holiday	-12.0422
▁obscur	-12.0422
▁Mozart	-12.0422
▁dissolve	-12.0422
▁drought	-12.0422
▁powder	-12.0422
▁settlement	-12.0422
▁vacation	-12.0422
▁Isabel	-12.0422
▁xoletl	-12.0422
▁Office	-12.0422
▁commute	-12.0422
▁innovate	-12.0422
tsitsin	-12.0422
▁smash	-12.0422
▁mixture	-12.0422
▁quenmanian	-12.0422
▁stigma	-12.0422
▁ciento	-12.0422
▁taboo	-12.0422
▁ancestr	-12.0422
▁oksi	-12.0422
zetzel	-12.0422
▁immerse	-12.0423
machiltia	-12.0424
Nimitz	-12.0426
zajlan	-12.0427
hicuacen	-12.0427
▁folk	-12.0484
ixtlalo	-12.0714
condition	-12.0755
poetry	-12.0755
wheel	-12.0755
effective	-12.0755
security	-12.0755
compassion	-12.0755
community	-12.0755
Thank	-12.0755
nomachtijcahuan	-12.0765
▁Amaqueme	-12.08
▁differ	-12.0803
cientific	-12.0805
tlamatquilis	-12.0807
voluntary	-12.0807
▁Beethoven	-12.0807
▁Conference	-12.0807
▁Defense	-12.0807
▁Field	-12.0807
▁Gordon	-12.0807
▁Magdalena	-12.0807
▁Suppose	-12.0807
▁Supreme	-12.0807
▁Teocaltitlan	-12.0807
▁Timoteo	-12.0807
▁celebrity	-12.0807
▁embracing	-12.0807
▁feminist	-12.0807
▁frightened	-12.0807
▁galleries	-12.0807
▁guidance	-12.0807
▁improvisation	-12.0807
▁injustice	-12.0807
▁kitalilia	-12.0807
▁mammogram	-12.0807
▁microscopic	-12.0807
▁neglect	-12.0807
▁nenquineltocaj	-12.0807
▁nohueyimati	-12.0807
▁nurturing	-12.0807
▁observing	-12.0807
▁practicing	-12.0807
▁reclaim	-12.0807
▁reinforce	-12.0807
▁relativity	-12.0807
▁teicnelilistli	-12.0807
▁tlacochcalca	-12.0807
▁tlaxilacaleque	-12.0807
▁totlaçonantzin	-12.0807
▁undergraduate	-12.0807
▁vibrating	-12.0807
▁wavelength	-12.0807
▁Jefferson	-12.0807
▁Laptop	-12.0807
▁eBay	-12.0807
▁ghost	-12.0807
▁mechtiochihua	-12.0807
▁miniatur	-12.0807
▁nosehuiaj	-12.0807
▁ohuajnotelquetz	-12.0807
▁preparation	-12.0807
▁sovereign	-12.0807
▁vector	-12.0807
▁1997	-12.0807
▁cabinet	-12.0807
▁fishermen	-12.0807
▁paralysis	-12.0807
Xhuajla	-12.0807
▁delusion	-12.0807
▁kineki	-12.0807
▁Bruce	-12.0807
▁History	-12.0807
▁curator	-12.0807
Á	-12.1207
=	-12.3489
—	-12.5107
#	-12.6451
	-12.7165
ö	-12.7165
@	-12.8767
%	-12.8767
*	-12.9677
–	-13.0677
ü	-13.0677
è	-13.3038
ä	-13.4466
	-13.4466
(	-13.6081
ë	-13.8133
^	-14.0633
ê	-14.0633
♫	-14.3915
É	-14.3966
â	-14.3966
|	-14.3966
à	-14.3966
ã	-14.3966
	-14.8966
»	-14.8966
ô	-14.8966
“	-15.8919
•	-15.8958
ø	-15.8959
	-15.896
`	-15.8961
‘	-15.8962
Ç	-15.8963
$	-15.8964
―	-15.8965
ï	-15.8966
ò	-15.8966
ā	-15.8966
{	-15.8966
£	-15.8966
«	-15.8966
Í	-15.8966
Ñ	-15.8966
î	-15.8966
ć	-15.8966
ē	-15.8966
ĭ	-15.8966
ľ	-15.8966
̊	-15.8966
你	-15.8966
葱	-15.8966
\	-15.8966
Ú	-15.8966
ñ	-15.8966
送	-15.8966
