<pad>	0
<unk>	0
<s>	0
</s>	0
None	0
,	-2.98011
.	-3.14154
▁the	-3.3984
s	-3.43141
'	-3.85969
▁to	-3.88109
▁of	-3.94841
▁a	-3.96648
▁and	-4.08712
▁that	-4.21938
▁I	-4.27351
▁in	-4.35917
▁is	-4.51859
▁you	-4.52494
▁it	-4.53372
▁we	-4.70848
▁And	-4.80308
t	-4.94443
▁this	-4.95351
▁--	-5.20723
▁was	-5.29704
▁for	-5.34998
▁have	-5.40285
▁are	-5.41932
▁on	-5.42292
▁they	-5.45554
re	-5.49626
▁with	-5.51626
-	-5.5259
▁can	-5.52999
▁So	-5.57056
ing	-5.58808
▁what	-5.60233
▁about	-5.63479
▁be	-5.64189
d	-5.6744
?	-5.72971
ed	-5.76004
▁do	-5.77518
▁"	-5.79751
▁all	-5.79774
▁at	-5.80725
▁not	-5.83248
▁one	-5.86869
m	-5.87602
▁there	-5.88364
▁like	-5.94686
▁so	-5.9493
▁It	-5.96055
▁from	-5.96673
▁people	-5.96791
▁as	-5.99453
▁my	-5.99688
:	-6.00491
▁an	-6.03845
▁just	-6.10892
▁but	-6.12084
▁very	-6.1358
▁know	-6.14229
▁out	-6.15519
▁We	-6.15991
▁But	-6.16693
▁or	-6.16917
▁our	-6.18631
▁these	-6.18728
▁if	-6.18929
▁me	-6.19868
▁going	-6.21176
▁The	-6.21898
▁up	-6.21986
ve	-6.22168
▁he	-6.25757
▁by	-6.27892
▁	-6.29103
_	-6.29656
▁see	-6.3079
▁them	-6.31027
▁think	-6.34225
▁when	-6.34976
▁because	-6.35389
▁which	-6.36103
▁had	-6.37714
▁more	-6.38765
▁get	-6.39207
▁really	-6.40701
."	-6.41012
▁who	-6.41666
▁how	-6.43163
▁your	-6.44168
ly	-6.44316
▁would	-6.46063
▁here	-6.48253
▁their	-6.49275
y	-6.49504
▁were	-6.5054
▁This	-6.51754
▁world	-6.52595
▁time	-6.52716
▁then	-6.55682
▁us	-6.56143
▁has	-6.58016
▁You	-6.58156
▁don	-6.59093
▁actually	-6.59095
▁way	-6.6014
▁some	-6.60319
▁into	-6.60552
▁go	-6.6328
▁things	-6.63718
▁want	-6.65945
▁now	-6.68761
▁will	-6.69306
▁other	-6.6944
▁years	-6.69723
▁where	-6.69781
er	-6.70379
ll	-6.70624
▁make	-6.71747
▁Now	-6.76034
▁They	-6.77522
n	-6.77669
▁could	-6.78852
▁said	-6.80098
▁been	-6.80674
c	-6.8093
e	-6.83685
▁♫	-6.84352
▁something	-6.85811
▁right	-6.86028
▁thing	-6.88329
al	-6.88559
▁no	-6.89677
▁little	-6.9101
▁two	-6.91315
▁got	-6.92051
▁much	-6.9473
▁first	-6.94901
▁look	-6.96282
▁over	-6.97404
▁say	-6.97544
▁back	-6.97823
r	-6.97938
▁than	-6.98524
a	-6.98717
p	-7.01039
▁his	-7.01206
▁those	-7.01588
▁kind	-7.01874
▁work	-7.02162
▁That	-7.03426
▁also	-7.037
▁life	-7.04646
▁In	-7.09513
▁she	-7.09839
▁need	-7.09907
▁take	-7.11764
es	-7.11877
▁lot	-7.1292
;	-7.14566
▁only	-7.15635
▁most	-7.16069
▁new	-7.16443
▁A	-7.17965
▁good	-7.18239
▁even	-7.18552
o	-7.18607
▁did	-7.19849
▁around	-7.20292
▁He	-7.20318
▁There	-7.21282
▁down	-7.22469
▁many	-7.23018
i	-7.24408
▁different	-7.25654
▁What	-7.26111
/	-7.26758
▁come	-7.29296
▁through	-7.29437
▁her	-7.30501
▁put	-7.31921
▁use	-7.33051
▁same	-7.35386
▁being	-7.36714
▁doing	-7.37029
in	-7.37376
▁every	-7.39264
▁three	-7.39878
l	-7.42153
▁If	-7.43109
g	-7.45996
▁day	-7.46216
▁called	-7.46302
▁talk	-7.46773
▁well	-7.49093
▁any	-7.50013
▁give	-7.5077
th	-7.51727
▁made	-7.51898
▁fact	-7.5218
▁tell	-7.53884
b	-7.54105
▁human	-7.55149
▁year	-7.55284
▁Well	-7.56213
or	-7.56651
▁percent	-7.5687
▁why	-7.57159
▁change	-7.59028
▁great	-7.59177
▁idea	-7.5934
▁find	-7.59882
ted	-7.60603
▁own	-7.61445
▁re	-7.61917
▁thought	-7.62338
?"	-7.62637
▁last	-7.62666
en	-7.63115
▁should	-7.63844
ic	-7.63944
▁big	-7.65359
▁let	-7.65404
"	-7.65447
▁didn	-7.65709
▁show	-7.65759
▁went	-7.67145
▁today	-7.67324
▁after	-7.6801
▁bit	-7.68184
▁course	-7.68431
▁part	-7.68517
▁off	-7.70174
▁start	-7.7076
com	-7.70939
▁another	-7.71112
▁started	-7.71117
▁problem	-7.72582
▁brain	-7.72891
▁before	-7.73597
▁system	-7.73767
▁story	-7.74805
▁important	-7.75223
▁place	-7.7569
▁mean	-7.75781
▁S	-7.76856
▁long	-7.77414
▁never	-7.77657
u	-7.78106
le	-7.78139
▁Thank	-7.78387
on	-7.78414
▁better	-7.78557
▁end	-7.78707
▁sort	-7.7874
▁able	-7.79205
▁might	-7.7965
▁ago	-7.79703
▁him	-7.80889
▁came	-7.81326
▁together	-7.81546
▁next	-7.81957
I	-7.81984
▁does	-7.82076
▁again	-7.82279
▁point	-7.82456
▁water	-7.82595
h	-7.83724
▁still	-7.85951
▁each	-7.86027
▁technology	-7.86155
▁Because	-7.86382
ri	-7.86705
k	-7.87002
ar	-7.87223
▁real	-7.87368
▁few	-7.87778
ro	-7.88156
ur	-7.88338
se	-7.88918
▁whole	-7.89923
▁question	-7.89966
▁between	-7.90257
▁love	-7.90491
ation	-7.90494
▁found	-7.91208
▁10	-7.9139
S	-7.91628
▁used	-7.92145
▁done	-7.92245
▁understand	-7.92452
▁C	-7.93032
▁B	-7.93545
▁When	-7.93603
▁too	-7.93861
▁de	-7.94652
▁looking	-7.94746
la	-7.94804
,"	-7.95092
▁million	-7.95342
▁example	-7.9591
▁doesn	-7.96223
ers	-7.96868
▁call	-7.96986
▁E	-7.97124
it	-7.97459
ion	-7.99362
▁design	-7.99411
▁children	-7.9948
▁help	-7.99599
▁light	-8.0035
able	-8.00461
el	-8.00904
▁believe	-8.01239
▁always	-8.01872
f	-8.01896
▁data	-8.02031
▁try	-8.0212
▁wanted	-8.02416
▁person	-8.02527
▁space	-8.02811
▁four	-8.03173
▁live	-8.03533
▁feel	-8.03971
www	-8.04075
▁may	-8.04634
://	-8.04677
talks	-8.04752
▁un	-8.0502
html	-8.05194
▁ht	-8.05355
▁s	-8.05377
▁school	-8.05578
▁power	-8.05761
▁trying	-8.05928
ment	-8.06047
tp	-8.0617
▁away	-8.0647
▁ever	-8.07644
▁working	-8.0774
▁How	-8.0802
▁women	-8.09721
▁20	-8.10057
▁sense	-8.10075
▁play	-8.10699
li	-8.11456
▁car	-8.1148
ra	-8.1202
▁kids	-8.12276
A	-8.12405
▁country	-8.1266
▁second	-8.13044
▁create	-8.1308
▁everything	-8.13405
▁five	-8.13704
▁money	-8.13783
ch	-8.13951
▁F	-8.14271
▁took	-8.14637
▁stuff	-8.14731
▁One	-8.15259
▁man	-8.15266
▁home	-8.1615
▁She	-8.16798
▁T	-8.16912
an	-8.17251
▁information	-8.17728
▁future	-8.17739
▁food	-8.17838
▁using	-8.17933
▁maybe	-8.1794
▁high	-8.18099
ne	-8.18374
▁old	-8.18782
▁side	-8.19074
▁enough	-8.19213
▁getting	-8.19537
▁interesting	-8.19598
il	-8.19916
▁quite	-8.19916
▁number	-8.19933
▁building	-8.19973
▁thinking	-8.2019
▁Africa	-8.20307
▁left	-8.20314
▁small	-8.20571
▁energy	-8.20627
▁These	-8.20815
▁hand	-8.21012
ity	-8.21188
us	-8.2173
▁become	-8.22026
ness	-8.22113
ive	-8.22359
to	-8.22988
▁U	-8.23103
te	-8.23534
▁probably	-8.238
▁happened	-8.24821
▁simple	-8.25059
▁means	-8.25339
▁making	-8.25613
▁Here	-8.25613
▁best	-8.26018
▁move	-8.26361
▁ask	-8.26426
lo	-8.26977
▁room	-8.2743
▁coming	-8.27521
▁dollars	-8.27678
▁talking	-8.27813
▁comes	-8.27816
▁says	-8.28278
▁For	-8.28303
▁build	-8.28672
is	-8.28814
!	-8.29661
ist	-8.29843
ter	-8.30117
▁My	-8.30271
▁anything	-8.30711
ce	-8.31592
▁pretty	-8.31834
▁without	-8.31963
ck	-8.31998
▁social	-8.32082
▁less	-8.32165
▁under	-8.32196
▁bring	-8.32237
▁hard	-8.32259
▁care	-8.32493
▁happen	-8.32616
ent	-8.33122
▁body	-8.33214
the	-8.33485
at	-8.33689
▁moment	-8.34586
▁picture	-8.34885
▁science	-8.35245
ma	-8.35374
▁goes	-8.35516
▁project	-8.35624
▁reason	-8.35877
▁across	-8.36344
▁book	-8.36429
’	-8.36462
▁bad	-8.36674
est	-8.36884
▁half	-8.37666
C	-8.37709
v	-8.37955
▁saw	-8.38144
ul	-8.38149
▁case	-8.38216
▁else	-8.38253
▁mind	-8.38829
as	-8.3913
▁set	-8.39222
▁Earth	-8.39226
▁such	-8.39471
▁business	-8.39895
▁form	-8.39967
et	-8.40048
▁computer	-8.40728
▁far	-8.40818
▁seen	-8.40876
▁told	-8.40876
▁countries	-8.41814
▁planet	-8.42159
▁read	-8.42193
▁basically	-8.42194
▁open	-8.42229
▁Let	-8.42684
▁living	-8.42817
▁learn	-8.43151
ta	-8.43279
▁process	-8.43505
▁experience	-8.43751
▁All	-8.4382
▁New	-8.43836
▁No	-8.43933
▁am	-8.43946
▁OK	-8.44106
▁hope	-8.44116
▁having	-8.44344
▁happens	-8.44485
▁keep	-8.44495
▁art	-8.44728
▁billion	-8.45439
▁global	-8.45694
▁music	-8.45889
▁head	-8.45944
man	-8.46395
▁video	-8.46943
▁As	-8.47071
▁saying	-8.47413
▁six	-8.4768
▁inside	-8.47832
▁war	-8.47852
▁child	-8.48129
▁lives	-8.48342
▁per	-8.48537
▁answer	-8.48716
▁asked	-8.48789
D	-8.49196
▁ideas	-8.49249
▁later	-8.49252
▁single	-8.49612
▁p	-8.49722
▁health	-8.49893
ate	-8.50081
▁TED	-8.50526
▁guy	-8.50788
▁times	-8.51102
▁P	-8.51323
▁beautiful	-8.51375
▁G	-8.51492
▁history	-8.51528
▁cancer	-8.51793
▁family	-8.51926
▁K	-8.52306
▁makes	-8.52363
▁days	-8.52416
▁both	-8.5251
▁universe	-8.52628
ol	-8.52726
▁yet	-8.52903
ian	-8.52933
▁problems	-8.5306
ry	-8.53113
▁imagine	-8.53178
▁remember	-8.53178
▁matter	-8.53365
po	-8.53482
▁run	-8.54202
▁wrong	-8.54446
x	-8.5455
▁almost	-8.5473
▁possible	-8.54872
▁once	-8.54992
▁...	-8.5527
▁young	-8.55531
▁piece	-8.55552
▁share	-8.55963
ge	-8.5654
un	-8.56757
▁within	-8.56758
▁heart	-8.56762
▁culture	-8.56812
▁self	-8.56894
age	-8.56898
▁line	-8.57311
M	-8.57365
▁order	-8.5743
ia	-8.57525
▁turn	-8.5754
▁cells	-8.57614
▁top	-8.5764
less	-8.577
▁group	-8.5779
▁Why	-8.57811
▁f	-8.57852
me	-8.57896
▁while	-8.57911
▁couple	-8.58496
▁nothing	-8.58647
▁control	-8.58925
▁whether	-8.5894
▁heard	-8.59202
▁age	-8.59533
▁amazing	-8.59534
de	-8.59688
ies	-8.59738
▁India	-8.59833
▁often	-8.60021
2	-8.60117
up	-8.6054
▁research	-8.60695
1	-8.60697
▁face	-8.60855
▁already	-8.61188
▁true	-8.61191
ant	-8.61838
▁c	-8.61976
ha	-8.6212
id	-8.62156
w	-8.62238
▁figure	-8.62408
▁everybody	-8.6303
▁looked	-8.6313
P	-8.63296
ting	-8.63311
▁ways	-8.63435
▁men	-8.63551
▁nature	-8.63655
▁Ma	-8.6366
▁God	-8.63823
▁months	-8.63883
▁language	-8.6389
▁must	-8.63998
▁looks	-8.64103
co	-8.64301
]	-8.64424
▁United	-8.64424
▁public	-8.64431
▁con	-8.65122
sh	-8.65465
▁[	-8.65687
▁stop	-8.65697
▁city	-8.65735
▁stories	-8.66166
▁e	-8.66294
▁sure	-8.66744
▁community	-8.6697
▁name	-8.67175
▁environment	-8.67242
▁myself	-8.67638
▁30	-8.6821
▁50	-8.68248
▁taking	-8.68421
▁species	-8.68589
▁M	-8.687
▁built	-8.68752
▁model	-8.69215
▁itself	-8.69541
old	-8.69588
▁view	-8.69596
▁though	-8.70015
▁words	-8.70104
5	-8.70222
▁word	-8.70367
▁someone	-8.70624
▁Internet	-8.70894
▁until	-8.70894
▁woman	-8.70899
▁mother	-8.71058
The	-8.71078
▁places	-8.71295
8	-8.71423
▁oil	-8.71597
▁Or	-8.71664
ated	-8.7186
▁house	-8.7193
▁level	-8.72106
▁decided	-8.72194
▁somebody	-8.72252
▁past	-8.72621
▁happening	-8.72624
▁job	-8.72786
▁government	-8.72979
▁sound	-8.72989
▁States	-8.73247
am	-8.7345
▁disease	-8.73501
T	-8.73705
▁Then	-8.738
▁completely	-8.73831
▁large	-8.73851
ty	-8.73921
▁huge	-8.73954
▁front	-8.74155
op	-8.74454
▁since	-8.74641
ized	-8.74784
▁ourselves	-8.74813
▁education	-8.74844
▁15	-8.7501
▁land	-8.75298
▁exactly	-8.75358
B	-8.75448
▁D	-8.75487
▁hear	-8.75586
▁night	-8.75861
▁America	-8.76069
z	-8.76093
and	-8.76094
ling	-8.76504
ine	-8.7653
em	-8.76848
7	-8.77036
▁game	-8.77099
▁rather	-8.77102
▁wasn	-8.77122
ie	-8.77402
ism	-8.77519
6	-8.77706
rs	-8.77792
▁Do	-8.77794
▁J	-8.77807
▁g	-8.77876
▁At	-8.7816
▁along	-8.78247
▁free	-8.78376
▁animals	-8.78388
pe	-8.78764
▁won	-8.79268
▁ocean	-8.79352
▁minutes	-8.80004
▁learned	-8.80252
ho	-8.80281
▁became	-8.80718
▁themselves	-8.80902
▁issues	-8.81025
▁100	-8.81038
3	-8.81177
▁company	-8.81272
▁works	-8.81323
▁China	-8.81458
▁short	-8.81473
▁third	-8.81487
▁wonderful	-8.81491
▁isn	-8.81564
▁particular	-8.81671
ut	-8.81872
▁dis	-8.82154
▁pre	-8.82307
▁air	-8.82415
▁grow	-8.82421
ous	-8.82513
vi	-8.82598
▁early	-8.82791
▁cell	-8.82921
tic	-8.83108
▁happy	-8.83147
▁society	-8.83153
▁co	-8.83246
▁population	-8.83338
▁19	-8.83377
▁York	-8.83522
▁least	-8.83711
▁To	-8.83803
▁knew	-8.83902
▁market	-8.83965
▁created	-8.84025
4	-8.84219
▁study	-8.84291
▁turns	-8.84452
▁seven	-8.84474
▁couldn	-8.84579
ating	-8.84591
no	-8.84811
▁film	-8.84868
▁difference	-8.8493
▁guys	-8.84946
ni	-8.85147
▁sometimes	-8.85245
min	-8.85398
▁state	-8.85408
▁amount	-8.85634
▁outside	-8.86139
▁area	-8.86247
om	-8.86577
▁test	-8.87311
▁natural	-8.87438
▁eight	-8.87592
▁against	-8.87847
9	-8.8785
▁W	-8.87886
▁kinds	-8.87919
▁American	-8.87926
▁moving	-8.88178
▁beginning	-8.88185
▁hours	-8.88214
▁gave	-8.88377
▁deal	-8.88461
ru	-8.88676
Well	-8.88849
um	-8.88958
▁O	-8.8908
▁paper	-8.8938
▁everyone	-8.89613
ally	-8.89949
▁common	-8.89982
▁close	-8.90173
▁scale	-8.90235
▁friends	-8.90259
▁team	-8.90261
▁shows	-8.90304
▁cost	-8.90706
bo	-8.90759
▁worked	-8.90805
ig	-8.9087
▁terms	-8.90881
▁walk	-8.90947
▁entire	-8.91043
▁machine	-8.91046
▁taken	-8.91054
▁learning	-8.91397
ir	-8.91589
▁century	-8.91635
▁size	-8.91739
be	-8.91805
▁18	-8.9181
▁surface	-8.92025
▁image	-8.92322
▁pay	-8.92533
▁certain	-8.92695
▁buy	-8.92965
▁black	-8.93062
ke	-8.93114
na	-8.93599
▁students	-8.93672
▁full	-8.9375
▁program	-8.93881
▁sea	-8.94134
R	-8.94542
▁Okay	-8.94567
mi	-8.94583
▁leave	-8.9495
▁local	-8.94959
technology	-8.95203
▁map	-8.95311
,000	-8.95789
▁middle	-8.95811
▁behavior	-8.9594
▁news	-8.96251
E	-8.96484
▁powerful	-8.96558
▁questions	-8.96656
▁instead	-8.96672
▁12	-8.96807
▁thousands	-8.97042
ach	-8.97141
▁media	-8.97201
▁center	-8.97541
▁whatever	-8.97563
ary	-8.97577
do	-8.97794
ure	-8.97813
▁finally	-8.97828
ance	-8.97887
▁economic	-8.98328
▁perhaps	-8.98417
▁ma	-8.9853
▁fish	-8.98545
ize	-8.99029
nt	-8.99104
▁fun	-8.99335
▁eyes	-8.99336
▁support	-8.99746
▁seeing	-8.99862
▁difficult	-9.00266
▁father	-9.01095
▁N	-9.01102
ish	-9.01305
▁yourself	-9.01347
▁cannot	-9.01419
▁rest	-9.01783
▁blue	-9.01998
▁easy	-9.02001
during	-9.0237
▁interested	-9.02395
line	-9.02799
bi	-9.02805
mo	-9.0282
▁thank	-9.02988
▁Le	-9.02994
▁color	-9.03002
di	-9.03314
▁turned	-9.03409
▁feet	-9.03679
year	-9.03706
▁lots	-9.03885
▁personal	-9.03936
▁behind	-9.04074
▁ability	-9.04162
▁spend	-9.04172
▁cut	-9.04454
▁systems	-9.04616
▁stand	-9.0464
▁red	-9.04648
▁death	-9.04784
▁tried	-9.04816
▁given	-9.04827
▁gone	-9.04858
▁eat	-9.0494
▁week	-9.04941
ful	-9.05149
▁produce	-9.05374
ard	-9.0572
L	-9.05986
▁began	-9.06064
▁Mo	-9.06152
▁step	-9.06158
ton	-9.0622
▁longer	-9.06398
▁stage	-9.06453
▁movement	-9.06501
▁risk	-9.06669
▁poor	-9.06686
▁green	-9.06701
▁quickly	-9.06739
What	-9.06961
▁structure	-9.07075
hi	-9.07145
You	-9.07235
▁changed	-9.07691
▁takes	-9.08143
▁realized	-9.0821
▁cool	-9.08381
▁R	-9.08749
G	-9.08887
▁Be	-9.09005
ca	-9.09249
▁Some	-9.09262
▁People	-9.09338
▁fall	-9.0946
▁act	-9.09497
▁simply	-9.09578
▁die	-9.09781
▁situation	-9.09824
▁Right	-9.09831
▁Just	-9.09835
▁hands	-9.09917
▁complex	-9.10044
▁phone	-9.10114
▁political	-9.10319
▁nice	-9.10567
▁parts	-9.10807
▁DNA	-9.11065
▁Re	-9.11074
▁force	-9.11258
ial	-9.11597
▁low	-9.11737
▁incredible	-9.11817
▁individual	-9.11884
fi	-9.12109
▁b	-9.12156
K	-9.12286
▁experiment	-9.12409
▁present	-9.12488
▁write	-9.1255
▁non	-9.12821
▁blood	-9.13083
▁lost	-9.13096
▁sitting	-9.131
▁needed	-9.13163
▁challenge	-9.13195
▁feeling	-9.13519
▁fly	-9.13551
▁40	-9.13579
▁speak	-9.13831
O	-9.13833
▁Can	-9.13834
▁gets	-9.14024
▁known	-9.1404
▁spent	-9.14126
▁explain	-9.14195
▁value	-9.14253
▁audience	-9.14365
we	-9.14464
▁pro	-9.14465
▁brought	-9.14623
ag	-9.14734
▁friend	-9.14909
ba	-9.14928
▁allow	-9.14963
▁watch	-9.14977
ster	-9.15052
▁sub	-9.15097
▁either	-9.15403
▁World	-9.15664
▁economy	-9.15664
▁bottom	-9.16188
▁ground	-9.16213
▁animal	-9.16402
▁Not	-9.16434
▁opportunity	-9.16451
▁starting	-9.16483
F	-9.16542
▁hold	-9.16619
▁drive	-9.1662
▁deep	-9.16676
▁material	-9.16949
▁On	-9.16975
▁voice	-9.16979
▁growth	-9.17068
ex	-9.17478
▁plan	-9.17543
▁ice	-9.17904
▁shape	-9.17979
▁dark	-9.18286
he	-9.18384
▁English	-9.18851
N	-9.18894
▁technologies	-9.19121
▁climate	-9.19136
▁hit	-9.19254
ran	-9.19295
▁growing	-9.1939
▁cities	-9.19408
▁forward	-9.19513
pa	-9.19653
▁wrote	-9.19664
▁felt	-9.19665
wa	-9.19799
▁weeks	-9.19857
▁based	-9.1993
▁books	-9.20063
▁average	-9.2021
▁message	-9.20219
▁patient	-9.20302
▁field	-9.20317
▁parents	-9.20348
▁measure	-9.20414
king	-9.20602
▁special	-9.20653
▁morning	-9.21034
▁born	-9.21073
▁lab	-9.21306
▁miles	-9.21364
▁needs	-9.21481
▁action	-9.21481
▁sun	-9.21516
▁pick	-9.22121
▁theory	-9.22196
▁De	-9.22229
▁images	-9.2228
▁village	-9.22423
▁Ba	-9.22553
▁ex	-9.22598
▁literally	-9.22714
▁attention	-9.23266
▁fire	-9.23269
▁white	-9.23311
per	-9.23393
▁focus	-9.23426
▁companies	-9.23831
▁reality	-9.23948
▁clear	-9.23956
▁evolution	-9.2413
science	-9.24213
▁understanding	-9.24372
▁wouldn	-9.24489
▁break	-9.24616
▁modern	-9.24686
▁key	-9.24687
▁Yeah	-9.24732
▁approach	-9.24888
▁guess	-9.24974
▁impact	-9.24976
▁song	-9.24984
▁girl	-9.25214
▁eye	-9.25218
▁developed	-9.2527
▁v	-9.25389
▁po	-9.25444
▁result	-9.25515
▁knowledge	-9.25555
▁begin	-9.25579
▁relationship	-9.25823
▁cause	-9.25842
▁fast	-9.25981
▁areas	-9.25991
go	-9.26047
▁realize	-9.26124
▁Chinese	-9.26127
▁dead	-9.2613
ver	-9.26286
▁discovered	-9.26328
▁mo	-9.26364
0	-9.2641
▁table	-9.26426
▁running	-9.26437
H	-9.2691
uc	-9.26988
▁giving	-9.27295
▁kid	-9.27317
▁Sa	-9.27359
▁tools	-9.27367
▁Bo	-9.27734
▁Al	-9.28176
▁development	-9.28232
▁25	-9.28356
▁patients	-9.28393
▁met	-9.28424
▁scientists	-9.28515
▁wind	-9.28724
▁period	-9.28774
▁network	-9.28852
of	-9.28953
▁11	-9.29068
▁save	-9.29149
▁late	-9.29252
▁others	-9.29285
▁en	-9.29349
▁physical	-9.29513
ning	-9.29532
▁St	-9.29582
▁South	-9.29639
▁issue	-9.29804
ator	-9.29914
tion	-9.29958
▁alone	-9.29977
▁baby	-9.29979
▁chance	-9.29983
▁teach	-9.30382
▁playing	-9.30601
▁o	-9.30704
▁L	-9.30816
▁meet	-9.31031
che	-9.31096
▁follow	-9.31111
▁product	-9.31298
▁major	-9.31466
▁compassion	-9.31487
▁fear	-9.31518
▁African	-9.31527
▁price	-9.318
▁similar	-9.318
▁road	-9.31819
▁innovation	-9.3182
▁stay	-9.31875
ot	-9.31905
ite	-9.3194
▁V	-9.31946
▁access	-9.32102
▁industry	-9.32108
▁absolutely	-9.3216
▁telling	-9.32162
▁develop	-9.32316
▁sit	-9.32348
▁anyone	-9.32465
▁type	-9.32484
▁office	-9.32519
▁CA	-9.32536
der	-9.32581
▁concept	-9.32723
▁seem	-9.32913
▁incredibly	-9.33037
ng	-9.33336
ap	-9.33556
ga	-9.33645
ther	-9.33654
▁developing	-9.33726
▁talked	-9.34115
▁Ha	-9.34261
son	-9.34403
ping	-9.34486
▁visual	-9.34586
▁creating	-9.34604
▁worth	-9.34642
▁Europe	-9.34892
▁w	-9.34895
▁changes	-9.34982
▁mass	-9.35004
▁cr	-9.35046
ical	-9.35048
▁humans	-9.35079
▁normal	-9.35102
▁goal	-9.35198
▁pattern	-9.35217
▁post	-9.35221
ities	-9.35318
▁seems	-9.35547
▁effect	-9.35841
▁computers	-9.35843
▁hospital	-9.35876
▁soon	-9.35893
▁wall	-9.35945
▁Ro	-9.35946
▁rate	-9.36079
▁object	-9.36171
▁3	-9.36182
▁listen	-9.36187
▁digital	-9.36197
que	-9.36261
ence	-9.36416
▁solve	-9.36502
▁recently	-9.36602
▁region	-9.36841
▁expect	-9.36847
▁screen	-9.36857
▁solution	-9.36864
▁vision	-9.36872
▁Go	-9.36988
ward	-9.37029
▁di	-9.37103
▁showed	-9.37272
bu	-9.37293
▁perfect	-9.3733
tra	-9.37386
▁continue	-9.3747
▁treat	-9.3747
▁st	-9.37534
▁device	-9.37535
design	-9.37628
▁Mi	-9.37699
dy	-9.37818
nd	-9.37823
▁mine	-9.37864
▁Our	-9.37875
ler	-9.37956
Oh	-9.38004
▁La	-9.38017
▁basic	-9.38457
▁tiny	-9.38473
▁putting	-9.38634
▁16	-9.38716
▁dog	-9.38735
▁Google	-9.38798
▁generation	-9.3891
▁success	-9.39122
▁Chris	-9.39131
▁sign	-9.39375
▁sh	-9.3942
▁available	-9.39459
▁send	-9.3946
iv	-9.39586
if	-9.39697
▁record	-9.39772
▁truth	-9.39792
▁anybody	-9.39802
▁bigger	-9.39833
▁rules	-9.39908
▁strong	-9.40003
▁lose	-9.40122
▁involved	-9.40255
▁hundreds	-9.40259
▁da	-9.40276
▁spread	-9.40422
▁wish	-9.40472
▁touch	-9.40515
▁la	-9.40529
▁star	-9.40572
time	-9.40786
▁By	-9.4079
end	-9.40892
▁month	-9.40951
▁add	-9.40997
▁sp	-9.41002
ever	-9.41097
▁speed	-9.41155
▁smart	-9.41346
▁clean	-9.4147
▁subject	-9.4147
▁reach	-9.41537
▁millions	-9.41679
▁revolution	-9.4181
os	-9.41887
▁An	-9.41987
▁designed	-9.42089
da	-9.4212
▁happiness	-9.42185
way	-9.42243
▁hundred	-9.42353
▁moral	-9.42464
▁beyond	-9.42832
▁towards	-9.42847
▁arm	-9.43172
▁attack	-9.43178
▁War	-9.43376
▁slow	-9.43381
▁reasons	-9.43505
▁favorite	-9.43523
▁law	-9.43539
▁changing	-9.43561
▁pictures	-9.43667
▁door	-9.43684
▁choice	-9.43775
▁haven	-9.43887
▁general	-9.44055
ring	-9.4408
side	-9.44122
▁numbers	-9.44153
▁store	-9.44223
▁Yes	-9.44359
con	-9.44558
land	-9.44831
▁robot	-9.44921
▁writing	-9.44938
▁medical	-9.44939
▁becomes	-9.44969
▁Of	-9.44972
▁aren	-9.45146
fe	-9.4519
▁especially	-9.45263
▁materials	-9.45303
▁tend	-9.4542
▁class	-9.4542
ction	-9.45502
▁protect	-9.45613
▁stick	-9.45642
▁bar	-9.45749
▁box	-9.45938
▁slide	-9.45969
▁60	-9.4598
by	-9.45991
global	-9.46136
▁safe	-9.46152
▁certainly	-9.4624
▁carbon	-9.46348
▁ca	-9.46434
▁died	-9.46436
ow	-9.46436
▁function	-9.46531
▁resources	-9.46621
▁lived	-9.46684
mer	-9.46739
▁obviously	-9.46778
▁cars	-9.46868
gen	-9.46899
▁girls	-9.47091
▁potential	-9.47235
▁rich	-9.4733
▁h	-9.47366
ron	-9.47452
▁Oh	-9.47467
▁skin	-9.47515
▁flow	-9.47516
▁inter	-9.47548
▁son	-9.47597
▁nobody	-9.47775
▁list	-9.4779
▁yes	-9.47794
▁nine	-9.48116
▁further	-9.48117
▁With	-9.48142
cy	-9.4829
▁asking	-9.48351
out	-9.48385
ber	-9.48402
ud	-9.48424
▁response	-9.48478
▁several	-9.48478
▁rec	-9.48482
▁among	-9.4849
▁Co	-9.48602
▁ha	-9.48628
▁street	-9.4866
one	-9.48719
▁scientific	-9.48845
▁du	-9.48892
No	-9.49044
▁serious	-9.49047
pi	-9.49111
▁biology	-9.49243
▁code	-9.49283
ped	-9.49546
▁increase	-9.49597
▁evidence	-9.4994
▁East	-9.49946
▁version	-9.49973
▁thousand	-9.50048
ak	-9.50118
▁path	-9.50181
▁direction	-9.5035
lin	-9.50404
00	-9.50551
▁groups	-9.50618
▁gas	-9.50675
▁exciting	-9.5068
▁solar	-9.50682
▁Maybe	-9.50682
▁Me	-9.5072
▁showing	-9.50816
fa	-9.51058
▁positive	-9.51071
▁position	-9.51077
▁hot	-9.51105
▁movie	-9.51199
▁architecture	-9.51443
▁kill	-9.51521
▁plant	-9.51662
like	-9.51681
▁r	-9.51754
▁Every	-9.5179
▁provide	-9.5183
ble	-9.51873
ound	-9.51924
culture	-9.5199
▁tr	-9.52107
ization	-9.52126
▁extraordinary	-9.52196
▁dream	-9.52363
▁count	-9.52389
▁journey	-9.52552
▁trust	-9.52553
▁Pa	-9.52656
▁genetic	-9.52927
▁Z	-9.52949
▁onto	-9.53178
▁14	-9.53184
▁tool	-9.53227
ner	-9.5324
▁boy	-9.53257
▁camera	-9.53311
▁First	-9.53311
▁HIV	-9.53311
▁plastic	-9.53311
▁throw	-9.53317
▁software	-9.53322
▁sex	-9.5338
ger	-9.5344
▁Dr	-9.53625
▁walking	-9.53628
▁role	-9.53694
▁nuclear	-9.53703
▁treatment	-9.5373
▁West	-9.54025
ey	-9.54044
▁games	-9.54082
▁moved	-9.54153
▁schools	-9.54331
▁wait	-9.54487
mon	-9.54732
▁Most	-9.54909
▁Mar	-9.54963
▁Who	-9.54981
▁lead	-9.54982
▁online	-9.55209
▁everywhere	-9.55245
▁super	-9.55273
▁named	-9.55282
▁main	-9.55573
▁bunch	-9.55624
▁content	-9.55624
▁perspective	-9.55625
▁security	-9.55642
ious	-9.55727
▁flu	-9.55825
▁plants	-9.55893
▁extremely	-9.56097
ors	-9.56221
▁hour	-9.56433
▁mis	-9.56457
▁cover	-9.56509
▁pull	-9.5654
▁Don	-9.56542
▁please	-9.56848
▁medicine	-9.56863
▁Da	-9.56898
▁teacher	-9.56902
▁totally	-9.56931
▁sell	-9.56938
▁ho	-9.56969
▁particularly	-9.57138
▁minute	-9.57187
▁explore	-9.57195
vo	-9.57205
▁pain	-9.57389
▁200	-9.57472
wi	-9.57591
▁fine	-9.57684
▁supposed	-9.57719
▁notice	-9.57936
▁80	-9.57972
▁quality	-9.58009
▁rock	-9.5837
▁secret	-9.58391
▁series	-9.58395
▁consider	-9.58478
les	-9.58544
▁rise	-9.58863
▁affect	-9.58881
▁report	-9.58929
▁context	-9.59195
▁conversation	-9.59195
▁track	-9.59228
▁ran	-9.59387
▁national	-9.59558
▁led	-9.59611
▁student	-9.59635
▁ch	-9.59686
ight	-9.59729
▁train	-9.59731
▁sent	-9.59735
W	-9.59757
led	-9.59951
▁bacteria	-9.60007
ris	-9.60217
▁site	-9.60246
▁Ra	-9.60302
We	-9.60461
▁17	-9.60479
▁projects	-9.60495
▁connect	-9.60503
▁wife	-9.60825
▁grew	-9.60836
▁allowed	-9.6091
▁biggest	-9.61236
▁conflict	-9.61257
▁shift	-9.61262
▁poverty	-9.61269
port	-9.61292
▁recognize	-9.61304
▁fit	-9.61333
▁source	-9.61403
▁d	-9.61475
▁8	-9.61484
▁meaning	-9.61513
▁connected	-9.61561
▁objects	-9.61649
▁complicated	-9.6165
▁creative	-9.6165
▁After	-9.6165
izing	-9.61758
▁lower	-9.61881
gu	-9.62035
▁activity	-9.62068
▁se	-9.62079
▁bank	-9.62191
art	-9.62212
▁fundamental	-9.62321
▁survive	-9.62481
▁temperature	-9.62481
▁H	-9.62613
▁travel	-9.62628
▁Su	-9.62695
▁page	-9.62701
ice	-9.62711
▁eventually	-9.62899
▁beauty	-9.62912
▁fuel	-9.62922
act	-9.62941
▁Look	-9.6298
▁Ca	-9.63099
▁bio	-9.63235
▁essentially	-9.63392
▁ready	-9.634
▁higher	-9.63421
▁examples	-9.63454
▁genes	-9.63493
▁Man	-9.63692
▁return	-9.63749
▁tree	-9.63927
▁draw	-9.64108
qui	-9.64198
▁suddenly	-9.64255
▁meeting	-9.64266
▁teachers	-9.64276
▁watching	-9.64352
▁ball	-9.64353
▁painting	-9.64411
▁killed	-9.64521
ab	-9.64534
har	-9.6459
▁charge	-9.64591
▁above	-9.64599
▁standard	-9.64612
▁Ho	-9.6483
▁check	-9.65018
▁taught	-9.65019
men	-9.65121
ub	-9.65229
▁bu	-9.6525
br	-9.65414
▁famous	-9.65447
▁Which	-9.65447
▁task	-9.65448
▁interest	-9.65496
▁traditional	-9.65498
▁wonder	-9.65567
ai	-9.65586
▁peace	-9.65711
▁sounds	-9.65748
ja	-9.6576
▁democracy	-9.65878
▁website	-9.65879
▁communication	-9.65908
▁character	-9.66157
▁Y	-9.66178
▁doctor	-9.6658
▁military	-9.66746
▁critical	-9.66748
▁drug	-9.67033
▁rule	-9.6704
▁finding	-9.67083
▁likely	-9.67151
▁college	-9.67183
▁enjoy	-9.67183
▁practice	-9.67183
▁North	-9.67221
▁largest	-9.67241
for	-9.67296
▁near	-9.67454
▁ended	-9.67492
▁ba	-9.67549
▁Even	-9.67623
▁Where	-9.67634
▁somewhere	-9.67648
▁results	-9.67674
▁somehow	-9.67727
▁starts	-9.67933
▁decision	-9.67937
▁crazy	-9.68062
▁bomb	-9.68063
ile	-9.68089
▁Ka	-9.68271
▁trees	-9.68319
▁leaders	-9.68326
ea	-9.68364
▁photograph	-9.68381
▁lo	-9.68398
▁progress	-9.68459
▁li	-9.68479
▁drop	-9.68496
▁square	-9.68505
ka	-9.68684
▁indeed	-9.68961
▁X	-9.68987
▁strange	-9.69053
▁join	-9.69081
▁service	-9.69313
▁reading	-9.69384
▁written	-9.69395
▁TV	-9.6942
ny	-9.69678
ki	-9.69746
▁alive	-9.69798
▁purpose	-9.69844
▁excited	-9.69871
ions	-9.70084
▁Car	-9.7016
▁impossible	-9.70294
▁discover	-9.703
ah	-9.70312
▁smaller	-9.7039
▁pass	-9.70483
▁faster	-9.70485
▁2	-9.70569
▁window	-9.70759
▁board	-9.70851
▁older	-9.70853
▁stars	-9.70999
▁1	-9.71005
▁meant	-9.71105
▁shown	-9.71166
▁tells	-9.71193
▁Indian	-9.71216
ff	-9.71343
▁products	-9.71428
▁okay	-9.71658
▁address	-9.71658
▁upon	-9.7167
▁shot	-9.71671
ee	-9.71689
▁listening	-9.71733
▁link	-9.71808
!"	-9.71854
▁successful	-9.71972
▁math	-9.72083
▁including	-9.72117
▁studies	-9.72117
▁worse	-9.72117
▁sky	-9.72117
▁anywhere	-9.72128
▁floor	-9.72135
▁micro	-9.72566
▁communities	-9.72577
▁enormous	-9.72577
▁trade	-9.72585
▁himself	-9.72592
▁fight	-9.72686
ists	-9.72817
▁larger	-9.72828
▁Mars	-9.72862
▁text	-9.73025
▁account	-9.73035
▁urban	-9.7304
▁zero	-9.73104
▁mu	-9.73135
▁standing	-9.73338
▁press	-9.7339
▁yeah	-9.73505
▁truly	-9.73505
▁instance	-9.73506
▁artist	-9.73598
▁ship	-9.73669
▁Ta	-9.73671
▁Li	-9.73763
▁current	-9.73813
ide	-9.73838
▁individuals	-9.73849
own	-9.73963
▁television	-9.73973
▁reduce	-9.73977
▁range	-9.74063
▁environmental	-9.74148
▁conditions	-9.74254
▁except	-9.74357
▁crisis	-9.74442
▁sequence	-9.74442
▁trick	-9.74458
▁invest	-9.7446
▁physics	-9.74481
▁pieces	-9.74586
▁choose	-9.74914
▁international	-9.74914
▁policy	-9.74914
▁dangerous	-9.7492
▁town	-9.74922
▁patterns	-9.74958
ev	-9.75012
▁th	-9.75097
▁respect	-9.75263
▁expensive	-9.75388
▁fantastic	-9.75388
▁foot	-9.75457
▁waste	-9.75465
▁offer	-9.75515
▁forms	-9.75807
▁John	-9.75847
▁kept	-9.75867
▁multi	-9.75898
ue	-9.76274
▁buildings	-9.76274
▁trouble	-9.76342
▁Those	-9.76343
▁bone	-9.76381
▁dance	-9.76507
▁Ja	-9.7668
▁5	-9.76692
▁21	-9.76699
▁training	-9.76785
▁influence	-9.76823
▁Another	-9.76826
▁comp	-9.76954
▁Po	-9.76989
▁limit	-9.76993
my	-9.77013
▁models	-9.77053
cle	-9.77287
▁capital	-9.77305
▁genome	-9.77306
▁hair	-9.77329
ative	-9.7736
▁cold	-9.7737
▁drugs	-9.77476
▁prevent	-9.77758
▁earlier	-9.77792
▁heat	-9.77811
▁cultural	-9.77821
▁usually	-9.77837
▁teaching	-9.77905
ology	-9.77968
au	-9.78166
▁90	-9.78231
▁forest	-9.78344
▁anyway	-9.7836
▁organization	-9.78513
▁13	-9.78537
▁extra	-9.78553
▁sorts	-9.78626
▁effort	-9.7877
▁unique	-9.7877
▁blind	-9.7877
▁conference	-9.78774
▁Like	-9.78783
▁daughter	-9.78784
▁spot	-9.78785
▁electricity	-9.78789
▁sat	-9.78843
▁visit	-9.78948
row	-9.7908
▁actual	-9.79112
▁feed	-9.79186
▁web	-9.79206
▁oh	-9.7933
▁greater	-9.7938
▁forth	-9.79452
ability	-9.79576
▁complete	-9.796
▁skills	-9.79644
▁virus	-9.7971
▁legs	-9.79756
▁freedom	-9.79758
▁therefore	-9.79758
▁healthy	-9.79809
▁religion	-9.80057
▁Di	-9.80143
▁familiar	-9.80255
▁anymore	-9.80273
▁creativity	-9.80322
▁corner	-9.80377
▁base	-9.8047
▁Ne	-9.80536
▁His	-9.80582
▁contain	-9.80755
▁robots	-9.80858
ified	-9.80863
▁decisions	-9.80897
▁exist	-9.80907
▁invented	-9.8093
rate	-9.80975
▁Are	-9.81092
ier	-9.81115
▁race	-9.81351
▁cross	-9.81386
▁Con	-9.814
▁humanity	-9.81519
▁machines	-9.81594
▁final	-9.81604
▁magic	-9.81738
▁muscle	-9.81763
▁David	-9.81767
▁mental	-9.81835
pro	-9.81835
▁search	-9.81893
▁sleep	-9.81894
▁allows	-9.81952
▁emotional	-9.81985
▁walked	-9.82033
▁connection	-9.82146
▁bed	-9.82162
▁6	-9.82172
▁private	-9.8227
▁worry	-9.8227
▁brother	-9.82271
▁win	-9.82284
▁vote	-9.8229
▁earth	-9.82293
ple	-9.82305
▁income	-9.82325
▁k	-9.82689
▁solutions	-9.82744
▁remarkable	-9.8278
▁threat	-9.82781
▁7	-9.8284
▁ra	-9.82855
▁points	-9.83275
▁Pro	-9.83293
▁balance	-9.83293
▁civilization	-9.83298
▁immediately	-9.83335
fin	-9.83342
▁net	-9.83429
▁notion	-9.83528
U	-9.83622
ze	-9.83741
▁violence	-9.83846
▁performance	-9.83878
ay	-9.8389
▁seat	-9.83904
▁appear	-9.84003
▁fix	-9.84019
▁Web	-9.84073
lic	-9.84423
▁active	-9.84428
▁following	-9.84443
▁specific	-9.84488
▁flying	-9.8457
▁respond	-9.84848
▁financial	-9.84848
ain	-9.8495
qua	-9.84974
▁evolved	-9.85023
▁describe	-9.85028
V	-9.85153
▁aid	-9.85185
▁improve	-9.85345
▁babies	-9.85371
▁various	-9.85371
▁biological	-9.85373
▁summer	-9.85376
▁predict	-9.85397
▁etc	-9.85445
▁Cha	-9.85537
▁clearly	-9.85666
▁push	-9.8575
▁Western	-9.85899
▁catch	-9.8596
▁throughout	-9.85999
ill	-9.86069
▁jump	-9.86111
▁decide	-9.86135
entertainment	-9.86239
log	-9.86285
▁mom	-9.86388
▁driving	-9.86427
▁Two	-9.86427
▁landscape	-9.8643
▁camp	-9.86461
▁massive	-9.86471
▁fold	-9.86547
av	-9.86587
▁raise	-9.86614
▁layer	-9.86795
▁sc	-9.86851
▁decade	-9.86945
▁dynamic	-9.86959
▁surgery	-9.86959
▁roll	-9.86961
▁hole	-9.87001
▁farm	-9.87035
ade	-9.87144
cent	-9.8728
▁fat	-9.87346
▁jobs	-9.87377
▁photo	-9.87464
▁becoming	-9.87505
▁pressure	-9.87508
▁funny	-9.87509
▁unit	-9.87741
▁quick	-9.87872
▁engineering	-9.87881
ging	-9.8789
▁University	-9.88031
▁circle	-9.88031
▁tissue	-9.88031
▁tremendous	-9.88031
▁police	-9.88031
▁boat	-9.88088
io	-9.88126
▁City	-9.88223
▁original	-9.88482
ft	-9.88536
▁Afghanistan	-9.88571
▁random	-9.88572
▁production	-9.88637
▁politics	-9.88683
den	-9.88962
ug	-9.8897
▁Com	-9.88988
ible	-9.89091
▁birth	-9.8911
▁understood	-9.89115
▁accident	-9.89115
▁depend	-9.89139
hand	-9.89153
▁block	-9.89179
▁500	-9.89274
▁transform	-9.89308
▁brains	-9.89334
▁deliver	-9.89347
▁par	-9.89496
▁wild	-9.89658
▁London	-9.89661
▁include	-9.89662
▁double	-9.89663
▁weight	-9.89685
ick	-9.897
▁passion	-9.89712
▁finger	-9.89738
▁Americans	-9.89762
▁neurons	-9.89796
▁male	-9.89907
J	-9.90027
▁Se	-9.90077
▁waiting	-9.90194
▁edge	-9.90213
▁brand	-9.90228
▁interact	-9.90269
light	-9.90357
▁nation	-9.90372
▁values	-9.9045
mor	-9.90572
▁lines	-9.90727
▁Richard	-9.90763
▁prove	-9.90788
▁saving	-9.90788
▁Paul	-9.90802
▁rain	-9.91017
off	-9.9104
▁career	-9.91198
▁Na	-9.91306
▁central	-9.91319
▁families	-9.91319
▁terrible	-9.91319
▁National	-9.91319
▁bridge	-9.91324
ration	-9.91327
▁atmosphere	-9.91337
▁complexity	-9.91391
▁Asia	-9.91405
▁San	-9.91482
▁rid	-9.91511
▁although	-9.91877
▁airplane	-9.91878
▁bodies	-9.91878
▁blog	-9.91893
▁straight	-9.91898
▁useful	-9.92034
▁consumer	-9.92051
her	-9.9207
▁Your	-9.92092
▁Ni	-9.92177
▁weren	-9.92191
▁Gu	-9.92341
▁oxygen	-9.92439
▁intelligence	-9.92448
▁blow	-9.9245
▁flight	-9.92464
▁partner	-9.9251
▁cat	-9.92556
▁inspired	-9.92578
form	-9.92615
hy	-9.92669
▁l	-9.92694
use	-9.92725
▁carry	-9.92749
▁mountain	-9.92779
How	-9.92833
▁apart	-9.92836
▁engine	-9.92845
▁Middle	-9.93004
▁demand	-9.93005
▁cases	-9.93273
ory	-9.93323
how	-9.93356
▁70	-9.93504
▁possibly	-9.93572
▁Iraq	-9.93573
▁article	-9.93573
▁match	-9.93574
▁interview	-9.93577
▁talks	-9.93665
bb	-9.93858
sum	-9.9397
ically	-9.94011
▁imp	-9.94053
▁effective	-9.9406
val	-9.94092
▁forces	-9.94139
▁Imagine	-9.94144
▁sister	-9.94145
▁focused	-9.94206
▁Jo	-9.94224
▁Hu	-9.94293
▁Ar	-9.9433
▁chemical	-9.94375
▁greatest	-9.94394
▁accept	-9.94403
top	-9.94473
han	-9.94514
▁obvious	-9.94559
▁memory	-9.9472
ray	-9.9474
▁24	-9.94785
▁played	-9.94956
▁closer	-9.94984
▁forget	-9.94984
Why	-9.95116
▁anti	-9.95157
▁drawing	-9.95228
▁bottle	-9.95297
▁cycle	-9.95297
▁symbol	-9.95298
▁vi	-9.95386
▁sad	-9.95487
▁plane	-9.95498
▁boys	-9.95526
▁j	-9.9556
▁bear	-9.95561
ship	-9.95683
▁express	-9.95794
▁ti	-9.95806
ium	-9.95807
▁commercial	-9.95878
▁supply	-9.95878
▁method	-9.95878
▁argue	-9.95878
▁popular	-9.95882
▁station	-9.95957
▁types	-9.96372
▁damage	-9.96463
▁laugh	-9.96465
▁ahead	-9.96556
0,000	-9.96567
▁apply	-9.96592
▁graph	-9.96645
▁produced	-9.9673
▁detail	-9.96855
▁Ga	-9.96901
▁organisms	-9.96959
▁sample	-9.97051
▁distance	-9.97051
▁bought	-9.97053
▁directly	-9.97171
▁speaking	-9.9732
▁gene	-9.97363
▁loved	-9.97393
▁willing	-9.97445
▁cheap	-9.97519
▁designers	-9.97525
▁term	-9.97585
▁motor	-9.97644
▁switch	-9.97645
▁sick	-9.97685
▁Ri	-9.97881
day	-9.98087
tter	-9.98159
▁seconds	-9.98197
▁aware	-9.98229
▁breast	-9.98238
▁sector	-9.98242
▁failure	-9.98248
▁causes	-9.98287
▁Th	-9.98317
ink	-9.98364
▁below	-9.98558
▁trial	-9.98667
▁document	-9.98824
▁continent	-9.98837
▁Life	-9.98847
all	-9.99088
▁radio	-9.99129
▁park	-9.99148
▁costs	-9.9924
▁remain	-9.99372
▁architect	-9.99426
▁capacity	-9.99439
▁twice	-9.99439
▁communicate	-9.99439
▁tumor	-9.99443
▁Today	-9.99454
▁sa	-9.99664
▁engineer	-9.99708
ake	-9.99771
work	-9.99822
▁eating	-9.9985
▁recent	-9.99983
du	-10.0004
▁fashion	-10.0005
▁belief	-10.0005
▁basis	-10.0005
▁bo	-10.0006
▁paid	-10.0006
▁creatures	-10.0009
▁Vi	-10.001
▁Har	-10.0024
▁levels	-10.006
▁artists	-10.0062
▁ta	-10.0065
▁honest	-10.0066
▁desire	-10.0066
▁From	-10.0066
▁mid	-10.0066
▁gain	-10.0067
▁mobile	-10.0068
▁reward	-10.0075
▁10,000	-10.0077
▁total	-10.0094
▁molecules	-10.0113
▁reflect	-10.0121
▁Lo	-10.0123
▁female	-10.0127
▁neighborhood	-10.0127
▁Think	-10.0127
▁bread	-10.0127
▁era	-10.0138
▁cap	-10.0139
▁loss	-10.0142
▁sta	-10.0157
▁Mu	-10.0185
▁California	-10.0189
▁argument	-10.0189
▁chair	-10.0189
▁hearing	-10.0197
▁moon	-10.0198
▁dad	-10.0208
▁climb	-10.0213
▁4	-10.0216
▁mostly	-10.0217
▁Wi	-10.0225
uff	-10.0236
▁glass	-10.0246
▁target	-10.0251
▁crime	-10.0251
▁sustainable	-10.0253
ang	-10.0258
ably	-10.0272
▁doctors	-10.0275
▁shared	-10.0275
term	-10.0289
▁experiments	-10.0292
▁mess	-10.0304
▁scientist	-10.0305
▁fl	-10.0308
It	-10.0309
▁infrastructure	-10.0313
▁root	-10.0313
▁vast	-10.0313
▁mission	-10.0323
▁professional	-10.0324
▁quote	-10.0351
▁significant	-10.036
▁Si	-10.037
rew	-10.0371
▁Muslim	-10.0376
▁ancient	-10.0376
▁imagination	-10.0376
▁yellow	-10.0376
▁operation	-10.0377
▁broken	-10.0383
▁pen	-10.0392
▁minds	-10.0395
▁agree	-10.0402
▁none	-10.0403
▁metaphor	-10.0439
▁gotten	-10.044
▁tough	-10.0445
▁9	-10.045
50	-10.0466
▁300	-10.0467
▁challenges	-10.0475
ear	-10.0485
▁Sha	-10.0493
▁scan	-10.0494
▁elements	-10.0502
▁aspect	-10.0503
▁attempt	-10.0503
▁responsibility	-10.0503
▁restaurant	-10.0503
▁definition	-10.0504
▁sentence	-10.0504
▁slightly	-10.0507
▁sw	-10.0514
▁choices	-10.052
istic	-10.0529
▁burn	-10.053
▁event	-10.0545
ek	-10.0548
▁coffee	-10.0567
▁beings	-10.0591
▁Sun	-10.0591
car	-10.0611
▁birds	-10.0617
▁tradition	-10.0624
ular	-10.0628
▁adapt	-10.0628
▁spirit	-10.0631
▁email	-10.0632
▁worst	-10.0632
▁benefit	-10.0634
▁collective	-10.0634
▁stem	-10.0635
▁sand	-10.0646
▁workers	-10.0648
▁institutions	-10.0657
▁Her	-10.0658
▁sold	-10.0667
▁remind	-10.0667
ual	-10.0672
▁surprising	-10.0681
war	-10.0692
▁possibility	-10.0697
▁industrial	-10.07
▁interaction	-10.0709
ries	-10.0714
▁achieve	-10.0724
ley	-10.0756
▁farmers	-10.0756
▁prison	-10.0757
ned	-10.0762
▁mouth	-10.0762
▁Again	-10.0762
▁noise	-10.0762
▁classroom	-10.0762
▁Good	-10.0765
▁seemed	-10.0767
▁fairly	-10.0777
▁Bu	-10.0779
lan	-10.0789
▁pop	-10.0801
health	-10.0809
low	-10.0815
▁collect	-10.0816
▁arts	-10.0816
▁necessarily	-10.0828
▁sharing	-10.0828
▁consciousness	-10.083
ren	-10.0832
▁investment	-10.0834
▁island	-10.0837
▁published	-10.0849
▁represent	-10.0869
▁ski	-10.087
▁equal	-10.0875
▁devices	-10.0885
▁noticed	-10.0886
▁cloud	-10.0894
▁competition	-10.0894
▁religious	-10.0894
▁horse	-10.0894
▁coral	-10.0899
▁AIDS	-10.0899
mar	-10.0919
▁Many	-10.092
▁trip	-10.0942
▁trans	-10.095
▁societies	-10.0961
▁smell	-10.0961
▁missing	-10.0963
▁copy	-10.0967
hu	-10.0972
▁services	-10.0973
▁afford	-10.0981
▁note	-10.0981
▁warm	-10.1
▁helped	-10.1014
▁advantage	-10.1028
▁contact	-10.1028
▁diversity	-10.1028
▁background	-10.1031
▁degrees	-10.1033
▁Bill	-10.1044
our	-10.105
▁states	-10.1067
▁metal	-10.1081
▁studying	-10.1092
air	-10.1094
▁Instead	-10.1095
▁campaign	-10.1095
▁negative	-10.1095
▁joy	-10.1095
▁display	-10.1096
▁stopped	-10.1099
▁lack	-10.1101
▁Dan	-10.1113
▁hate	-10.1124
▁diseases	-10.1138
jo	-10.1139
▁See	-10.1145
▁virtual	-10.1147
▁easily	-10.1163
▁traffic	-10.1163
▁giant	-10.1163
▁scene	-10.1163
▁trend	-10.1167
▁gun	-10.1173
▁card	-10.1185
dimensional	-10.1188
▁molecule	-10.1191
▁separate	-10.1197
▁governments	-10.1213
let	-10.1214
yn	-10.1218
▁museum	-10.1232
▁pack	-10.1234
▁river	-10.1234
▁stream	-10.1238
▁pig	-10.1239
▁particles	-10.1244
▁streets	-10.1266
▁helping	-10.1269
▁bus	-10.1278
▁passed	-10.128
▁wants	-10.1287
za	-10.1288
▁fe	-10.1297
▁magazine	-10.1301
▁newspaper	-10.1301
▁president	-10.1301
▁effects	-10.1303
▁Second	-10.1354
▁More	-10.1355
▁citizens	-10.137
▁brilliant	-10.137
▁Japan	-10.1371
▁tail	-10.1383
van	-10.1394
▁condition	-10.1402
kin	-10.1413
over	-10.1436
▁encourage	-10.144
▁promise	-10.144
▁grand	-10.1442
▁CO	-10.145
▁curve	-10.1459
▁Mr	-10.1461
tric	-10.1462
based	-10.1482
▁spending	-10.1483
▁networks	-10.1493
▁prop	-10.1508
▁alternative	-10.1511
▁remote	-10.1511
▁coast	-10.1511
▁gap	-10.1514
▁bird	-10.1527
▁electric	-10.1529
▁holding	-10.154
▁forever	-10.1541
▁hi	-10.1549
atic	-10.155
▁fully	-10.1572
▁colleagues	-10.1573
▁strength	-10.1582
▁desert	-10.1582
▁sorry	-10.1582
▁decades	-10.1583
▁gr	-10.1587
▁paint	-10.1598
▁sing	-10.1604
▁rat	-10.1605
▁cu	-10.161
▁pa	-10.1626
ult	-10.163
net	-10.1638
▁Big	-10.1638
▁fair	-10.1639
▁fascinating	-10.1653
▁speech	-10.1653
▁Great	-10.1656
▁Han	-10.1661
▁string	-10.168
▁figured	-10.1681
▁planets	-10.1685
▁engage	-10.1687
▁answers	-10.1696
▁highly	-10.1697
▁dollar	-10.1702
▁organic	-10.171
▁signal	-10.1713
gi	-10.1715
▁puzzle	-10.1725
▁crowd	-10.1725
▁reveal	-10.1725
▁election	-10.1727
▁lu	-10.1728
▁Very	-10.173
▁Am	-10.1731
▁programs	-10.1732
▁im	-10.1734
▁flat	-10.1735
▁legal	-10.1749
▁app	-10.1766
ates	-10.178
▁lay	-10.1782
▁markets	-10.1782
▁suit	-10.1789
aw	-10.1794
▁independent	-10.1797
▁opportunities	-10.1797
▁universal	-10.1797
▁roof	-10.1797
▁creation	-10.1797
▁clip	-10.1798
▁novel	-10.1798
▁1,000	-10.1799
▁enable	-10.1806
▁labor	-10.1811
▁emotions	-10.1831
▁bi	-10.184
▁adult	-10.1842
▁fill	-10.1843
▁grade	-10.1849
▁na	-10.1849
▁Ph	-10.1861
▁ecosystem	-10.187
▁avoid	-10.187
▁profit	-10.1877
▁Take	-10.1881
ologist	-10.1885
▁related	-10.1902
▁turning	-10.1911
▁Darwin	-10.1944
▁French	-10.1944
▁crash	-10.1944
▁caught	-10.1944
▁radical	-10.1945
▁mouse	-10.1945
▁—	-10.1945
▁motion	-10.1946
▁br	-10.1958
▁nu	-10.1969
▁slowly	-10.1978
life	-10.1979
▁meat	-10.2
▁electronic	-10.201
▁benefits	-10.2016
▁husband	-10.2018
▁vaccine	-10.2018
▁wisdom	-10.2018
▁honor	-10.2018
▁differently	-10.2022
▁odd	-10.2023
▁dr	-10.2024
▁insight	-10.2026
▁designer	-10.2027
▁ten	-10.203
▁laws	-10.2033
▁hero	-10.2044
▁cur	-10.2086
▁galaxies	-10.2093
▁sugar	-10.2093
▁dying	-10.2093
▁iron	-10.2093
ani	-10.2094
▁fr	-10.2094
▁statistics	-10.2102
▁theater	-10.2102
▁writer	-10.2105
▁poll	-10.212
▁fo	-10.2123
▁warming	-10.2135
chi	-10.2136
▁differences	-10.214
▁events	-10.2145
▁sudden	-10.2152
▁extreme	-10.2152
▁spin	-10.2164
▁civil	-10.2165
▁driver	-10.2167
▁versus	-10.2168
▁location	-10.2168
▁British	-10.2168
▁intelligent	-10.2169
▁expression	-10.218
▁400	-10.218
▁invention	-10.2183
▁engineers	-10.2189
▁fund	-10.2201
▁drink	-10.2206
▁Lu	-10.2211
▁hell	-10.2216
ko	-10.2219
cus	-10.2232
▁stuck	-10.2244
▁graduate	-10.2244
▁Sometimes	-10.2244
▁Everybody	-10.2244
▁circuit	-10.2245
▁enter	-10.2258
▁generate	-10.2286
This	-10.2301
▁profound	-10.2304
▁leading	-10.2317
▁Actually	-10.232
▁garden	-10.232
▁phenomenon	-10.232
▁lunch	-10.232
▁pleasure	-10.232
▁smile	-10.232
▁insects	-10.2326
▁reaction	-10.2327
▁perform	-10.2329
▁beat	-10.233
▁Ex	-10.2337
ung	-10.2344
▁date	-10.2344
▁opened	-10.2358
▁uses	-10.2358
▁finish	-10.2365
ney	-10.237
▁core	-10.2377
▁Did	-10.238
ook	-10.2384
ef	-10.239
▁Einstein	-10.2397
▁afraid	-10.2397
▁budget	-10.2397
▁previous	-10.2397
▁laptop	-10.2397
▁bright	-10.2399
▁efficient	-10.2403
▁structures	-10.2424
▁pe	-10.2427
▁Che	-10.2439
▁surprise	-10.244
gan	-10.2443
▁creates	-10.246
▁origin	-10.2463
▁instrument	-10.2463
▁weapons	-10.2465
▁Charles	-10.2474
▁Washington	-10.2474
▁artificial	-10.2474
▁equivalent	-10.2474
▁satellite	-10.2474
▁gift	-10.2474
▁debate	-10.2475
▁perception	-10.2476
▁weird	-10.2478
▁crack	-10.2479
je	-10.2492
▁suffering	-10.2494
▁taste	-10.2501
▁nearly	-10.2503
▁party	-10.2514
▁ride	-10.2519
▁pages	-10.2527
▁trained	-10.2535
▁entirely	-10.2535
▁Ben	-10.2536
▁tea	-10.2539
▁wealth	-10.2539
▁principle	-10.2544
▁replace	-10.2552
▁grandmother	-10.2552
▁practical	-10.2552
▁struggle	-10.2552
▁opposite	-10.2553
▁interface	-10.2553
▁chain	-10.2554
▁planning	-10.2555
▁capable	-10.2557
▁lucky	-10.2559
▁foreign	-10.2562
▁stone	-10.2563
win	-10.258
▁row	-10.2584
▁direct	-10.2585
▁importantly	-10.259
atch	-10.2591
▁Art	-10.2593
▁ring	-10.2596
▁degree	-10.2626
▁breath	-10.2628
▁author	-10.263
▁MIT	-10.2631
▁galaxy	-10.2631
▁necessary	-10.2631
▁opinion	-10.2631
▁fresh	-10.2631
▁childhood	-10.2632
▁everyday	-10.2639
▁shoes	-10.2654
▁concerned	-10.2657
pping	-10.2657
▁discovery	-10.2657
▁letter	-10.2659
ack	-10.2676
▁Pri	-10.268
▁colors	-10.2681
▁detect	-10.2693
▁members	-10.2696
rin	-10.2698
ank	-10.2705
▁Islam	-10.2706
▁easier	-10.2711
▁error	-10.2711
▁outcome	-10.2713
▁transformation	-10.2716
▁fail	-10.272
▁bag	-10.2721
▁qua	-10.2739
▁foundation	-10.275
ase	-10.276
▁leg	-10.2762
scale	-10.2779
▁faith	-10.2791
▁identity	-10.2791
▁claim	-10.2791
▁Kenya	-10.2791
▁title	-10.2791
▁master	-10.2795
▁chart	-10.2796
▁relationships	-10.2797
ju	-10.2797
▁European	-10.2799
lock	-10.2799
▁dimensions	-10.2806
▁myth	-10.2812
▁organizations	-10.2835
ame	-10.2836
▁grown	-10.2839
▁tag	-10.284
▁fighting	-10.2856
▁150	-10.2864
▁estimate	-10.2871
▁platform	-10.2871
▁truck	-10.2871
▁responsible	-10.2871
▁walls	-10.2873
▁shop	-10.2876
▁meters	-10.2889
If	-10.2891
▁serve	-10.2891
▁highest	-10.2891
▁clinical	-10.2892
▁Have	-10.2893
▁leads	-10.2894
▁lesson	-10.2903
▁finished	-10.2904
▁tu	-10.2906
▁tens	-10.2915
▁justice	-10.2916
▁wire	-10.2916
▁require	-10.2927
water	-10.2939
▁graphic	-10.294
▁Arab	-10.2949
▁occur	-10.2951
▁malaria	-10.2953
▁quiet	-10.2953
▁stress	-10.2953
▁operating	-10.2954
▁sexual	-10.2954
▁Over	-10.296
▁Pi	-10.2968
▁adults	-10.2986
▁perfectly	-10.2993
▁deeply	-10.3002
▁compared	-10.3007
▁sum	-10.302
ina	-10.3025
▁tax	-10.3034
▁Audience	-10.3034
▁dinner	-10.3034
▁mathematics	-10.3034
▁regular	-10.3034
▁studied	-10.3034
▁multiple	-10.3035
▁pair	-10.3039
▁unfortunately	-10.3039
▁majority	-10.3042
▁ultimately	-10.3046
▁load	-10.305
▁May	-10.305
▁hall	-10.3063
▁attract	-10.3063
▁failed	-10.3067
▁wearing	-10.3076
▁expand	-10.308
▁operate	-10.3084
▁disappear	-10.3086
▁demo	-10.3097
▁typical	-10.3101
vin	-10.3105
▁photos	-10.3116
▁chicken	-10.3117
▁distribution	-10.3117
▁silk	-10.3117
▁tomorrow	-10.3117
▁dress	-10.3118
▁bubble	-10.3118
▁round	-10.3119
▁Times	-10.3121
▁Once	-10.3125
▁faces	-10.3125
dding	-10.314
aging	-10.3151
▁Ru	-10.3155
az	-10.3158
▁oceans	-10.3164
▁mode	-10.3173
▁equation	-10.32
▁George	-10.32
▁leaving	-10.32
▁intellectual	-10.3201
▁swim	-10.3201
▁broad	-10.3201
▁Anyway	-10.3201
meter	-10.3208
▁begins	-10.321
▁Per	-10.321
▁El	-10.3215
▁resource	-10.3218
▁wear	-10.3247
right	-10.3248
▁discuss	-10.3277
▁Mexico	-10.3284
▁agriculture	-10.3284
▁channel	-10.3284
▁disaster	-10.3284
▁survival	-10.3284
▁gu	-10.3286
▁contract	-10.3286
▁losing	-10.3287
▁Island	-10.3295
▁north	-10.33
▁mark	-10.331
aving	-10.3311
▁seriously	-10.3321
▁define	-10.3335
tz	-10.3346
▁demonstrate	-10.3346
▁Michael	-10.3369
▁mirror	-10.3369
▁stupid	-10.3369
▁worried	-10.3369
▁weather	-10.3369
▁exchange	-10.337
▁curious	-10.337
▁lift	-10.3371
▁hopefully	-10.3371
▁chemistry	-10.3372
▁poem	-10.3374
▁harder	-10.3376
▁discussion	-10.3377
▁toward	-10.3382
▁dinosaurs	-10.3387
▁protein	-10.3388
▁believed	-10.3392
▁factory	-10.3392
▁Bra	-10.3394
▁counter	-10.3401
▁skill	-10.3405
▁tape	-10.3414
▁lights	-10.3425
▁y	-10.3433
▁compare	-10.3437
▁professor	-10.3455
▁click	-10.3455
▁despite	-10.3455
▁pounds	-10.3455
▁conscious	-10.3458
▁wood	-10.346
▁pill	-10.3462
ari	-10.3462
▁vehicle	-10.3477
▁ideal	-10.3479
▁held	-10.3479
▁ants	-10.3482
▁normally	-10.3498
▁calls	-10.3503
▁mix	-10.3509
▁described	-10.3511
cut	-10.3512
▁electrical	-10.3516
press	-10.3525
oid	-10.3526
▁determine	-10.3534
ik	-10.3537
▁treated	-10.3538
Hey	-10.3539
▁brings	-10.3541
▁Pakistan	-10.3541
▁succeed	-10.3541
▁exercise	-10.3541
▁nervous	-10.3541
▁surgeon	-10.3541
▁nurse	-10.3541
▁corruption	-10.3542
▁followed	-10.3543
▁proud	-10.3543
▁Ge	-10.3546
▁principles	-10.355
▁manage	-10.357
▁languages	-10.3581
▁Does	-10.3582
well	-10.3587
▁raised	-10.3597
▁actor	-10.36
▁closed	-10.3601
▁cla	-10.3625
▁Brazil	-10.3628
▁marriage	-10.3628
▁mechanism	-10.3628
▁volunteer	-10.3628
▁yesterday	-10.3628
▁joke	-10.3628
▁dozen	-10.3628
▁empower	-10.3628
▁tribe	-10.3629
▁peak	-10.3629
▁2,000	-10.363
▁construction	-10.3631
▁frame	-10.3636
▁moments	-10.3641
▁45	-10.3654
ane	-10.3662
▁managed	-10.3663
▁weak	-10.3664
▁signals	-10.3669
▁su	-10.3672
head	-10.3674
▁soldiers	-10.3676
▁designing	-10.3677
▁involve	-10.3681
▁launch	-10.3684
▁fourth	-10.3685
▁cow	-10.3691
▁Nigeria	-10.3704
ong	-10.3715
▁border	-10.3716
▁hydrogen	-10.3716
▁fellow	-10.3716
▁awful	-10.3717
▁Would	-10.372
ld	-10.3721
▁constantly	-10.3727
▁presentation	-10.3729
▁fell	-10.373
▁invited	-10.3736
gh	-10.3738
pen	-10.3759
▁dreams	-10.376
▁coal	-10.3763
▁knowing	-10.3769
▁soil	-10.3771
▁wide	-10.3781
20	-10.3784
board	-10.3789
▁wine	-10.3789
▁folks	-10.3791
point	-10.3792
▁feels	-10.3798
▁Facebook	-10.3804
▁invisible	-10.3804
▁monitor	-10.3804
▁ordinary	-10.3804
▁rural	-10.3804
▁zone	-10.3804
▁battle	-10.3804
▁property	-10.3805
▁solid	-10.3805
▁gang	-10.3806
▁grid	-10.3806
▁evolutionary	-10.3808
▁otherwise	-10.381
▁99	-10.3814
ough	-10.3816
par	-10.3817
60	-10.3819
▁Iran	-10.382
▁mentioned	-10.3833
▁billions	-10.3854
▁wave	-10.3859
▁Sp	-10.3867
▁clinic	-10.387
▁chip	-10.3875
Yes	-10.3881
▁fan	-10.3883
▁consequences	-10.3886
▁35	-10.3888
▁phones	-10.3889
▁battery	-10.3893
▁contribute	-10.3893
▁Street	-10.3893
▁plate	-10.3893
▁hurt	-10.3893
▁medium	-10.3893
▁Anderson	-10.3894
ency	-10.39
▁reform	-10.3901
▁sport	-10.3902
▁Bar	-10.3902
▁Bi	-10.3902
▁tube	-10.3903
▁factor	-10.391
▁band	-10.3919
▁invent	-10.3921
▁cook	-10.3922
He	-10.3924
▁inner	-10.3937
▁bees	-10.3942
▁shock	-10.3947
▁movies	-10.3948
▁destroy	-10.3952
▁En	-10.3982
▁NASA	-10.3983
▁empty	-10.3983
▁sphere	-10.3983
▁comment	-10.3984
▁Everything	-10.3985
▁lung	-10.3985
▁reef	-10.3989
nna	-10.4008
media	-10.4012
▁scar	-10.4014
▁suggest	-10.4036
▁release	-10.404
Do	-10.4051
hen	-10.4056
politics	-10.4056
▁spoke	-10.4063
▁dealing	-10.4064
▁opening	-10.4072
▁spectrum	-10.4074
▁sweet	-10.4074
▁Three	-10.4074
▁pump	-10.4075
▁print	-10.4078
▁holes	-10.4079
▁married	-10.4079
▁host	-10.4088
▁disc	-10.4094
▁director	-10.4099
▁parent	-10.4124
▁introduce	-10.4132
▁businesses	-10.4137
▁leader	-10.4148
▁aging	-10.4152
▁keeping	-10.4158
▁shapes	-10.4163
▁employ	-10.4166
▁epidemic	-10.4166
▁fossil	-10.4166
▁strategy	-10.4166
▁Japanese	-10.4166
▁orbit	-10.4168
▁convert	-10.4168
▁cognitive	-10.4169
▁according	-10.417
▁However	-10.4175
▁roughly	-10.4175
▁assume	-10.4179
▁arrived	-10.4185
▁sharks	-10.4186
berg	-10.4187
▁lifetime	-10.419
▁due	-10.4192
not	-10.4226
▁essential	-10.4243
▁heads	-10.4252
▁mathematical	-10.4259
▁School	-10.4259
▁emerging	-10.4259
▁explanation	-10.4259
▁hidden	-10.4259
▁possibilities	-10.4259
▁spider	-10.4259
▁lady	-10.4261
▁emotion	-10.4268
▁100,000	-10.4271
▁pet	-10.4289
▁details	-10.4292
▁exists	-10.4298
fish	-10.4304
▁absolute	-10.4336
▁sensor	-10.4337
▁tear	-10.4339
law	-10.434
▁experiences	-10.4347
▁equipment	-10.4352
▁filter	-10.4352
▁narrative	-10.4352
▁evil	-10.4352
▁worldwide	-10.4352
▁admit	-10.4352
▁passionate	-10.4356
▁setting	-10.4368
▁dry	-10.4376
▁diet	-10.4383
▁celebrate	-10.44
▁whom	-10.4413
▁addition	-10.4418
ological	-10.4427
▁paying	-10.4428
▁England	-10.4447
▁Twitter	-10.4447
▁Wikipedia	-10.4447
▁abstract	-10.4447
▁disorder	-10.4447
▁pocket	-10.4447
▁studio	-10.4447
▁grain	-10.4447
▁wheel	-10.4451
▁arms	-10.4466
tract	-10.4482
▁Fe	-10.4488
▁dots	-10.4501
▁shoot	-10.4504
▁gather	-10.4504
▁publish	-10.451
▁consume	-10.4513
▁generations	-10.4515
▁relative	-10.4526
▁correct	-10.4529
▁meme	-10.453
▁cartoon	-10.4532
▁Their	-10.4537
▁client	-10.4542
▁command	-10.4542
▁liquid	-10.4542
▁heavy	-10.4542
▁steel	-10.4542
▁existence	-10.4543
▁script	-10.4549
cal	-10.4552
▁picked	-10.4554
▁carefully	-10.4555
▁rap	-10.4565
xi	-10.4582
▁processes	-10.4605
▁mistake	-10.4605
80	-10.4609
That	-10.4619
▁Institute	-10.4638
▁physicist	-10.4638
▁kilometers	-10.4638
▁James	-10.4638
▁conclusion	-10.4638
▁daily	-10.4639
▁acid	-10.4639
▁topic	-10.4641
▁shut	-10.4643
ily	-10.4658
▁melt	-10.466
▁characters	-10.4671
▁launched	-10.4672
▁wa	-10.4687
▁economics	-10.4692
▁advance	-10.47
▁concern	-10.4704
ification	-10.4706
▁mention	-10.471
▁mile	-10.4716
▁broke	-10.4724
▁testing	-10.4725
gram	-10.4728
▁Australia	-10.4735
▁combination	-10.4735
▁identify	-10.4735
▁mortality	-10.4735
▁producing	-10.4735
▁teenage	-10.4735
▁university	-10.4735
▁killing	-10.4735
▁maintain	-10.4735
▁Qu	-10.4735
▁feedback	-10.4735
▁sculpture	-10.4736
▁rational	-10.4736
▁Robert	-10.4736
▁reference	-10.4738
▁refer	-10.474
▁saved	-10.475
▁musician	-10.475
▁unless	-10.4757
ou	-10.4764
▁currently	-10.4768
▁introduced	-10.4772
now	-10.4774
down	-10.4786
▁emerge	-10.4798
▁relate	-10.4799
▁King	-10.4804
▁experts	-10.4805
uring	-10.4806
▁covered	-10.4813
ace	-10.4813
▁molecul	-10.4814
▁nations	-10.4816
▁hadn	-10.4817
▁input	-10.4827
Q	-10.4833
▁perceive	-10.4833
▁stood	-10.4833
▁teeth	-10.4833
▁decline	-10.4833
▁regard	-10.4833
▁split	-10.4833
▁talent	-10.4834
▁leadership	-10.4837
▁TEDx	-10.4847
▁soul	-10.485
pr	-10.4873
▁filled	-10.4875
bar	-10.4877
▁extract	-10.4881
▁capture	-10.4897
▁feelings	-10.4898
▁Un	-10.49
▁matters	-10.4901
▁buying	-10.4912
▁technical	-10.4916
▁Pacific	-10.4932
▁encounter	-10.4932
▁volume	-10.4932
▁balloon	-10.4932
▁computing	-10.4932
▁fiber	-10.4932
▁Frank	-10.4932
▁emissions	-10.4932
▁boom	-10.4934
▁wake	-10.4935
▁appropriate	-10.4936
▁Other	-10.4936
▁Bank	-10.4937
▁organs	-10.4937
▁season	-10.4937
▁player	-10.4938
▁suck	-10.4938
▁associated	-10.4942
▁protection	-10.4944
verse	-10.495
▁belong	-10.4959
▁entertainment	-10.4969
▁Du	-10.4975
▁soft	-10.4985
▁names	-10.499
▁hasn	-10.4992
▁limited	-10.4997
▁react	-10.4997
▁shark	-10.5011
social	-10.5013
▁bra	-10.5019
▁earn	-10.5021
▁Come	-10.5023
▁gravity	-10.5032
▁inspiration	-10.5032
▁prototype	-10.5032
▁underneath	-10.5032
▁valuable	-10.5032
▁Thomas	-10.5032
▁Christian	-10.5032
▁lawyer	-10.5032
▁importance	-10.5032
▁primary	-10.5033
▁spring	-10.5035
▁radiation	-10.5035
▁cutting	-10.5041
▁rocket	-10.5042
▁steps	-10.5074
▁van	-10.5088
▁Ch	-10.5093
▁rare	-10.5098
▁fields	-10.5102
education	-10.5114
▁pin	-10.5116
▁lie	-10.5123
30	-10.5128
▁Sch	-10.513
▁harm	-10.5133
▁Harvard	-10.5133
▁south	-10.5133
▁score	-10.5134
▁guide	-10.5134
▁specifically	-10.5136
▁flip	-10.5136
▁credit	-10.5136
▁mothers	-10.5138
▁shall	-10.5138
▁reverse	-10.5138
▁solved	-10.514
ram	-10.5143
▁cave	-10.5157
▁photographs	-10.5158
▁effectively	-10.5161
▁prediction	-10.5162
▁king	-10.5176
▁singing	-10.5189
▁chemicals	-10.5194
▁collapse	-10.52
▁evolve	-10.5201
▁players	-10.5201
▁hang	-10.5201
▁considered	-10.5213
erry	-10.5224
▁Hi	-10.5225
▁conduct	-10.5226
▁Green	-10.5234
▁definitely	-10.5235
▁infinite	-10.5235
▁limb	-10.5235
▁status	-10.5235
▁nerve	-10.5235
▁Britain	-10.5235
▁nest	-10.5235
▁Prize	-10.5236
▁alien	-10.5236
▁kick	-10.5236
lon	-10.5237
▁loud	-10.5237
▁safety	-10.524
▁rapidly	-10.5243
▁increasingly	-10.525
▁viruses	-10.5252
live	-10.5253
▁shoulder	-10.5258
▁75	-10.526
▁organized	-10.5264
▁convince	-10.5304
ock	-10.5313
load	-10.5314
source	-10.5315
foot	-10.5319
▁represents	-10.5323
▁selling	-10.5333
▁lessons	-10.5336
▁YouTube	-10.5338
▁accurate	-10.5338
▁quarter	-10.5338
▁variety	-10.5338
▁clever	-10.5338
▁drill	-10.5339
▁strip	-10.534
ography	-10.5346
lum	-10.5349
▁sites	-10.5352
▁appreciate	-10.5358
ept	-10.5376
▁tall	-10.5377
▁driven	-10.5389
ima	-10.5389
▁Wal	-10.54
▁calling	-10.5408
view	-10.5419
▁creature	-10.5434
▁marketing	-10.5438
▁Women	-10.5442
▁depression	-10.5442
▁facing	-10.5442
▁rescue	-10.5442
▁Center	-10.5442
▁tank	-10.5443
▁nano	-10.5445
▁winter	-10.5448
▁collaboration	-10.5451
▁sending	-10.5459
▁pure	-10.5477
pan	-10.5489
udi	-10.5507
▁Israel	-10.5509
human	-10.5522
tim	-10.5529
Look	-10.553
making	-10.5538
▁button	-10.5542
▁relation	-10.5547
▁critic	-10.5547
▁President	-10.5548
▁Science	-10.5548
▁consumption	-10.5548
▁official	-10.5548
▁telescope	-10.5548
▁plot	-10.5548
▁prefer	-10.5548
▁zoom	-10.5556
new	-10.556
▁handle	-10.5561
▁statement	-10.5565
urge	-10.5571
▁cooking	-10.5592
▁generally	-10.5596
business	-10.5635
▁personally	-10.5638
▁comfort	-10.5651
▁computation	-10.5654
▁observation	-10.5654
▁paradigm	-10.5654
▁participate	-10.5654
▁loop	-10.5658
▁Last	-10.5661
▁hotel	-10.5664
▁label	-10.5667
▁relatively	-10.5672
▁received	-10.5686
▁customer	-10.571
▁organ	-10.5718
▁waves	-10.572
▁Rob	-10.5722
▁suppose	-10.5727
▁pulled	-10.574
half	-10.5743
▁increasing	-10.5746
▁analysis	-10.5762
▁kitchen	-10.5762
▁length	-10.5762
▁trillion	-10.5762
▁element	-10.5763
▁dense	-10.5763
▁1960	-10.5763
▁leaves	-10.5765
▁crop	-10.5768
▁style	-10.5768
▁exploration	-10.5769
▁letters	-10.577
▁infected	-10.5773
▁gold	-10.5784
ov	-10.5789
state	-10.5794
arts	-10.5794
▁journalist	-10.5795
▁forced	-10.581
▁Col	-10.5829
▁divide	-10.5836
▁wondering	-10.5856
ibility	-10.586
▁added	-10.5865
▁expected	-10.5867
▁str	-10.5868
▁embrace	-10.587
▁1990	-10.587
▁employees	-10.587
▁telephone	-10.587
▁framework	-10.5871
▁ought	-10.5871
room	-10.5873
▁Human	-10.5874
▁comic	-10.5884
▁convinced	-10.5907
▁components	-10.5916
gar	-10.5916
▁rot	-10.5917
▁surprised	-10.5919
▁deeper	-10.5921
▁neighbors	-10.5923
▁penguins	-10.5923
iz	-10.5924
ker	-10.5928
▁beach	-10.5942
▁entrepreneurs	-10.5953
eep	-10.5955
▁affected	-10.5956
▁Red	-10.5957
grade	-10.5963
book	-10.5969
▁danger	-10.5979
▁destruction	-10.598
▁privilege	-10.598
▁survey	-10.598
▁technological	-10.598
▁cortex	-10.598
▁spiritual	-10.5981
▁doubt	-10.5981
▁tap	-10.5991
▁clock	-10.5992
▁prepared	-10.5996
▁angle	-10.5997
▁State	-10.5998
ana	-10.6015
▁users	-10.6017
get	-10.6026
▁AB	-10.6028
read	-10.603
bble	-10.6032
▁Boy	-10.6037
▁cup	-10.6047
▁upper	-10.6058
▁extend	-10.606
▁proteins	-10.6066
▁Gi	-10.6072
music	-10.6073
▁Steve	-10.6089
▁harvest	-10.6091
▁mosquito	-10.6091
▁predator	-10.6091
▁swimming	-10.6091
▁internal	-10.6091
▁occurred	-10.6091
▁lens	-10.6092
▁Francisco	-10.6092
▁biologist	-10.6092
▁selection	-10.6094
▁comfortable	-10.6095
▁illusion	-10.6095
▁snow	-10.6095
▁musical	-10.6097
▁dish	-10.6101
▁victims	-10.6112
▁exception	-10.6112
▁watched	-10.6114
fer	-10.6116
▁user	-10.6118
▁cable	-10.6118
▁researchers	-10.612
▁Air	-10.6134
▁grass	-10.6135
▁behavioral	-10.6135
▁acting	-10.6151
ola	-10.6153
▁breathe	-10.6155
▁techniques	-10.6168
▁tons	-10.617
▁23	-10.6172
▁geo	-10.6175
play	-10.6184
▁pal	-10.6185
▁German	-10.6189
▁requires	-10.6191
▁grab	-10.6198
▁Gulf	-10.6204
▁calculate	-10.6204
▁fabric	-10.6204
▁library	-10.6204
▁transition	-10.6204
▁transplant	-10.6204
▁unusual	-10.6204
▁variation	-10.6204
▁polio	-10.6204
▁firm	-10.6204
▁birthday	-10.6205
▁review	-10.6209
▁atoms	-10.621
▁organism	-10.6223
▁member	-10.6224
▁bike	-10.6227
ham	-10.6229
▁Nor	-10.6241
▁cameras	-10.6253
▁cure	-10.6261
▁dive	-10.6274
▁carrying	-10.6279
▁receive	-10.6283
▁robotic	-10.6296
Okay	-10.6298
▁ultimate	-10.6301
▁traveling	-10.6305
▁sustain	-10.6313
▁Project	-10.6317
▁September	-10.6317
▁assumption	-10.6317
▁democratic	-10.6317
>	-10.6317
▁visible	-10.6317
▁section	-10.6319
▁2008	-10.6322
▁psychology	-10.6329
back	-10.6329
rich	-10.633
▁rates	-10.6334
mark	-10.6336
▁typically	-10.6339
▁pan	-10.6342
▁te	-10.6347
▁Five	-10.635
▁mistakes	-10.6357
▁habit	-10.6358
▁Par	-10.6365
vert	-10.6375
▁falling	-10.6377
cop	-10.6387
▁fewer	-10.6396
▁spec	-10.6397
▁Mark	-10.6397
▁nose	-10.6397
Yeah	-10.6413
▁Sea	-10.6429
▁Bur	-10.643
▁GDP	-10.6432
▁church	-10.6432
▁correspond	-10.6432
▁pollution	-10.6432
▁instruction	-10.6432
▁intense	-10.6432
▁properties	-10.6432
▁therapy	-10.6432
▁Basically	-10.6432
▁gentlemen	-10.6432
▁characteristic	-10.6433
▁flash	-10.6434
▁commitment	-10.6434
▁boring	-10.6434
▁adventure	-10.6434
▁hoping	-10.6435
▁3,000	-10.6437
▁pitch	-10.6439
▁pile	-10.644
▁controlled	-10.6443
▁advanced	-10.6473
▁naturally	-10.6526
graph	-10.6533
erial	-10.6542
rous	-10.6547
▁efficiency	-10.6548
▁stretch	-10.6548
▁asteroid	-10.6548
▁shame	-10.655
ounce	-10.655
▁wireless	-10.6551
▁Could	-10.6551
▁compar	-10.6551
▁5,000	-10.6552
▁cheat	-10.6552
▁poetry	-10.6556
phy	-10.6562
▁apple	-10.6569
▁feature	-10.6578
▁height	-10.6601
terior	-10.6604
▁suggests	-10.6611
cro	-10.6622
▁experienced	-10.6629
▁22	-10.6644
▁remove	-10.6645
medicine	-10.6647
arian	-10.666
▁transport	-10.6664
▁Canada	-10.6666
▁activities	-10.6666
▁lecture	-10.6666
▁parallel	-10.6666
▁pilot	-10.6666
▁relevant	-10.6666
▁sophisticated	-10.6666
▁behave	-10.6667
▁severe	-10.6667
▁exhibition	-10.6669
▁Bush	-10.6673
▁productive	-10.6676
▁thin	-10.6684
lea	-10.6687
▁urge	-10.6687
▁expert	-10.67
▁Will	-10.6716
▁religions	-10.672
tech	-10.6738
▁sheet	-10.675
▁translate	-10.675
▁sources	-10.6759
▁cards	-10.676
pped	-10.6771
▁recover	-10.6771
▁bug	-10.6781
▁Chicago	-10.6785
▁animation	-10.6785
▁fortunate	-10.6785
▁observe	-10.6785
▁vegetable	-10.6785
▁repair	-10.6785
▁steal	-10.6785
▁presence	-10.6785
▁confront	-10.6786
org	-10.6787
▁spill	-10.6787
▁politicians	-10.6787
▁dropped	-10.6787
▁infection	-10.679
▁philosophy	-10.6791
▁tip	-10.6792
▁pollen	-10.6793
▁2000	-10.6798
▁applied	-10.6814
▁technique	-10.6823
▁Tu	-10.6826
▁cast	-10.6829
▁Day	-10.6831
aries	-10.6831
▁seal	-10.6838
▁interests	-10.6841
▁mad	-10.6841
▁Mc	-10.6865
▁fishing	-10.6869
▁repeat	-10.6874
▁32	-10.6875
mission	-10.6884
third	-10.6887
house	-10.6891
▁protected	-10.6892
▁processing	-10.6899
▁poster	-10.6902
▁deploy	-10.6906
▁mathematician	-10.6906
▁vulnerable	-10.6906
▁witness	-10.6906
▁fruit	-10.6906
▁piano	-10.6906
▁court	-10.6906
▁hide	-10.6911
▁flies	-10.6911
▁Four	-10.6914
▁bill	-10.6925
▁explained	-10.6931
▁busy	-10.6934
maker	-10.6946
▁connections	-10.6947
gging	-10.6951
▁defined	-10.6955
▁former	-10.6955
▁lies	-10.6972
▁eggs	-10.6973
▁spa	-10.6984
▁ears	-10.6986
▁combine	-10.6993
▁Act	-10.6997
▁younger	-10.7011
rick	-10.7013
▁exact	-10.7015
▁blocks	-10.7015
▁Congress	-10.7028
▁TEDTalk	-10.7028
▁advice	-10.7028
▁continuous	-10.7028
▁diagram	-10.7028
▁revenue	-10.7028
▁afternoon	-10.7028
▁session	-10.7028
▁prize	-10.7028
▁hyper	-10.7028
▁transfer	-10.7028
▁ear	-10.7028
▁regime	-10.7029
▁unknown	-10.7029
▁tuna	-10.703
▁ancestors	-10.703
▁clothes	-10.703
▁management	-10.7032
▁poet	-10.7038
▁sight	-10.7039
mate	-10.7047
▁Pe	-10.7049
▁27	-10.7052
▁percentage	-10.7072
▁fundamentally	-10.7075
▁hunt	-10.7084
can	-10.7091
▁habitat	-10.7107
▁Tom	-10.7112
▁chi	-10.7113
unk	-10.712
▁Ti	-10.7122
illa	-10.7124
▁fingers	-10.7134
▁Bang	-10.7135
▁constant	-10.7135
▁reached	-10.7142
▁select	-10.7145
▁unlike	-10.7146
ken	-10.7147
▁dramatic	-10.715
▁accomplish	-10.7151
▁dancing	-10.7151
▁iPhone	-10.7151
▁implement	-10.7151
▁plug	-10.7151
▁ritual	-10.7151
▁unexpected	-10.7151
▁courage	-10.7151
▁France	-10.7151
▁heaven	-10.7151
▁smoke	-10.7151
▁phase	-10.7151
▁escape	-10.7152
▁golf	-10.7152
▁Also	-10.7152
▁desk	-10.7152
▁thick	-10.7153
▁sunlight	-10.7153
▁toxic	-10.7154
▁continued	-10.7158
▁Cor	-10.7159
▁remains	-10.7165
▁Germany	-10.7168
fully	-10.7178
ridge	-10.7182
▁flowers	-10.7186
▁65	-10.7192
▁trials	-10.7197
▁mountains	-10.7201
▁required	-10.7203
rise	-10.7211
▁600	-10.7212
onic	-10.7227
don	-10.7232
▁formed	-10.7235
▁features	-10.7244
hr	-10.7267
▁increased	-10.7268
▁recorded	-10.7268
▁pour	-10.7276
▁Valley	-10.7276
▁analyze	-10.7276
▁Apple	-10.7276
▁Since	-10.7276
▁footprint	-10.7277
▁trace	-10.7277
▁Nobody	-10.7278
▁staff	-10.7278
▁Union	-10.728
▁2007	-10.7281
▁apartment	-10.7283
▁craft	-10.7285
▁recording	-10.7291
▁vent	-10.7301
▁corn	-10.7308
▁circumstances	-10.732
▁wherever	-10.7331
▁liver	-10.7333
▁Au	-10.7337
ush	-10.7344
▁burning	-10.735
▁organize	-10.737
take	-10.7378
self	-10.7381
dollar	-10.7384
world	-10.7384
unclear	-10.7384
▁depends	-10.739
bert	-10.7394
▁challenging	-10.7403
▁license	-10.7403
▁physician	-10.7403
▁violent	-10.7403
▁disgust	-10.7403
▁pyramid	-10.7403
▁implant	-10.7403
▁attitude	-10.7403
▁worm	-10.7403
▁intention	-10.7406
▁gray	-10.7407
▁fake	-10.7407
▁awareness	-10.7408
▁fluid	-10.7409
▁sail	-10.7409
▁hip	-10.7418
▁agent	-10.7429
▁boxes	-10.7433
▁measured	-10.7435
▁engaged	-10.7464
▁linked	-10.749
being	-10.7491
ix	-10.7504
▁compete	-10.7507
▁bat	-10.7517
▁auto	-10.7518
▁largely	-10.7521
But	-10.7523
ception	-10.7527
▁radi	-10.7527
▁optim	-10.7529
▁favor	-10.753
&	-10.7531
▁Woman	-10.7531
▁centuries	-10.7531
▁chromosome	-10.7531
▁embarrass	-10.7531
▁innovative	-10.7531
▁manufacturing	-10.7531
▁regret	-10.7531
▁romantic	-10.7531
▁reserve	-10.7531
▁depth	-10.7531
▁cents	-10.7533
▁flag	-10.7534
▁Yet	-10.7538
▁Never	-10.7538
▁White	-10.7539
▁meaningful	-10.7546
▁Park	-10.7554
▁electron	-10.7554
nor	-10.758
▁vessels	-10.7581
▁wings	-10.7586
▁neighbor	-10.7598
rd	-10.7615
▁Get	-10.7619
place	-10.7623
▁wondered	-10.7625
▁classic	-10.7629
▁closely	-10.7633
green	-10.7642
space	-10.7643
▁edit	-10.7652
▁column	-10.7661
▁mammal	-10.7661
▁absorb	-10.7661
▁conclude	-10.7661
▁exponential	-10.7661
▁motivate	-10.7661
▁orchestra	-10.7661
▁finance	-10.7661
▁plus	-10.7661
▁patent	-10.7661
▁Something	-10.7661
▁marine	-10.7661
▁poison	-10.7662
▁terrorism	-10.7662
▁stock	-10.7662
▁laser	-10.7664
▁tele	-10.7666
▁DH	-10.7668
▁somewhat	-10.767
▁prisoner	-10.767
▁Bible	-10.767
▁collection	-10.7674
▁monkeys	-10.7676
▁Hill	-10.7678
▁instruments	-10.7679
▁raw	-10.7682
▁weigh	-10.7683
▁army	-10.7718
▁whales	-10.772
▁physically	-10.773
▁whale	-10.7733
▁existing	-10.7759
▁Los	-10.7776
▁brief	-10.7776
▁Pre	-10.7783
▁Ah	-10.7789
▁careful	-10.779
▁photographer	-10.7791
▁Christmas	-10.7792
▁Museum	-10.7792
▁Obama	-10.7792
▁bicycle	-10.7792
▁clue	-10.7792
▁department	-10.7792
▁empathy	-10.7792
▁milk	-10.7792
▁symmetry	-10.7792
▁enemy	-10.7792
▁Eastern	-10.7792
▁vertical	-10.7792
▁Haiti	-10.7793
ulation	-10.7793
▁wound	-10.7795
▁underwater	-10.7796
▁improvement	-10.78
Sahara	-10.7803
▁poorest	-10.7806
▁inject	-10.7807
▁humor	-10.7808
hour	-10.7808
▁output	-10.7813
▁painful	-10.7832
some	-10.7834
▁coin	-10.784
▁Gene	-10.7856
▁drag	-10.7864
long	-10.7868
▁component	-10.787
▁implications	-10.7874
▁tune	-10.7885
▁factors	-10.7894
ama	-10.7899
born	-10.7923
▁academic	-10.7926
▁exploring	-10.7926
▁frankly	-10.7926
▁gesture	-10.7926
▁literature	-10.7926
▁mechanical	-10.7926
▁Boston	-10.7926
▁automatically	-10.7926
▁simplicity	-10.7927
▁hook	-10.7928
▁logic	-10.7929
tail	-10.793
▁sensitive	-10.7932
▁interactive	-10.7933
ivity	-10.7934
face	-10.7936
▁Star	-10.7938
▁wise	-10.7942
▁tech	-10.795
▁tie	-10.7954
▁options	-10.7964
char	-10.7978
▁however	-10.7991
ending	-10.8002
▁dig	-10.8003
▁pray	-10.8009
▁vehicles	-10.8026
itch	-10.8037
▁institution	-10.804
under	-10.804
class	-10.8043
▁wing	-10.8045
▁resid	-10.8047
zero	-10.8052
ew	-10.806
▁Microsoft	-10.8061
▁Rwanda	-10.8061
▁Unfortunately	-10.8061
▁chocolate	-10.8061
▁hunger	-10.8061
▁liberal	-10.8061
▁narrow	-10.8061
▁rhythm	-10.8061
▁silence	-10.8061
▁preserve	-10.8061
▁mystery	-10.8061
▁Brown	-10.8061
▁minister	-10.8061
▁rush	-10.8062
▁vital	-10.8063
▁salt	-10.8065
print	-10.8065
▁panel	-10.8065
▁solving	-10.8065
lee	-10.8066
▁2005	-10.8066
▁Please	-10.8069
ok	-10.808
▁overall	-10.8083
hood	-10.8097
▁lit	-10.8098
▁cry	-10.8105
▁transformed	-10.8139
▁Any	-10.8143
▁peer	-10.8144
lies	-10.8167
My	-10.8181
▁Russia	-10.8186
▁advertising	-10.8198
▁exploit	-10.8198
▁Ghana	-10.8198
▁Sweden	-10.8198
▁Uganda	-10.8198
▁identical	-10.8198
▁judge	-10.8198
▁pregnant	-10.8198
▁quantum	-10.8198
▁skull	-10.8198
▁cyber	-10.8198
▁deserve	-10.8198
▁false	-10.8198
▁defend	-10.8198
put	-10.8198
▁Abou	-10.8201
city	-10.8201
▁settle	-10.8205
▁chest	-10.8206
▁Islamic	-10.8206
▁26	-10.8209
ality	-10.8211
▁bare	-10.824
▁incentives	-10.8242
40	-10.8266
▁funding	-10.8267
▁gut	-10.8286
▁parking	-10.8287
Y	-10.8289
▁inspire	-10.8302
▁feeding	-10.8304
creativity	-10.8318
▁Foundation	-10.8337
▁Perhaps	-10.8337
▁dolphin	-10.8337
▁elephant	-10.8337
▁genius	-10.8337
▁globe	-10.8337
▁motivation	-10.8337
▁phrase	-10.8337
▁psychological	-10.8337
▁complain	-10.8337
▁knock	-10.8337
▁Girl	-10.8337
▁Latin	-10.8337
▁spell	-10.8337
▁flew	-10.8337
lash	-10.8337
▁sauce	-10.8337
▁aircraft	-10.8337
▁productivity	-10.8338
▁Peter	-10.834
▁slum	-10.8342
▁Paris	-10.8343
▁sweat	-10.836
▁hill	-10.8362
teen	-10.8368
▁pad	-10.8372
▁ill	-10.8375
▁Wall	-10.8382
▁pu	-10.8383
▁aim	-10.8383
▁rip	-10.8384
▁kit	-10.839
bur	-10.8415
▁bend	-10.8416
▁Lab	-10.8419
▁shell	-10.8434
▁option	-10.844
▁Tim	-10.8461
cha	-10.8461
▁connecting	-10.8466
▁algorithms	-10.8466
▁Child	-10.8477
▁club	-10.8477
▁horrible	-10.8477
▁laboratory	-10.8477
▁mushroom	-10.8477
▁origami	-10.8477
▁suspect	-10.8477
▁measuring	-10.8477
▁smallpox	-10.8477
▁breed	-10.8478
▁stack	-10.8485
▁Six	-10.8487
ya	-10.8488
▁tries	-10.8491
▁spreading	-10.8494
▁applications	-10.8513
▁combined	-10.8518
▁formula	-10.8519
part	-10.8529
▁stronger	-10.853
▁potentially	-10.8541
▁functional	-10.8542
▁breathing	-10.8545
plan	-10.8545
▁joined	-10.8578
▁construct	-10.8584
▁application	-10.8584
▁seeds	-10.8585
▁speakers	-10.8585
ez	-10.8587
▁magnetic	-10.8593
▁neuron	-10.8596
ancy	-10.8598
▁install	-10.8617
▁concentrate	-10.862
▁Number	-10.862
▁While	-10.862
▁concert	-10.862
▁distributed	-10.862
▁economies	-10.862
▁pandemic	-10.862
▁permanent	-10.862
▁portrait	-10.862
▁psychologist	-10.862
▁smooth	-10.862
▁ladies	-10.862
▁extent	-10.862
▁trigger	-10.862
▁educational	-10.8621
▁sharp	-10.8621
▁resist	-10.8622
▁strand	-10.8622
▁ticket	-10.8623
▁confidence	-10.8623
ean	-10.8624
▁authority	-10.8625
▁2004	-10.8626
▁airport	-10.8626
▁pace	-10.8629
▁transportation	-10.863
q	-10.8636
▁lovely	-10.8639
▁Ten	-10.8642
▁Pole	-10.8645
▁presented	-10.8655
digit	-10.8655
▁needle	-10.8673
▁log	-10.8674
ison	-10.8675
▁Hy	-10.8675
▁promote	-10.8676
ball	-10.8684
zo	-10.8688
▁collected	-10.8689
▁Pu	-10.8695
▁Only	-10.8708
▁pur	-10.8709
▁dinosaur	-10.8734
computer	-10.8747
▁Part	-10.8748
▁illustrate	-10.8749
▁prior	-10.8764
▁Voice	-10.8765
▁astonishing	-10.8765
▁chapter	-10.8765
▁explosion	-10.8765
▁grandfather	-10.8765
▁judgment	-10.8765
▁shadow	-10.8765
▁1970	-10.8765
▁Finally	-10.8765
▁criminal	-10.8765
▁household	-10.8765
▁proportion	-10.8765
▁sandwich	-10.8765
▁strike	-10.8765
▁gender	-10.8765
▁scream	-10.8765
▁healthcare	-10.8765
▁Next	-10.8765
▁Everyone	-10.8768
▁lifestyle	-10.877
▁headline	-10.8779
▁controlling	-10.8781
▁Mor	-10.8781
▁heroes	-10.8782
▁spoken	-10.8783
▁surrounded	-10.8785
▁dimension	-10.883
economics	-10.8832
▁custom	-10.8836
▁performing	-10.8837
▁Ku	-10.8845
▁mate	-10.8876
▁particle	-10.8886
▁rely	-10.8887
food	-10.8894
▁touched	-10.8903
▁recommend	-10.8912
▁9/11	-10.8912
▁Before	-10.8912
▁domestic	-10.8912
▁furniture	-10.8912
▁obstacle	-10.8912
▁sketch	-10.8912
▁suicide	-10.8912
▁demographic	-10.8912
▁embedded	-10.8912
▁causing	-10.8912
▁General	-10.8912
▁carried	-10.8912
▁copyright	-10.8913
▁1980	-10.8915
▁Mac	-10.8917
▁incident	-10.8918
In	-10.8919
▁Russian	-10.8924
▁properly	-10.8925
▁flower	-10.8936
▁epi	-10.8936
▁Ko	-10.8937
▁floating	-10.894
called	-10.8944
hop	-10.8947
▁classes	-10.8948
▁inventor	-10.8954
erra	-10.8959
▁bull	-10.896
Don	-10.8963
▁opera	-10.8973
▁economists	-10.8975
▁suffer	-10.8993
▁Sal	-10.9017
▁symptoms	-10.9024
▁invite	-10.9028
▁cor	-10.9043
▁whi	-10.9049
▁hydro	-10.9061
▁Alzheimer	-10.9062
▁Design	-10.9062
▁Ethiopia	-10.9062
▁chimpanzee	-10.9062
▁conservative	-10.9062
▁corporate	-10.9062
▁dignity	-10.9062
▁dioxide	-10.9062
▁discipline	-10.9062
▁inspiring	-10.9062
▁intuitive	-10.9062
▁plenty	-10.9062
▁procedure	-10.9062
▁recipe	-10.9062
▁spectacular	-10.9062
▁Ocean	-10.9062
▁translation	-10.9062
▁jail	-10.9062
▁mutation	-10.9062
▁Martin	-10.9062
▁reject	-10.9062
▁overcome	-10.9062
▁Jim	-10.9062
▁orange	-10.9063
▁River	-10.9065
▁2009	-10.9067
▁sustainability	-10.907
▁representation	-10.907
▁opposed	-10.9071
▁loan	-10.9071
▁download	-10.9072
▁granted	-10.9084
Ma	-10.9086
▁scared	-10.9114
▁printing	-10.9124
▁Min	-10.9132
invention	-10.9135
▁Far	-10.9141
So	-10.9152
▁prim	-10.9154
▁pushing	-10.9169
wood	-10.9194
▁monkey	-10.9195
▁killer	-10.92
▁Hollywood	-10.9213
▁Narrator	-10.9213
▁Oxford	-10.9213
▁description	-10.9213
▁frozen	-10.9213
▁immune	-10.9213
▁obsessed	-10.9213
▁Video	-10.9213
▁cluster	-10.9213
▁trait	-10.9213
▁subtle	-10.9213
▁afterwards	-10.9214
▁citizen	-10.9214
▁greenhouse	-10.9215
▁abuse	-10.9221
▁exposed	-10.9225
free	-10.9226
gin	-10.9226
ji	-10.9226
▁dust	-10.9235
▁ingredients	-10.9236
iness	-10.9238
▁sales	-10.9249
▁equally	-10.925
▁oldest	-10.925
▁Gore	-10.9256
▁divided	-10.9262
▁disappeared	-10.9271
▁manager	-10.9279
▁drinking	-10.9289
▁agreed	-10.9297
▁passing	-10.934
phone	-10.9346
▁initial	-10.9351
oma	-10.9353
▁ignore	-10.9354
▁insect	-10.9355
▁neuro	-10.9355
▁Korea	-10.9356
▁distinct	-10.936
▁Egypt	-10.9365
▁Remember	-10.9367
▁Stanford	-10.9367
▁facial	-10.9367
▁intuition	-10.9367
▁reduction	-10.9367
▁senior	-10.9367
▁Blue	-10.9367
▁William	-10.9367
▁fiction	-10.9367
▁architectural	-10.9367
▁barrier	-10.9367
▁distant	-10.9367
▁Grand	-10.9367
▁Nothing	-10.9367
▁rising	-10.9367
▁Adam	-10.9367
▁optimistic	-10.9367
▁pretend	-10.9368
▁tonight	-10.9368
▁Talk	-10.9368
▁dramatically	-10.9369
▁compound	-10.9369
▁Congo	-10.937
▁1950	-10.937
▁Long	-10.9371
▁herself	-10.9375
▁Jack	-10.9376
▁bold	-10.9378
▁gate	-10.938
▁precisely	-10.9381
▁briefly	-10.9386
▁tick	-10.9393
▁conventional	-10.9394
▁database	-10.9394
ility	-10.9399
▁uncle	-10.94
▁entered	-10.9431
▁existed	-10.9464
▁Rome	-10.9468
card	-10.9493
▁recognized	-10.9497
run	-10.9503
storytelling	-10.9504
worth	-10.9504
▁tracking	-10.9512
▁interpret	-10.9519
▁govern	-10.952
Let	-10.952
▁Research	-10.9523
▁Scott	-10.9523
▁calculation	-10.9523
▁contrast	-10.9523
▁density	-10.9523
▁earthquake	-10.9523
▁expedition	-10.9523
▁illegal	-10.9523
▁industries	-10.9523
▁ridiculous	-10.9523
▁charity	-10.9523
▁bulb	-10.9523
▁queen	-10.9523
▁drove	-10.9523
▁condom	-10.9523
▁stunt	-10.9523
▁boundaries	-10.9523
▁Health	-10.9523
▁football	-10.9524
▁resistance	-10.9525
▁dump	-10.9525
▁House	-10.9525
▁accessible	-10.9526
▁illness	-10.9526
▁nowhere	-10.9531
▁dirty	-10.9532
▁Really	-10.9532
▁mono	-10.9537
lethal	-10.9543
▁Ya	-10.9548
▁scary	-10.9553
raw	-10.9554
▁Shi	-10.9561
▁faced	-10.9566
▁pie	-10.9567
▁lion	-10.958
▁released	-10.9583
▁250	-10.9595
▁appeared	-10.9619
▁tent	-10.9642
performance	-10.9663
▁Gar	-10.9665
race	-10.9672
▁electro	-10.9672
ught	-10.9675
▁hum	-10.9676
▁icon	-10.9677
box	-10.9678
▁candidate	-10.9682
▁curiosity	-10.9682
▁defense	-10.9682
▁leverage	-10.9682
▁microscope	-10.9682
▁activist	-10.9682
▁murder	-10.9682
▁stroke	-10.9682
▁Greek	-10.9682
▁appeal	-10.9682
▁neat	-10.9682
▁knee	-10.9682
▁contemporary	-10.9682
▁brown	-10.9683
▁kidney	-10.9684
▁stayed	-10.9685
▁simulation	-10.9686
▁package	-10.9687
▁toilet	-10.9688
▁extinction	-10.969
▁dedicated	-10.969
▁delight	-10.9692
▁Steven	-10.9698
▁KB	-10.97
level	-10.97
▁tale	-10.9711
▁cute	-10.9711
▁till	-10.9715
star	-10.9738
▁removed	-10.974
▁Hol	-10.9743
▁cop	-10.9748
▁mega	-10.9793
▁Bay	-10.9797
gie	-10.9799
tories	-10.9813
▁ethical	-10.9824
environment	-10.9824
future	-10.9824
changing	-10.9825
▁rough	-10.9829
▁provided	-10.983
▁chose	-10.9832
▁pulling	-10.9836
chan	-10.9839
▁January	-10.9843
▁legacy	-10.9843
▁recognition	-10.9843
▁vacuum	-10.9843
▁vagina	-10.9843
▁vulnerability	-10.9843
▁flood	-10.9843
▁relax	-10.9843
▁hardware	-10.9843
▁microbes	-10.9843
▁angry	-10.9844
▁route	-10.9844
▁Revolution	-10.9844
▁Time	-10.9844
▁partnership	-10.9845
▁backwards	-10.9845
▁mentor	-10.9845
▁sheep	-10.9845
▁fool	-10.9848
▁resolution	-10.9849
▁exam	-10.9852
▁axis	-10.9854
▁upset	-10.9855
▁bias	-10.9858
▁proof	-10.9861
▁stable	-10.9863
▁mail	-10.9865
▁20,000	-10.9868
▁virtually	-10.9881
brain	-10.9885
▁destroyed	-10.99
▁shaped	-10.9901
▁Ray	-10.9906
12	-10.9911
more	-10.9929
▁achieved	-10.9929
▁120	-10.994
▁offered	-10.995
▁arrive	-10.9973
▁tight	-10.9977
walk	-10.999
▁Up	-10.9996
flu	-10.9998
▁transmit	-11.0002
▁adjust	-11.0007
▁Bronx	-11.0007
▁CEO	-11.0007
▁Olympic	-11.0007
▁borrow	-11.0007
▁conservation	-11.0007
▁intervention	-11.0007
▁mimic	-11.0007
▁neither	-11.0007
▁philosopher	-11.0007
▁probability	-11.0007
▁tragedy	-11.0007
▁Black	-11.0007
▁Titan	-11.0007
▁elder	-11.0007
▁freak	-11.0007
▁Soviet	-11.0007
▁replicate	-11.0007
▁arrest	-11.0007
▁protest	-11.0007
▁chief	-11.0008
▁pause	-11.0009
▁bond	-11.001
▁2010	-11.001
▁lake	-11.0015
▁Law	-11.0018
▁50,000	-11.0022
▁tower	-11.0023
▁Age	-11.0024
person	-11.0027
▁artistic	-11.003
▁attached	-11.0036
▁laid	-11.0054
▁nor	-11.0062
▁US	-11.0063
▁Give	-11.0071
▁dear	-11.0091
▁anger	-11.0112
▁indicate	-11.0124
▁stranger	-11.0135
▁polar	-11.0136
▁establish	-11.0142
▁signed	-11.0164
▁extinct	-11.0165
▁Manhattan	-11.0174
▁NGO	-11.0174
▁agricultural	-11.0174
▁decrease	-11.0174
▁desperate	-11.0174
▁ethnic	-11.0174
▁external	-11.0174
▁fascinated	-11.0174
▁hormone	-11.0174
▁scratch	-11.0174
▁shrimp	-11.0174
▁fortune	-11.0174
▁elite	-11.0174
▁portion	-11.0174
▁spark	-11.0174
▁wrap	-11.0174
▁leap	-11.0174
▁Moore	-11.0174
▁breakthrough	-11.0174
▁Turn	-11.0174
engineering	-11.0174
▁bump	-11.0175
▁governance	-11.0175
▁verb	-11.0175
▁elsewhere	-11.0175
▁shake	-11.0177
ette	-11.0177
▁installation	-11.0178
▁lying	-11.0181
▁dependent	-11.0181
▁morality	-11.0187
▁algorithm	-11.0188
▁editor	-11.0188
▁consequence	-11.0188
▁95	-11.0191
▁Gold	-11.0192
▁surrounding	-11.0201
▁drawn	-11.0218
▁photography	-11.0242
▁represented	-11.0254
hoo	-11.0258
angle	-11.0265
nny	-11.0271
▁mall	-11.0272
j	-11.0276
wan	-11.0286
▁interacting	-11.0289
other	-11.03
▁Bob	-11.0304
▁landed	-11.0308
history	-11.0325
ocean	-11.0325
▁precise	-11.0327
▁owner	-11.0341
▁kilo	-11.0343
▁Atlantic	-11.0343
▁Department	-11.0343
▁facility	-11.0343
▁yield	-11.0343
▁sacred	-11.0343
▁twist	-11.0343
▁alarm	-11.0343
▁bribe	-11.0343
▁silent	-11.0343
▁blame	-11.0343
▁northern	-11.0343
▁Northern	-11.0343
▁shelter	-11.0343
▁Space	-11.0344
▁retina	-11.0344
▁textbook	-11.0344
▁guard	-11.0346
▁frequency	-11.0346
▁Angeles	-11.0346
▁biodiversity	-11.0348
▁2006	-11.035
▁restore	-11.0351
▁pool	-11.0355
▁integrated	-11.0359
▁Inter	-11.036
▁Medic	-11.036
▁colleague	-11.0364
▁ethic	-11.0364
▁weapon	-11.0364
▁Fo	-11.0364
▁personality	-11.0368
▁Howard	-11.0369
▁linear	-11.0388
▁crying	-11.0391
▁aesthetic	-11.0402
▁fixed	-11.0448
▁rebuild	-11.0479
friend	-11.0496
century	-11.0497
happiness	-11.0497
zi	-11.05
▁irre	-11.0516
▁Minister	-11.0516
▁acquire	-11.0516
▁crucial	-11.0516
▁fulfill	-11.0516
▁glamorous	-11.0516
▁instinct	-11.0516
▁pioneer	-11.0516
▁providing	-11.0516
▁struck	-11.0516
▁Nature	-11.0516
▁agenda	-11.0516
▁dialogue	-11.0516
▁tired	-11.0516
▁Saturn	-11.0516
▁High	-11.0516
▁shore	-11.0517
▁underlying	-11.0517
▁synthetic	-11.0517
▁initiative	-11.0517
▁Tony	-11.0522
▁diverse	-11.0523
▁colony	-11.0525
▁terrorist	-11.0526
▁file	-11.0527
▁chosen	-11.0528
▁usual	-11.0539
▁fur	-11.056
▁focusing	-11.0573
▁printer	-11.0575
▁Pen	-11.0581
▁Hall	-11.0591
▁farmer	-11.0594
plica	-11.0622
fold	-11.0623
▁Ke	-11.0637
▁sleeping	-11.0645
▁traveled	-11.0647
▁camel	-11.0667
▁36	-11.068
▁east	-11.0686
And	-11.0689
▁experimental	-11.0691
▁Amazon	-11.0691
▁International	-11.0691
▁October	-11.0691
▁concrete	-11.0691
▁disturb	-11.0691
▁guarantee	-11.0691
▁neural	-11.0691
▁obesity	-11.0691
▁phantom	-11.0691
▁scenario	-11.0691
▁MRI	-11.0691
▁cliff	-11.0691
▁fifth	-11.0691
▁Smith	-11.0691
▁devil	-11.0691
▁naked	-11.0691
▁automobile	-11.0691
▁barrel	-11.0691
▁glad	-11.0691
▁mice	-11.0691
▁domain	-11.0692
▁Nations	-11.0692
▁alter	-11.0693
▁consistent	-11.0693
▁export	-11.0695
▁2003	-11.0698
▁jet	-11.0698
▁assemble	-11.0698
▁Port	-11.07
▁manual	-11.07
▁compassionate	-11.0703
▁attend	-11.0708
▁darkness	-11.0709
▁magnet	-11.0725
▁mixed	-11.0756
▁hanging	-11.0757
▁bath	-11.0772
cker	-11.0777
▁tested	-11.0796
rail	-11.0797
▁0	-11.0805
iff	-11.0816
▁Kar	-11.0817
▁photographed	-11.0817
body	-11.0819
10	-11.0822
▁marker	-11.0841
ira	-11.0842
energy	-11.0851
▁surely	-11.0869
▁Central	-11.087
▁Jewish	-11.087
▁Taliban	-11.087
▁antibiotic	-11.087
▁autonomous	-11.087
▁emergency	-11.087
▁engaging	-11.087
▁fabulous	-11.087
▁fraction	-11.087
▁fragment	-11.087
▁happier	-11.087
▁miracle	-11.087
▁qualities	-11.087
▁refugee	-11.087
▁robust	-11.087
▁transparent	-11.087
▁unbelievable	-11.087
▁secure	-11.087
▁awesome	-11.087
▁methane	-11.087
▁pulse	-11.087
▁trash	-11.087
▁ruin	-11.087
▁transmission	-11.087
activism	-11.087
▁slavery	-11.0871
▁Julia	-11.0872
▁spray	-11.0872
▁slice	-11.0873
▁gear	-11.0874
▁discoveries	-11.0877
ville	-11.0878
▁shirt	-11.0879
▁magical	-11.088
▁highway	-11.0885
▁pink	-11.0886
▁Pol	-11.0889
▁reaching	-11.0889
▁proper	-11.089
▁dial	-11.0892
▁inches	-11.0896
▁sensory	-11.0899
▁interconnect	-11.0905
phil	-11.0909
▁repeated	-11.0917
▁28	-11.0919
▁breaking	-11.0926
▁hire	-11.0938
▁pole	-11.0945
▁generated	-11.0951
▁separated	-11.0961
bla	-11.1015
▁attach	-11.1022
psychology	-11.1033
avid	-11.1037
▁entrepreneur	-11.1042
▁occasion	-11.105
▁sculpt	-11.105
osphere	-11.1051
▁Yemen	-11.1052
▁abandon	-11.1052
▁bizarre	-11.1052
▁cheese	-11.1052
▁enhance	-11.1052
▁margin	-11.1052
▁purchase	-11.1052
▁sensation	-11.1052
▁blank	-11.1052
▁chaos	-11.1052
▁depressed	-11.1052
▁June	-11.1052
▁torture	-11.1052
▁Nobel	-11.1052
▁drift	-11.1052
▁trail	-11.1052
▁welcome	-11.1052
▁kiss	-11.1052
▁uncertainty	-11.1052
▁Children	-11.1052
▁Somebody	-11.1053
▁demonstration	-11.1054
▁wipe	-11.1054
▁apparently	-11.1056
Listen	-11.1056
▁impression	-11.1058
▁slip	-11.1058
▁opt	-11.1058
with	-11.1058
▁Italy	-11.106
▁achievement	-11.106
▁cash	-11.1063
▁Make	-11.1064
▁PM	-11.1076
▁vol	-11.1082
pper	-11.1086
▁constructed	-11.1092
cost	-11.1093
▁Israeli	-11.1118
▁prime	-11.1124
Fi	-11.1125
▁wired	-11.113
▁rent	-11.1133
▁explaining	-11.1134
▁funded	-11.1135
▁poly	-11.115
▁rotate	-11.1167
mind	-11.1176
ifying	-11.1216
▁bother	-11.1219
add	-11.1234
sci	-11.1236
▁Philip	-11.1237
▁Texas	-11.1237
▁cooperation	-11.1237
▁ecological	-11.1237
▁hungry	-11.1237
▁thumb	-11.1237
▁cousin	-11.1237
▁frog	-11.1237
▁housing	-11.1237
▁crystal	-11.1237
▁burst	-11.1237
▁dumb	-11.1237
▁neuroscience	-11.1238
▁relief	-11.1239
▁drum	-11.124
Who	-11.1242
▁engagement	-11.1245
▁storm	-11.1245
▁shine	-11.1247
▁globalization	-11.1247
▁passive	-11.1248
▁boot	-11.1249
▁Newton	-11.1254
▁Same	-11.1258
▁recovery	-11.126
ivers	-11.1261
▁locked	-11.1264
away	-11.1275
mph	-11.1284
▁shooting	-11.1311
▁determined	-11.1334
ggle	-11.134
▁gli	-11.1341
▁pushed	-11.1349
▁55	-11.1352
▁bin	-11.1354
▁hack	-11.1364
azz	-11.1365
American	-11.1407
wise	-11.1414
▁branch	-11.1417
▁historical	-11.1418
▁bind	-11.1418
▁diabetes	-11.1425
▁reconstruct	-11.1425
▁Neanderthal	-11.1425
▁Should	-11.1425
▁concentration	-11.1425
▁contribution	-11.1425
▁explode	-11.1425
▁mysterious	-11.1425
▁oxytocin	-11.1425
▁policies	-11.1425
▁substance	-11.1425
▁tsunami	-11.1425
▁Arctic	-11.1425
▁Third	-11.1425
▁ooh	-11.1425
▁refuse	-11.1425
▁thrill	-11.1425
▁forgotten	-11.1425
▁raising	-11.1425
▁render	-11.1425
▁ugly	-11.1425
▁comparison	-11.1426
▁infant	-11.1426
▁collaborative	-11.1426
▁expectancy	-11.1427
▁assignment	-11.1428
generating	-11.1428
▁Iranian	-11.143
▁Super	-11.143
▁Gates	-11.1432
▁golden	-11.1434
▁2001	-11.1434
▁logo	-11.1443
▁30,000	-11.1444
▁tri	-11.1446
gger	-11.1449
stone	-11.1459
ime	-11.1461
▁extended	-11.1479
uri	-11.1493
▁emerged	-11.1493
▁700	-11.1518
▁collecting	-11.1534
▁climbing	-11.1541
▁Dur	-11.1561
▁crossing	-11.1568
organizing	-11.1575
▁reported	-11.1575
▁manipulat	-11.1594
evolution	-11.1597
interest	-11.1599
▁immediate	-11.1602
OK	-11.1607
▁analog	-11.1609
▁luck	-11.1616
▁lap	-11.1617
▁Florida	-11.1618
▁announced	-11.1618
▁entropy	-11.1618
▁genocide	-11.1618
▁struggling	-11.1618
▁'70	-11.1618
▁altitude	-11.1618
▁corporation	-11.1618
▁dilemma	-11.1618
▁regulation	-11.1618
▁Queen	-11.1618
▁garage	-11.1618
▁Dutch	-11.1618
▁rabbi	-11.1618
▁jellyfish	-11.1618
▁Redwood	-11.1618
▁emit	-11.1618
▁Turkey	-11.1618
▁damn	-11.1618
▁capability	-11.1619
▁underground	-11.162
▁Antarctica	-11.162
▁yard	-11.1621
▁winner	-11.1621
▁Johnson	-11.1622
▁probe	-11.1628
▁hitting	-11.1633
▁imagery	-11.1636
▁southern	-11.1639
Be	-11.164
▁asset	-11.164
▁unlikely	-11.1643
▁persist	-11.1644
▁cheaper	-11.1658
▁comedy	-11.1661
▁bang	-11.1669
▁CD	-11.167
▁gathering	-11.1694
▁cord	-11.1713
▁transcend	-11.1718
▁painted	-11.173
▁Pan	-11.1735
▁predicted	-11.1735
▁figur	-11.1738
Can	-11.1749
women	-11.1795
▁projection	-11.1796
When	-11.1797
▁instant	-11.1798
▁rapid	-11.1801
▁acoustic	-11.1814
▁disrupt	-11.1814
▁spontaneous	-11.1814
,500	-11.1814
▁ceiling	-11.1814
▁cricket	-11.1814
▁disagree	-11.1814
▁flavor	-11.1814
▁flexible	-11.1814
▁geometry	-11.1814
▁helicopter	-11.1814
▁medication	-11.1814
▁participant	-11.1814
▁primitive	-11.1814
▁strategies	-11.1814
▁Jesus	-11.1814
▁request	-11.1814
▁creator	-11.1814
▁orphan	-11.1814
▁triangle	-11.1814
▁tragic	-11.1814
▁Italian	-11.1814
▁Peace	-11.1814
▁expectations	-11.1814
▁Koran	-11.1815
▁consist	-11.1815
▁honey	-11.1816
▁lamp	-11.1816
▁shopping	-11.1816
▁permission	-11.1817
▁rice	-11.1818
▁bound	-11.1818
▁Way	-11.1819
▁Coke	-11.1821
▁genetically	-11.1821
▁highlight	-11.1824
▁rig	-11.1831
▁grasp	-11.1839
▁Wow	-11.184
▁detector	-11.1845
▁Van	-11.1846
word	-11.1846
cap	-11.1853
▁flo	-11.1859
▁visualization	-11.1875
uk	-11.1887
▁mainly	-11.1896
▁served	-11.1898
▁Put	-11.1941
▁visited	-11.1941
▁searching	-11.1962
▁classical	-11.1975
92	-11.1977
what	-11.1981
▁speaker	-11.1986
vision	-11.1996
Wow	-11.1999
▁terror	-11.2
▁capita	-11.2008
▁February	-11.2014
▁Feynman	-11.2014
▁closing	-11.2014
▁compelling	-11.2014
▁glamour	-11.2014
▁paralyzed	-11.2014
▁primarily	-11.2014
▁protocell	-11.2014
▁signature	-11.2014
▁diamond	-11.2014
▁leaf	-11.2014
▁whatsoever	-11.2014
▁dominant	-11.2014
▁Stephen	-11.2014
▁twin	-11.2014
▁begun	-11.2014
▁bored	-11.2015
▁generous	-11.2015
▁gentleman	-11.2015
▁Indus	-11.2016
▁liberat	-11.2016
▁scanner	-11.2016
▁Watch	-11.2017
▁interpretation	-11.2019
▁committed	-11.2019
▁nuts	-11.202
▁Alex	-11.2021
▁affordable	-11.2024
▁Whereas	-11.2025
▁coat	-11.2026
▁serving	-11.2026
▁Rock	-11.2031
▁wider	-11.2035
▁rebel	-11.2036
you	-11.2038
▁glasses	-11.2041
▁adopted	-11.2044
▁Ken	-11.2051
▁Men	-11.207
▁translated	-11.2072
animate	-11.2079
▁Ann	-11.2091
▁sixth	-11.2098
▁85	-11.2101
▁failing	-11.211
adi	-11.2111
▁reminded	-11.2112
▁Bell	-11.2124
▁pursue	-11.2129
▁delivered	-11.2131
▁upside	-11.2134
made	-11.2165
▁Sir	-11.2168
▁ban	-11.2183
▁propose	-11.2183
keep	-11.2192
vian	-11.2195
minute	-11.2199
▁quest	-11.2214
heart	-11.2215
▁tempt	-11.2218
assembly	-11.2218
▁LED	-11.2218
▁accelerate	-11.2218
▁dictionary	-11.2218
▁diplomat	-11.2218
▁distinguish	-11.2218
▁fragile	-11.2218
▁garbage	-11.2218
▁immense	-11.2218
▁nutrition	-11.2218
▁resolve	-11.2218
▁routine	-11.2218
▁sacrifice	-11.2218
▁threshold	-11.2218
▁uncomfortable	-11.2218
▁Delhi	-11.2218
▁cosmic	-11.2218
▁precious	-11.2218
▁uniform	-11.2218
▁insurance	-11.2218
▁buried	-11.2218
▁Zero	-11.2218
▁Play	-11.2218
▁augment	-11.2218
▁broadcast	-11.2218
▁viral	-11.2218
▁convey	-11.2218
▁array	-11.2219
▁excuse	-11.2219
▁junk	-11.2219
▁nonprofit	-11.2219
▁journal	-11.222
▁tendency	-11.222
▁theories	-11.2221
▁winning	-11.2222
▁4,000	-11.2222
▁pathway	-11.2222
▁cube	-11.2223
▁missed	-11.2223
▁germ	-11.2226
▁mask	-11.2226
▁boil	-11.2228
▁Stage	-11.2231
▁fastest	-11.2235
▁Joe	-11.2235
▁SW	-11.2239
flat	-11.2252
ference	-11.2255
ku	-11.2266
▁gram	-11.2266
version	-11.227
▁disconnect	-11.2271
▁originally	-11.2283
▁parties	-11.2284
▁believ	-11.2284
▁egg	-11.2311
▁quo	-11.2311
▁soldier	-11.2313
▁peaceful	-11.2316
▁accepted	-11.2331
▁29	-11.2334
▁jumped	-11.2342
▁dancer	-11.2362
▁adopt	-11.2391
profit	-11.2406
change	-11.2407
second	-11.2407
▁activate	-11.241
▁attribute	-11.2412
biology	-11.2413
step	-11.2413
jack	-11.2421
▁psycho	-11.2421
▁sin	-11.2426
▁Bangladesh	-11.2426
▁Cambridge	-11.2426
▁Obviously	-11.2426
▁administration	-11.2426
▁curriculum	-11.2426
▁cylinder	-11.2426
▁expansion	-11.2426
▁glacier	-11.2426
▁hypothesis	-11.2426
▁iPod	-11.2426
▁neutral	-11.2426
▁rainforest	-11.2426
▁trajectory	-11.2426
▁transparency	-11.2426
▁variable	-11.2426
▁Daniel	-11.2426
▁memories	-11.2426
▁Brian	-11.2426
▁neck	-11.2426
▁Eric	-11.2426
▁carpet	-11.2427
▁supermarket	-11.2427
▁Tell	-11.2427
▁nerd	-11.2428
▁marketplace	-11.2429
▁crab	-11.2431
▁washing	-11.2432
▁Homo	-11.2432
▁subway	-11.2433
▁merely	-11.2436
▁Santa	-11.2437
looking	-11.2437
▁float	-11.2438
▁detection	-11.2438
▁objective	-11.2444
▁selfish	-11.2444
▁eradicate	-11.2448
thermal	-11.2448
ffer	-11.2454
▁rarely	-11.246
▁clay	-11.2463
▁hired	-11.2467
▁statistical	-11.2488
▁palm	-11.2494
▁captured	-11.25
▁entering	-11.2531
▁ratio	-11.2532
▁tar	-11.2537
▁friendly	-11.2557
▁promot	-11.2558
▁Walk	-11.256
▁difficulty	-11.2569
▁ignor	-11.2578
▁tied	-11.2593
ben	-11.2597
▁shit	-11.2598
▁node	-11.2604
▁grant	-11.2613
school	-11.262
humor	-11.2622
ographic	-11.2623
▁impress	-11.263
▁Abraham	-11.2639
▁Monterey	-11.2639
▁System	-11.2639
▁Through	-11.2639
▁confirm	-11.2639
▁descend	-11.2639
▁elegant	-11.2639
▁inevitable	-11.2639
▁pharmaceutical	-11.2639
▁potato	-11.2639
▁tunnel	-11.2639
▁empire	-11.2639
▁skeptic	-11.2639
▁Larry	-11.2639
▁commission	-11.2639
▁Jeff	-11.2639
▁improving	-11.2639
▁plain	-11.2639
▁distort	-11.2639
▁cotton	-11.2639
▁amateur	-11.2639
▁silly	-11.2639
▁consult	-11.2639
▁audio	-11.2639
▁outrage	-11.2639
▁stamp	-11.264
▁canopy	-11.264
▁imaging	-11.264
▁crush	-11.264
▁dough	-11.2641
▁pursuit	-11.2641
▁appearance	-11.2644
▁crap	-11.2645
hether	-11.2645
acci	-11.2646
▁Mike	-11.2648
field	-11.2649
▁fence	-11.2651
▁stake	-11.2653
▁cake	-11.2654
▁warning	-11.2655
▁elected	-11.2656
▁clothing	-11.2661
▁MT	-11.2661
▁suggestion	-11.2665
▁manipulate	-11.2666
▁educated	-11.267
▁PC	-11.2674
▁pose	-11.2675
▁institutional	-11.2681
powered	-11.2685
▁Force	-11.2687
▁Secondly	-11.2689
▁smallest	-11.269
▁printed	-11.2714
▁Tri	-11.2721
▁mini	-11.2724
▁suggesting	-11.2728
▁shocking	-11.2729
▁arch	-11.273
▁expanding	-11.2737
▁penguin	-11.2751
▁wage	-11.2754
related	-11.281
ground	-11.2826
stream	-11.2837
X	-11.2838
Where	-11.2838
▁addict	-11.2853
▁College	-11.2856
▁Council	-11.2856
▁Gandhi	-11.2856
▁Shanghai	-11.2856
▁Tanzania	-11.2856
▁category	-11.2856
▁chamber	-11.2856
▁despair	-11.2856
▁diagnosed	-11.2856
▁jihad	-11.2856
▁prosthetic	-11.2856
▁simultaneously	-11.2856
▁terribly	-11.2856
▁translator	-11.2856
found	-11.2856
▁August	-11.2856
▁essence	-11.2856
▁federal	-11.2856
▁punch	-11.2856
▁tackle	-11.2856
▁district	-11.2856
▁injury	-11.2856
▁dawn	-11.2856
▁innocent	-11.2856
▁annual	-11.2856
▁Seven	-11.2856
▁invade	-11.2856
▁grandchildren	-11.2857
▁ensure	-11.2857
▁march	-11.2857
▁Kevin	-11.2857
▁programming	-11.2857
▁basket	-11.2858
▁Republican	-11.2858
▁screw	-11.2858
▁unfold	-11.286
▁Hong	-11.2863
▁besides	-11.2864
▁crew	-11.2864
▁LG	-11.2865
▁Plan	-11.2867
▁homework	-11.2867
▁singer	-11.2868
▁Out	-11.2873
▁sew	-11.2875
▁realizing	-11.2877
clock	-11.2881
▁Back	-11.2886
▁boss	-11.2898
▁surprisingly	-11.2911
▁wander	-11.2922
▁800	-11.2929
▁collapsed	-11.2931
▁richer	-11.2932
▁suggested	-11.2933
▁successfully	-11.2935
▁smarter	-11.2937
▁lock	-11.2946
▁Ear	-11.2956
tti	-11.2977
▁Ver	-11.2995
18	-11.302
active	-11.3021
▁simulate	-11.3023
▁42	-11.3027
Ha	-11.3029
corn	-11.305
frame	-11.306
▁commit	-11.307
flow	-11.3072
▁retire	-11.3076
▁$1	-11.3078
▁Vietnam	-11.3079
▁Hawaii	-11.3079
▁Palestinian	-11.3079
▁beneath	-11.3079
▁bioluminescen	-11.3079
▁capabilities	-11.3079
▁experiencing	-11.3079
▁gallon	-11.3079
▁hybrid	-11.3079
▁paradox	-11.3079
▁renewable	-11.3079
▁reproduce	-11.3079
▁sponsor	-11.3079
▁structural	-11.3079
▁April	-11.3079
▁burden	-11.3079
▁ecology	-11.3079
▁profile	-11.3079
▁valley	-11.3079
▁theoretical	-11.3079
▁shrink	-11.3079
▁steam	-11.3079
▁harness	-11.3079
▁electrodes	-11.3079
▁grave	-11.3079
▁agency	-11.3079
▁defeat	-11.3079
▁arrow	-11.3079
▁Democrat	-11.308
▁lean	-11.308
▁informed	-11.308
▁Sunday	-11.308
▁cellphone	-11.3081
▁venture	-11.3081
▁tiles	-11.3082
▁brick	-11.3082
▁stability	-11.3083
▁Without	-11.3083
▁Wil	-11.3085
▁footage	-11.3088
▁agreement	-11.309
▁mapping	-11.3092
▁chop	-11.3093
▁tension	-11.3098
▁pit	-11.311
▁Pop	-11.3111
cellular	-11.3117
▁eaten	-11.3125
▁profoundly	-11.3126
acre	-11.3157
▁37	-11.3167
▁performed	-11.3171
where	-11.318
▁hunter	-11.3202
▁economist	-11.321
▁surround	-11.3237
power	-11.3256
▁officer	-11.3258
▁Lin	-11.3278
<	-11.3287
physics	-11.3287
short	-11.3288
peace	-11.3291
▁Benjamin	-11.3306
▁Cambodia	-11.3306
▁Joshua	-11.3306
▁Spanish	-11.3306
▁advertise	-11.3306
▁anticipate	-11.3306
▁diagnostic	-11.3306
▁extension	-11.3306
▁facilities	-11.3306
▁gradually	-11.3306
▁interrupt	-11.3306
▁syndrome	-11.3306
▁synthesize	-11.3306
▁temple	-11.3306
▁unprecedented	-11.3306
é	-11.3306
▁disappoint	-11.3306
▁flourish	-11.3306
▁marvel	-11.3306
▁scaffold	-11.3306
▁storage	-11.3306
▁miserable	-11.3306
▁reliable	-11.3306
▁remix	-11.3306
▁crawl	-11.3306
▁shelf	-11.3306
▁pipe	-11.3306
▁advise	-11.3306
▁Mountain	-11.3306
▁Indeed	-11.3306
▁forgive	-11.3307
▁watt	-11.3307
▁ongoing	-11.3307
▁restrict	-11.3308
▁elementary	-11.3309
▁filmmaker	-11.3309
▁Egyptian	-11.3309
▁sync	-11.3309
▁Wright	-11.331
▁phenomenal	-11.3313
▁healthier	-11.3316
▁branches	-11.3316
▁mindset	-11.3316
▁2002	-11.3317
▁Mother	-11.3317
▁ego	-11.332
▁prevention	-11.3322
▁strain	-11.3323
▁<	-11.3325
▁lowest	-11.3328
▁norm	-11.3329
▁initially	-11.333
▁Rand	-11.333
▁storytelling	-11.3333
▁Free	-11.3334
▁RS	-11.3341
▁established	-11.3349
your	-11.335
▁homeless	-11.3352
▁Try	-11.3353
▁suffered	-11.3355
▁simulat	-11.3357
▁optical	-11.3358
▁someday	-11.3359
burg	-11.3359
▁AK	-11.3376
▁Carl	-11.3383
▁bush	-11.3384
▁Love	-11.3389
▁ignored	-11.3391
▁unable	-11.3396
▁specialist	-11.3396
▁lip	-11.3399
uous	-11.3405
▁vessel	-11.3448
▁Matt	-11.348
collaboration	-11.352
poverty	-11.352
greg	-11.3526
▁historic	-11.3527
▁exhibit	-11.3532
▁migrat	-11.3532
▁authentic	-11.3536
▁slave	-11.3537
▁circulat	-11.3538
▁overwhelming	-11.3538
▁Except	-11.3538
▁Louis	-11.3538
▁emphasize	-11.3538
▁humanitarian	-11.3538
▁negotiate	-11.3538
▁suspended	-11.3538
▁ubiquitous	-11.3538
▁universities	-11.3538
▁virtue	-11.3538
▁spiral	-11.3538
▁antenna	-11.3538
▁expertise	-11.3538
▁Square	-11.3538
▁woke	-11.3539
▁native	-11.3539
▁submit	-11.3539
▁downtown	-11.3539
▁autism	-11.3539
▁proposition	-11.3539
▁debt	-11.354
▁rope	-11.354
▁jaw	-11.354
▁occasionally	-11.354
uthern	-11.354
▁prostate	-11.3541
▁devote	-11.3541
▁glow	-11.3544
▁weekend	-11.3547
▁static	-11.355
▁confused	-11.355
web	-11.3568
▁Nigerian	-11.3569
▁proposed	-11.3578
▁Moon	-11.3579
▁widely	-11.3581
▁wealthy	-11.3584
▁Whatever	-11.3589
ench	-11.3597
▁significantly	-11.3599
▁masses	-11.3601
▁update	-11.363
▁reinvent	-11.3631
▁chat	-11.366
▁via	-11.367
▁Arch	-11.3678
▁Bir	-11.3699
▁educate	-11.3742
▁manufacture	-11.3744
▁compose	-11.3755
itude	-11.3757
▁Va	-11.3762
▁processor	-11.3768
▁entertain	-11.3773
skeletal	-11.3776
▁December	-11.3776
▁Friday	-11.3776
▁Global	-11.3776
▁Shakespeare	-11.3776
▁abilities	-11.3776
▁categories	-11.3776
▁confident	-11.3776
▁coordinate	-11.3776
▁impulse	-11.3776
▁independence	-11.3776
▁magnificent	-11.3776
▁mechanics	-11.3776
▁minimum	-11.3776
▁proposal	-11.3776
▁psychopath	-11.3776
▁resilience	-11.3776
▁substantial	-11.3776
▁suppress	-11.3776
▁wheat	-11.3776
▁located	-11.3776
▁absence	-11.3777
▁mutual	-11.3777
▁snake	-11.3777
▁marry	-11.3777
▁voting	-11.3777
▁acknowledge	-11.3777
▁multiply	-11.3777
▁diving	-11.3777
▁casual	-11.3777
▁tongue	-11.3777
▁backyard	-11.3777
▁Bosnia	-11.3777
▁tutor	-11.3777
▁Court	-11.3777
eanwhile	-11.3777
▁leak	-11.3777
▁loose	-11.3777
▁steer	-11.3777
▁surf	-11.3777
▁isolated	-11.3777
▁Hello	-11.3777
▁mainstream	-11.3777
▁forgot	-11.378
▁spinning	-11.378
▁bullet	-11.378
▁Open	-11.3781
▁Camp	-11.3781
▁examine	-11.3782
▁capitalism	-11.3784
▁gay	-11.3784
▁attractive	-11.3784
▁frontier	-11.3785
▁Lego	-11.3787
ille	-11.3796
▁TEDster	-11.3797
defining	-11.38
▁Jane	-11.3806
▁350	-11.3808
▁sir	-11.3821
▁approaches	-11.3847
▁relie	-11.3858
▁48	-11.3917
▁incentive	-11.3942
▁prepare	-11.3986
cast	-11.3987
AIDS	-11.4002
touch	-11.4002
God	-11.4002
▁span	-11.4008
▁chemist	-11.4018
▁'90	-11.402
▁Church	-11.402
▁Watson	-11.402
▁accumulate	-11.402
▁aggressive	-11.402
▁alcohol	-11.402
▁approximate	-11.402
▁batteries	-11.402
▁diameter	-11.402
▁dictator	-11.402
▁endangered	-11.402
▁enemies	-11.402
▁excellent	-11.402
▁genuine	-11.402
▁glimpse	-11.402
▁gorgeous	-11.402
▁hallucination	-11.402
▁lobby	-11.402
▁navigate	-11.402
▁puppet	-11.402
▁rubber	-11.402
▁composition	-11.402
▁pencil	-11.402
▁smiling	-11.402
▁transistor	-11.402
▁mild	-11.402
▁monster	-11.402
▁ultrasound	-11.402
▁cruel	-11.402
▁silver	-11.402
▁reducing	-11.402
▁squid	-11.402
▁wrist	-11.402
▁riot	-11.402
▁Iceland	-11.4021
▁compress	-11.4021
▁unhappy	-11.4021
▁Virginia	-11.4021
▁boundary	-11.4022
▁colonies	-11.4022
▁Greenland	-11.4022
▁mold	-11.4024
▁conceptual	-11.4025
▁McC	-11.4026
▁identified	-11.4027
▁patch	-11.4027
▁healing	-11.4027
▁philanthropy	-11.4031
▁refine	-11.4032
▁belt	-11.4034
▁Arabic	-11.4035
▁atheist	-11.4036
▁predictable	-11.4036
▁outbreak	-11.4039
▁Roman	-11.4039
▁instantly	-11.404
▁planetary	-11.4046
▁overhead	-11.4047
▁correlation	-11.4047
▁glue	-11.406
▁technically	-11.406
▁eliminate	-11.4061
▁hardest	-11.4073
▁openness	-11.4074
▁formation	-11.41
▁server	-11.4104
▁hacker	-11.4121
▁bowl	-11.4136
▁gras	-11.4149
logy	-11.4194
▁shoe	-11.42
▁profession	-11.4229
▁33	-11.4229
conscious	-11.4248
efficient	-11.4252
discover	-11.4252
product	-11.4252
writing	-11.4252
write	-11.4259
▁quit	-11.4261
script	-11.4261
▁phenomena	-11.4263
▁assign	-11.4267
▁Alexander	-11.427
▁Clinton	-11.427
▁Leonardo	-11.427
▁Lincoln	-11.427
▁Mandela	-11.427
▁compromise	-11.427
▁continuing	-11.427
▁convenient	-11.427
▁destiny	-11.427
▁parachute	-11.427
▁recession	-11.427
▁recycling	-11.427
▁stunning	-11.427
▁surgical	-11.427
▁terrifying	-11.427
▁Craig	-11.427
▁aspiration	-11.427
▁astronomy	-11.427
▁enterprise	-11.427
▁parasite	-11.427
▁segment	-11.427
▁Swiss	-11.427
▁whistle	-11.427
▁intimate	-11.427
▁geographic	-11.427
▁Water	-11.427
▁July	-11.4271
▁spike	-11.4271
▁nutrients	-11.4271
▁Anybody	-11.4271
▁Geographic	-11.4271
▁encode	-11.4271
▁Sorry	-11.4271
▁calm	-11.4272
▁Norden	-11.4272
▁girlfriend	-11.4272
▁internet	-11.4273
▁drew	-11.4274
▁Ireland	-11.4275
▁USA	-11.4275
▁fancy	-11.4276
▁chase	-11.4276
▁texture	-11.4278
▁swam	-11.4278
▁2020	-11.4279
▁Music	-11.428
▁fusion	-11.4284
▁modul	-11.4285
▁fever	-11.4288
▁200,000	-11.4292
▁correctly	-11.4313
▁JA	-11.4314
▁gases	-11.4328
▁logical	-11.4352
▁Poli	-11.439
▁bow	-11.4424
▁72	-11.4439
ogue	-11.4479
19	-11.4496
ombin	-11.4503
known	-11.4506
development	-11.4508
shaped	-11.4508
virus	-11.451
▁Ste	-11.4512
proof	-11.4513
▁mineral	-11.4515
volving	-11.4525
▁horizon	-11.4525
▁Turk	-11.4526
▁Beijing	-11.4527
▁Buddha	-11.4527
▁Fellow	-11.4527
▁McDonald	-11.4527
▁Suddenly	-11.4527
▁dopamine	-11.4527
▁frightening	-11.4527
▁harbor	-11.4527
▁magnitude	-11.4527
▁mobility	-11.4527
▁stimulate	-11.4527
▁Everest	-11.4527
▁grateful	-11.4527
▁selves	-11.4527
▁genomic	-11.4527
▁scheme	-11.4527
▁pleasant	-11.4527
▁connectome	-11.4527
▁helium	-11.4527
▁Milk	-11.4527
▁Henry	-11.4527
▁deaf	-11.4527
▁retreat	-11.4527
▁chronic	-11.4527
▁Nathan	-11.4527
▁mood	-11.4527
▁outdoor	-11.4527
▁Work	-11.4528
▁drunk	-11.4528
▁division	-11.4528
▁Media	-11.4528
▁Chile	-11.4528
▁representative	-11.4529
▁Albert	-11.453
▁unconscious	-11.453
▁adoption	-11.4531
▁awake	-11.4532
▁jam	-11.4534
▁Stone	-11.4534
▁lobe	-11.4535
▁pond	-11.4539
▁Rover	-11.4539
▁insane	-11.454
▁Lake	-11.4541
▁Bern	-11.4541
▁Rick	-11.4543
▁dune	-11.4547
▁Milo	-11.4548
▁historically	-11.455
▁reflection	-11.4552
▁sink	-11.4573
▁Ross	-11.463
▁prayer	-11.4636
▁panic	-11.464
▁spine	-11.4641
RB	-11.4646
▁determin	-11.4674
▁Bio	-11.472
▁fate	-11.4735
▁steppe	-11.4745
▁sale	-11.475
look	-11.4759
children	-11.4771
exploration	-11.4771
nature	-11.4771
▁extraordinar	-11.4775
▁Afghan	-11.479
▁Almost	-11.479
▁Aristotle	-11.479
▁Cyrus	-11.479
▁DVD	-11.479
▁Probably	-11.479
▁Security	-11.479
▁Silicon	-11.479
▁artifact	-11.479
▁astronomer	-11.479
▁champion	-11.479
▁collision	-11.479
▁controversial	-11.479
▁earliest	-11.479
▁elaborate	-11.479
▁encouraging	-11.479
▁enzyme	-11.479
▁frustrated	-11.479
▁intensity	-11.479
▁irrational	-11.479
▁negotiation	-11.479
▁nitrogen	-11.479
▁register	-11.479
▁staircase	-11.479
▁stomach	-11.479
▁tattoo	-11.479
▁juice	-11.479
▁rethink	-11.479
▁systematically	-11.479
▁biomass	-11.479
▁preparing	-11.479
▁summarize	-11.479
▁competing	-11.479
▁summit	-11.479
▁priest	-11.479
▁Coast	-11.479
▁gross	-11.479
▁strict	-11.479
▁tolerance	-11.479
▁scaling	-11.479
▁crows	-11.479
▁pirate	-11.4791
▁fought	-11.4791
▁lifespan	-11.4791
▁Jones	-11.4791
▁consent	-11.4791
▁Anyone	-11.4791
▁Spain	-11.4792
▁bedroom	-11.4792
▁wildlife	-11.4792
▁foster	-11.4794
▁Laden	-11.4794
▁Things	-11.4795
▁hint	-11.4797
▁equality	-11.4802
▁utterly	-11.4803
▁grabb	-11.4805
▁atomic	-11.4806
▁workplace	-11.4808
▁trap	-11.4811
▁analogy	-11.4811
▁manner	-11.4812
chasing	-11.4815
▁fuse	-11.4816
violence	-11.482
▁playful	-11.4825
▁cookie	-11.4871
▁additional	-11.4871
lapse	-11.4936
▁recall	-11.4975
▁192	-11.498
▁victim	-11.501
position	-11.5036
craft	-11.5038
photography	-11.5041
carbon	-11.5041
million	-11.5042
communication	-11.5042
speed	-11.5057
▁Parkinson	-11.506
▁Library	-11.506
▁Natural	-11.506
▁Qatar	-11.506
▁Sylvia	-11.506
▁Zealand	-11.506
▁aggregate	-11.506
▁angiogenesis	-11.506
▁breakfast	-11.506
▁commodity	-11.506
▁cooperative	-11.506
▁declare	-11.506
▁endeavor	-11.506
▁exposure	-11.506
▁gallery	-11.506
▁membrane	-11.506
▁millimeter	-11.506
▁overwhelmed	-11.506
▁participation	-11.506
▁persuade	-11.506
▁prosperity	-11.506
▁recruit	-11.506
▁straightforward	-11.506
▁sulfide	-11.506
▁survivor	-11.506
▁welfare	-11.506
▁oyster	-11.506
▁Berlin	-11.506
▁Ladies	-11.506
▁Disney	-11.506
▁threatened	-11.506
▁blend	-11.506
▁oven	-11.506
▁fetus	-11.506
▁lottery	-11.5061
▁jazz	-11.5061
▁import	-11.5061
▁Publi	-11.5061
▁angel	-11.5062
▁tomato	-11.5062
▁thread	-11.5062
▁binary	-11.5062
▁indoor	-11.5063
▁Cuba	-11.5063
▁legend	-11.5063
▁transformative	-11.5063
▁keyboard	-11.5063
▁authorities	-11.5063
▁toxin	-11.5063
▁harmful	-11.5063
▁scanning	-11.5064
▁estate	-11.5065
▁deposit	-11.5065
▁bench	-11.5065
▁Read	-11.5066
stein	-11.5067
▁Kong	-11.5068
▁Someone	-11.5069
▁grip	-11.5069
▁visualize	-11.5069
▁Cape	-11.5071
▁nail	-11.5072
▁passage	-11.5072
▁coverage	-11.5074
▁Marine	-11.5074
▁wooden	-11.5076
▁realistic	-11.5079
▁airline	-11.5079
▁coach	-11.5079
▁Korean	-11.508
▁deepest	-11.5085
▁helpful	-11.5088
scape	-11.5098
▁fee	-11.511
rained	-11.5152
▁colon	-11.519
▁130	-11.5202
▁34	-11.5251
avage	-11.5274
▁convention	-11.529
▁ingredient	-11.5295
break	-11.5298
natural	-11.5319
▁dirt	-11.5324
market	-11.5325
why	-11.5328
▁corrupt	-11.5335
▁mill	-11.5335
▁gentle	-11.5336
▁Catholic	-11.5338
▁Copenhagen	-11.5338
▁Joseph	-11.5338
▁agencies	-11.5338
▁anxiety	-11.5338
▁approved	-11.5338
▁arguing	-11.5338
▁cigarette	-11.5338
▁diarrhea	-11.5338
▁exhaust	-11.5338
▁fractal	-11.5338
▁frustration	-11.5338
▁maximum	-11.5338
▁mycelium	-11.5338
▁possess	-11.5338
▁regulate	-11.5338
▁schedule	-11.5338
▁storyteller	-11.5338
▁supplies	-11.5338
▁symmetries	-11.5338
▁territory	-11.5338
▁wheelchair	-11.5338
▁worship	-11.5338
▁yourselves	-11.5338
▁emergence	-11.5338
▁inhibit	-11.5338
▁premise	-11.5338
▁Arthur	-11.5338
▁blob	-11.5338
▁excess	-11.5338
▁harmony	-11.5338
▁valid	-11.5338
▁pride	-11.5338
▁loving	-11.5338
▁minus	-11.5338
▁firing	-11.5338
▁delay	-11.5338
▁Lewis	-11.5338
discriminat	-11.5338
▁fuck	-11.5338
▁derive	-11.5338
▁seemingly	-11.5339
▁hug	-11.5339
▁pipeline	-11.5339
▁excitement	-11.534
▁Lord	-11.534
▁hostile	-11.534
▁chef	-11.5341
▁straw	-11.5341
Now	-11.5341
▁impressive	-11.5342
▁archive	-11.5342
umbling	-11.5342
▁grace	-11.5342
▁investors	-11.5343
▁replacement	-11.535
▁190	-11.5351
▁peel	-11.5351
▁flap	-11.5352
▁adaptation	-11.5354
▁halfway	-11.5357
▁beaten	-11.5358
▁DR	-11.536
▁assure	-11.5363
▁activat	-11.5365
▁machinery	-11.5366
▁composer	-11.5367
▁triple	-11.537
▁closest	-11.537
▁manufacturer	-11.5376
▁38	-11.54
▁March	-11.5461
▁celebrat	-11.5469
79	-11.5487
▁Rose	-11.5537
▁43	-11.5548
frontal	-11.5579
innovation	-11.5605
film	-11.5605
▁compute	-11.5613
vascular	-11.5624
▁Indonesia	-11.5624
▁Mumbai	-11.5624
▁SETI	-11.5624
▁Seattle	-11.5624
▁abundance	-11.5624
▁cocaine	-11.5624
▁communicating	-11.5624
▁contributing	-11.5624
▁luxury	-11.5624
▁peculiar	-11.5624
▁psychiatri	-11.5624
▁reputation	-11.5624
▁separation	-11.5624
▁silicon	-11.5624
▁skeleton	-11.5624
▁smoking	-11.5624
▁Architect	-11.5624
▁GPS	-11.5624
▁Nelson	-11.5624
▁athlete	-11.5624
▁calendar	-11.5624
▁catastrophe	-11.5624
▁famine	-11.5624
▁receptor	-11.5624
▁redefine	-11.5624
▁satisfy	-11.5624
▁stolen	-11.5624
▁strategic	-11.5624
▁striking	-11.5624
▁violin	-11.5624
▁geek	-11.5624
▁kingdom	-11.5624
▁vivid	-11.5624
▁lonely	-11.5624
invasive	-11.5624
▁blink	-11.5624
▁investigate	-11.5624
▁slope	-11.5624
▁tagged	-11.5624
▁neurologic	-11.5624
▁operator	-11.5624
▁onstage	-11.5624
▁scrap	-11.5624
▁odor	-11.5624
▁banana	-11.5624
▁Rosling	-11.5624
▁crude	-11.5624
▁kilogram	-11.5624
▁carrot	-11.5625
▁brush	-11.5625
▁chew	-11.5625
▁constraints	-11.5626
▁arrangement	-11.5626
▁bounce	-11.5626
▁clone	-11.5627
▁occurring	-11.5627
▁slight	-11.5627
▁nearby	-11.5629
▁confine	-11.563
▁46	-11.5631
▁6,000	-11.5631
▁civilian	-11.5631
▁collaborator	-11.5633
▁naive	-11.5635
▁magician	-11.5635
▁vary	-11.5637
▁freeze	-11.5639
▁40,000	-11.5641
▁vice	-11.5643
▁sake	-11.5648
▁Treat	-11.5648
▁Dean	-11.5657
▁dragg	-11.5762
▁grad	-11.5762
▁statistic	-11.5804
▁forbid	-11.5819
▁52	-11.5833
cause	-11.5871
▁plea	-11.589
Please	-11.5899
government	-11.5899
from	-11.5899
▁125	-11.59
▁manifest	-11.5914
Qaeda	-11.5918
▁1998	-11.5918
▁Building	-11.5918
▁Carolina	-11.5918
▁County	-11.5918
▁Doctor	-11.5918
▁choosing	-11.5918
▁competitive	-11.5918
▁destination	-11.5918
▁exquisite	-11.5918
▁hemisphere	-11.5918
▁introduction	-11.5918
▁leopard	-11.5918
▁metabolism	-11.5918
▁nowadays	-11.5918
▁nurture	-11.5918
▁swallow	-11.5918
▁technician	-11.5918
▁terrific	-11.5918
▁therapies	-11.5918
▁vibration	-11.5918
▁choir	-11.5918
▁fault	-11.5918
▁marrow	-11.5918
▁trivial	-11.5918
▁Sarah	-11.5918
▁ultra	-11.5918
▁Teach	-11.5918
▁whisper	-11.5918
▁Until	-11.5918
▁echo	-11.5918
▁unseen	-11.5918
▁inequality	-11.5918
▁cream	-11.5918
▁civic	-11.5918
▁browse	-11.5918
▁Home	-11.5918
▁blast	-11.5918
▁biosphere	-11.5918
▁tropic	-11.5918
▁giga	-11.5918
▁minimal	-11.5919
▁ownership	-11.5919
▁desktop	-11.5919
▁appreciation	-11.5919
▁horizontal	-11.5919
▁cosmolog	-11.5919
▁legislation	-11.592
▁mining	-11.592
▁baker	-11.5921
▁investigation	-11.5921
▁spacecraft	-11.5921
▁accountability	-11.5921
▁manifestation	-11.5922
▁illustration	-11.5923
▁hub	-11.5923
▁Keep	-11.5923
▁celebration	-11.5926
▁Jill	-11.5926
▁guilty	-11.5927
▁iconic	-11.5927
turn	-11.5928
▁Step	-11.5928
▁Hunt	-11.5931
▁candle	-11.5933
▁31	-11.5937
style	-11.5941
▁merge	-11.5941
▁conductor	-11.5944
▁cartoonist	-11.5947
▁progression	-11.5949
▁neo	-11.596
rump	-11.5968
eastern	-11.5972
▁arc	-11.5974
▁Mont	-11.5988
▁stereo	-11.5995
omics	-11.6012
demo	-11.6083
stitution	-11.6089
▁compil	-11.6108
type	-11.6121
▁infect	-11.6176
▁trauma	-11.6191
control	-11.6201
entrepreneur	-11.6202
serving	-11.6202
religion	-11.6202
driven	-11.6202
glass	-11.6202
shift	-11.6203
▁unfortunate	-11.6205
ustainable	-11.6217
▁initiat	-11.6219
▁1999	-11.6221
▁Education	-11.6221
▁Environment	-11.6221
▁Jupiter	-11.6221
▁ambition	-11.6221
▁anonymous	-11.6221
▁configuration	-11.6221
▁contaminat	-11.6221
▁currency	-11.6221
▁delicious	-11.6221
▁expense	-11.6221
▁frequently	-11.6221
▁generosity	-11.6221
▁guitar	-11.6221
▁historian	-11.6221
▁inevitably	-11.6221
▁intimacy	-11.6221
▁intriguing	-11.6221
▁introvert	-11.6221
▁passenger	-11.6221
▁secular	-11.6221
▁spaghetti	-11.6221
▁synapse	-11.6221
▁trading	-11.6221
▁veteran	-11.6221
▁blade	-11.6221
▁combat	-11.6221
▁intrinsic	-11.6221
▁workforce	-11.6221
Patient	-11.6221
▁Half	-11.6221
▁admire	-11.6221
▁Canyon	-11.6221
▁bombsight	-11.6221
▁brutal	-11.6221
▁shining	-11.6221
▁valve	-11.6221
▁IBM	-11.6221
▁horror	-11.6221
▁Fund	-11.6222
▁connectivity	-11.6222
▁chunk	-11.6223
▁trunk	-11.6223
▁evolving	-11.6223
▁impose	-11.6223
▁Saudi	-11.6224
▁Year	-11.6224
▁contradiction	-11.6224
▁copies	-11.6225
▁tiger	-11.6225
▁retirement	-11.6225
nformation	-11.6225
▁dropping	-11.6227
▁documentary	-11.6227
▁factories	-11.6228
▁digest	-11.6228
▁addiction	-11.6228
▁tourist	-11.6229
▁Golden	-11.623
▁transmitted	-11.6231
road	-11.6234
▁thus	-11.624
▁decent	-11.6241
▁Dick	-11.6249
▁owe	-11.6263
▁axe	-11.6291
biotech	-11.6373
▁64	-11.6402
visualizations	-11.6444
cultural	-11.6515
Come	-11.6515
learn	-11.6518
▁ancestor	-11.6528
▁politician	-11.6528
▁scholar	-11.6533
▁Although	-11.6533
▁Elizabeth	-11.6533
▁Mexican	-11.6533
▁Namibia	-11.6533
▁November	-11.6533
▁Stewart	-11.6533
▁Switzerland	-11.6533
▁Tokyo	-11.6533
▁Victoria	-11.6533
▁accelerating	-11.6533
▁adolescent	-11.6533
▁algae	-11.6533
▁alphabet	-11.6533
▁calculator	-11.6533
▁calculus	-11.6533
▁contrary	-11.6533
▁counsel	-11.6533
▁cultivat	-11.6533
▁devastating	-11.6533
▁diagnosis	-11.6533
▁diplomacy	-11.6533
▁episode	-11.6533
▁eternal	-11.6533
▁exclusive	-11.6533
▁explicit	-11.6533
▁festival	-11.6533
▁helmet	-11.6533
▁knife	-11.6533
▁literacy	-11.6533
▁maneuver	-11.6533
▁millennia	-11.6533
▁obtain	-11.6533
▁octopus	-11.6533
▁parameter	-11.6533
▁philosophical	-11.6533
▁prevalence	-11.6533
▁recognizing	-11.6533
▁regenerate	-11.6533
▁sensitivity	-11.6533
▁squeeze	-11.6533
▁surgeries	-11.6533
▁turtle	-11.6533
▁volcano	-11.6533
▁yeast	-11.6533
▁2011	-11.6533
▁conceive	-11.6533
▁gasoline	-11.6533
▁symmetrical	-11.6533
▁pigeon	-11.6533
▁statue	-11.6533
▁Tibet	-11.6533
▁blur	-11.6533
▁checklist	-11.6533
▁Trade	-11.6533
▁copied	-11.6533
▁Tech	-11.6533
▁grandparents	-11.6533
▁unveil	-11.6534
oriented	-11.6534
▁entry	-11.6534
▁Wood	-11.6534
▁inherit	-11.6534
▁bathroom	-11.6534
▁Social	-11.6534
▁mite	-11.6534
▁Trans	-11.6534
▁microphone	-11.6535
▁veil	-11.6535
▁humble	-11.6535
▁Spring	-11.6536
▁authenticity	-11.6537
▁crank	-11.6537
▁Simon	-11.6537
▁friendship	-11.6539
▁intact	-11.654
▁artwork	-11.6545
▁retail	-11.6545
▁flock	-11.6546
▁44	-11.6547
▁carries	-11.6549
▁delete	-11.655
▁Nick	-11.6554
▁collaborate	-11.6556
▁Rule	-11.6562
ssuming	-11.6581
▁bask	-11.6591
ightened	-11.6691
blew	-11.67
eater	-11.6722
▁divers	-11.674
wandering	-11.6759
engineer	-11.6799
front	-11.6835
patient	-11.6837
medical	-11.6838
▁utter	-11.684
stick	-11.6854
▁yell	-11.6856
▁1994	-11.6856
▁Atlanta	-11.6856
▁Buddhist	-11.6856
▁Charlie	-11.6856
▁Galapagos	-11.6856
▁Journal	-11.6856
▁Natasha	-11.6856
▁Singapore	-11.6856
▁Teszler	-11.6856
▁authoritarian	-11.6856
▁broccoli	-11.6856
▁centimeter	-11.6856
▁chemotherapy	-11.6856
▁congestion	-11.6856
▁dragonflies	-11.6856
▁entrance	-11.6856
▁frequencies	-11.6856
▁glorious	-11.6856
▁hamburger	-11.6856
▁hierarchy	-11.6856
▁improvise	-11.6856
▁institute	-11.6856
▁intersection	-11.6856
▁juvenile	-11.6856
▁maintenance	-11.6856
▁migraine	-11.6856
▁pesticide	-11.6856
▁pricing	-11.6856
▁temporal	-11.6856
▁Brooklyn	-11.6856
▁Civil	-11.6856
▁longevity	-11.6856
▁obese	-11.6856
▁stadium	-11.6856
▁blah	-11.6856
▁align	-11.6856
▁Power	-11.6856
▁proceed	-11.6856
▁Jews	-11.6856
▁Kelly	-11.6856
▁nightmare	-11.6856
▁Montana	-11.6856
▁Jonathan	-11.6856
▁wore	-11.6856
▁contest	-11.6856
▁encyclopedia	-11.6856
▁headache	-11.6856
▁noisy	-11.6856
▁asthma	-11.6857
▁digitize	-11.6857
▁baseball	-11.6857
▁accent	-11.6857
▁kidding	-11.6857
▁wrapped	-11.6858
▁minority	-11.6858
▁mount	-11.6858
▁entrepreneurial	-11.6858
▁meditation	-11.6858
▁Norway	-11.6858
▁lump	-11.6859
▁kidnap	-11.6859
▁Danny	-11.686
▁preference	-11.6861
▁97	-11.6864
▁migration	-11.6865
▁fungi	-11.6867
▁Susan	-11.6868
▁strap	-11.687
▁distinction	-11.687
▁1900	-11.687
▁Intel	-11.6872
gaming	-11.6882
▁overlap	-11.6901
▁74	-11.7053
odd	-11.7057
▁associate	-11.7155
▁Whit	-11.7169
Would	-11.717
universe	-11.7171
generation	-11.7171
Star	-11.7179
▁constrain	-11.7187
▁Mount	-11.7189
+	-11.7189
▁Alaska	-11.7189
▁Caribbean	-11.7189
▁Compassion	-11.7189
▁Kennedy	-11.7189
▁Kosovo	-11.7189
▁Phoenix	-11.7189
▁TEDGlobal	-11.7189
▁Technology	-11.7189
▁Telescope	-11.7189
▁aluminum	-11.7189
▁anniversary	-11.7189
▁awkward	-11.7189
▁coordination	-11.7189
▁divorce	-11.7189
▁electromagnetic	-11.7189
▁gadget	-11.7189
▁gravitational	-11.7189
▁heavily	-11.7189
▁inexpensive	-11.7189
▁innovator	-11.7189
▁integrity	-11.7189
▁occupy	-11.7189
▁prince	-11.7189
▁reproduction	-11.7189
▁soccer	-11.7189
▁suspicious	-11.7189
▁Canadian	-11.7189
▁Computer	-11.7189
▁Keith	-11.7189
▁Monday	-11.7189
▁Student	-11.7189
▁deficit	-11.7189
▁leather	-11.7189
▁peanut	-11.7189
▁prescription	-11.7189
▁submarine	-11.7189
▁submersible	-11.7189
▁virgin	-11.7189
▁FDA	-11.7189
▁invitation	-11.7189
▁Pretty	-11.7189
illennium	-11.7189
▁erupt	-11.7189
▁heritage	-11.7189
▁mysteries	-11.7189
▁bonus	-11.7189
▁swarm	-11.7189
▁warrior	-11.7189
generative	-11.719
▁canvas	-11.719
▁greet	-11.719
▁rose	-11.719
▁billboard	-11.719
▁1,500	-11.719
▁superpower	-11.719
▁generic	-11.7191
▁purple	-11.7191
▁depict	-11.7191
▁western	-11.7191
▁priorities	-11.7191
▁rode	-11.7191
▁Brit	-11.7192
▁blueprint	-11.7192
▁Johnny	-11.7194
▁workshop	-11.7194
▁1930	-11.7194
▁Full	-11.7195
▁Still	-11.7195
▁Rather	-11.7197
▁selective	-11.7197
▁informal	-11.7197
▁wow	-11.7198
▁47	-11.7198
▁fertilizer	-11.7198
▁Old	-11.72
▁belly	-11.7202
Cola	-11.7472
storing	-11.7505
▁whip	-11.7507
positive	-11.7515
climate	-11.7515
society	-11.7515
shirt	-11.7515
fuel	-11.7516
about	-11.7522
▁Republic	-11.7532
▁Columbia	-11.7534
▁Country	-11.7534
▁Empire	-11.7534
▁Little	-11.7534
▁Netherlands	-11.7534
▁Tuesday	-11.7534
▁Venezuela	-11.7534
▁adolescence	-11.7534
▁advocate	-11.7534
▁album	-11.7534
▁assistance	-11.7534
▁association	-11.7534
▁calculating	-11.7534
▁catastrophic	-11.7534
▁cholera	-11.7534
▁convincing	-11.7534
▁default	-11.7534
▁deliberate	-11.7534
▁elevate	-11.7534
▁executive	-11.7534
▁fantasy	-11.7534
▁fluctuation	-11.7534
▁gecko	-11.7534
▁happiest	-11.7534
▁imperative	-11.7534
▁infrared	-11.7534
▁janitor	-11.7534
▁jungle	-11.7534
▁matrix	-11.7534
▁parliament	-11.7534
▁significance	-11.7534
▁stumble	-11.7534
▁terrain	-11.7534
▁Twenty	-11.7534
▁generator	-11.7534
▁morph	-11.7534
▁Rachel	-11.7534
▁sneak	-11.7534
gnostic	-11.7534
▁cosmos	-11.7534
▁injuries	-11.7534
▁spatial	-11.7534
▁couch	-11.7534
▁mature	-11.7534
▁indigen	-11.7534
▁missile	-11.7534
▁Wolfram	-11.7534
▁disabled	-11.7534
▁crater	-11.7534
▁Sudan	-11.7535
▁luckily	-11.7535
▁faint	-11.7535
▁hiding	-11.7535
▁cheer	-11.7535
▁timing	-11.7535
▁applies	-11.7535
▁jewelry	-11.7535
▁stabilize	-11.7535
▁memorize	-11.7536
centric	-11.7537
▁creep	-11.7537
▁Head	-11.7537
▁macro	-11.7538
▁Alright	-11.7538
▁zip	-11.7539
▁copper	-11.7539
▁snap	-11.7541
▁rays	-11.7541
▁Light	-11.7542
anthrop	-11.7546
foie	-11.7558
▁insert	-11.7578
▁correlate	-11.758
building	-11.7589
▁96	-11.7642
▁inherent	-11.7795
piece	-11.7872
philosophy	-11.7872
industrial	-11.7872
great	-11.7874
fusion	-11.7874
▁Under	-11.7885
etween	-11.789
▁Academy	-11.7891
▁Society	-11.7891
▁Sputnik	-11.7891
▁Thailand	-11.7891
▁absurd	-11.7891
▁accuracy	-11.7891
▁ambitious	-11.7891
▁anthropologist	-11.7891
▁chaotic	-11.7891
▁convicted	-11.7891
▁elevator	-11.7891
▁enthusiast	-11.7891
▁envelope	-11.7891
▁eradication	-11.7891
▁ethanol	-11.7891
▁grocery	-11.7891
▁headquarters	-11.7891
▁intangible	-11.7891
▁integration	-11.7891
▁legitimate	-11.7891
▁libraries	-11.7891
▁monsoon	-11.7891
▁occupation	-11.7891
▁protocol	-11.7891
▁remarkably	-11.7891
▁stimulation	-11.7891
▁suitcase	-11.7891
▁sulfur	-11.7891
▁surviving	-11.7891
▁tangible	-11.7891
▁unleash	-11.7891
▁council	-11.7891
▁neuroscientist	-11.7891
▁obsession	-11.7891
▁plankton	-11.7891
▁geography	-11.7891
▁orgasm	-11.7891
▁debris	-11.7891
▁Business	-11.7891
▁mankind	-11.7891
▁shaking	-11.7891
▁thrive	-11.7891
▁abroad	-11.7891
▁stereotype	-11.7891
▁grape	-11.7891
▁chord	-11.7891
▁Siberia	-11.7891
▁Tower	-11.7892
▁2.0	-11.7892
▁prophet	-11.7892
▁mosque	-11.7892
▁humility	-11.7892
▁resonate	-11.7892
▁infectious	-11.7892
▁sweep	-11.7893
▁Large	-11.7893
▁cardboard	-11.7893
▁polymer	-11.7893
▁Jackson	-11.7894
▁steep	-11.7894
▁digging	-11.7895
▁Nazi	-11.7895
▁optimism	-11.7896
▁acres	-11.7896
▁dependence	-11.7897
▁planned	-11.7898
▁zoo	-11.7902
▁swap	-11.7905
▁pursu	-11.8047
▁decid	-11.8193
▁cloth	-11.8217
▁integrate	-11.8227
sustainability	-11.8243
conflict	-11.8243
screen	-11.8243
income	-11.8243
held	-11.8248
▁punish	-11.8258
▁arrange	-11.8258
▁Francis	-11.826
▁Babylon	-11.8262
▁Government	-11.8262
▁Ministry	-11.8262
▁Organization	-11.8262
▁Secretary	-11.8262
▁abundant	-11.8262
▁circular	-11.8262
▁commute	-11.8262
▁criteria	-11.8262
▁dissolve	-11.8262
▁flexibility	-11.8262
▁kindergarten	-11.8262
▁obscur	-11.8262
▁offspring	-11.8262
▁powder	-11.8262
▁sequencing	-11.8262
▁stigma	-11.8262
▁terrified	-11.8262
▁ultraviolet	-11.8262
▁vocabulary	-11.8262
▁Himalaya	-11.8262
▁Office	-11.8262
▁appliance	-11.8262
▁cathedral	-11.8262
▁cocktail	-11.8262
▁erotic	-11.8262
▁holiday	-11.8262
▁innovate	-11.8262
▁railroad	-11.8262
▁sediment	-11.8262
▁vacation	-11.8262
▁Apollo	-11.8262
▁Hindu	-11.8262
▁drought	-11.8262
▁inhabit	-11.8262
▁taboo	-11.8262
▁tribal	-11.8262
▁vocal	-11.8262
▁exotic	-11.8262
▁mixture	-11.8262
▁smash	-11.8262
▁Food	-11.8262
▁Therefore	-11.8262
▁overnight	-11.8262
▁ancestr	-11.8262
▁immerse	-11.8262
▁freezing	-11.8262
▁intricate	-11.8262
▁conquer	-11.8262
▁nasty	-11.8262
▁charm	-11.8262
▁Jobs	-11.8263
▁lanes	-11.8263
▁$100	-11.8263
▁Development	-11.8263
▁haunt	-11.8263
▁Point	-11.8263
▁constitution	-11.8264
▁piss	-11.8264
▁punishment	-11.8265
▁blogging	-11.8265
▁porn	-11.8268
rror	-11.8284
▁folk	-11.8319
▁dye	-11.8357
ltan	-11.8396
eign	-11.847
▁Radio	-11.8501
▁eliminat	-11.8582
standing	-11.8614
condition	-11.8627
poetry	-11.8627
wheel	-11.8627
effective	-11.8627
Z	-11.8627
security	-11.8627
compassion	-11.8628
Thank	-11.8628
community	-11.8628
child	-11.8629
magic	-11.863
▁literal	-11.863
▁numb	-11.8631
cientific	-11.8643
▁differ	-11.8645
▁censor	-11.8646
▁sovereign	-11.8646
Absolutely	-11.8646
▁1997	-11.8646
▁Defense	-11.8646
▁Field	-11.8646
▁Jefferson	-11.8646
▁Jerusalem	-11.8646
▁Mozart	-11.8646
▁Suppose	-11.8646
▁Supreme	-11.8646
▁cabinet	-11.8646
▁celebrity	-11.8646
▁eBay	-11.8646
▁embracing	-11.8646
▁feminist	-11.8646
▁galleries	-11.8646
▁guidance	-11.8646
▁injustice	-11.8646
▁mammogram	-11.8646
▁microscopic	-11.8646
▁neglect	-11.8646
▁nonsense	-11.8646
▁nurturing	-11.8646
▁observing	-11.8646
▁paralysis	-11.8646
▁practicing	-11.8646
▁preparation	-11.8646
▁principal	-11.8646
▁reclaim	-11.8646
▁reinforce	-11.8646
▁relativity	-11.8646
▁satisfaction	-11.8646
▁undergraduate	-11.8646
▁vibrating	-11.8646
▁wavelength	-11.8646
▁1945	-11.8646
▁Gordon	-11.8646
▁Laptop	-11.8646
▁delusion	-11.8646
▁fishermen	-11.8646
▁ghost	-11.8646
▁improvisation	-11.8646
▁Alpha	-11.8646
▁Bruce	-11.8646
▁History	-11.8646
▁hammer	-11.8646
▁sensing	-11.8646
▁degraded	-11.8646
▁shelves	-11.8646
▁portable	-11.8646
▁cease	-11.8646
▁Emily	-11.8646
▁Edward	-11.8646
▁cattle	-11.8646
▁aquatic	-11.8646
▁volcani	-11.8646
▁miniatur	-11.8647
▁violate	-11.8647
▁frightened	-11.8647
▁permit	-11.8647
▁vector	-11.8647
▁banjo	-11.8647
▁acute	-11.8647
▁Conference	-11.8647
▁trapped	-11.8647
▁Wilson	-11.8648
▁envision	-11.8648
▁flame	-11.8649
▁greed	-11.8649
▁decorati	-11.8653
▁investigati	-11.8653
▁dissect	-11.8655
▁justify	-11.8691
▁grim	-11.8742
improv	-11.8744
▁socio	-11.8906
▁elect	-11.9004
quality	-11.9026
sensitive	-11.9027
language	-11.9027
quo	-11.9028
course	-11.903
communica	-11.9045
nterviewer	-11.9046
▁Beethoven	-11.9046
▁Copernic	-11.9046
▁DARPA	-11.9046
▁Hospital	-11.9046
▁Interestingly	-11.9046
▁Kibera	-11.9046
▁Nicholas	-11.9046
▁Pennsylvania	-11.9046
▁Pepsi	-11.9046
▁Pittsburgh	-11.9046
▁Saturday	-11.9046
▁Sweeney	-11.9046
▁accused	-11.9046
▁bacterium	-11.9046
▁census	-11.9046
▁cockroach	-11.9046
▁describing	-11.9046
▁embodie	-11.9046
▁enthusiasm	-11.9046
▁extensive	-11.9046
▁grassroots	-11.9046
▁intrigue	-11.9046
▁negotiating	-11.9046
▁neocortex	-11.9046
▁nucleus	-11.9046
▁propaganda	-11.9046
▁receiving	-11.9046
▁resemble	-11.9046
▁temporary	-11.9046
▁voyage	-11.9046
biomimicry	-11.9046
▁Denmark	-11.9046
▁Julie	-11.9046
▁obligation	-11.9046
▁praise	-11.9046
▁solemn	-11.9046
▁tweet	-11.9046
▁1991	-11.9046
▁Accord	-11.9046
▁bloom	-11.9046
▁cardiac	-11.9046
▁confess	-11.9046
▁distress	-11.9046
▁snail	-11.9046
▁defect	-11.9046
▁nevertheless	-11.9046
▁thrust	-11.9046
▁SMS	-11.9046
▁chalk	-11.9046
▁dismiss	-11.9046
▁Ooh	-11.9046
▁flesh	-11.9046
▁depressing	-11.9046
alactic	-11.9046
▁forecast	-11.9046
▁dentist	-11.9046
▁humankind	-11.9046
▁glove	-11.9046
▁Juan	-11.9046
▁divine	-11.9047
▁Clay	-11.9047
▁dispute	-11.9047
▁retain	-11.9047
▁versa	-11.9047
▁banned	-11.9047
▁catalog	-11.9047
▁isolation	-11.9047
▁packaging	-11.9048
▁preced	-11.9048
▁tilt	-11.9049
▁Fire	-11.905
racking	-11.9052
▁glu	-11.9053
▁towel	-11.9053
microbial	-11.9055
▁Film	-11.9069
herently	-11.9155
▁prospect	-11.9308
▁plac	-11.9441
public	-11.9443
Good	-11.9444
robots	-11.9444
built	-11.9444
controlled	-11.9445
storm	-11.9446
symmetric	-11.9463
▁Yellow	-11.9463
▁enforce	-11.9463
▁AIMS	-11.9463
▁Armstrong	-11.9463
▁Berkeley	-11.9463
▁Bulgaria	-11.9463
▁Darfur	-11.9463
▁Explor	-11.9463
▁Kiribati	-11.9463
▁Linux	-11.9463
▁OECD	-11.9463
▁Service	-11.9463
▁abnormal	-11.9463
▁achieving	-11.9463
▁analyzing	-11.9463
▁autonomy	-11.9463
▁bandwidth	-11.9463
▁bladder	-11.9463
▁calcium	-11.9463
▁ceremony	-11.9463
▁communal	-11.9463
▁consensus	-11.9463
▁continually	-11.9463
▁controversy	-11.9463
▁corridor	-11.9463
▁easiest	-11.9463
▁elbow	-11.9463
▁geometric	-11.9463
▁gigantic	-11.9463
▁glucose	-11.9463
▁happily	-11.9463
▁idiot	-11.9463
▁linguistic	-11.9463
▁mammography	-11.9463
▁multinational	-11.9463
▁nonetheless	-11.9463
▁orientation	-11.9463
▁pedestrian	-11.9463
▁penetrate	-11.9463
▁pristine	-11.9463
▁promising	-11.9463
▁psyche	-11.9463
▁replacing	-11.9463
▁rhino	-11.9463
▁slaughter	-11.9463
▁technologist	-11.9463
▁tectonic	-11.9463
▁template	-11.9463
▁RNA	-11.9463
▁beloved	-11.9463
▁hollow	-11.9463
▁impaired	-11.9463
▁indication	-11.9463
▁injured	-11.9463
▁Dylan	-11.9463
▁Wonder	-11.9463
▁sentiment	-11.9463
▁summary	-11.9463
▁unfair	-11.9463
▁Truth	-11.9463
▁anxious	-11.9463
▁livestock	-11.9463
▁salary	-11.9463
▁Speak	-11.9463
▁ingenious	-11.9463
▁harsh	-11.9463
▁spouse	-11.9463
▁misery	-11.9463
▁funeral	-11.9463
▁Word	-11.9463
▁masterpiece	-11.9463
enabling	-11.9464
▁ramp	-11.9464
▁pepper	-11.9464
▁crust	-11.9464
▁shove	-11.9465
▁Theater	-11.9466
▁chess	-11.9466
espite	-11.947
▁drip	-11.9471
▁Palm	-11.9475
▁differentiate	-11.9486
▁restorati	-11.952
nnie	-11.9522
▁symptom	-11.9569
lude	-11.981
▁remov	-11.9816
Having	-11.9851
▁expose	-11.9863
present	-11.9874
philanthropy	-11.9879
structure	-11.9879
Africa	-11.9879
growth	-11.9879
rocket	-11.9879
Because	-11.9879
atomic	-11.9882
ocratic	-11.9896
▁monk	-11.9897
▁drama	-11.9898
instruct	-11.9898
▁Amsterdam	-11.9898
▁Babbage	-11.9898
▁Bangalore	-11.9898
▁Bhutan	-11.9898
▁Bonobo	-11.9898
▁Cassini	-11.9898
▁Industrial	-11.9898
▁Jazeera	-11.9898
▁Jordan	-11.9898
▁Kansas	-11.9898
▁Lawrence	-11.9898
▁Luckily	-11.9898
▁Margaret	-11.9898
▁SARS	-11.9898
▁anatomy	-11.9898
▁articulate	-11.9898
▁beneficial	-11.9898
▁charcoal	-11.9898
▁coincidence	-11.9898
▁commodities	-11.9898
▁complication	-11.9898
▁embark	-11.9898
▁evaporate	-11.9898
▁execute	-11.9898
▁fertility	-11.9898
▁indicator	-11.9898
▁juggling	-11.9898
▁limestone	-11.9898
▁obsolete	-11.9898
▁physiology	-11.9898
▁pregnancy	-11.9898
▁prevail	-11.9898
▁privacy	-11.9898
▁province	-11.9898
▁rehabilitation	-11.9898
▁repertoire	-11.9898
▁replicator	-11.9898
▁sibling	-11.9898
▁surplus	-11.9898
▁surveillance	-11.9898
▁varieties	-11.9898
▁visceral	-11.9898
▁Agnes	-11.9898
▁BMW	-11.9898
▁capsule	-11.9898
▁clarity	-11.9898
▁grief	-11.9898
▁resonance	-11.9898
▁warehouse	-11.9898
sanitary	-11.9898
▁Bruno	-11.9898
▁glory	-11.9898
▁scatter	-11.9898
▁bulk	-11.9898
▁polite	-11.9898
▁sterile	-11.9898
▁committee	-11.9898
▁fisheries	-11.9898
▁scroll	-11.9898
▁melody	-11.9898
▁measurabl	-11.9898
▁regain	-11.9898
▁warfare	-11.9898
▁radar	-11.9898
▁plumb	-11.9898
john	-11.9898
▁entities	-11.9898
▁asleep	-11.9898
▁Royal	-11.9898
▁distill	-11.9898
▁bypass	-11.9898
▁cement	-11.9898
▁grind	-11.9898
▁ashamed	-11.9898
▁censorship	-11.9898
▁1.3	-11.9898
▁scholarship	-11.9898
▁1.5	-11.9898
▁modify	-11.9898
▁intervene	-11.9899
▁Emma	-11.9908
▁mandate	-11.9916
nspired	-11.9941
entrepreneurship	-12.0055
journalism	-12.0173
assemble	-12.0333
Love	-12.0334
Just	-12.0334
▁Virgin	-12.035
▁affirm	-12.0352
etropolitan	-12.0352
responsibilities	-12.0352
▁Arizona	-12.0352
▁Austria	-12.0352
▁CAPTCHA	-12.0352
▁Company	-12.0352
▁Detroit	-12.0352
▁Digital	-12.0352
▁Enceladus	-12.0352
▁Especially	-12.0352
▁Hawking	-12.0352
▁Lakota	-12.0352
▁Scientist	-12.0352
▁Similarly	-12.0352
▁TEDMED	-12.0352
▁Together	-12.0352
▁Virtual	-12.0352
▁atrazine	-12.0352
▁bamboo	-12.0352
▁biomaterial	-12.0352
▁capacities	-12.0352
▁cerebral	-12.0352
▁cooperate	-12.0352
▁crocodile	-12.0352
▁fundraising	-12.0352
▁imagining	-12.0352
▁immigrant	-12.0352
▁immortal	-12.0352
▁inclusive	-12.0352
▁indirect	-12.0352
▁ingenuity	-12.0352
▁laboratories	-12.0352
▁laundry	-12.0352
▁malnutrition	-12.0352
▁monument	-12.0352
▁numerous	-12.0352
▁occupie	-12.0352
▁pizza	-12.0352
▁precision	-12.0352
▁prototyping	-12.0352
▁revelation	-12.0352
▁ridicule	-12.0352
▁romance	-12.0352
▁servant	-12.0352
▁shield	-12.0352
▁steady	-12.0352
▁supplement	-12.0352
▁symphony	-12.0352
▁synchronize	-12.0352
▁syringe	-12.0352
▁tinker	-12.0352
▁underestimate	-12.0352
▁worthwhile	-12.0352
▁1968	-12.0352
▁Murray	-12.0352
▁Toronto	-12.0352
▁cereal	-12.0352
▁geese	-12.0352
▁temper	-12.0352
▁Oliver	-12.0352
▁Reagan	-12.0352
▁Venus	-12.0352
▁Village	-12.0352
▁companion	-12.0352
▁likelihood	-12.0352
▁quiz	-12.0352
▁Cooper	-12.0352
▁Falcon	-12.0352
▁gaze	-12.0352
izzy	-12.0352
▁scope	-12.0352
▁sermon	-12.0352
▁escalat	-12.0352
▁Serious	-12.0352
▁Klein	-12.0352
▁cobra	-12.0352
▁Tesla	-12.0352
▁wreck	-12.0352
▁lyric	-12.0352
▁Somalia	-12.0352
▁Freud	-12.0352
▁spawn	-12.0352
▁resort	-12.0353
▁Small	-12.0353
▁tennis	-12.0353
▁Lagos	-12.0353
▁lamb	-12.0353
▁nuclei	-12.0353
▁stairs	-12.0353
▁Lesters	-12.0353
replicating	-12.0353
▁mantis	-12.0353
▁wives	-12.0354
▁causal	-12.0354
▁Wolf	-12.0354
nathan	-12.0357
▁Self	-12.0359
▁Lead	-12.0363
Ground	-12.0364
▁Merc	-12.0401
heim	-12.0535
▁coloniz	-12.058
resolution	-12.081
luck	-12.081
Great	-12.081
good	-12.081
death	-12.081
large	-12.081
▁legislat	-12.0825
▁Argentina	-12.0828
▁Eventually	-12.0828
▁Extreme	-12.0828
▁Flickr	-12.0828
▁Fortunately	-12.0828
▁Galileo	-12.0828
▁Graham	-12.0828
▁Higgs	-12.0828
▁Hopefully	-12.0828
▁Kyoto	-12.0828
▁Maldives	-12.0828
▁Massachusetts	-12.0828
▁Nairobi	-12.0828
▁RISD	-12.0828
▁Record	-12.0828
▁Scotland	-12.0828
▁Skype	-12.0828
▁Studio	-12.0828
▁Swedish	-12.0828
▁Tennessee	-12.0828
▁Zimbabwe	-12.0828
▁administrator	-12.0828
▁aerodynamic	-12.0828
▁ambiguity	-12.0828
▁anecdote	-12.0828
▁annoying	-12.0828
▁astronaut	-12.0828
▁astronomical	-12.0828
▁continuum	-12.0828
▁crochet	-12.0828
▁declining	-12.0828
▁deconstruct	-12.0828
▁dictionaries	-12.0828
▁doctrine	-12.0828
▁doodling	-12.0828
▁equity	-12.0828
▁excerpt	-12.0828
▁facilitate	-12.0828
▁irrelevant	-12.0828
▁lithium	-12.0828
▁marathon	-12.0828
▁meadow	-12.0828
▁nectar	-12.0828
▁respirator	-12.0828
▁schizophrenia	-12.0828
▁sensible	-12.0828
▁snapshot	-12.0828
▁subsequent	-12.0828
▁synesthesia	-12.0828
▁synthesis	-12.0828
▁thorough	-12.0828
▁tuberculosis	-12.0828
▁velocity	-12.0828
▁vitamin	-12.0828
▁whistling	-12.0828
▁1982	-12.0828
▁1995	-12.0828
▁Consider	-12.0828
▁Georgia	-12.0828
▁Jersey	-12.0828
▁Tunisia	-12.0828
▁delicate	-12.0828
▁distraction	-12.0828
▁draft	-12.0828
▁drowning	-12.0828
▁rainfall	-12.0828
▁Caltech	-12.0828
▁cochlea	-12.0828
▁essay	-12.0828
▁hobby	-12.0828
▁memorial	-12.0828
▁microwave	-12.0828
▁offshore	-12.0828
▁shatter	-12.0828
▁slogan	-12.0828
▁Hitler	-12.0828
▁steak	-12.0828
▁captain	-12.0828
▁uncover	-12.0828
▁Desert	-12.0828
▁metasta	-12.0828
▁salmon	-12.0828
▁doubling	-12.0828
▁envy	-12.0828
▁Venter	-12.0828
▁shaping	-12.0828
▁inflation	-12.0829
▁Type	-12.0829
ilitary	-12.0829
▁diverge	-12.0829
▁exceed	-12.0829
▁bookstore	-12.0829
▁boost	-12.0829
▁Christoph	-12.0829
▁Liberia	-12.0829
▁Nepal	-12.0829
▁racing	-12.0829
▁Model	-12.0829
▁uh	-12.0829
▁inviting	-12.0829
▁terminal	-12.0829
▁Saint	-12.0829
▁Cultur	-12.083
hhh	-12.083
▁Motor	-12.083
▁inspect	-12.0831
▁mutate	-12.0838
▁Kim	-12.1001
▁oppos	-12.1296
transportation	-12.131
specific	-12.131
disease	-12.131
billion	-12.131
▁guilt	-12.1313
▁interfere	-12.1318
▁savanna	-12.1328
▁twenty	-12.1328
=	-12.1328
unintended	-12.1328
▁Energy	-12.1328
▁Hungarian	-12.1328
▁Lebanon	-12.1328
▁Lesterland	-12.1328
▁Negroponte	-12.1328
▁Nicole	-12.1328
▁PowerPoint	-12.1328
▁Vinci	-12.1328
▁Windows	-12.1328
▁Zipcar	-12.1328
▁algebra	-12.1328
▁antibodies	-12.1328
▁availability	-12.1328
▁buzz	-12.1328
▁competitor	-12.1328
▁contagious	-12.1328
▁convergence	-12.1328
▁cymatic	-12.1328
▁diminish	-12.1328
▁dividing	-12.1328
▁educating	-12.1328
▁equator	-12.1328
▁equipped	-12.1328
▁fuzzy	-12.1328
▁homosexual	-12.1328
▁hummingbird	-12.1328
▁iPad	-12.1328
▁imaginary	-12.1328
▁incubator	-12.1328
▁introducing	-12.1328
▁irrigation	-12.1328
▁metabolic	-12.1328
▁mobilize	-12.1328
▁ozone	-12.1328
▁participating	-12.1328
▁patience	-12.1328
▁pervasive	-12.1328
▁reflex	-12.1328
▁refrigerator	-12.1328
▁resilient	-12.1328
▁retrofit	-12.1328
▁seatbelt	-12.1328
▁staggering	-12.1328
▁substitute	-12.1328
▁variability	-12.1328
▁victory	-12.1328
▁voluntary	-12.1328
▁widespread	-12.1328
▁1975	-12.1328
▁1989	-12.1328
▁Fifty	-12.1328
▁Simple	-12.1328
▁friction	-12.1328
▁intestine	-12.1328
▁jacket	-12.1328
▁starvation	-12.1328
▁translating	-12.1328
▁utiliz	-12.1328
▁womb	-12.1328
▁Recently	-12.1328
▁superhero	-12.1328
▁therapist	-12.1328
▁Angel	-12.1328
▁hunch	-12.1328
▁timber	-12.1328
▁collide	-12.1328
▁Dallas	-12.1328
▁obey	-12.1328
▁honeybee	-12.1328
▁windmill	-12.1328
▁matern	-12.1329
▁foreground	-12.1329
▁eager	-12.1329
▁minimize	-12.1329
▁pearl	-12.1329
▁autistic	-12.1329
▁imitate	-12.1329
▁Sobule	-12.1329
▁slate	-12.1329
▁forehead	-12.1329
utheast	-12.1329
▁spades	-12.1329
sourcing	-12.1329
▁Glenn	-12.133
▁carrier	-12.133
▁rust	-12.1333
xcuse	-12.1339
▁Plato	-12.134
▁lava	-12.1499
▁implication	-12.1526
transcendence	-12.1581
fford	-12.1766
through	-12.1835
illusion	-12.1836
appropriate	-12.1836
video	-12.1836
group	-12.1836
▁minor	-12.1852
rganisms	-12.1854
▁jelly	-12.1854
▁embryo	-12.1855
pprentice	-12.1855
▁Bertie	-12.1855
▁Cameron	-12.1855
▁Collider	-12.1855
▁Director	-12.1855
▁Financial	-12.1855
▁Incredible	-12.1855
▁Kepler	-12.1855
▁Language	-12.1855
▁League	-12.1855
▁Mediterranean	-12.1855
▁Natalie	-12.1855
▁Panbanisha	-12.1855
▁Portugal	-12.1855
▁Stirling	-12.1855
▁abalone	-12.1855
▁acceleration	-12.1855
▁arithmetic	-12.1855
▁auditory	-12.1855
▁benign	-12.1855
▁carcinogen	-12.1855
▁ceramic	-12.1855
▁certified	-12.1855
▁comprehensive	-12.1855
▁conviction	-12.1855
▁cumulative	-12.1855
▁educator	-12.1855
▁estrogen	-12.1855
▁evaluate	-12.1855
▁evident	-12.1855
▁existential	-12.1855
▁extremist	-12.1855
▁gratitude	-12.1855
▁holistic	-12.1855
▁hurricane	-12.1855
▁hyena	-12.1855
▁illiterate	-12.1855
▁inorganic	-12.1855
▁mortgage	-12.1855
▁prescribe	-12.1855
▁primordial	-12.1855
▁quantities	-12.1855
▁reconnect	-12.1855
▁relevance	-12.1855
▁reprogram	-12.1855
▁sanitation	-12.1855
▁seizure	-12.1855
▁specimen	-12.1855
▁squatter	-12.1855
▁supermassive	-12.1855
▁sympathy	-12.1855
▁tadpole	-12.1855
▁taxpayer	-12.1855
▁triumph	-12.1855
▁1984	-12.1855
▁Author	-12.1855
▁CNN	-12.1855
▁Climate	-12.1855
▁Gehry	-12.1855
▁choreograph	-12.1855
▁compliment	-12.1855
▁dysfunction	-12.1855
▁ideology	-12.1855
▁lightweight	-12.1855
▁opposition	-12.1855
▁perfume	-12.1855
▁venue	-12.1855
▁Brook	-12.1855
▁Rouge	-12.1855
▁Hudson	-12.1855
▁Soldier	-12.1855
▁Agency	-12.1855
▁policing	-12.1855
▁Trust	-12.1855
▁unstable	-12.1855
▁reckless	-12.1855
▁superior	-12.1855
▁Cairo	-12.1855
▁Stefan	-12.1855
▁gently	-12.1855
▁wiring	-12.1855
▁lemon	-12.1855
▁Witness	-12.1855
▁Cross	-12.1855
▁underpin	-12.1855
▁cynic	-12.1855
cradle	-12.1856
▁devise	-12.1856
▁Understand	-12.187
▁emulat	-12.1875
oxic	-12.1889
▁Opera	-12.1907
Barack	-12.1924
▁polariz	-12.1979
economic	-12.2063
esthetic	-12.2218
imme	-12.2219
▁nonviolen	-12.2306
▁collaborat	-12.2345
▁excite	-12.2373
mobile	-12.2391
leadership	-12.2391
author	-12.2392
▁meditat	-12.2407
▁jewel	-12.2408
▁automatic	-12.2409
bject	-12.2409
nutrient	-12.241
ndependent	-12.241
MacArthur	-12.241
”	-12.241
▁1,100	-12.241
▁Acumen	-12.241
▁Brilliant	-12.241
▁Colombia	-12.241
▁Dennis	-12.241
▁Economist	-12.241
▁Engineer	-12.241
▁FOXO	-12.241
▁Hundred	-12.241
▁Nollywood	-12.241
▁Oregon	-12.241
▁Philippines	-12.241
▁Sergio	-12.241
▁Survey	-12.241
▁Taiwan	-12.241
▁Tamiflu	-12.241
▁UCLA	-12.241
▁Vegas	-12.241
▁WHO	-12.241
▁accumulation	-12.241
▁ambulance	-12.241
▁anesthesia	-12.241
▁arbitrary	-12.241
▁astrolabe	-12.241
▁avatar	-12.241
▁blunt	-12.241
▁brilliance	-12.241
▁catalyst	-12.241
▁certificate	-12.241
▁conspiracy	-12.241
▁continuity	-12.241
▁decentralized	-12.241
▁degradation	-12.241
▁diffuse	-12.241
▁diffusion	-12.241
▁disadvantage	-12.241
▁divergence	-12.241
▁elevation	-12.241
▁equilibrium	-12.241
▁exclude	-12.241
▁execution	-12.241
▁frustrating	-12.241
▁hilarious	-12.241
▁hominid	-12.241
▁horrific	-12.241
▁inadequate	-12.241
▁leisure	-12.241
▁livelihood	-12.241
▁peripher	-12.241
▁precipitat	-12.241
▁premature	-12.241
▁recipient	-12.241
▁royal	-12.241
▁shepherd	-12.241
▁squirrel	-12.241
▁surrender	-12.241
▁tiniest	-12.241
▁tribute	-12.241
▁unequal	-12.241
▁unpredictable	-12.241
▁urgency	-12.241
▁1996	-12.241
▁Galois	-12.241
▁Short	-12.241
▁anthropology	-12.241
▁astounding	-12.241
▁contributor	-12.241
▁cowboy	-12.241
▁disseminat	-12.241
▁eyebrow	-12.241
▁heartbeat	-12.241
▁imitation	-12.241
▁instinctively	-12.241
▁lawsuit	-12.241
▁literary	-12.241
▁napkin	-12.241
▁pivot	-12.241
▁resurrect	-12.241
▁slept	-12.241
▁Economic	-12.241
▁gamma	-12.241
▁latitude	-12.241
▁scuba	-12.241
▁stockpile	-12.241
▁vapor	-12.241
▁Aimee	-12.241
▁Group	-12.241
▁Vietnamese	-12.241
▁coalition	-12.241
▁queue	-12.241
▁conserve	-12.241
▁converge	-12.241
▁curtain	-12.241
▁polish	-12.241
▁jeans	-12.241
▁nursing	-12.241
▁Spider	-12.241
▁Jamie	-12.241
▁ladder	-12.241
▁CIA	-12.241
▁Anything	-12.241
▁huh	-12.241
▁hippie	-12.241
▁Senate	-12.241
▁backpack	-12.241
▁salad	-12.241
▁Northwest	-12.241
▁insulin	-12.241
▁mutant	-12.241
▁trawl	-12.241
▁condense	-12.2411
▁fleet	-12.2411
▁Lanka	-12.2411
Tomorrow	-12.2411
▁enslav	-12.2412
atherine	-12.2416
legged	-12.2426
Woo	-12.2435
ector	-12.2441
▁demonstrat	-12.2558
ogged	-12.2612
sistence	-12.2929
funded	-12.298
solving	-12.298
correct	-12.298
people	-12.298
woman	-12.298
credit	-12.2985
ceptual	-12.2997
▁uncertain	-12.2997
ovogratz	-12.2998
assembling	-12.2999
disciplinary	-12.2999
retroviral	-12.2999
▁Association	-12.2999
▁Barbara	-12.2999
▁Dennett	-12.2999
▁Discover	-12.2999
▁Evolution	-12.2999
▁Holocaust	-12.2999
▁IDEO	-12.2999
▁Isaac	-12.2999
▁Magazine	-12.2999
▁Mahmoud	-12.2999
▁Mathematica	-12.2999
▁Michigan	-12.2999
▁Palestine	-12.2999
▁Parliament	-12.2999
▁Roosevelt	-12.2999
▁Shoots	-12.2999
▁Ushahidi	-12.2999
▁altruism	-12.2999
▁ambiguous	-12.2999
▁antiangiogenic	-12.2999
▁apparatus	-12.2999
▁approval	-12.2999
▁bailout	-12.2999
▁charisma	-12.2999
▁contemplate	-12.2999
▁convenience	-12.2999
▁decipher	-12.2999
▁deforestation	-12.2999
▁downstairs	-12.2999
▁emphasis	-12.2999
▁energetic	-12.2999
▁entitled	-12.2999
▁expenditure	-12.2999
▁feminine	-12.2999
▁fracture	-12.2999
▁genital	-12.2999
▁graffiti	-12.2999
▁gratification	-12.2999
▁hazard	-12.2999
▁humpback	-12.2999
▁identities	-12.2999
▁imperfect	-12.2999
▁incomplete	-12.2999
▁insecure	-12.2999
▁integrating	-12.2999
▁liberty	-12.2999
▁malign	-12.2999
▁marshmallow	-12.2999
▁navigation	-12.2999
▁ninth	-12.2999
▁paradise	-12.2999
▁paragraph	-12.2999
▁provocative	-12.2999
▁puberty	-12.2999
▁punctu	-12.2999
▁quantitative	-12.2999
▁reluctant	-12.2999
▁responsive	-12.2999
▁rigorous	-12.2999
▁satisfied	-12.2999
▁stimulus	-12.2999
▁suburbia	-12.2999
▁twentie	-12.2999
▁unimaginable	-12.2999
▁worries	-12.2999
▁Amazing	-12.2999
▁Exactly	-12.2999
▁embryonic	-12.2999
▁extrovert	-12.2999
▁groundbreaking	-12.2999
▁league	-12.2999
▁millisecond	-12.2999
▁reservation	-12.2999
▁supplier	-12.2999
▁Choir	-12.2999
▁fierce	-12.2999
▁modification	-12.2999
▁Club	-12.2999
▁Modern	-12.2999
▁credible	-12.2999
▁retrospect	-12.2999
▁Network	-12.2999
▁modified	-12.2999
▁variant	-12.2999
▁Barbie	-12.2999
▁Finance	-12.2999
▁Photograph	-12.2999
▁bleach	-12.2999
▁adjacen	-12.2999
▁deceive	-12.2999
▁Perfect	-12.2999
▁sniff	-12.2999
▁rival	-12.2999
▁spores	-12.2999
Believe	-12.2999
▁Libya	-12.2999
Vagina	-12.2999
evaluati	-12.3002
hariot	-12.3008
Uncle	-12.3028
▁illustrat	-12.3058
▁calv	-12.3075
dicated	-12.3114
spective	-12.3385
▁northeast	-12.3525
biodiversity	-12.3605
beauty	-12.3605
cognitive	-12.3605
statistics	-12.3605
software	-12.3605
architecture	-12.3605
daughter	-12.3605
▁apparent	-12.3607
India	-12.3616
ynthetic	-12.362
▁intellect	-12.3623
▁Achilles	-12.3624
▁Alabama	-12.3624
▁Anthony	-12.3624
▁Arkansas	-12.3624
▁Avenue	-12.3624
▁Campaign	-12.3624
▁Channel	-12.3624
▁Clearly	-12.3624
▁Connecticut	-12.3624
▁Conservation	-12.3624
▁Current	-12.3624
▁Dawkins	-12.3624
▁Excellent	-12.3624
▁Greece	-12.3624
▁Hiroshima	-12.3624
▁Katrina	-12.3624
▁Mermaid	-12.3624
▁Mitchell	-12.3624
▁Muhammad	-12.3624
▁Orleans	-12.3624
▁PIPA	-12.3624
▁Pentagon	-12.3624
▁Philadelphia	-12.3624
▁Renaissance	-12.3624
▁SOPA	-12.3624
▁Sebastian	-12.3624
▁Sudhir	-12.3624
▁Tehran	-12.3624
▁Transition	-12.3624
▁Treasure	-12.3624
▁Ultimately	-12.3624
▁Usually	-12.3624
▁alpha	-12.3624
▁altogether	-12.3624
▁amplify	-12.3624
▁beekeepers	-12.3624
▁bronze	-12.3624
▁chimps	-12.3624
▁cognition	-12.3624
▁confusing	-12.3624
▁constitute	-12.3624
▁deflect	-12.3624
#	-12.429
á	-12.5004
ö	-12.5004
@	-12.6607
í	-12.6607
%	-12.7516
—	-12.8497
)	-12.8516
–	-12.8516
ó	-12.9627
[	-13.0858
ä	-13.2306
è	-13.2306
ü	-13.3972
*	-13.5973
♫	-14.1787
ç	-14.1806
ã	-14.1806
à	-14.6806
â	-14.6806
É	-14.6806
‘	-15.6799
ø	-15.68
ñ	-15.6801
ê	-15.6802
^	-15.6803
(	-15.6804
“	-15.6805
Ç	-15.6806
\	-15.6806
£	-15.6806
ë	-15.6806
ï	-15.6806
ú	-15.6806
ć	-15.6806
ē	-15.6806
̊	-15.6806
你	-15.6806
葱	-15.6806
送	-15.6806
$	-15.6806
ā	-15.6806
