<pad>	0
<unk>	0
<s>	0
</s>	0
None	0
,	-3.05815
.	-3.20827
s	-3.44857
▁the	-3.61288
▁to	-4.06261
'	-4.07183
▁a	-4.12365
▁of	-4.16376
▁in	-4.28264
▁and	-4.30292
▁that	-4.43542
▁I	-4.45946
▁it	-4.72824
▁is	-4.73158
▁you	-4.73987
▁we	-4.92028
▁on	-4.97001
t	-4.99839
▁And	-5.01797
▁this	-5.16955
▁	-5.25851
▁--	-5.42328
▁was	-5.50874
▁for	-5.55758
re	-5.57193
▁yn	-5.58946
ing	-5.61574
▁have	-5.61791
▁are	-5.63216
d	-5.6356
▁they	-5.67406
▁can	-5.70451
-	-5.72068
▁with	-5.73207
ed	-5.7695
▁So	-5.77255
▁what	-5.81839
▁be	-5.83481
?	-5.83572
▁about	-5.85082
:	-5.87293
m	-5.90488
a	-5.92662
▁do	-5.97405
▁"	-5.98982
▁at	-6.00069
▁all	-6.0142
▁not	-6.02794
▁one	-6.06289
▁there	-6.09612
n	-6.10578
▁so	-6.14614
▁like	-6.16066
▁It	-6.17134
▁from	-6.18278
▁people	-6.18395
▁as	-6.20055
▁no	-6.20518
▁an	-6.20944
▁my	-6.21303
ve	-6.29545
y	-6.29797
▁just	-6.32152
▁me	-6.32703
▁but	-6.33656
▁know	-6.34284
▁very	-6.35184
▁out	-6.36611
▁niman	-6.37423
▁We	-6.37615
▁or	-6.37666
▁But	-6.38286
▁if	-6.40174
▁our	-6.40259
▁these	-6.40496
▁going	-6.42774
▁up	-6.42861
▁The	-6.43067
ly	-6.43233
▁he	-6.45442
j	-6.46956
▁by	-6.49183
_	-6.51261
e	-6.51414
▁see	-6.52149
▁them	-6.52767
▁think	-6.55847
▁when	-6.5658
▁because	-6.56991
▁had	-6.57687
▁which	-6.57708
c	-6.58751
o	-6.60457
▁more	-6.6058
▁get	-6.6086
▁who	-6.6146
▁really	-6.62309
."	-6.62612
ca	-6.64132
▁how	-6.64781
▁your	-6.65947
er	-6.67542
▁would	-6.67564
▁don	-6.67606
▁yejhuan	-6.68073
l	-6.68819
i	-6.69209
▁here	-6.69842
;	-6.70572
ll	-6.70875
▁has	-6.70916
▁their	-6.70961
▁were	-6.71868
r	-6.72879
▁This	-6.73367
▁time	-6.7405
▁us	-6.74131
▁world	-6.74204
co	-6.75624
al	-6.76722
▁then	-6.79709
▁You	-6.7975
▁actually	-6.80699
▁some	-6.81105
▁ye	-6.8114
▁way	-6.81834
▁into	-6.82205
h	-6.82274
▁want	-6.84466
▁go	-6.84488
▁things	-6.85278
te	-6.86919
▁ca	-6.88842
▁ipan	-6.89378
▁ica	-6.89697
▁now	-6.9044
▁In	-6.90536
▁will	-6.90922
▁other	-6.91103
▁years	-6.91304
▁where	-6.91383
▁de	-6.92226
▁make	-6.93506
es	-6.93931
li	-6.95694
▁A	-6.97142
to	-6.97621
▁Now	-6.97643
▁ma	-6.9778
▁They	-6.99183
▁could	-7.00353
z	-7.01286
▁said	-7.01707
▁been	-7.02309
▁tla	-7.0271
in	-7.03565
que	-7.04189
▁♫	-7.05956
▁se	-7.06041
▁i	-7.06475
▁something	-7.07416
▁right	-7.07647
▁mo	-7.08386
▁y	-7.09381
▁thing	-7.09969
u	-7.11599
▁little	-7.12614
▁two	-7.12919
▁much	-7.13046
▁got	-7.13583
pa	-7.14398
ta	-7.14441
▁para	-7.15067
▁first	-7.16505
▁over	-7.17073
▁say	-7.17844
▁look	-7.17954
g	-7.18177
▁back	-7.18911
ti	-7.19337
qui	-7.19383
▁than	-7.20109
▁o	-7.20524
mo	-7.21922
le	-7.22349
▁work	-7.2265
▁his	-7.23005
▁those	-7.23192
ma	-7.23308
▁kind	-7.23527
▁That	-7.25041
▁life	-7.25079
▁also	-7.25305
▁ne	-7.25492
▁qui	-7.25745
▁te	-7.26359
on	-7.2694
▁she	-7.27736
▁need	-7.29527
tla	-7.2963
ch	-7.31336
p	-7.32628
an	-7.32794
▁take	-7.33298
▁lot	-7.34628
can	-7.36469
▁Dios	-7.36802
▁most	-7.37165
▁He	-7.37436
▁only	-7.38116
▁new	-7.3816
▁good	-7.39842
▁even	-7.40187
▁did	-7.41382
▁There	-7.4162
▁around	-7.41896
▁ynic	-7.41941
ya	-7.43105
▁down	-7.43445
▁many	-7.44556
x	-7.45939
▁What	-7.46103
▁different	-7.46323
en	-7.46695
me	-7.46903
▁use	-7.47963
th	-7.48284
/	-7.48325
▁come	-7.48877
▁her	-7.50506
▁through	-7.5104
po	-7.51386
ne	-7.51516
▁being	-7.51722
lo	-7.51879
or	-7.52362
▁Auh	-7.52562
▁put	-7.53536
▁re	-7.54816
pan	-7.54974
tzin	-7.55815
ra	-7.559
ic	-7.56464
no	-7.56903
▁same	-7.57017
k	-7.58125
ro	-7.58181
squej	-7.58316
b	-7.5859
▁doing	-7.58608
ri	-7.60372
I	-7.60833
▁every	-7.60878
la	-7.61114
▁three	-7.61482
ted	-7.62501
▁If	-7.64875
se	-7.64974
▁day	-7.67935
▁called	-7.67957
▁talk	-7.6805
▁tlen	-7.68238
ar	-7.6865
▁yejhua	-7.69431
hui	-7.69877
▁well	-7.70715
▁any	-7.71687
▁give	-7.72275
▁made	-7.73549
▁fact	-7.73712
mi	-7.74498
▁quen	-7.74964
▁human	-7.75493
"	-7.75538
▁tell	-7.75591
▁e	-7.75804
ation	-7.76388
▁year	-7.77141
▁oqui	-7.77558
▁Well	-7.7791
▁own	-7.78015
▁percent	-7.78473
quej	-7.78475
▁why	-7.78769
ce	-7.78896
▁S	-7.78992
ni	-7.80298
▁change	-7.8067
▁great	-7.80771
▁part	-7.80782
S	-7.80791
▁idea	-7.80856
▁find	-7.81498
ion	-7.81751
w	-7.81864
na	-7.82881
?"	-7.82952
hua	-7.83226
▁yhuan	-7.83656
▁thought	-7.8393
com	-7.84033
▁last	-7.84278
tic	-7.85266
ci	-7.85282
▁ihuan	-7.85358
▁should	-7.85429
▁E	-7.86174
▁let	-7.86247
▁big	-7.86965
▁show	-7.87326
▁Ma	-7.87428
▁didn	-7.87477
▁con	-7.8751
f	-7.88026
▁went	-7.88843
▁oncan	-7.88911
▁today	-7.88985
▁ti	-7.8941
▁after	-7.89614
pe	-7.89712
▁off	-7.89977
▁bit	-7.9003
▁course	-7.90032
A	-7.90203
man	-7.90362
▁quin	-7.90617
ur	-7.90855
ers	-7.91282
ck	-7.91724
chi	-7.91848
▁B	-7.91917
ment	-7.92112
▁start	-7.92449
▁C	-7.92547
▁T	-7.92597
▁another	-7.92707
▁started	-7.92719
▁system	-7.92984
▁Jesús	-7.93897
▁yc	-7.93933
▁auh	-7.93951
▁problem	-7.94182
▁before	-7.95201
▁brain	-7.95403
il	-7.9594
▁story	-7.96408
▁important	-7.96824
▁place	-7.97299
▁mean	-7.97658
▁never	-7.97662
▁x	-7.98608
▁came	-7.98928
▁long	-7.98968
▁xihuitl	-7.99049
▁call	-7.99868
▁Thank	-7.99996
▁better	-8.00191
▁sort	-8.00451
▁end	-8.00869
▁might	-8.01254
▁able	-8.01264
▁ago	-8.01685
yo	-8.02214
▁him	-8.0247
▁next	-8.02472
▁real	-8.02512
▁together	-8.0315
▁ijcuac	-8.03356
▁does	-8.03736
▁again	-8.03885
el	-8.03934
▁point	-8.04147
▁water	-8.04228
▁itech	-8.04704
▁co	-8.05616
▁ompa	-8.06078
huan	-8.06114
ua	-8.0652
▁love	-8.07014
▁un	-8.07169
▁10	-8.07356
▁still	-8.07554
▁ican	-8.07559
▁each	-8.07644
ive	-8.07684
▁pampa	-8.07857
▁technology	-8.07872
▁Because	-8.07992
able	-8.08338
tia	-8.08617
▁few	-8.09375
▁ypan	-8.09501
▁man	-8.10205
▁light	-8.11373
!	-8.1152
▁question	-8.11624
▁U	-8.11643
▁whole	-8.11673
▁between	-8.11861
tli	-8.12152
▁quite	-8.12391
▁found	-8.12816
▁tlacatl	-8.13504
▁used	-8.13857
▁understand	-8.14067
▁done	-8.14318
▁nochi	-8.14322
▁ce	-8.14497
▁ni	-8.15119
▁When	-8.15219
us	-8.15544
▁feel	-8.16311
▁looking	-8.16313
▁No	-8.16957
,"	-8.16991
▁million	-8.17011
ity	-8.17376
▁example	-8.1757
▁F	-8.17607
▁amo	-8.17637
est	-8.17701
▁ic	-8.1777
▁doesn	-8.17947
de	-8.17998
▁help	-8.18218
▁huel	-8.18351
aj	-8.18492
▁nican	-8.1853
▁too	-8.18758
▁sa	-8.18805
▁20	-8.21083
▁children	-8.21092
▁car	-8.21103
▁design	-8.21108
as	-8.21537
▁space	-8.216
tin	-8.21827
▁believe	-8.2282
▁create	-8.23204
▁always	-8.23476
▁f	-8.2356
▁live	-8.23595
▁data	-8.23656
▁try	-8.23755
ol	-8.24044
▁wanted	-8.24052
▁person	-8.24058
ter	-8.24598
▁four	-8.24778
▁may	-8.25111
▁P	-8.25654
www	-8.25681
talks	-8.26032
://	-8.26282
lli	-8.26318
C	-8.26611
▁O	-8.26769
▁tic	-8.26778
html	-8.26798
▁ht	-8.26815
ry	-8.26979
▁school	-8.27252
▁power	-8.27337
tp	-8.27512
▁trying	-8.27521
▁away	-8.28167
▁Niman	-8.28207
ent	-8.28217
▁play	-8.28345
et	-8.28699
▁home	-8.29012
Niman	-8.29087
▁working	-8.29326
▁ever	-8.29344
▁―	-8.29426
▁How	-8.29685
▁oc	-8.30506
v	-8.31246
▁women	-8.3134
it	-8.31382
▁sense	-8.3168
ge	-8.31802
ness	-8.3286
▁san	-8.32908
▁Te	-8.33189
xi	-8.33723
▁kids	-8.33887
▁country	-8.34265
▁One	-8.34498
2	-8.34583
the	-8.34701
▁second	-8.34727
▁everything	-8.35009
▁money	-8.35322
▁five	-8.35326
ist	-8.35779
▁On	-8.36117
▁took	-8.36119
▁stuff	-8.36335
▁cuajli	-8.36718
▁small	-8.3755
Pero	-8.38273
at	-8.38393
▁She	-8.38979
▁To	-8.39038
cui	-8.39192
▁information	-8.39335
▁future	-8.39363
▁food	-8.39465
▁maybe	-8.39549
▁using	-8.39554
ton	-8.39582
▁high	-8.39691
T	-8.40185
▁old	-8.40608
▁enough	-8.40817
▁side	-8.40824
is	-8.41045
▁getting	-8.41156
▁interesting	-8.41229
▁19	-8.41256
▁bring	-8.41486
▁number	-8.4159
▁building	-8.41632
▁Africa	-8.41714
▁thinking	-8.41722
▁left	-8.41919
ia	-8.41959
▁energy	-8.4225
▁These	-8.42495
▁catca	-8.42537
▁po	-8.42566
▁planet	-8.4327
▁experience	-8.43441
M	-8.43585
▁become	-8.43687
▁moment	-8.43794
▁hand	-8.44354
▁oquin	-8.4445
uh	-8.44462
▁For	-8.44755
▁K	-8.4534
▁probably	-8.45404
▁G	-8.45613
6	-8.46155
▁happened	-8.46422
▁simple	-8.46663
▁means	-8.46852
▁Here	-8.47089
▁making	-8.47298
▁best	-8.47616
▁hard	-8.47814
▁ask	-8.48359
min	-8.48575
▁move	-8.48676
▁room	-8.49107
▁coming	-8.49229
▁dollars	-8.49274
▁talking	-8.49395
▁comes	-8.49467
7	-8.49518
tion	-8.49584
▁g	-8.49636
zque	-8.49773
▁far	-8.49783
▁says	-8.49839
▁process	-8.5
un	-8.50113
▁Mo	-8.50113
▁build	-8.50288
▁nic	-8.50318
age	-8.50326
ting	-8.50569
▁project	-8.51295
▁head	-8.513
▁under	-8.51712
8	-8.51752
▁ijqui	-8.51764
▁My	-8.51916
ke	-8.52115
▁anything	-8.52315
▁ya	-8.52731
▁tej	-8.52934
▁answer	-8.53212
tlan	-8.53232
▁Ca	-8.53364
▁pretty	-8.53438
▁billion	-8.53448
D	-8.53537
▁without	-8.53558
ac	-8.53636
▁social	-8.53726
9	-8.5377
▁set	-8.53886
▁less	-8.54063
▁happen	-8.54289
yaj	-8.54751
cua	-8.54779
▁form	-8.54799
▁body	-8.54843
ate	-8.54896
tica	-8.55029
▁half	-8.55089
toca	-8.55314
ul	-8.55639
’	-8.55841
▁¿	-8.55916
cu	-8.55951
O	-8.56081
3	-8.56091
ty	-8.56114
▁care	-8.56155
ye	-8.56312
ian	-8.56484
▁picture	-8.56545
▁itoca	-8.56603
aya	-8.56683
▁science	-8.56987
▁goes	-8.57229
tz	-8.57263
▁tlacamej	-8.57372
▁reason	-8.57513
ual	-8.57652
]	-8.5783
N	-8.57872
▁face	-8.57878
▁across	-8.57948
▁book	-8.58151
▁çan	-8.58288
▁bad	-8.58438
▁open	-8.58484
X	-8.58496
▁New	-8.58824
▁art	-8.59018
▁war	-8.5906
di	-8.59336
va	-8.59485
▁saw	-8.59797
▁else	-8.59858
▁p	-8.59951
▁case	-8.60161
▁Mexico	-8.60222
oc	-8.60232
▁mind	-8.60267
mp	-8.60297
cal	-8.60449
▁la	-8.60718
▁X	-8.60771
▁Earth	-8.60827
▁such	-8.61098
pi	-8.61158
tequi	-8.61265
▁business	-8.61518
▁ta	-8.61602
be	-8.61692
▁matter	-8.61725
▁am	-8.61779
1	-8.61796
tl	-8.61894
mej	-8.62375
qua	-8.62383
▁computer	-8.62413
▁told	-8.627
▁pa	-8.6275
▁w	-8.62776
▁six	-8.62954
▁15	-8.63257
▁countries	-8.63419
▁seen	-8.63589
▁basically	-8.63797
▁read	-8.63841
▁dis	-8.6392
ho	-8.64091
▁per	-8.64172
ha	-8.64304
▁Let	-8.64412
▁living	-8.64421
ui	-8.6446
▁campa	-8.64501
▁zan	-8.6458
▁learn	-8.64761
▁uan	-8.65074
ir	-8.65271
▁health	-8.65739
▁OK	-8.65758
▁hope	-8.6576
▁having	-8.65947
▁happens	-8.66028
▁keep	-8.66144
▁All	-8.66167
id	-8.66206
▁años	-8.66461
▁TED	-8.66533
▁lives	-8.66793
▁both	-8.67208
5	-8.67299
▁M	-8.67394
▁music	-8.67396
▁global	-8.67421
go	-8.67482
nt	-8.67598
con	-8.67815
▁name	-8.67845
▁child	-8.68337
tor	-8.68391
▁video	-8.68543
▁language	-8.68955
▁saying	-8.6899
ru	-8.69074
▁mi	-8.69386
▁inside	-8.69615
▁Mi	-8.70285
▁asked	-8.7039
▁[	-8.7047
▁ideas	-8.70724
▁line	-8.70841
▁later	-8.70913
▁San	-8.71064
▁single	-8.71227
jquej	-8.71242
do	-8.71282
P	-8.71446
▁self	-8.71815
▁As	-8.72183
▁once	-8.72213
ba	-8.72346
▁times	-8.72353
▁guy	-8.72476
Yejhua	-8.72643
▁beautiful	-8.72979
ten	-8.72997
ling	-8.73008
▁history	-8.73159
rs	-8.73328
▁cancer	-8.734
▁family	-8.7353
▁makes	-8.73617
▁Quemaj	-8.73715
▁days	-8.7386
▁pre	-8.74042
▁más	-8.74124
▁universe	-8.74245
sh	-8.74439
▁...	-8.74492
▁pro	-8.74528
▁problems	-8.74535
▁Juan	-8.74577
he	-8.74586
▁imagine	-8.74782
▁remember	-8.74782
▁top	-8.74821
less	-8.74844
ant	-8.74941
▁12	-8.75411
ec	-8.7551
4	-8.75632
▁run	-8.75785
▁heart	-8.75867
▁wrong	-8.7605
▁ki	-8.76296
am	-8.76301
▁almost	-8.76334
▁possible	-8.76476
▁yet	-8.76587
▁yej	-8.76656
▁piece	-8.77203
▁young	-8.7732
▁mother	-8.77401
E	-8.77511
▁share	-8.77555
ies	-8.77611
▁omo	-8.78097
▁culture	-8.78546
▁nemejhuamej	-8.78634
▁within	-8.78885
L	-8.7896
▁order	-8.79084
▁cells	-8.79186
▁turn	-8.79204
▁group	-8.79445
▁Why	-8.79497
▁while	-8.79523
▁Ro	-8.79578
▁India	-8.79754
vi	-8.79765
maca	-8.79807
▁sure	-8.79823
▁couple	-8.801
▁nothing	-8.80256
▁whether	-8.80543
▁control	-8.80562
▁“	-8.80692
up	-8.80733
▁yehuatl	-8.80763
ous	-8.80814
▁heard	-8.80841
▁yejhuamej	-8.80896
ga	-8.8093
ver	-8.8112
▁amazing	-8.81138
▁ocean	-8.81184
▁na	-8.81418
▁ijcon	-8.81737
▁sanoyej	-8.81738
lti	-8.81845
ism	-8.81945
da	-8.81955
ster	-8.82288
▁research	-8.82298
▁already	-8.82792
▁true	-8.82797
hual	-8.83127
▁ex	-8.83349
bi	-8.83402
▁often	-8.83423
▁age	-8.83656
▁difference	-8.83707
▁figure	-8.83964
▁ways	-8.84622
▁everybody	-8.84633
bo	-8.84701
▁looked	-8.84721
em	-8.84737
huaj	-8.84881
▁V	-8.85149
zo	-8.8523
▁Cristo	-8.85272
▁nature	-8.85279
▁looks	-8.85405
▁months	-8.85467
▁God	-8.855
▁must	-8.85642
▁Co	-8.8586
ka	-8.85892
ki	-8.85975
▁United	-8.86028
▁quimo	-8.86062
▁public	-8.86071
▁Or	-8.86189
▁Sa	-8.86282
▁nemo	-8.86283
▁men	-8.86316
ary	-8.86384
▁axcan	-8.86504
▁land	-8.87092
▁stop	-8.87302
▁city	-8.87322
▁stories	-8.87769
▁tlaca	-8.87872
▁30	-8.87922
lan	-8.88076
▁front	-8.88459
▁W	-8.8848
B	-8.88573
▁community	-8.88588
▁ba	-8.88662
op	-8.88774
old	-8.88844
▁environment	-8.88903
ph	-8.88996
▁test	-8.89218
▁myself	-8.89236
▁50	-8.89334
▁free	-8.89445
▁nejhua	-8.89535
ach	-8.89934
▁taking	-8.90038
ized	-8.90138
▁species	-8.90189
▁Y	-8.90289
ard	-8.90312
▁built	-8.90349
▁Be	-8.90463
▁Le	-8.90581
▁model	-8.90905
▁yo	-8.91058
▁itself	-8.9112
▁words	-8.9115
cy	-8.91244
▁view	-8.91253
R	-8.91472
▁though	-8.91653
yol	-8.91715
▁omoteneuh	-8.91742
der	-8.91749
▁Tla	-8.91994
▁Do	-8.92058
catl	-8.92099
▁night	-8.92165
▁someone	-8.92274
▁D	-8.92275
The	-8.92338
▁Internet	-8.92498
▁woman	-8.92498
▁until	-8.92517
one	-8.92521
▁word	-8.92563
▁places	-8.92789
chan	-8.9327
▁oil	-8.93342
os	-8.93522
▁house	-8.93604
▁tech	-8.9366
▁t	-8.93772
▁decided	-8.93788
▁level	-8.93802
ated	-8.93823
▁somebody	-8.93854
and	-8.94032
▁past	-8.94168
▁happening	-8.94211
▁ytoca	-8.94302
H	-8.94434
▁job	-8.94446
▁Ye	-8.94509
▁government	-8.9466
che	-8.94771
▁States	-8.9484
▁At	-8.94917
und	-8.9507
fi	-8.95129
▁disease	-8.95155
▁large	-8.95423
▁completely	-8.95435
▁huge	-8.95572
▁sound	-8.95886
▁3	-8.96166
▁since	-8.96247
▁ourselves	-8.96417
um	-8.9642
▁education	-8.96497
llo	-8.96679
▁Then	-8.96705
▁China	-8.96795
▁exactly	-8.96962
▁De	-8.97016
hi	-8.97107
▁hear	-8.97125
▁St	-8.97222
▁America	-8.9737
▁works	-8.97424
ine	-8.976
▁im	-8.97636
za	-8.97707
▁air	-8.98038
ah	-8.98276
ally	-8.98426
▁cenca	-8.98509
▁leave	-8.98524
ful	-8.98597
▁color	-8.98703
▁rather	-8.98703
▁game	-8.98758
No	-8.99255
▁en	-8.99315
▁economic	-8.99415
▁step	-8.99478
▁Ba	-8.99821
▁along	-8.99824
ran	-8.99916
▁di	-8.99941
▁animals	-8.99949
mach	-9.00218
mic	-9.00553
les	-9.00566
ak	-9.0064
▁won	-9.00946
▁Al	-9.00969
▁Yn	-9.01023
io	-9.01263
ko	-9.01343
ng	-9.0135
▁minutes	-9.01582
▁structure	-9.01587
▁100	-9.01764
▁Ne	-9.01777
▁learned	-9.01853
ber	-9.01858
▁melahuac	-9.01966
▁Se	-9.01982
▁wasn	-9.02093
ix	-9.02203
we	-9.02249
▁became	-9.02323
ther	-9.02428
▁themselves	-9.02506
▁issues	-9.02595
▁company	-9.02876
▁wonderful	-9.0309
▁short	-9.03105
▁third	-9.03142
ating	-9.03183
mon	-9.03245
▁particular	-9.03273
▁shape	-9.03286
ue	-9.0333
▁quichihua	-9.03366
▁Francisco	-9.03444
▁image	-9.03523
▁tlahtohuani	-9.0362
▁grow	-9.03937
ex	-9.03941
▁early	-9.04419
ica	-9.04444
▁pi	-9.04547
▁close	-9.04679
▁happy	-9.04749
▁cell	-9.04755
▁society	-9.04775
▁N	-9.04812
▁population	-9.04937
▁York	-9.05126
▁least	-9.05315
tzinco	-9.05407
▁machine	-9.05422
▁tlajtlamach	-9.05506
▁knew	-9.05507
▁market	-9.05629
tlaca	-9.05668
▁created	-9.05743
▁study	-9.05906
▁turns	-9.05986
▁seven	-9.06081
tle	-9.06221
▁xcuajli	-9.0627
K	-9.0628
ish	-9.06303
▁li	-9.06446
▁guys	-9.06471
▁film	-9.06495
▁c	-9.06531
▁non	-9.06754
▁sometimes	-9.06849
▁La	-9.0697
▁couldn	-9.06997
son	-9.07143
▁phone	-9.07233
▁amount	-9.07233
▁state	-9.07293
▁inic	-9.0742
huica	-9.07498
▁outside	-9.07745
▁ome	-9.07749
On	-9.07814
▁An	-9.08057
tur	-9.08067
▁ten	-9.08189
line	-9.08238
king	-9.08328
▁speak	-9.08432
▁Re	-9.0847
▁Pa	-9.08566
ani	-9.08664
▁nemi	-9.08718
tra	-9.08747
▁natural	-9.09063
0	-9.09113
▁18	-9.09145
▁kinds	-9.09212
,000	-9.09213
▁eight	-9.09218
az	-9.09364
▁nen	-9.09412
▁against	-9.09447
▁cost	-9.09538
Ma	-9.09547
▁ha	-9.09557
ities	-9.09564
▁American	-9.09765
▁moving	-9.09783
▁hours	-9.0979
▁beginning	-9.09792
ence	-9.09929
▁Pedro	-9.09981
▁gave	-9.09983
Well	-9.10117
cahua	-9.10431
▁team	-9.10664
▁hu	-9.10771
▁deal	-9.10828
▁isn	-9.10842
▁metztli	-9.10985
▁paper	-9.10998
G	-9.11055
wa	-9.11084
▁everyone	-9.11242
▁sh	-9.11524
▁common	-9.11592
▁shows	-9.1172
▁difficult	-9.11788
fe	-9.11839
▁scale	-9.11923
▁feeling	-9.12123
ome	-9.12164
▁friends	-9.12321
chihua	-9.12335
ize	-9.12418
▁worked	-9.12422
ey	-9.1244
▁otla	-9.12523
▁mani	-9.12542
▁walk	-9.12607
▁terms	-9.12618
▁entire	-9.12646
▁toTeco	-9.1266
▁Ce	-9.129
▁learning	-9.12983
tech	-9.12995
▁b	-9.13275
▁century	-9.13279
▁taken	-9.13284
▁size	-9.13285
lin	-9.13456
F	-9.13515
▁area	-9.1353
tij	-9.13592
▁surface	-9.13629
▁hueyi	-9.13918
▁pay	-9.1411
▁certain	-9.14297
ance	-9.1445
▁buy	-9.14512
▁black	-9.14666
mati	-9.14769
▁Yejhua	-9.15026
▁iuh	-9.15098
▁students	-9.15246
▁fish	-9.15289
é	-9.15294
▁full	-9.15362
▁ho	-9.15428
▁Can	-9.1545
lia	-9.15584
ut	-9.15843
▁nochimej	-9.15976
▁sea	-9.16068
▁Okay	-9.16234
technology	-9.16465
▁relationship	-9.16562
▁eat	-9.16582
▁local	-9.16583
pil	-9.16589
▁cut	-9.16626
▁map	-9.16717
▁week	-9.16749
lic	-9.16786
dy	-9.16873
▁blue	-9.16987
cauh	-9.17054
▁mexica	-9.17214
▁friend	-9.17346
▁begin	-9.17406
▁middle	-9.17415
▁news	-9.17522
▁behavior	-9.17541
▁present	-9.17588
▁yquac	-9.1763
cac	-9.1767
ot	-9.17765
▁Me	-9.17791
cha	-9.17865
▁field	-9.17897
▁questions	-9.18103
▁fun	-9.18141
▁powerful	-9.18151
of	-9.182
▁instead	-9.18276
▁media	-9.1829
ning	-9.18392
▁rest	-9.18543
▁thousands	-9.18613
▁4	-9.1878
▁whatever	-9.19147
▁center	-9.19209
iti	-9.19268
▁pero	-9.19331
▁finally	-9.19432
▁st	-9.19649
huac	-9.19743
▁perhaps	-9.20021
ijli	-9.2011
▁experiment	-9.20221
▁nech	-9.20231
during	-9.20306
▁hual	-9.20511
▁mochiuh	-9.20535
▁quipia	-9.20641
▁cr	-9.20648
▁program	-9.20715
▁eyes	-9.2104
tzi	-9.21096
▁nenqui	-9.2111
▁seeing	-9.21316
▁bo	-9.21347
▁support	-9.2135
▁ono	-9.21771
▁measure	-9.22471
▁explain	-9.22611
▁oquijlij	-9.22654
▁father	-9.22699
▁oquimijlij	-9.22923
▁cannot	-9.22935
▁yourself	-9.22946
mac	-9.22951
▁low	-9.23073
▁Ijcuac	-9.23115
▁sp	-9.23184
vo	-9.23425
▁Some	-9.23429
▁easy	-9.23605
per	-9.23816
so	-9.23873
▁interested	-9.24057
end	-9.24097
▁wall	-9.24129
▁pe	-9.24444
liz	-9.24527
▁ixquich	-9.24725
▁thank	-9.24733
▁turned	-9.2501
year	-9.25076
▁lots	-9.25114
▁||	-9.25214
▁feet	-9.25214
▁sub	-9.25286
tza	-9.25309
tiuh	-9.25372
▁mech	-9.2555
▁personal	-9.2557
▁behind	-9.25679
▁vi	-9.25736
▁spend	-9.25792
▁ability	-9.25965
▁Mar	-9.26111
▁stand	-9.26253
▁systems	-9.26263
▁Ra	-9.2632
ie	-9.26359
▁death	-9.26381
loc	-9.264
▁tried	-9.26501
▁gone	-9.26776
▁photograph	-9.26842
▁tonajli	-9.2685
▁red	-9.26878
▁given	-9.26917
▁produce	-9.26965
iz	-9.26968
▁chi	-9.27287
▁hands	-9.27472
ger	-9.27476
mer	-9.27515
tlal	-9.27682
▁began	-9.27724
▁comp	-9.27743
▁11	-9.27794
▁40	-9.27805
▁longer	-9.28016
ticatca	-9.28057
▁stage	-9.28092
▁movement	-9.28115
▁ocse	-9.28178
What	-9.2823
▁risk	-9.28275
▁Just	-9.28326
▁quickly	-9.28344
▁green	-9.28367
▁poor	-9.28369
bu	-9.28501
You	-9.28561
cen	-9.28595
way	-9.28716
lla	-9.28724
▁deep	-9.29035
▁Na	-9.29247
▁changed	-9.2935
ble	-9.29356
▁takes	-9.29378
▁die	-9.2962
▁realized	-9.29821
▁focus	-9.29892
▁cool	-9.30056
ring	-9.30127
▁act	-9.30153
▁generation	-9.30731
▁R	-9.3082
▁People	-9.30936
▁special	-9.30939
om	-9.31013
▁fall	-9.31072
cho	-9.31082
▁simply	-9.31182
▁oncaj	-9.31248
pia	-9.31406
▁situation	-9.31428
▁break	-9.31429
▁Right	-9.31436
▁plan	-9.31443
▁complex	-9.31647
yan	-9.3172
▁political	-9.31923
▁arm	-9.31975
gen	-9.32164
▁14	-9.32306
▁hebreos	-9.32451
▁Go	-9.3265
▁xqui	-9.32665
▁DNA	-9.32669
▁ice	-9.3289
▁Pablo	-9.32919
ial	-9.32947
▁Not	-9.33263
▁lo	-9.33279
▁rate	-9.33354
▁incredible	-9.33421
▁parts	-9.33433
▁ground	-9.33507
▁qua	-9.33526
xo	-9.33527
▁individual	-9.33544
▁force	-9.33644
▁World	-9.33673
▁key	-9.34035
▁write	-9.34149
▁fast	-9.34307
▁ilhuicac	-9.34327
▁ynin	-9.34339
toc	-9.34559
▁blood	-9.34687
▁sitting	-9.34707
▁lost	-9.34709
▁needed	-9.34805
▁gets	-9.34809
▁challenge	-9.34855
▁ipampa	-9.3499
▁k	-9.35106
▁imp	-9.35124
▁Ha	-9.35133
▁hi	-9.35192
▁approach	-9.35198
▁exist	-9.3523
jli	-9.35252
▁nice	-9.35281
ff	-9.35313
▁fly	-9.354
▁16	-9.35651
▁Bo	-9.35676
▁spent	-9.3574
▁Jo	-9.35775
▁connect	-9.35806
▁stay	-9.3584
▁books	-9.35913
▁value	-9.35913
▁audience	-9.35969
▁brought	-9.36227
▁watch	-9.36594
▁allow	-9.36595
rt	-9.36894
▁either	-9.37007
▁economy	-9.37268
oj	-9.37396
▁L	-9.37407
▁xi	-9.37578
▁bottom	-9.37792
uc	-9.37813
▁known	-9.37821
val	-9.37863
mal	-9.37905
00	-9.38006
▁starting	-9.38041
▁opportunity	-9.38055
▁movie	-9.38057
fa	-9.38062
▁animal	-9.38063
▁drive	-9.38091
▁hold	-9.38228
ij	-9.38284
ite	-9.38302
▁dream	-9.38319
▁voice	-9.38583
▁material	-9.3861
▁growth	-9.38664
tac	-9.38733
ço	-9.39414
▁Ho	-9.39687
▁quinequi	-9.39724
▁nochipa	-9.39753
▁lab	-9.39793
▁itlaj	-9.39825
▁dark	-9.39893
▁Ja	-9.40127
U	-9.40204
▁English	-9.40455
tter	-9.40549
▁technologies	-9.40725
▁spread	-9.40729
▁climate	-9.40766
listli	-9.40953
▁growing	-9.40978
▁hit	-9.4099
▁cities	-9.41014
▁forward	-9.41082
bre	-9.41128
▁yuh	-9.4113
▁v	-9.4122
▁wrote	-9.41268
▁felt	-9.41269
ça	-9.41297
▁office	-9.41341
▁based	-9.41711
▁weeks	-9.41751
▁action	-9.41761
▁eye	-9.41765
▁wind	-9.41799
▁concept	-9.41814
▁average	-9.41815
▁message	-9.41823
▁miles	-9.41891
nequi	-9.41934
▁parents	-9.41935
▁patient	-9.41947
▁ocsequimej	-9.42101
▁theory	-9.42131
▁gr	-9.42184
huiz	-9.42266
ud	-9.42416
▁touch	-9.42544
ze	-9.42573
▁Da	-9.42603
uan	-9.42611
▁morning	-9.42638
▁born	-9.42733
▁sign	-9.42812
▁object	-9.43116
side	-9.43117
▁needs	-9.43125
▁Di	-9.43154
▁expect	-9.43157
▁Hu	-9.43592
til	-9.4365
▁1	-9.43687
▁miyec	-9.43757
▁pick	-9.43777
▁met	-9.43833
▁Chi	-9.43836
macac	-9.43902
▁sun	-9.43993
▁village	-9.44027
ped	-9.44104
▁images	-9.44247
▁literally	-9.44307
▁tle	-9.44387
ep	-9.44607
nemi	-9.44737
by	-9.44864
ler	-9.44868
▁attention	-9.4487
▁fire	-9.44878
▁white	-9.44961
led	-9.45041
▁visual	-9.45146
▁mass	-9.45219
▁companies	-9.45435
science	-9.45481
▁reality	-9.45554
▁clear	-9.45559
ap	-9.45734
▁evolution	-9.45782
▁reach	-9.45792
▁super	-9.45863
▁understanding	-9.45932
▁camera	-9.45947
ight	-9.46014
▁modern	-9.46291
au	-9.46437
▁Yeah	-9.46442
▁guess	-9.46579
▁impact	-9.46583
▁tlalticpactli	-9.46591
ris	-9.46637
▁song	-9.46684
▁da	-9.46744
▁developed	-9.46866
▁girl	-9.46875
quiz	-9.47006
▁aman	-9.47072
▁represent	-9.47109
▁mil	-9.47148
▁knowledge	-9.47152
▁result	-9.47174
lar	-9.47509
▁si	-9.47611
▁cause	-9.47675
▁realize	-9.47713
▁Chinese	-9.47731
▁dead	-9.47744
▁areas	-9.47772
▁wouldn	-9.47775
▁table	-9.47823
▁discovered	-9.47931
▁nion	-9.48006
▁mine	-9.48031
▁running	-9.48044
▁kid	-9.48162
▁intech	-9.48171
▁por	-9.48194
titlan	-9.48204
▁13	-9.48259
mat	-9.48456
.”	-9.48545
▁Po	-9.48567
ever	-9.48598
▁smart	-9.48606
▁J	-9.48756
▁tools	-9.48891
▁giving	-9.48908
ward	-9.49087
ple	-9.49098
▁site	-9.49484
▁huelis	-9.4954
▁xo	-9.49579
xihuitl	-9.49661
ping	-9.49728
▁development	-9.49879
lis	-9.49884
▁patients	-9.49936
ious	-9.50016
▁r	-9.5009
▁scientists	-9.50092
▁others	-9.50172
▁u	-9.50215
liztli	-9.50271
á	-9.50338
▁noso	-9.50364
▁period	-9.50378
▁network	-9.50513
zquia	-9.50563
▁character	-9.50671
▁suggest	-9.50677
▁25	-9.50763
col	-9.50855
▁7	-9.50876
▁atl	-9.50928
▁Chris	-9.50976
▁physical	-9.51115
▁late	-9.51208
▁South	-9.5124
▁mu	-9.5127
▁Cha	-9.51298
▁save	-9.51484
▁issue	-9.51494
land	-9.51558
▁access	-9.51572
▁chance	-9.51585
▁alone	-9.51589
▁baby	-9.51592
ical	-9.51672
▁Ni	-9.51719
▁teach	-9.51865
▁inter	-9.52103
▁playing	-9.52221
”	-9.52246
▁CA	-9.52262
▁meet	-9.5246
▁provide	-9.52487
▁follow	-9.52728
tric	-9.52852
▁sit	-9.52913
▁du	-9.52978
▁product	-9.53017
▁major	-9.53096
▁fear	-9.53111
▁compassion	-9.53118
▁tlinon	-9.53171
▁source	-9.53253
▁similar	-9.53404
▁price	-9.53404
▁road	-9.53404
▁African	-9.53448
▁innovation	-9.5346
namiqui	-9.53498
art	-9.53614
quixti	-9.53662
▁telling	-9.53703
▁industry	-9.53712
▁absolutely	-9.53765
out	-9.5379
▁Ga	-9.53813
▁rich	-9.53858
▁develop	-9.53929
Oh	-9.53939
▁type	-9.54092
▁anyone	-9.54104
▁pass	-9.5418
▁Li	-9.54348
▁xoc	-9.54358
ship	-9.54513
▁seem	-9.54631
▁incredibly	-9.54641
tec	-9.54819
▁hospital	-9.54952
▁ahmo	-9.54971
▁Con	-9.55145
W	-9.55159
▁mis	-9.55197
▁developing	-9.55319
▁calli	-9.55371
▁huey	-9.55471
▁talked	-9.55712
▁Si	-9.55776
▁6	-9.55915
▁star	-9.55958
▁list	-9.55998
▁cha	-9.56027
matl	-9.56143
▁creating	-9.56208
teca	-9.56253
▁changes	-9.56263
▁interest	-9.56285
▁pull	-9.56304
▁worth	-9.56313
▁Europe	-9.5646
▁humans	-9.56555
nahuati	-9.56589
ions	-9.56611
▁normal	-9.56697
tal	-9.56779
nic	-9.56837
▁post	-9.56851
▁ça	-9.56851
▁pattern	-9.56869
▁goal	-9.56983
▁bar	-9.57069
▁seems	-9.57086
ps	-9.57212
ors	-9.5722
▁2	-9.57288
▁computers	-9.573
▁hueli	-9.57374
▁effect	-9.57497
tiaya	-9.57515
ative	-9.57614
▁motla	-9.57631
▁gas	-9.57686
▁oquijtoj	-9.57758
▁track	-9.57801
▁digital	-9.57801
▁200	-9.57808
▁listen	-9.57818
jca	-9.58045
▁Maria	-9.58046
▁solve	-9.58098
ay	-9.58138
▁recently	-9.58208
▁pan	-9.58265
▁general	-9.58286
▁quitla	-9.58419
▁soon	-9.5842
▁screen	-9.58445
▁region	-9.58445
▁push	-9.58459
▁mar	-9.5847
squia	-9.5848
▁solution	-9.58524
▁oti	-9.58546
▁vision	-9.58643
▁showed	-9.58865
design	-9.58904
▁perfect	-9.58932
caj	-9.58966
ig	-9.58999
ón	-9.59019
▁continue	-9.59061
ology	-9.59077
▁treat	-9.59078
ana	-9.59106
▁device	-9.59195
▁Ta	-9.59255
yotl	-9.5928
oh	-9.59398
▁recognize	-9.59419
▁yacaj	-9.59441
gg	-9.59531
ili	-9.59555
▁Our	-9.59556
ists	-9.59852
▁rec	-9.59879
▁cal	-9.60052
▁basic	-9.60064
ization	-9.60068
toj	-9.60071
▁tiny	-9.60116
pal	-9.60134
▁mochiua	-9.60248
▁putting	-9.60257
men	-9.60367
▁Google	-9.60402
chiuh	-9.60438
▁success	-9.6052
▁mochi	-9.60719
time	-9.60731
ner	-9.60833
J	-9.60885
▁available	-9.61063
▁send	-9.61068
▁mitz	-9.61087
▁Car	-9.61318
▁Lo	-9.61363
▁record	-9.61386
▁truth	-9.61396
▁anybody	-9.61404
▁report	-9.61442
▁bigger	-9.61453
▁rules	-9.61469
▁strong	-9.61602
ow	-9.61647
ina	-9.6175
▁quijtohua	-9.61762
▁hundreds	-9.61808
▁involved	-9.61865
▁lose	-9.61929
▁dog	-9.61938
▁wish	-9.62095
▁Sh	-9.62182
▁month	-9.62266
huatl	-9.62415
▁travel	-9.6271
▁speed	-9.62737
▁hole	-9.62753
ny	-9.62927
rate	-9.6297
nk	-9.63
▁millions	-9.6304
▁draw	-9.6305
▁subject	-9.63074
▁clean	-9.63074
quetza	-9.63203
▁add	-9.63247
▁join	-9.63413
▁revolution	-9.63414
▁By	-9.63501
nce	-9.63518
▁yes	-9.63559
cent	-9.63575
▁designed	-9.63683
▁ijquin	-9.63731
▁yehuantin	-9.63755
▁happiness	-9.63856
▁hundred	-9.64013
▁moral	-9.64149
▁5	-9.64235
nan	-9.64241
▁class	-9.64279
▁Of	-9.64337
▁towards	-9.6441
▁depend	-9.64412
▁beyond	-9.64437
row	-9.64465
▁su	-9.64508
▁nine	-9.64528
▁cover	-9.64554
▁attack	-9.64783
▁Ti	-9.64842
▁slow	-9.64982
▁reasons	-9.65015
▁War	-9.65062
▁pictures	-9.65105
huili	-9.65115
▁favorite	-9.65128
▁itla	-9.65164
▁changing	-9.65237
tlajtla	-9.65254
cue	-9.65298
▁law	-9.65389
▁choice	-9.65435
▁door	-9.65463
▁Su	-9.6548
tiz	-9.65494
▁magic	-9.65498
▁numbers	-9.6556
pro	-9.65773
▁store	-9.65837
nel	-9.65848
har	-9.66021
▁main	-9.66053
▁bio	-9.66067
▁Ka	-9.66287
▁Sant	-9.66338
▁becomes	-9.66382
for	-9.66435
▁robot	-9.66488
▁medical	-9.66525
▁religion	-9.66578
▁writing	-9.66589
▁60	-9.66607
▁H	-9.66681
ita	-9.66722
▁materials	-9.66832
▁Amo	-9.66842
use	-9.66866
▁especially	-9.66867
▁tlajtojli	-9.66867
▁doctor	-9.66878
▁mote	-9.67077
ice	-9.67127
▁le	-9.67146
▁protect	-9.67212
▁Oh	-9.67223
▁stick	-9.67227
▁nation	-9.67338
▁predict	-9.674
global	-9.67405
ros	-9.67498
quen	-9.67579
▁slide	-9.67579
Tla	-9.67606
▁Man	-9.67608
den	-9.67614
▁box	-9.67679
▁certainly	-9.67847
▁cen	-9.67881
temo	-9.67921
ab	-9.67929
▁carbon	-9.67996
▁resources	-9.68201
▁Martin	-9.68327
▁died	-9.68343
▁flow	-9.68354
▁lived	-9.68365
tique	-9.68368
▁obviously	-9.68383
▁tend	-9.68478
▁girls	-9.68626
huiya	-9.68626
▁om	-9.68768
▁connection	-9.68794
▁potential	-9.68837
▁80	-9.68852
tili	-9.68953
yollo	-9.68966
mana	-9.69164
▁skin	-9.69172
▁mix	-9.69268
▁function	-9.69273
▁safe	-9.69286
▁quim	-9.69355
▁detail	-9.69397
▁nobody	-9.69399
▁ihcuac	-9.69411
▁Where	-9.69445
▁cualli	-9.69449
mil	-9.69618
▁further	-9.69719
seli	-9.69726
▁visit	-9.69726
▁With	-9.69758
▁asking	-9.69979
ohua	-9.69989
▁plant	-9.70073
▁response	-9.70082
▁several	-9.70082
▁feed	-9.70084
▁among	-9.70143
light	-9.70247
omic	-9.70299
tiaque	-9.70309
▁cars	-9.70334
▁quemaj	-9.70446
▁scientific	-9.70447
izing	-9.70461
▁serious	-9.70649
▁Don	-9.7067
▁street	-9.70684
ign	-9.70875
▁biology	-9.70907
pac	-9.71033
ide	-9.71075
▁chemical	-9.71177
▁code	-9.71181
▁increase	-9.71187
neltoc	-9.71285
▁tejhua	-9.71288
▁haven	-9.71346
▁Miguel	-9.71544
▁evidence	-9.71544
▁tlanahuatijli	-9.71544
▁East	-9.71565
▁cua	-9.71627
▁offer	-9.71645
▁version	-9.71648
ehua	-9.71649
▁thousand	-9.71708
ron	-9.71719
▁direction	-9.71961
▁mom	-9.71961
▁groups	-9.7208
▁aren	-9.72239
▁Maybe	-9.72262
▁exciting	-9.72284
▁David	-9.72287
▁pain	-9.72343
▁showing	-9.72349
huitl	-9.72404
ama	-9.72484
▁solar	-9.7257
fin	-9.72589
▁path	-9.72597
▁note	-9.72599
▁Z	-9.7263
▁cu	-9.72659
▁agree	-9.72672
nal	-9.72696
▁positive	-9.72711
▁position	-9.72765
▁hot	-9.72928
▁Lu	-9.72929
lahto	-9.73053
▁architecture	-9.73059
▁sent	-9.7308
ajsi	-9.7315
ticaj	-9.73236
culture	-9.73256
ax	-9.73267
▁Gu	-9.73343
▁Every	-9.73389
▁17	-9.73431
▁kill	-9.7344
ub	-9.73624
▁altepetl	-9.73628
chtli	-9.73678
▁Dr	-9.73759
▁block	-9.73789
▁extraordinary	-9.73805
▁ima	-9.73897
▁count	-9.73984
▁timo	-9.73998
▁8	-9.7415
▁journey	-9.74156
▁trust	-9.74157
▁Yes	-9.74238
▁finger	-9.74544
▁genetic	-9.74547
like	-9.74637
▁mic	-9.74675
▁ixpan	-9.74682
▁successful	-9.7478
▁First	-9.74915
▁HIV	-9.74915
▁plastic	-9.74915
▁software	-9.74915
▁throw	-9.74916
▁boy	-9.75104
▁walking	-9.75211
▁West	-9.75232
▁del	-9.75232
oz	-9.75249
▁near	-9.75297
▁nuclear	-9.75297
▁role	-9.75302
huia	-9.7533
▁treatment	-9.7534
work	-9.75544
▁games	-9.75564
▁card	-9.75626
▁son	-9.75628
xiuh	-9.75631
▁schools	-9.75688
ically	-9.75801
▁moved	-9.75807
otl	-9.759
▁inhuan	-9.75975
act	-9.7604
▁progress	-9.76065
▁wait	-9.76102
▁content	-9.76166
▁Most	-9.76211
zi	-9.76222
▁sex	-9.76268
▁―¿	-9.76463
▁drop	-9.76464
quetz	-9.76515
port	-9.76569
▁Who	-9.76602
day	-9.76602
▁lead	-9.7665
▁sta	-9.76729
▁mountain	-9.76838
▁Per	-9.76839
▁everywhere	-9.76847
▁quijtosnequi	-9.76886
atl	-9.77018
▁named	-9.77121
▁appear	-9.7722
▁bunch	-9.77228
▁perspective	-9.77228
▁dance	-9.77241
ify	-9.77251
▁text	-9.77277
▁security	-9.7728
▁online	-9.77447
miqui	-9.77473
des	-9.77492
▁plants	-9.77527
▁iquac	-9.77619
▁tool	-9.77622
▁extremely	-9.77702
▁foot	-9.77819
istic	-9.77991
▁sleep	-9.7801
ier	-9.78024
▁sell	-9.7811
▁Com	-9.78152
▁hour	-9.78219
ez	-9.78352
▁please	-9.78404
▁secret	-9.78404
▁totally	-9.78536
▁Qui	-9.78564
▁teacher	-9.78569
▁medicine	-9.78579
nti	-9.78703
▁particularly	-9.78746
if	-9.78772
▁explore	-9.78799
tch	-9.7881
▁minute	-9.78912
uit	-9.78996
▁flu	-9.79182
▁za	-9.79217
tlaj	-9.7922
▁fix	-9.79256
▁nemech	-9.79262
▁supposed	-9.79328
▁fine	-9.79358
▁ix	-9.79516
▁notice	-9.7953
▁quality	-9.79595
▁cross	-9.79596
▁nimitz	-9.79596
▁ayac	-9.79712
▁rock	-9.79968
▁account	-9.79995
▁prevent	-9.79995
▁series	-9.80075
▁yol	-9.80076
▁consider	-9.80085
▁ran	-9.80091
tzon	-9.80119
taj	-9.80147
▁quihual	-9.802
mpa	-9.80317
▁capital	-9.80435
ixpan	-9.80446
▁invest	-9.80451
▁affect	-9.80487
▁rise	-9.80626
▁app	-9.80627
▁context	-9.80799
▁conversation	-9.80799
▁search	-9.808
Y	-9.80816
▁trial	-9.80885
Quemaj	-9.81089
▁national	-9.81134
▁remain	-9.81205
▁pesos	-9.81206
ile	-9.81232
pilhuan	-9.81247
▁student	-9.81296
▁train	-9.81345
▁North	-9.81351
▁bacteria	-9.81611
ible	-9.81805
tzino	-9.81943
▁led	-9.82029
▁wife	-9.82429
▁grew	-9.8243
▁perform	-9.82434
▁projects	-9.82496
▁enter	-9.82504
▁allowed	-9.8251
▁fit	-9.82572
lhui	-9.82775
tlajsojtla	-9.82832
▁Diego	-9.8284
▁biggest	-9.82841
▁ocsejpa	-9.82841
▁conflict	-9.82898
▁shift	-9.82911
▁poverty	-9.82932
▁bi	-9.83004
huey	-9.83028
▁meaning	-9.83045
gan	-9.8318
▁onto	-9.8319
▁complicated	-9.83254
▁creative	-9.83254
▁After	-9.83254
▁yon	-9.83296
▁itechcopa	-9.83307
▁connected	-9.83338
▁com	-9.8338
ified	-9.83431
!"	-9.83494
▁lower	-9.8352
▁interact	-9.83528
tinemi	-9.83544
▁John	-9.83661
▁activity	-9.83673
We	-9.83685
▁bank	-9.83689
▁tlalli	-9.83774
▁objects	-9.83781
In	-9.83814
kin	-9.8382
▁fundamental	-9.83924
tzintli	-9.83992
ral	-9.84027
▁survive	-9.84085
▁temperature	-9.84085
▁Acatl	-9.84335
▁eventually	-9.84504
▁beauty	-9.84504
▁tonaltin	-9.84505
▁fuel	-9.84547
▁page	-9.84554
tetl	-9.84577
▁oh	-9.84612
▁sounds	-9.84635
▁Look	-9.8472
▁examples	-9.8476
▁jump	-9.84942
▁essentially	-9.84997
▁pu	-9.85002
▁higher	-9.85042
▁genes	-9.85069
▁ready	-9.85111
ado	-9.85144
▁return	-9.85347
▁micro	-9.85477
▁tree	-9.85592
bra	-9.85635
ability	-9.85647
aci	-9.85716
lock	-9.85816
▁teachers	-9.85822
▁meeting	-9.85856
▁suddenly	-9.8586
▁watching	-9.85937
▁painting	-9.86071
▁killed	-9.86123
▁Espíritu	-9.86195
▁charge	-9.86196
▁above	-9.86203
hue	-9.86207
▁standard	-9.8622
polo	-9.86251
▁Cu	-9.86359
▁nu	-9.86456
oya	-9.86601
▁alcalde	-9.86622
▁check	-9.86623
▁taught	-9.86629
▁ball	-9.86696
quetl	-9.86702
▁titla	-9.86757
▁dr	-9.86817
itz	-9.86823
▁tr	-9.86862
qu	-9.87038
entrepreneur	-9.87051
▁Which	-9.87051
▁famous	-9.87051
▁deliver	-9.87053
▁task	-9.87057
▁traditional	-9.87088
▁wonder	-9.87206
▁sl	-9.87338
V	-9.8735
▁peace	-9.87409
▁otic	-9.87411
ray	-9.87429
▁democracy	-9.87482
▁website	-9.87483
ee	-9.87543
▁communication	-9.87565
cate	-9.87573
▁original	-9.87605
▁base	-9.87724
0,000	-9.87727
▁21	-9.87801
Yejhuamej	-9.87884
▁sky	-9.88067
▁farm	-9.8808
▁bed	-9.88119
▁otech	-9.88243
▁critical	-9.88322
▁military	-9.8835
tol	-9.8837
pajti	-9.88515
ej	-9.88573
▁finding	-9.88596
▁immo	-9.88684
▁drug	-9.88696
▁rule	-9.8871
ook	-9.88729
▁college	-9.88787
▁enjoy	-9.88787
▁practice	-9.88787
▁tiopan	-9.88788
▁largest	-9.88841
▁likely	-9.88852
▁onic	-9.88988
▁yoqui	-9.88997
▁ended	-9.89076
▁starts	-9.89128
▁results	-9.89192
▁Even	-9.89229
▁bomb	-9.89233
elo	-9.89245
▁somewhere	-9.89247
▁somehow	-9.89314
ld	-9.89344
cohua	-9.89405
top	-9.8942
▁decision	-9.89597
▁crazy	-9.89666
▁quimati	-9.89682
▁trees	-9.89865
▁leaders	-9.89904
▁square	-9.90109
pen	-9.90227
rry	-9.9025
▁Vi	-9.90251
▁Jesucristo	-9.90553
▁tonatiuh	-9.90554
▁indeed	-9.90577
▁Santo	-9.90601
chihuili	-9.90603
▁strange	-9.90618
▁alive	-9.90625
▁Je	-9.9071
ech	-9.9074
▁reading	-9.9095
▁service	-9.90973
▁written	-9.90999
▁kikua	-9.91
▁TV	-9.91036
▁press	-9.91093
ker	-9.91266
▁print	-9.91373
Ijcuac	-9.91376
quin	-9.91379
ries	-9.91411
▁accept	-9.91448
▁purpose	-9.91448
▁excited	-9.91448
pampa	-9.91471
▁impossible	-9.91898
▁Tecpatl	-9.91903
▁discover	-9.91938
▁Nican	-9.92032
▁smaller	-9.92038
▁faster	-9.92124
low	-9.92185
▁cheap	-9.92351
▁wild	-9.92352
▁tells	-9.92361
▁window	-9.92362
tilia	-9.9242
▁transform	-9.92454
▁older	-9.92476
temachti	-9.92597
▁oquimo	-9.92607
calli	-9.92611
▁lesson	-9.92635
▁meant	-9.92669
▁tejhuamej	-9.92828
▁stars	-9.92838
▁board	-9.9287
cau	-9.92874
▁products	-9.92949
▁letter	-9.93064
▁Pro	-9.93115
▁Mu	-9.93137
ologist	-9.93169
▁address	-9.93262
▁okay	-9.93262
▁shot	-9.93287
ilia	-9.93305
▁listening	-9.93322
▁Ju	-9.93405
▁link	-9.93432
▁factor	-9.93434
▁Indian	-9.93517
▁tiqui	-9.93556
▁shown	-9.9358
ek	-9.93668
▁including	-9.93721
▁studies	-9.93721
▁worse	-9.93721
▁anywhere	-9.9373
▁floor	-9.93747
log	-9.9381
▁Ri	-9.93952
▁Th	-9.94123
▁communities	-9.94181
▁enormous	-9.94181
▁trade	-9.94189
▁himself	-9.94193
▁upon	-9.94228
form	-9.94297
▁fight	-9.94323
Ca	-9.944
ochi	-9.94413
auh	-9.94454
▁larger	-9.94498
▁9	-9.9458
▁Ar	-9.94609
▁urban	-9.94644
ctli	-9.94665
tel	-9.94748
▁Calli	-9.94789
▁zero	-9.94824
catzin	-9.94872
▁standing	-9.94899
▁cla	-9.94918
▁achieve	-9.95074
▁niqui	-9.95092
▁truly	-9.9511
▁instance	-9.95111
▁serve	-9.95158
▁artist	-9.95259
▁individuals	-9.95348
my	-9.95384
▁current	-9.95415
▁yeah	-9.95421
sum	-9.95435
▁climb	-9.95577
▁television	-9.95577
▁reduce	-9.9558
motla	-9.95658
▁environmental	-9.95684
▁math	-9.95687
▁conditions	-9.9582
▁ichan	-9.95846
▁ship	-9.95928
▁except	-9.95946
ging	-9.95957
▁range	-9.95993
▁pieces	-9.96005
▁crisis	-9.96046
▁sequence	-9.96046
▁trick	-9.96089
▁physics	-9.96154
▁require	-9.96165
her	-9.9635
notza	-9.96409
ium	-9.9643
▁patterns	-9.96479
ft	-9.96486
▁choose	-9.96518
▁international	-9.96518
▁respect	-9.96518
▁yxquich	-9.96518
▁policy	-9.96518
ration	-9.9652
▁Mars	-9.96522
▁dangerous	-9.96525
▁extra	-9.9654
▁town	-9.96566
▁rey	-9.96592
van	-9.96648
pping	-9.96685
ztli	-9.96836
▁ju	-9.96848
dor	-9.96868
lij	-9.96983
▁expensive	-9.96992
▁fantastic	-9.96992
▁glass	-9.96992
▁fat	-9.9713
▁Mon	-9.9714
▁kept	-9.97476
▁multi	-9.97521
▁ual	-9.97554
▁buildings	-9.97612
▁kilo	-9.97825
ged	-9.9794
▁trouble	-9.97947
▁Those	-9.97947
board	-9.9795
▁Tenochtitlan	-9.97971
air	-9.98027
▁bone	-9.98098
▁forms	-9.98138
▁training	-9.98376
▁win	-9.98386
▁influence	-9.98427
▁Another	-9.98427
▁protein	-9.98428
▁etc	-9.98477
han	-9.98482
▁models	-9.9849
ltia	-9.98496
▁nauh	-9.98496
▁Asia	-9.98497
▁limit	-9.98599
▁Col	-9.98671
cahuili	-9.98688
ito	-9.98735
ute	-9.98828
ned	-9.98859
▁genome	-9.98911
▁heat	-9.98918
▁hair	-9.98953
▁gu	-9.98956
▁cold	-9.98998
▁drugs	-9.99017
▁90	-9.99057
▁mochihua	-9.99127
▁¡	-9.99224
uch	-9.99327
▁instrument	-9.99396
▁earlier	-9.99396
▁usually	-9.99397
▁blog	-9.99422
▁Tochtli	-9.99426
▁wide	-9.99453
▁saj	-9.99461
▁cultural	-9.99476
▁teaching	-9.99494
▁wave	-9.99522
pie	-9.99732
huil	-9.99743
▁sorts	-9.99824
ntin	-9.99841
▁ciudad	-9.99884
▁collect	-9.99953
▁anyway	-9.99975
▁ke	-10.0003
▁onech	-10.0007
▁His	-10.001
▁cap	-10.0013
▁organization	-10.0016
▁forest	-10.0033
teuhctli	-10.0037
▁conference	-10.0037
▁daughter	-10.0037
▁effort	-10.0037
▁tlahtoque	-10.0037
▁blind	-10.0037
▁unique	-10.0037
▁remind	-10.0038
▁electricity	-10.0039
▁spot	-10.004
▁Like	-10.004
▁web	-10.0048
gram	-10.0058
▁photo	-10.0067
ug	-10.0072
▁actual	-10.0074
▁Are	-10.0101
▁greater	-10.0102
aqui	-10.0108
▁complete	-10.0121
▁skills	-10.0122
▁tea	-10.0124
▁forth	-10.0128
▁xmo	-10.0131
▁virus	-10.0136
▁reflect	-10.0136
▁significant	-10.0136
▁separate	-10.0136
▁freedom	-10.0136
▁therefore	-10.0136
▁rain	-10.0137
tiaj	-10.0138
▁healthy	-10.0157
maquixti	-10.0161
▁minds	-10.0168
▁Ipan	-10.0179
▁fund	-10.0183
▁Bar	-10.0184
▁familiar	-10.0186
▁anymore	-10.0186
▁intla	-10.0192
▁yehuatzin	-10.0195
▁uel	-10.0199
▁corner	-10.0199
tlah	-10.02
▁24	-10.0203
▁creativity	-10.0205
▁legs	-10.0217
ltin	-10.0222
ley	-10.0222
dia	-10.0223
▁ytech	-10.0232
copa	-10.0234
▁robots	-10.0236
▁surprising	-10.0236
▁document	-10.0236
▁contain	-10.0236
inomachtijcahuan	-10.0239
▁Zan	-10.0243
▁decisions	-10.0244
own	-10.0245
▁invented	-10.0253
ía	-10.0258
uaj	-10.0268
▁race	-10.0287
▁humanity	-10.0314
▁Pi	-10.0315
huicac	-10.0317
uel	-10.0317
▁final	-10.0321
50	-10.0336
▁muscle	-10.0337
▁drink	-10.0337
▁motenehua	-10.0337
tlalli	-10.0343
▁allows	-10.0345
huic	-10.0347
▁mental	-10.0347
▁brains	-10.0348
▁waste	-10.0349
▁emotional	-10.0355
▁machines	-10.0359
▁sat	-10.0359
▁walked	-10.0363
▁aquin	-10.037
iqui	-10.0383
▁private	-10.0387
▁brother	-10.0387
▁testigo	-10.0387
▁worry	-10.0387
▁bus	-10.0391
▁earth	-10.0392
▁vote	-10.0393
▁lu	-10.0393
▁income	-10.0394
▁solutions	-10.0426
illi	-10.0432
Ijcon	-10.0437
▁threat	-10.0438
▁remarkable	-10.0438
▁roll	-10.0439
▁Ijcon	-10.044
▁points	-10.0447
▁iuan	-10.0455
▁opeu	-10.0461
▁organ	-10.0473
▁balance	-10.049
▁civilization	-10.049
▁immediately	-10.0494
▁ci	-10.0498
huacan	-10.0512
▁niquin	-10.0513
▁scan	-10.0514
▁Paul	-10.0521
▁violence	-10.0551
▁Her	-10.0552
▁performance	-10.056
▁Web	-10.0568
▁trans	-10.0581
▁Fa	-10.0582
nahui	-10.0593
Nejhua	-10.0593
▁notion	-10.0596
▁player	-10.0597
▁active	-10.06
▁que	-10.0603
▁following	-10.0603
squiaj	-10.061
▁flying	-10.0615
calaqui	-10.0621
▁specific	-10.0623
▁Ru	-10.0645
▁respond	-10.0645
▁financial	-10.0645
▁mistake	-10.0645
▁sihuatl	-10.0646
▁nemilistli	-10.0647
▁fray	-10.0649
▁term	-10.0659
▁hueyican	-10.0662
cuep	-10.0662
▁evolved	-10.0663
▁describe	-10.0665
our	-10.0686
▁camp	-10.0689
▁improve	-10.0695
▁babies	-10.0698
▁various	-10.0698
▁vehicle	-10.0698
▁Second	-10.0698
▁Israel	-10.0698
▁emerge	-10.0698
▁adapt	-10.0698
▁biological	-10.0698
▁summer	-10.0698
▁itlanahuatil	-10.0704
▁ticchihua	-10.0705
tlatol	-10.0709
tlalia	-10.072
▁aid	-10.0721
▁xiuitl	-10.0723
▁clearly	-10.0727
atzin	-10.073
pohualli	-10.0744
▁Western	-10.075
entertainment	-10.0751
sequimej	-10.0753
hueli	-10.0756
▁throughout	-10.076
▁catch	-10.0766
▁decide	-10.0768
▁quitemaca	-10.0769
▁quito	-10.077
cayo	-10.0777
▁cual	-10.0781
▁equal	-10.0787
▁seat	-10.0791
mix	-10.0799
▁landscape	-10.0803
▁Two	-10.0803
▁Wi	-10.0803
▁driving	-10.0804
▁xhueli	-10.0807
ably	-10.0807
▁massive	-10.0809
▁sing	-10.0816
life	-10.082
▁raise	-10.0821
▁fold	-10.0829
notz	-10.0836
▁miqui	-10.0839
▁layer	-10.0842
▁dynamic	-10.0856
▁surgery	-10.0856
▁omochiuh	-10.0859
▁decade	-10.0861
▁cue	-10.0866
car	-10.0873
▁jobs	-10.088
loque	-10.0883
í	-10.0892
oa	-10.0896
▁hualmo	-10.0909
▁disappear	-10.091
▁totecuiyo	-10.091
▁expert	-10.091
▁pressure	-10.091
▁generate	-10.0911
▁becoming	-10.0911
cul	-10.0911
▁funny	-10.0912
▁unit	-10.0918
▁engineering	-10.0942
callaqui	-10.0943
jo	-10.0945
▁circle	-10.0963
▁tremendous	-10.0963
▁tissue	-10.0964
▁police	-10.0964
▁University	-10.0964
▁ytla	-10.0965
ó	-10.0967
cuilo	-10.0969
▁boat	-10.0977
▁City	-10.099
huiyan	-10.0998
▁pen	-10.1001
xic	-10.1003
▁fl	-10.1003
▁quick	-10.101
▁Afghanistan	-10.1018
▁random	-10.1018
▁production	-10.1025
▁net	-10.1041
▁tlal	-10.1046
hand	-10.1047
▁politics	-10.1049
nacayo	-10.1063
tlajtol	-10.1066
▁birth	-10.1071
▁accident	-10.1072
▁understood	-10.1072
temaquixtilistli	-10.1072
cahuan	-10.109
▁cor	-10.1095
▁trip	-10.1099
cle	-10.1121
▁Americans	-10.1121
vis	-10.1121
▁London	-10.1127
▁include	-10.1127
▁visurrey	-10.1127
▁double	-10.1127
pilli	-10.1133
▁passion	-10.1137
▁neurons	-10.1138
▁500	-10.1141
▁tlacua	-10.115
▁paint	-10.1156
masqui	-10.1164
▁weight	-10.1165
▁waiting	-10.1178
▁brand	-10.1183
▁edge	-10.1183
▁values	-10.1193
▁anti	-10.1208
▁sad	-10.1209
tijquej	-10.121
▁semi	-10.1214
quij	-10.1224
pit	-10.1233
▁Richard	-10.1237
▁families	-10.1237
▁saving	-10.1238
uhqui	-10.1246
▁taman	-10.1254
pres	-10.1255
▁leg	-10.1261
▁oyaj	-10.1269
▁prove	-10.1274
▁xochi	-10.1279
▁Aman	-10.128
▁career	-10.1285
uil	-10.1286
▁terrible	-10.1292
▁central	-10.1292
▁National	-10.1292
▁atmosphere	-10.1292
▁bridge	-10.1293
▁complexity	-10.1299
▁radio	-10.1299
▁lines	-10.1303
▁sold	-10.1329
▁Xi	-10.1329
stitution	-10.1344
▁although	-10.1348
▁airplane	-10.1348
▁bodies	-10.1348
▁Huehue	-10.1348
▁straight	-10.135
nia	-10.135
how	-10.1359
ula	-10.1363
huij	-10.1365
▁useful	-10.1366
▁consumer	-10.1368
▁70	-10.1373
▁teo	-10.1386
▁intelligence	-10.1404
▁oxygen	-10.1404
▁blow	-10.1406
▁flight	-10.1409
▁xquen	-10.141
How	-10.1411
▁partner	-10.1412
quez	-10.1416
▁nonequi	-10.1417
▁wire	-10.1419
▁inspired	-10.142
▁apart	-10.1437
▁mid	-10.1443
▁engine	-10.1444
▁Your	-10.1445
▁Un	-10.1448
off	-10.1453
▁carry	-10.1456
cuica	-10.1459
▁Middle	-10.1461
▁demand	-10.1461
Dios	-10.1466
▁cases	-10.1469
head	-10.1476
▁none	-10.1496
iuh	-10.1503
▁possibly	-10.1518
▁Iraq	-10.1518
▁article	-10.1518
▁rid	-10.1518
▁profound	-10.1518
▁male	-10.152
fer	-10.1527
▁El	-10.1533
▁interview	-10.1533
▁match	-10.1533
▁fail	-10.1544
▁tri	-10.156
▁forces	-10.1562
tihui	-10.1567
▁effective	-10.1572
▁Imagine	-10.1575
▁tlajtlacojli	-10.1575
▁sister	-10.1578
▁focused	-10.1591
▁oquichiu	-10.1598
▁greatest	-10.1604
bb	-10.1609
▁obvious	-10.1616
huaque	-10.1617
▁weren	-10.1626
▁release	-10.1632
▁memory	-10.1632
▁forget	-10.1634
Why	-10.1638
▁lie	-10.164
let	-10.1656
▁Hi	-10.1662
▁played	-10.1663
▁tepetl	-10.1668
▁closer	-10.1668
hcuac	-10.1682
▁talks	-10.1688
▁destroy	-10.169
▁president	-10.169
▁cycle	-10.169
▁technique	-10.169
▁bottle	-10.169
▁symbol	-10.169
▁yancuic	-10.169
▁drawing	-10.1694
▁boys	-10.1708
yaca	-10.1726
yc	-10.173
war	-10.1733
▁express	-10.1738
pohualxihuitl	-10.1743
▁civil	-10.1748
▁argue	-10.1748
▁commercial	-10.1748
▁popular	-10.1748
▁supply	-10.1748
▁method	-10.1748
yauh	-10.1748
huaya	-10.1752
▁mark	-10.1762
▁station	-10.1763
▁plane	-10.1765
ima	-10.1769
ef	-10.1787
▁tlatla	-10.179
▁types	-10.1794
▁br	-10.1801
▁Sanct	-10.1807
▁damage	-10.1807
▁laugh	-10.1807
▁wealth	-10.1808
▁bear	-10.181
▁pack	-10.1822
tlaco	-10.1829
▁apply	-10.183
▁En	-10.1832
▁produced	-10.1837
▁nahui	-10.1842
▁graph	-10.1843
▁beat	-10.1846
▁inin	-10.1852
▁organisms	-10.1853
ase	-10.1854
▁ahead	-10.1856
▁determine	-10.1866
▁distance	-10.1866
▁sample	-10.1866
▁bought	-10.1866
yec	-10.1868
▁nemiya	-10.1868
▁willing	-10.1872
▁directly	-10.1878
▁Za	-10.1886
▁gene	-10.1898
▁Ke	-10.1905
▁designers	-10.191
▁omotla	-10.1912
▁speaking	-10.1915
▁loved	-10.1924
▁neighbor	-10.1924
▁switch	-10.1925
▁Moisés	-10.1925
▁nemechijlia	-10.1925
▁Ya	-10.1926
▁xitlaj	-10.1926
ih	-10.1927
▁nel	-10.1934
▁sick	-10.1934
▁ypampa	-10.1936
▁Yhuan	-10.1936
cuepa	-10.1938
jticaj	-10.1944
▁seconds	-10.1945
▁motor	-10.1965
tik	-10.1971
▁nemij	-10.1972
▁causes	-10.1977
▁aware	-10.1984
▁España	-10.1984
▁breast	-10.1984
▁failure	-10.1984
▁sector	-10.1984
▁expand	-10.1984
▁occe	-10.2009
yoan	-10.2019
▁below	-10.2023
len	-10.2036
tisquej	-10.204
▁component	-10.2044
▁continent	-10.2044
▁justicia	-10.2044
▁teopixque	-10.2044
▁Arab	-10.2045
▁Life	-10.2046
tlatla	-10.2049
term	-10.2051
▁omic	-10.2053
bin	-10.2054
▁Dan	-10.2056
▁spin	-10.2058
▁park	-10.2072
ampa	-10.2083
▁costs	-10.2098
▁architect	-10.2104
▁communicate	-10.2104
▁feature	-10.2104
▁twice	-10.2104
▁capacity	-10.2104
▁kitoka	-10.2104
▁tumor	-10.2104
▁yeyi	-10.2106
▁Ph	-10.2107
▁Today	-10.2108
▁Bi	-10.2111
▁matlac	-10.2111
tlajtlacolmaca	-10.2121
nahuac	-10.2133
cia	-10.2142
ham	-10.2154
▁engineer	-10.2157
▁Sp	-10.2159
▁eating	-10.2161
▁recent	-10.2163
▁fashion	-10.2165
▁belief	-10.2165
▁momiquilli	-10.2165
20	-10.2165
▁basis	-10.2165
▁creatures	-10.2166
▁paid	-10.2174
▁levels	-10.22
bar	-10.2214
▁artists	-10.2215
▁author	-10.2223
▁mayor	-10.2223
▁Jerusalén	-10.2226
▁honest	-10.2226
▁mobile	-10.2226
▁From	-10.2226
▁desire	-10.2226
▁gain	-10.2226
▁poll	-10.2227
▁replace	-10.223
ihua	-10.2231
tema	-10.2232
▁ear	-10.2234
tlalij	-10.2236
▁10,000	-10.2237
▁reward	-10.2237
▁attract	-10.2246
huel	-10.2258
ik	-10.2264
pohua	-10.2268
▁molecules	-10.227
▁California	-10.2287
▁female	-10.2287
▁Think	-10.2287
▁sensor	-10.2287
▁neighborhood	-10.2288
▁bread	-10.2288
▁pop	-10.229
meter	-10.2293
lotl	-10.2306
▁cihua	-10.2311
room	-10.2313
▁loss	-10.2314
pla	-10.2316
tepec	-10.2322
▁ika	-10.2323
tzacu	-10.2325
▁hualla	-10.2327
▁tito	-10.233
▁nepa	-10.2344
▁tlalticpac	-10.2346
▁Antonio	-10.2349
▁argument	-10.2349
▁crime	-10.2349
▁nohuian	-10.2349
▁chair	-10.2352
▁yuhqui	-10.2354
▁hearing	-10.2354
▁nino	-10.2368
▁era	-10.2372
mar	-10.2373
▁tinemi	-10.2374
▁dad	-10.2381
▁mostly	-10.2383
ick	-10.2394
▁quipiaya	-10.2401
▁Abraham	-10.2411
▁target	-10.2411
▁fu	-10.2411
▁sustainable	-10.2413
toquej	-10.2415
▁tetl	-10.2417
▁Fe	-10.2426
▁pig	-10.2429
▁Ex	-10.244
▁shared	-10.2441
rio	-10.2445
▁azo	-10.2456
iving	-10.2457
lique	-10.2469
▁xe	-10.247
▁scientist	-10.2471
▁infrastructure	-10.2474
▁root	-10.2474
▁vast	-10.2474
du	-10.2479
▁ohual	-10.248
▁professional	-10.2484
▁mess	-10.2486
▁labor	-10.2489
▁mission	-10.2501
▁ja	-10.2503
stan	-10.2505
ification	-10.2505
▁quote	-10.2511
▁moon	-10.2515
▁total	-10.252
ept	-10.253
▁doctors	-10.2535
tlac	-10.2535
▁metaphor	-10.2536
▁Muslim	-10.2536
▁Yectlajcuilojli	-10.2536
▁imagination	-10.2536
▁shoot	-10.2536
▁ancient	-10.2537
▁yellow	-10.2537
▁operation	-10.2538
▁experiments	-10.2542
tlauh	-10.2548
▁broken	-10.255
▁secan	-10.2568
▁nochihua	-10.2586
mama	-10.2587
▁spirit	-10.2598
▁occur	-10.26
▁miyequej	-10.26
▁xqueman	-10.26
▁divide	-10.26
▁shock	-10.26
▁tough	-10.2607
▁Quauh	-10.2607
yoj	-10.2613
pin	-10.2619
▁challenges	-10.2622
calti	-10.2635
▁gotten	-10.264
rin	-10.2643
▁300	-10.2649
▁event	-10.266
▁elements	-10.2661
yaxca	-10.2663
▁aspect	-10.2663
▁attempt	-10.2663
▁definition	-10.2663
▁responsibility	-10.2663
▁restaurant	-10.2663
▁slightly	-10.2663
▁gather	-10.2664
▁Nigeria	-10.2664
▁sentence	-10.2665
▁institutions	-10.2668
▁choices	-10.267
dding	-10.2682
▁burn	-10.2692
▁Har	-10.2693
It	-10.2707
ney	-10.271
▁coffee	-10.2728
▁Axcan	-10.2728
▁chichimeca	-10.2728
tsin	-10.2728
▁nicchihua	-10.2734
▁Yo	-10.2738
▁fo	-10.2754
▁quix	-10.2759
▁ocon	-10.2785
▁tradition	-10.2787
win	-10.2787
over	-10.2792
▁señor	-10.2792
▁email	-10.2792
▁worst	-10.2792
quixtili	-10.2792
▁huehuetque	-10.2793
▁collective	-10.2796
▁stem	-10.2797
▁hang	-10.2797
▁farmers	-10.2798
▁benefit	-10.28
tlanahuatil	-10.2801
▁nochihuas	-10.2804
▁workers	-10.2813
▁birds	-10.2817
uitl	-10.2822
▁Sun	-10.2835
▁possibility	-10.2857
tlalili	-10.286
polihui	-10.2864
▁industrial	-10.2866
▁Am	-10.2871
▁interaction	-10.2876
ake	-10.2877
▁wood	-10.2884
right	-10.29
▁disc	-10.2904
▁quichihuaj	-10.2912
lco	-10.2913
▁prison	-10.2913
▁espíritu	-10.2922
▁whale	-10.2922
▁Again	-10.2922
▁mouth	-10.2923
▁classroom	-10.2923
▁noise	-10.2924
nanquili	-10.2924
▁seemed	-10.2927
▁fan	-10.2928
▁prop	-10.2929
▁Mochiu	-10.293
▁Good	-10.2931
▁laws	-10.2932
health	-10.2936
▁fairly	-10.2937
chix	-10.2942
pehua	-10.2952
▁chichi	-10.2969
tecpan	-10.2972
▁island	-10.2985
▁necessarily	-10.2988
▁sharing	-10.2988
▁consciousness	-10.299
▁investment	-10.2994
▁Mc	-10.2994
▁españoles	-10.2997
▁published	-10.301
▁ski	-10.302
ilhui	-10.3021
▁tomin	-10.3024
pic	-10.3024
▁devices	-10.3034
▁Au	-10.3043
▁tein	-10.3046
▁noticed	-10.3049
▁cloud	-10.3054
▁competition	-10.3054
▁religious	-10.3054
▁horse	-10.3054
piltzin	-10.3056
aging	-10.3063
▁AIDS	-10.3069
▁coral	-10.3074
▁oquitlalij	-10.3079
▁xon	-10.3082
▁arts	-10.3091
▁sand	-10.3092
▁Many	-10.3097
ily	-10.3108
titlani	-10.3112
▁achtopa	-10.3116
▁afford	-10.3118
next	-10.312
▁copy	-10.3121
▁societies	-10.3121
▁smell	-10.3121
tlamantli	-10.3123
▁missing	-10.3124
▁services	-10.3125
ltzin	-10.3126
tlamachilis	-10.3134
▁CO	-10.3142
▁Bill	-10.3143
uj	-10.3152
▁cook	-10.3154
▁motlalli	-10.3179
▁helped	-10.3181
conehuan	-10.3182
▁degrees	-10.3188
▁advantage	-10.3188
▁diversity	-10.3188
▁contact	-10.3188
▁capture	-10.3189
▁calaqui	-10.3191
▁background	-10.3192
pacho	-10.3196
▁cur	-10.3199
toton	-10.3204
▁states	-10.3207
▁xquin	-10.322
dimensional	-10.3236
▁studying	-10.3249
ero	-10.3251
▁Instead	-10.3256
▁majtlactli	-10.3256
▁negative	-10.3256
▁xcuajcualtin	-10.3256
▁onochiu	-10.3256
▁joy	-10.3256
▁remove	-10.3256
▁display	-10.3257
▁maj	-10.3257
▁campaign	-10.3259
▁stopped	-10.3259
▁grand	-10.3259
▁rare	-10.3259
▁Ge	-10.326
▁metal	-10.3265
yoc	-10.3273
▁diseases	-10.3276
▁lack	-10.3276
chijchiu	-10.3283
▁warm	-10.3284
▁virtual	-10.3308
án	-10.3313
sentlali	-10.3321
▁easily	-10.3324
▁traffic	-10.3324
▁yencuic	-10.3324
▁scene	-10.3324
▁giant	-10.3324
▁María	-10.3325
▁trend	-10.3325
▁oquite	-10.3328
▁—	-10.333
▁flower	-10.3337
lani	-10.3342
▁streets	-10.3347
▁governments	-10.3351
▁gun	-10.3359
▁molecule	-10.336
▁macuil	-10.3361
tiliz	-10.3366
▁achi	-10.3377
tenco	-10.3382
▁museum	-10.3392
▁option	-10.3392
▁river	-10.3392
mate	-10.34
▁particles	-10.3402
▁stream	-10.3409
tlacaita	-10.3412
eu	-10.3414
aving	-10.3416
▁host	-10.3417
▁helping	-10.343
▁xoqui	-10.343
▁hate	-10.3438
queh	-10.3446
▁effects	-10.3451
▁correct	-10.3461
▁magazine	-10.3461
▁newspaper	-10.3461
▁passed	-10.3462
▁Kualtia	-10.3463
pul	-10.3477
▁sum	-10.3485
grad	-10.3498
▁See	-10.3506
▁rat	-10.3506
▁More	-10.3517
▁Wal	-10.3524
bul	-10.3529
▁brilliant	-10.3531
▁collapse	-10.3531
▁addition	-10.3531
huetz	-10.3532
▁citizens	-10.3532
nantzin	-10.3534
▁Japan	-10.3544
pati	-10.3553
▁huejca	-10.3557
▁moch	-10.3558
▁Mr	-10.3562
▁condition	-10.3574
pped	-10.3576
▁tail	-10.3589
illa	-10.36
	-10.3601
▁encourage	-10.3601
▁monkey	-10.3601
▁extend	-10.3601
▁promise	-10.3601
ear	-10.3605
based	-10.3614
▁tlahtocat	-10.3618
zqui	-10.3618
▁electric	-10.3619
▁curve	-10.362
▁breath	-10.3639
▁spending	-10.364
▁networks	-10.364
▁bird	-10.3644
nna	-10.3659
▁yca	-10.3666
ú	-10.3671
▁alternative	-10.3671
▁remote	-10.3672
▁technical	-10.3672
▁coast	-10.3673
▁gap	-10.3676
▁tiquin	-10.3684
▁achtoj	-10.3685
▁forever	-10.3693
▁holding	-10.3698
▁Han	-10.3705
▁Yehua	-10.3706
huaz	-10.3711
▁Che	-10.3712
▁coco	-10.3726
cel	-10.373
▁colleagues	-10.3731
▁decades	-10.3736
▁application	-10.3742
▁strength	-10.3742
▁desert	-10.3742
▁oyajquej	-10.3747
▁itlajtol	-10.3755
ox	-10.3756
▁fully	-10.3764
▁nitla	-10.3775
▁Ynic	-10.3776
ku	-10.3778
▁sorry	-10.3778
▁grade	-10.3784
cti	-10.3793
▁Pe	-10.3793
▁fair	-10.3801
nemilis	-10.3804
▁fascinating	-10.3813
▁speech	-10.3813
▁Great	-10.3813
hca	-10.3817
▁string	-10.3817
30	-10.3819
▁programs	-10.3828
▁Big	-10.3831
▁figured	-10.3836
▁tu	-10.3846
▁engage	-10.3846
▁highly	-10.3859
state	-10.3875
▁puzzle	-10.3885
▁cartoon	-10.3885
▁reveal	-10.3886
▁tocnihuan	-10.3886
▁repeat	-10.3887
▁signal	-10.3887
▁kampa	-10.3887
▁dollar	-10.3888
▁election	-10.3892
▁Very	-10.3895
▁oquim	-10.3899
▁crowd	-10.3902
▁flat	-10.3914
▁markets	-10.3921
Tajtzin	-10.3938
uff	-10.3939
mitl	-10.394
▁legal	-10.3943
itl	-10.3958
▁opportunities	-10.3958
▁penguin	-10.3958
▁universal	-10.3958
▁creation	-10.3958
▁roof	-10.3958
▁recover	-10.3959
▁clip	-10.3959
▁independent	-10.3959
▁novel	-10.3959
▁nimantzin	-10.396
▁1,000	-10.3961
▁enable	-10.3971
▁oquijlijquej	-10.3971
▁Take	-10.3975
quich	-10.3975
▁Ijcuacon	-10.398
lam	-10.3982
▁emotions	-10.3987
▁organic	-10.3994
▁fill	-10.4
▁suit	-10.4004
▁adult	-10.4007
teu	-10.4014
tlahtol	-10.4024
▁tax	-10.4029
▁ecosystem	-10.4031
▁tiopixquej	-10.4031
▁avoid	-10.4031
▁adopt	-10.4031
▁chicahuac	-10.4032
▁Cor	-10.4037
gh	-10.4039
▁yzqui	-10.404
▁profit	-10.4049
zqueh	-10.4053
▁lay	-10.4058
▁turning	-10.4065
lijquej	-10.4066
Tlen	-10.4073
▁related	-10.4075
udi	-10.4099
tlacamati	-10.4102
▁Darwin	-10.4104
▁French	-10.4104
▁crash	-10.4104
▁xic	-10.4106
▁radical	-10.4106
▁harm	-10.4107
▁caught	-10.411
gar	-10.4121
▁mouse	-10.4122
▁spec	-10.4131
▁slowly	-10.4139
oni	-10.4143
▁Ben	-10.4153
▁motion	-10.4162
çi	-10.4169
▁benefits	-10.4169
▁meat	-10.4174
▁broad	-10.4178
▁Culhuacan	-10.4178
▁husband	-10.4178
▁vaccine	-10.4178
▁wisdom	-10.4178
▁honor	-10.4178
▁odd	-10.4182
▁electronic	-10.4182
gel	-10.4183
▁differently	-10.4189
▁insight	-10.419
▁nehuatl	-10.4194
▁north	-10.4195
▁designer	-10.4197
▁huehue	-10.4214
▁hero	-10.4226
▁galaxies	-10.4253
▁dying	-10.4254
▁sugar	-10.4254
▁translate	-10.4254
▁izqui	-10.4263
▁theater	-10.4267
▁iron	-10.4275
▁writer	-10.4277
loz	-10.428
matquej	-10.4289
▁warming	-10.4294
▁events	-10.4296
xico	-10.4303
▁pet	-10.4307
▁cada	-10.4307
nahuatia	-10.4308
▁extreme	-10.4312
▁sudden	-10.4312
mani	-10.4319
▁Ko	-10.4321
▁Sal	-10.4321
▁35	-10.4323
▁intelligent	-10.4328
▁versus	-10.4328
▁location	-10.4328
▁British	-10.4329
▁unlike	-10.4334
▁driver	-10.4337
▁chicome	-10.4341
▁expression	-10.4342
▁engineers	-10.4351
ounce	-10.4353
▁invention	-10.4361
tatzin	-10.4366
▁statistics	-10.437
hu	-10.4381
uia	-10.4382
▁circuit	-10.4404
▁diablo	-10.4404
▁graduate	-10.4404
▁stuck	-10.4404
▁Sometimes	-10.4404
▁Everybody	-10.4404
▁conduct	-10.4407
▁Ah	-10.441
cuili	-10.4412
▁title	-10.4425
popo	-10.4428
This	-10.4428
petla	-10.4456
▁400	-10.4458
▁origin	-10.4459
▁cow	-10.4461
▁teopan	-10.4465
▁demo	-10.447
▁150	-10.447
▁leading	-10.4475
gging	-10.4476
ough	-10.4477
bor	-10.448
▁Actually	-10.448
▁Einstein	-10.448
▁algorithm	-10.448
▁phenomenon	-10.448
▁pleasure	-10.448
▁garden	-10.448
▁lunch	-10.448
▁governador	-10.448
▁smile	-10.4481
▁insects	-10.4484
▁reaction	-10.4492
patla	-10.4493
▁date	-10.4506
▁barco	-10.4509
vin	-10.4516
▁finish	-10.4526
▁opened	-10.4527
95	-10.4528
iga	-10.4528
read	-10.4533
▁cry	-10.4545
▁coal	-10.4546
▁Any	-10.4552
▁afraid	-10.4557
▁budget	-10.4557
▁laptop	-10.4557
▁previous	-10.4557
▁bright	-10.456
▁acico	-10.456
▁umpa	-10.456
▁efficient	-10.4573
▁Oc	-10.4577
oso	-10.4577
▁Did	-10.4586
▁surprise	-10.4599
▁quima	-10.4617
▁weapons	-10.4623
yohui	-10.4632
▁Charles	-10.4635
▁Washington	-10.4635
▁artificial	-10.4635
▁equivalent	-10.4635
▁perception	-10.4635
▁satellite	-10.4635
▁crack	-10.4635
▁gift	-10.4635
▁ride	-10.4635
▁debate	-10.4635
▁oquitla	-10.4639
▁weird	-10.4639
hnozo	-10.464
tract	-10.4651
liaya	-10.4657
namic	-10.4661
tecatl	-10.4664
▁suffering	-10.4666
▁Ana	-10.4667
▁nearly	-10.4668
poli	-10.4673
▁pages	-10.4677
▁yehua	-10.4686
ological	-10.4694
▁trained	-10.4695
▁entirely	-10.4696
▁core	-10.4699
▁principle	-10.471
▁grandmother	-10.4713
▁opposite	-10.4713
▁practical	-10.4713
▁struggle	-10.4713
▁foreign	-10.4713
▁interface	-10.4713
▁planning	-10.4716
▁capable	-10.4718
oyotica	-10.4719
▁lucky	-10.4724
▁chain	-10.4734
▁party	-10.4737
▁stone	-10.4741
▁taste	-10.4741
▁importantly	-10.4753
▁direct	-10.4755
▁iuhqui	-10.4775
point	-10.4779
▁oquito	-10.4782
▁escribano	-10.4792
▁galaxy	-10.4792
▁necessary	-10.4792
▁omomiquilli	-10.4792
▁victim	-10.4792
▁opinion	-10.4792
▁MIT	-10.4792
▁degree	-10.4792
▁fresh	-10.4792
▁childhood	-10.4793
▁grab	-10.4796
▁everyday	-10.4802
▁chica	-10.481
▁shoes	-10.4812
znequi	-10.4816
▁concerned	-10.4817
▁discovery	-10.4823
▁row	-10.4834
tzitzin	-10.4836
arian	-10.4851
CA	-10.4853
▁members	-10.4854
▁detect	-10.4854
▁Islam	-10.487
▁easier	-10.4871
▁error	-10.4871
▁tlacpac	-10.4871
▁prefer	-10.4873
▁outcome	-10.4875
▁transformation	-10.4878
scale	-10.4881
▁hunt	-10.4884
iv	-10.4893
▁pin	-10.4903
huilli	-10.4903
▁ring	-10.4906
loni	-10.4907
▁foundation	-10.4916
tican	-10.493
▁construct	-10.4945
¿	-10.4947
▁faith	-10.4951
▁identity	-10.4951
▁pueblo	-10.4951
▁claim	-10.4951
▁Kenya	-10.4951
▁chart	-10.4958
▁drag	-10.4958
▁dimensions	-10.4959
▁European	-10.4967
▁icuac	-10.4967
▁myth	-10.4968
▁tag	-10.4975
¡	-10.4977
▁Santa	-10.4982
iliz	-10.4986
▁organizations	-10.4986
▁chanti	-10.4994
▁master	-10.5004
▁Nic	-10.5011
chil	-10.5013
▁fighting	-10.5014
xayac	-10.5019
tepe	-10.503
▁estimate	-10.5032
▁platform	-10.5032
▁responsible	-10.5032
▁truck	-10.5032
▁Cruz	-10.5032
▁tequitl	-10.5033
▁Amaquemecan	-10.5033
▁shop	-10.5038
▁leads	-10.5042
▁grown	-10.5045
If	-10.5047
▁clinical	-10.5048
▁meters	-10.5053
▁highest	-10.5055
▁chil	-10.5063
▁finished	-10.5064
water	-10.507
▁justice	-10.5075
▁Have	-10.5078
mark	-10.5085
cuic	-10.5085
▁español	-10.5102
▁Nochi	-10.5105
▁graphic	-10.5108
▁achto	-10.511
▁malaria	-10.5113
▁stress	-10.5113
▁operating	-10.5115
▁bag	-10.5117
▁sexual	-10.5117
▁Art	-10.5121
rie	-10.5124
▁Over	-10.5128
▁Yejhuamej	-10.5137
▁adults	-10.514
lum	-10.5141
▁perfectly	-10.5154
▁impan	-10.5159
▁deeply	-10.5168
calco	-10.5168
▁compared	-10.5169
olo	-10.5169
▁pill	-10.5174
hoan	-10.5175
▁quiet	-10.5183
▁Audience	-10.5195
▁George	-10.5195
▁Hernandez	-10.5195
▁demonstrate	-10.5195
▁mathematics	-10.5195
▁studied	-10.5195
▁dinner	-10.5195
▁regular	-10.5195
▁xacaj	-10.5195
▁mochintin	-10.5196
▁multiple	-10.5196
▁unfortunately	-10.5199
▁wearing	-10.52
▁majority	-10.5203
▁Qua	-10.5204
▁ultimately	-10.5207
▁pair	-10.521
▁cuauh	-10.5212
▁hell	-10.5234
▁load	-10.5237
▁failed	-10.524
▁hall	-10.5246
▁ical	-10.5249
▁oquichiuh	-10.5261
▁typical	-10.5261
tlalnacayo	-10.5275
▁Joseph	-10.5278
▁bubble	-10.5278
▁distribution	-10.5278
▁tomorrow	-10.5278
▁vessel	-10.5278
▁chicken	-10.5278
▁silk	-10.5278
▁oración	-10.5278
▁round	-10.5278
▁oncatca	-10.5278
▁dress	-10.5278
tlatqui	-10.5279
nime	-10.528
▁Times	-10.5287
▁dias	-10.5296
▁Sancto	-10.5299
▁160	-10.5302
▁operate	-10.5302
Hey	-10.5309
power	-10.5309
▁photos	-10.531
▁Once	-10.532
nen	-10.5338
▁Du	-10.5356
nonotza	-10.5356
▁swim	-10.5361
▁intellectual	-10.5361
▁equation	-10.5361
▁leaving	-10.5362
▁Anyway	-10.5362
llique	-10.5364
▁iteyo	-10.537
▁cast	-10.5381
▁resource	-10.5385
ualtia	-10.5387
▁nemiyaj	-10.5391
▁Nor	-10.5394
▁quisa	-10.5396
▁quech	-10.5406
euh	-10.541
▁classic	-10.5422
uhtli	-10.5426
cneli	-10.5427
choca	-10.5434
▁discuss	-10.5436
machtij	-10.5444
Aman	-10.5445
▁agriculture	-10.5445
▁hueyixticaj	-10.5445
▁survival	-10.5445
▁xhebreos	-10.5445
▁channel	-10.5445
▁disaster	-10.5445
▁losing	-10.5449
▁contract	-10.5449
▁Island	-10.5455
▁ticpia	-10.5458
▁rev	-10.546
▁oquitac	-10.546
▁dive	-10.5461
bit	-10.5465
place	-10.5475
▁seriously	-10.5482
teneuh	-10.5489
▁define	-10.5494
▁auto	-10.5502
berg	-10.5503
▁quauh	-10.5512
▁toward	-10.5524
▁nelli	-10.5527
▁99	-10.5529
▁Michael	-10.553
▁Thomas	-10.553
▁mirror	-10.553
▁quiniento	-10.553
▁stupid	-10.553
▁worried	-10.553
tzajtzi	-10.553
▁exchange	-10.553
▁chemistry	-10.5531
▁curious	-10.5531
▁weather	-10.5531
▁hopefully	-10.5531
▁lift	-10.5533
▁discussion	-10.5539
pr	-10.5541
▁poem	-10.5542
▁dinosaurs	-10.5545
▁harder	-10.5545
▁ninemi	-10.5549
▁tlaco	-10.5559
▁wa	-10.5559
▁counter	-10.5563
▁factory	-10.5563
▁believed	-10.5565
▁skill	-10.5571
late	-10.5574
▁quiz	-10.5587
malli	-10.5592
▁compare	-10.5602
bro	-10.5605
tlahuel	-10.5609
80	-10.5614
▁despite	-10.5615
▁professor	-10.5615
▁click	-10.5615
▁prior	-10.5615
▁pounds	-10.5615
▁aocmo	-10.5616
pper	-10.5623
▁tite	-10.5624
▁held	-10.5648
▁conscious	-10.5648
tilli	-10.5648
▁xne	-10.5649
yah	-10.565
▁ants	-10.5656
▁normally	-10.5659
vision	-10.5663
lau	-10.5672
▁described	-10.5674
▁electrical	-10.5675
now	-10.569
▁treated	-10.5698
▁Pakistan	-10.5701
▁arçobispo	-10.5701
▁exercise	-10.5701
▁nervous	-10.5701
▁politician	-10.5701
▁succeed	-10.5701
▁surgeon	-10.5701
▁nurse	-10.5701
▁Nejhua	-10.5702
▁corruption	-10.5703
▁attach	-10.5703
▁followed	-10.5703
▁niquitohua	-10.5703
▁principles	-10.5704
▁proud	-10.5707
60	-10.5708
well	-10.5709
▁chip	-10.5714
motlahtocatlalli	-10.5725
▁manage	-10.573
▁oquima	-10.5733
range	-10.5738
▁tlama	-10.5752
He	-10.5754
▁Does	-10.5755
▁raised	-10.576
▁xni	-10.576
▁actor	-10.5764
▁ideal	-10.5778
▁closed	-10.5778
▁frame	-10.5788
▁Brazil	-10.5788
▁marriage	-10.5788
▁volunteer	-10.5788
▁yesterday	-10.5788
▁empower	-10.5788
▁joke	-10.5788
▁mechanism	-10.5788
▁oyuh	-10.5789
▁dozen	-10.5789
▁tribe	-10.5791
▁2,000	-10.5792
▁peak	-10.5793
▁logic	-10.5794
▁desk	-10.5795
▁construction	-10.5795
▁band	-10.5795
▁nan	-10.5796
rob	-10.5802
▁bull	-10.5807
▁neuro	-10.581
▁ka	-10.5811
▁signals	-10.5823
▁managed	-10.5824
▁designing	-10.5825
▁soldiers	-10.5834
▁involve	-10.584
▁Ten	-10.5842
▁launch	-10.5845
▁fourth	-10.5847
▁tape	-10.5867
▁fell	-10.5876
▁ancestor	-10.5876
▁border	-10.5876
▁incentive	-10.5876
▁hydrogen	-10.5877
▁fellow	-10.5877
tocayotia	-10.5878
▁awful	-10.5878
▁quimaca	-10.5882
▁Luis	-10.5883
▁nicmati	-10.5885
▁icon	-10.5887
▁constantly	-10.5887
▁Would	-10.589
▁presentation	-10.5894
ball	-10.5897
▁invited	-10.5897
media	-10.59
▁noTajtzin	-10.5901
cihua	-10.5903
▁Tu	-10.5915
▁ilhuitl	-10.5917
hood	-10.5931
xochi	-10.5931
▁folks	-10.595
bur	-10.595
▁weak	-10.5956
▁south	-10.5958
▁Facebook	-10.5964
▁property	-10.5964
▁invisible	-10.5964
▁ordinary	-10.5964
▁monitor	-10.5965
▁rural	-10.5965
▁battle	-10.5965
▁gang	-10.5965
▁45	-10.5965
▁plate	-10.5967
▁solid	-10.5968
▁tlaneltocaquej	-10.5968
▁rap	-10.5968
▁pray	-10.5969
▁evolutionary	-10.5969
▁otherwise	-10.5969
▁grid	-10.5971
▁zone	-10.5973
ngu	-10.5974
▁wine	-10.5974
▁bill	-10.5986
▁soil	-10.5988
▁mentioned	-10.5993
uac	-10.5997
▁nose	-10.6005
▁mode	-10.6011
▁tepe	-10.6014
▁quil	-10.6023
Yes	-10.6027
▁clinic	-10.6035
▁quinmo	-10.6039
uaya	-10.604
▁chicue	-10.6041
▁consequences	-10.6043
▁Angeles	-10.6054
▁contribute	-10.6054
▁economist	-10.6054
▁battery	-10.6054
▁Street	-10.6054
▁medium	-10.6054
▁Chalco	-10.6055
▁Anderson	-10.6055
▁sport	-10.6058
▁hurt	-10.6058
ivity	-10.606
▁reform	-10.6064
▁tube	-10.6066
laca	-10.6075
▁Iran	-10.6084
▁Bra	-10.6088
▁invent	-10.6096
▁suffer	-10.6108
tzontec	-10.6121
▁scar	-10.6133
▁dig	-10.6133
▁select	-10.614
▁Domingo	-10.6144
▁NASA	-10.6144
▁empty	-10.6144
▁Everything	-10.6144
▁sphere	-10.6144
▁lung	-10.6146
tene	-10.6147
▁queman	-10.6152
▁reef	-10.6153
▁comment	-10.6153
▁miec	-10.6155
▁director	-10.6155
quauh	-10.6157
tzatzi	-10.6169
mol	-10.617
politics	-10.6183
▁inner	-10.6184
ohuaya	-10.6187
hin	-10.6189
tlapal	-10.6191
Can	-10.6193
flu	-10.6196
illo	-10.621
▁Ome	-10.6212
▁spoke	-10.6213
▁dealing	-10.622
nehua	-10.6228
▁Chichimeca	-10.6235
▁spectrum	-10.6235
▁sweet	-10.6235
▁married	-10.6235
▁Three	-10.6235
▁tap	-10.6235
▁quihto	-10.6236
▁1608	-10.6237
▁pump	-10.6239
▁opening	-10.6239
fish	-10.6245
▁icome	-10.6249
▁tlajli	-10.6267
liztica	-10.6273
▁parent	-10.6288
▁introduce	-10.6291
tequitquetl	-10.6292
▁keeping	-10.631
▁businesses	-10.6312
▁leader	-10.6315
▁huajlas	-10.6318
melahua	-10.6322
▁employ	-10.6326
▁abril	-10.6327
▁according	-10.6327
▁epidemic	-10.6327
▁strategy	-10.6327
▁fossil	-10.6327
▁ignore	-10.6327
▁Japanese	-10.6327
▁convert	-10.6328
▁monequiz	-10.6333
▁cognitive	-10.6334
▁However	-10.6334
▁roughly	-10.6336
▁assume	-10.6339
▁sharks	-10.6341
▁initial	-10.6346
▁arrived	-10.6347
▁lifetime	-10.6347
▁orbit	-10.6348
▁aging	-10.6362
▁due	-10.6374
▁tequiti	-10.6376
▁chane	-10.6378
tiayaj	-10.639
pacti	-10.6391
▁essential	-10.6403
▁tlami	-10.6407
▁Ci	-10.6409
▁School	-10.6419
▁emerging	-10.6419
▁explanation	-10.6419
▁hidden	-10.6419
▁mathematical	-10.6419
▁possibilities	-10.6419
▁temachtijli	-10.6419
▁spider	-10.6419
storytelling	-10.6419
▁quineltoca	-10.642
char	-10.6427
▁lady	-10.6428
▁100,000	-10.6431
law	-10.6433
▁emotion	-10.6441
▁23	-10.6457
chiua	-10.6485
▁tlahtocati	-10.6489
▁absolute	-10.6496
Que	-10.6507
▁equipment	-10.6513
▁narrative	-10.6513
▁filter	-10.6513
▁worldwide	-10.6513
▁evil	-10.6513
▁admit	-10.6513
▁país	-10.6513
▁passionate	-10.6516
▁quenin	-10.6524
▁aquinon	-10.6526
namicti	-10.6529
▁setting	-10.6533
▁pehua	-10.6539
tlamati	-10.654
▁yuhquin	-10.6547
▁van	-10.6547
▁dry	-10.6554
▁nano	-10.656
house	-10.6561
yotzin	-10.6567
▁xochitl	-10.6568
▁ilhui	-10.6572
chichi	-10.6578
tail	-10.6583
▁paying	-10.6584
huallo	-10.659
▁optim	-10.6606
▁diet	-10.6607
▁England	-10.6607
▁Twitter	-10.6607
▁Wikipedia	-10.6607
▁abstract	-10.6607
▁disorder	-10.6607
▁studio	-10.6607
▁pocket	-10.6607
▁hyper	-10.6607
▁grain	-10.6607
▁zo	-10.6618
▁wheel	-10.662
macuilli	-10.6621
▁quicua	-10.6622
▁acid	-10.6625
▁bra	-10.6637
▁ilhuicactequit	-10.6648
▁motlalia	-10.6649
▁dots	-10.665
tlama	-10.6665
▁quitlali	-10.667
▁consume	-10.6671
▁publish	-10.6671
back	-10.6675
▁whi	-10.6675
graph	-10.6683
▁relative	-10.6686
▁xnech	-10.6692
▁heavy	-10.6702
▁client	-10.6702
▁steel	-10.6702
▁liquid	-10.6702
▁command	-10.6702
▁ojtli	-10.6702
▁juez	-10.6703
▁chalca	-10.6704
▁existence	-10.6706
▁extract	-10.6707
▁react	-10.6708
▁nicnequi	-10.6709
▁nima	-10.6712
▁picked	-10.6713
▁carefully	-10.6715
▁omech	-10.6721
▁script	-10.6723
▁Their	-10.6723
That	-10.6746
▁surround	-10.6767
uatl	-10.6774
enta	-10.6779
▁huitz	-10.6785
Do	-10.6787
▁processes	-10.6792
▁Institute	-10.6798
▁conclusion	-10.6798
▁physicist	-10.6798
▁establish	-10.6798
▁kilometers	-10.6798
▁James	-10.6799
▁daily	-10.68
▁Oqui	-10.6802
print	-10.6803
▁shut	-10.6804
▁otiqui	-10.6807
▁ijtic	-10.681
rous	-10.6822
▁nozo	-10.6831
▁launched	-10.6833
Yej	-10.6842
ltic	-10.6843
Nemejhuamej	-10.6843
▁omoteneuhque	-10.6849
▁melt	-10.6853
▁advance	-10.686
▁concern	-10.6864
▁mayo	-10.6867
▁May	-10.6868
▁broke	-10.6874
▁opera	-10.6877
▁mention	-10.6878
▁killing	-10.6893
▁Australia	-10.6895
▁Xuarez	-10.6895
▁combination	-10.6895
▁identify	-10.6895
▁mortality	-10.6895
▁producing	-10.6895
▁university	-10.6895
▁maintain	-10.6895
▁sculpture	-10.6895
▁teenage	-10.6895
▁Robert	-10.6896
▁oquitlajtoltij	-10.6896
▁feedback	-10.6896
▁reference	-10.6896
▁rational	-10.6897
▁imixpan	-10.69
98	-10.6902
▁urge	-10.6903
▁refer	-10.6906
▁poder	-10.6909
▁musician	-10.691
▁miac	-10.691
Te	-10.6911
down	-10.6913
▁saved	-10.6914
▁22	-10.6917
chipahua	-10.6918
▁unless	-10.6918
▁testing	-10.6921
▁currently	-10.6929
Ijquin	-10.693
?¿	-10.6931
▁introduced	-10.6933
▁caxtol	-10.6952
▁relate	-10.6965
▁celebrate	-10.6976
▁soul	-10.698
▁molecul	-10.6982
▁covered	-10.6984
osphere	-10.6993
▁ingredient	-10.6993
▁stood	-10.6993
▁perceive	-10.6993
▁regard	-10.6993
▁decline	-10.6994
▁talent	-10.6994
▁teeth	-10.6994
▁split	-10.6994
▁Korea	-10.6999
▁27	-10.7
▁leadership	-10.7003
yoti	-10.7013
hop	-10.7032
▁input	-10.7034
▁filled	-10.7036
▁TEDx	-10.7037
▁King	-10.704
▁geo	-10.7042
Quen	-10.7044
▁topic	-10.7045
yehua	-10.7046
PA	-10.7064
▁buying	-10.7067
▁xno	-10.7071
▁quintla	-10.7073
ung	-10.7077
▁quino	-10.7092
▁Pacific	-10.7092
▁encounter	-10.7092
▁volume	-10.7092
▁balloon	-10.7092
▁computing	-10.7092
▁Frank	-10.7093
▁emissions	-10.7093
▁fiber	-10.7093
▁Bank	-10.7096
▁wake	-10.7098
▁season	-10.7099
▁appropriate	-10.7102
▁boom	-10.7103
▁associated	-10.7103
▁suck	-10.7103
▁protection	-10.7106
▁Other	-10.7107
▁belong	-10.7116
social	-10.7141
▁soft	-10.7149
▁75	-10.715
▁limited	-10.7157
▁shark	-10.7177
put	-10.7191
▁gravity	-10.7192
▁importance	-10.7192
▁inspiration	-10.7192
▁prototype	-10.7192
▁underneath	-10.7192
▁valuable	-10.7192
▁oquitaquej	-10.7192
▁Christian	-10.7193
▁buck	-10.7193
▁lawyer	-10.7193
▁entertainment	-10.7193
▁primary	-10.7193
▁cequintin	-10.7193
▁radiation	-10.7196
▁spring	-10.7197
▁rocket	-10.72
▁cutting	-10.7204
▁Come	-10.7217
▁mile	-10.7219
education	-10.7241
[	-10.7241
▁Rob	-10.7244
pixque	-10.7247
▁nohuan	-10.7283
part	-10.7284
▁Bur	-10.7289
▁Harvard	-10.7293
▁appreciate	-10.7293
▁tlamandarohua	-10.7293
▁monamaca	-10.7293
▁official	-10.7293
▁credit	-10.7293
▁score	-10.7294
▁III	-10.7295
▁guide	-10.7295
▁quiselia	-10.7295
▁specifically	-10.7296
▁cuix	-10.7297
▁reverse	-10.7299
▁earn	-10.7303
▁shall	-10.7303
▁solved	-10.7304
▁tie	-10.7306
▁flip	-10.7311
▁quichi	-10.7314
hqueh	-10.7316
tron	-10.7317
▁effectively	-10.7322
15	-10.7326
▁icce	-10.7341
ppa	-10.7342
▁prediction	-10.7343
tizque	-10.7345
rai	-10.7347
ceppa	-10.7347
new	-10.735
▁evolve	-10.736
▁singing	-10.7364
▁Tlacatl	-10.7371
xiuhtzin	-10.7372
▁considered	-10.7373
quilli	-10.7381
tzitzintin	-10.7395
▁Green	-10.7395
▁definitely	-10.7395
▁Britain	-10.7395
▁infinite	-10.7396
▁status	-10.7396
▁limb	-10.7396
gger	-10.7396
▁Prize	-10.7396
▁nerve	-10.7397
▁court	-10.7398
▁omitz	-10.7398
▁alien	-10.7399
▁loud	-10.74
▁safety	-10.7401
▁saquin	-10.7402
▁rapidly	-10.7404
pitza	-10.7411
▁increasingly	-10.7411
▁viruses	-10.7417
▁kick	-10.7423
▁organized	-10.7427
11	-10.7435
source	-10.7441
▁ximo	-10.7442
load	-10.7444
foot	-10.7446
matica	-10.7448
▁shoulder	-10.7452
gged	-10.7455
▁convince	-10.7463
▁nentla	-10.7474
uak	-10.7475
die	-10.7477
▁selling	-10.7493
▁Gi	-10.7497
▁YouTube	-10.7499
▁escrivano	-10.7499
▁variety	-10.7499
▁yolsehuilistli	-10.7499
▁accurate	-10.7499
▁quarter	-10.7499
▁clever	-10.7499
▁branch	-10.7499
▁drill	-10.7499
▁firm	-10.7499
▁intzajlan	-10.7499
▁strip	-10.7502
▁―¡	-10.7502
▁teconeu	-10.7502
Wow	-10.7503
▁tank	-10.7504
tzontli	-10.7507
ography	-10.7509
▁Pri	-10.7516
noço	-10.7524
▁nest	-10.7525
▁tlamach	-10.7527
▁hip	-10.7529
phy	-10.7536
cular	-10.7536
view	-10.7544
ken	-10.7552
Mo	-10.7569
ador	-10.7579
▁pure	-10.7586
▁marketing	-10.7592
▁creature	-10.7601
▁driven	-10.7602
▁depression	-10.7603
▁distinct	-10.7603
▁Women	-10.7603
▁itlamian	-10.7603
▁facing	-10.7603
▁Center	-10.7603
ibility	-10.7603
▁rescue	-10.7604
▁itequiu	-10.7605
encia	-10.7606
▁winter	-10.7609
▁dios	-10.7613
▁sending	-10.7613
▁king	-10.7628
▁collaboration	-10.7631
tok	-10.7649
▁mone	-10.7655
Look	-10.7659
lloque	-10.7662
making	-10.7695
▁Red	-10.7707
▁relation	-10.7707
▁President	-10.7708
▁consumption	-10.7708
▁Science	-10.7708
▁telescope	-10.7708
▁stock	-10.7708
▁plot	-10.7709
▁zoom	-10.7709
12	-10.7714
▁critic	-10.7715
▁ihtic	-10.7716
human	-10.7725
▁statement	-10.7728
uthern	-10.7731
tinen	-10.7749
macehual	-10.7751
▁handle	-10.7757
ticpac	-10.776
▁generally	-10.7761
business	-10.7762
▁cooking	-10.7765
▁tall	-10.7771
cuecue	-10.7783
▁Boy	-10.7783
▁Tlaco	-10.7788
atory	-10.7794
▁personally	-10.7798
▁button	-10.78
▁Act	-10.7804
▁comfort	-10.7811
▁computation	-10.7814
▁observation	-10.7814
▁paradigm	-10.7814
▁participate	-10.7814
▁motlalilia	-10.7814
▁transmit	-10.7815
▁vent	-10.7817
▁element	-10.7818
tlahtocauh	-10.7819
▁loop	-10.7821
▁Last	-10.7826
tlica	-10.7827
▁hotel	-10.7827
▁label	-10.7829
▁yohua	-10.7831
▁relatively	-10.7832
oid	-10.7837
94	-10.7838
▁received	-10.7848
▁tip	-10.7858
ilican	-10.7867
half	-10.787
▁customer	-10.7873
▁teu	-10.7876
▁Sch	-10.7876
cuahuitl	-10.788
▁suppose	-10.7886
▁quipiaj	-10.789
ción	-10.7892
▁increasing	-10.7906
verse	-10.7912
▁arch	-10.7912
▁tehuan	-10.792
▁pulled	-10.792
rise	-10.7921
▁analysis	-10.7922
▁kitchen	-10.7922
▁length	-10.7922
▁xchihuacan	-10.7922
▁trillion	-10.7922
▁style	-10.7922
▁ocachi	-10.7922
▁Xoco	-10.7923
▁tinech	-10.7924
▁1960	-10.7925
▁hualehua	-10.7927
▁dense	-10.793
▁crop	-10.793
▁mono	-10.793
▁Jack	-10.7936
▁Ab	-10.7937
▁infected	-10.7942
▁exploration	-10.7943
del	-10.7944
▁Gold	-10.7944
▁quinhual	-10.7949
▁gold	-10.7957
▁journalist	-10.796
▁26	-10.7964
caxtolli	-10.7968
▁forced	-10.7978
tories	-10.7983
▁wondering	-10.8014
▁added	-10.8023
titech	-10.8029
▁1990	-10.8031
▁embrace	-10.8031
▁telephone	-10.8031
yectenehua	-10.8031
▁employees	-10.8031
▁framework	-10.8031
▁propose	-10.8032
tlajtlacolhuan	-10.8034
▁quimicti	-10.8035
▁ought	-10.8038
▁rot	-10.8039
▁instant	-10.8041
▁expected	-10.8044
▁iconehuan	-10.8044
▁Human	-10.8046
juak	-10.8066
pix	-10.8067
▁convinced	-10.8068
▁XI	-10.8071
▁comic	-10.8076
▁xtla	-10.8079
▁surprised	-10.8081
calac	-10.8085
engineer	-10.8088
▁deeper	-10.8088
▁ychan	-10.8095
book	-10.81
▁affected	-10.8116
loya	-10.8116
▁beach	-10.8129
▁danger	-10.8139
▁circumstance	-10.8141
▁destruction	-10.8141
▁privilege	-10.8141
▁survey	-10.8141
▁symptom	-10.8141
▁technological	-10.8141
▁cortex	-10.8141
▁grass	-10.8141
Tlica	-10.8141
▁doubt	-10.8141
▁spiritual	-10.8144
▁clock	-10.8144
▁hueyilistli	-10.8145
▁wrap	-10.8149
▁omemej	-10.8151
htic	-10.8156
▁prepared	-10.8157
▁ticmati	-10.8157
▁quimon	-10.8164
▁State	-10.817
▁Tim	-10.8182
▁angle	-10.8189
q	-10.8197
music	-10.82
▁historical	-10.8205
▁AB	-10.8205
▁upper	-10.8225
huetzi	-10.8229
▁Steve	-10.823
xoxo	-10.8237
tlapacho	-10.8242
kak	-10.8246
▁harvest	-10.8252
▁mosquito	-10.8252
▁inyojlo	-10.8252
▁swimming	-10.8252
▁occurred	-10.8252
▁predator	-10.8252
▁polio	-10.8252
▁biologist	-10.8253
▁analog	-10.8254
▁snow	-10.8254
▁internal	-10.8254
▁comfortable	-10.8255
▁selection	-10.8257
▁lens	-10.8258
grade	-10.8258
▁illusion	-10.8263
▁musical	-10.8263
xima	-10.8273
paneca	-10.8274
▁watched	-10.8274
▁exception	-10.8275
erial	-10.8279
▁researchers	-10.8282
duct	-10.8295
huehue	-10.8296
▁behavioral	-10.8298
▁kite	-10.8306
▁acting	-10.831
▁Nemejhuamej	-10.8312
▁cable	-10.8322
▁Air	-10.8336
▁cup	-10.8337
▁German	-10.8346
play	-10.8347
▁Tom	-10.8357
▁breathe	-10.8357
▁dish	-10.8359
▁fabric	-10.8364
▁library	-10.8364
▁magestad	-10.8364
▁transplant	-10.8364
▁unusual	-10.8364
▁variation	-10.8364
▁Gulf	-10.8364
▁calculate	-10.8364
▁transition	-10.8364
▁educate	-10.8364
▁birthday	-10.8365
▁atoms	-10.8369
▁review	-10.837
▁cuica	-10.8371
rick	-10.8372
▁inamic	-10.8379
ohuac	-10.838
▁quiza	-10.8384
▁xipan	-10.8387
nepantla	-10.8389
▁member	-10.8389
▁quitohua	-10.8389
▁organism	-10.8391
▁nicpia	-10.8399
▁habit	-10.8407
tontli	-10.8419
▁bike	-10.8419
▁matlactli	-10.8421
Okay	-10.8425
▁carrying	-10.8437
▁bath	-10.8439
▁receive	-10.8442
lalcahui	-10.8461
▁ultimate	-10.8461
▁Cal	-10.8463
▁sustain	-10.8474
▁quicui	-10.8475
pilo	-10.8476
>	-10.8478
▁Project	-10.8478
▁September	-10.8478
▁assumption	-10.8478
▁democratic	-10.8478
<	-10.8478
▁domingo	-10.8478
▁visible	-10.8478
▁section	-10.8478
tlajpalo	-10.8478
▁padre	-10.8479
▁apóstoles	-10.8479
▁oquiselij	-10.8483
▁2008	-10.8485
▁traveling	-10.8486
▁robotic	-10.8487
▁typically	-10.85
▁cure	-10.8501
▁32	-10.8502
▁psychology	-10.851
▁Five	-10.8522
rich	-10.8526
gie	-10.8531
▁falling	-10.8532
Yeah	-10.854
tlazo	-10.8545
▁uncan	-10.856
▁fewer	-10.8562
nemilia	-10.8574
cuauh	-10.8587
▁favor	-10.8592
▁GDP	-10.8593
▁adventure	-10.8593
▁cemilhuitl	-10.8593
▁church	-10.8593
▁correspond	-10.8593
▁pollution	-10.8593
▁properties	-10.8593
▁tiotlajtojquej	-10.8593
▁therapy	-10.8593
▁iyojlo	-10.8593
▁temachtijquej	-10.8593
▁instruction	-10.8593
▁Basically	-10.8593
▁gentlemen	-10.8593
▁intense	-10.8593
xpantzinco	-10.8594
▁flash	-10.8595
▁characteristic	-10.8595
▁commitment	-10.8595
▁pitch	-10.8597
▁hoping	-10.8597
▁boring	-10.8598
▁controlled	-10.8599
yecana	-10.86
▁3,000	-10.86
▁bug	-10.8605
matztoquej	-10.8633
▁advanced	-10.8635
lhuia	-10.8647
matlactli	-10.8657
Z	-10.8657
omb	-10.8658
▁194	-10.866
ulation	-10.8681
▁tepan	-10.8684
▁naturally	-10.8688
▁Mark	-10.8691
▁thin	-10.8705
▁tlaneltoca	-10.8707
▁efficiency	-10.8709
▁integrate	-10.8709
▁stretch	-10.8709
▁Canada	-10.8709
▁asteroid	-10.8709
▁Could	-10.8709
▁Bush	-10.8709
▁shame	-10.8709
▁tleyn	-10.8709
lticpactlacamej	-10.8709
▁wireless	-10.8712
▁5,000	-10.8713
▁cheat	-10.8716
▁poetry	-10.8727
▁pilot	-10.8728
fusion	-10.8737
▁nocon	-10.8755
terior	-10.8761
▁height	-10.877
▁apple	-10.8771
medicine	-10.8774
▁compar	-10.8799
▁pile	-10.8806
ín	-10.8811
ague	-10.8816
▁collaborat	-10.8818
▁transport	-10.8823
tlajtlacol	-10.8824
▁Sea	-10.8825
▁activities	-10.8826
▁lecture	-10.8826
▁relevant	-10.8826
▁sophisticated	-10.8826
▁tiotlajtojquetl	-10.8826
▁sancto	-10.8827
▁behave	-10.8827
▁parallel	-10.8827
▁yece	-10.8829
▁exhibition	-10.883
▁severe	-10.8831
▁productive	-10.8838
tlahuelita	-10.884
under	-10.8874
maker	-10.8885
cayotl	-10.892
▁sheet	-10.8922
▁icniu	-10.8929
chilli	-10.8943
▁fortunate	-10.8946
▁monamaka	-10.8946
▁observe	-10.8946
▁phenomena	-10.8946
▁vegetable	-10.8946
▁Chicago	-10.8946
▁animation	-10.8946
xoxotoni	-10.8946
▁repair	-10.8946
▁applied	-10.8946
▁steal	-10.8946
▁komo	-10.8946
▁spill	-10.8946
▁piano	-10.8946
▁presence	-10.8946
▁activat	-10.8946
▁sesek	-10.8946
▁teotlac	-10.8946
icnihuan	-10.8947
▁dropped	-10.8948
▁confront	-10.8948
▁chanejquej	-10.8951
▁infection	-10.8956
▁pollen	-10.8957
▁ejemplo	-10.8957
▁2000	-10.8963
▁philosophy	-10.8963
▁kuouit	-10.8964
▁panel	-10.8966
ppy	-10.8968
▁Law	-10.897
Cuix	-10.8977
▁65	-10.898
▁nenquin	-10.8995
▁statistic	-10.8999
ridge	-10.9006
▁unca	-10.9007
mission	-10.9011
third	-10.9014
bble	-10.9024
fully	-10.903
▁ticte	-10.9033
▁fishing	-10.9034
polohua	-10.9037
▁protected	-10.9052
▁impress	-10.9058
▁huejhueyi	-10.9066
resolution	-10.9066
▁mathematician	-10.9066
▁nemoyojlo	-10.9066
▁vulnerable	-10.9066
▁deploy	-10.9066
▁witness	-10.9066
▁xonacatl	-10.9066
▁fruit	-10.9066
▁flies	-10.9069
nny	-10.907
▁xnen	-10.907
▁Four	-10.9073
ihqui	-10.9078
▁oquijtojquej	-10.9082
TE	-10.9084
▁nohuica	-10.9084
▁hide	-10.9087
▁Will	-10.9089
▁poster	-10.9093
tiaz	-10.9101
xochitl	-10.9103
▁busy	-10.9109
▁explained	-10.9112
▁defined	-10.9117
▁Pol	-10.9121
▁cente	-10.913
peuh	-10.9142
▁combine	-10.9152
▁former	-10.9162
mauhti	-10.9168
▁Day	-10.9168
▁younger	-10.9175
▁exact	-10.9177
▁Congress	-10.9188
▁TEDTalk	-10.9188
▁advice	-10.9188
▁continuous	-10.9188
▁revenue	-10.9188
▁sihuamej	-10.9188
▁diagram	-10.9188
▁regime	-10.9188
▁ipoder	-10.9188
tlajtlanilia	-10.9188
▁afternoon	-10.9188
▁prize	-10.9188
▁session	-10.9188
▁transfer	-10.9189
▁unknown	-10.9189
Tejhua	-10.919
▁management	-10.9193
▁tuna	-10.9195
▁sight	-10.9195
▁clothes	-10.9197
action	-10.9199
▁quitlacamati	-10.92
▁onenqui	-10.9203
▁Tlaca	-10.9204
▁iconeu	-10.9221
▁Mor	-10.9221
▁xte	-10.9224
▁percentage	-10.9235
▁fundamentally	-10.9236
▁poet	-10.924
▁corn	-10.9248
teyacan	-10.9262
▁onkak	-10.9266
▁habitat	-10.9266
▁Bang	-10.9274
▁constant	-10.9295
▁luck	-10.9302
10	-10.9307
▁dramatic	-10.931
kuouj	-10.9311
▁dancing	-10.9311
▁iPhone	-10.9311
▁ritual	-10.9311
▁unexpected	-10.9311
▁accomplish	-10.9311
▁courage	-10.9311
▁heaven	-10.9311
▁plug	-10.9311
▁implement	-10.9311
matzticaj	-10.9311
▁France	-10.9311
▁phase	-10.9311
▁escape	-10.9311
▁thick	-10.9312
▁smoke	-10.9312
tzitzihuan	-10.9314
▁sunlight	-10.9314
▁golf	-10.9314
,500	-10.9318
▁nochihuiyan	-10.9318
▁Also	-10.9321
▁reached	-10.9323
▁continued	-10.9324
▁nennech	-10.9326
▁Germany	-10.9331
▁pour	-10.9361
▁nicmaca	-10.9366
▁nonamic	-10.9367
ticac	-10.9374
think	-10.9388
chie	-10.9396
bla	-10.9405
▁required	-10.9406
▁mimic	-10.9414
Ne	-10.9417
▁recorded	-10.9428
▁600	-10.9432
▁increased	-10.9433
tlanahnamic	-10.9436
▁Valley	-10.9436
▁analyze	-10.9436
▁Apple	-10.9436
mahuistili	-10.9437
▁yehica	-10.9437
▁footprint	-10.9437
▁trace	-10.9437
▁Nobody	-10.9438
▁staff	-10.9439
▁Since	-10.9439
nquichihuasquej	-10.9441
▁2007	-10.9444
▁compete	-10.9445
▁apartment	-10.9445
▁Union	-10.9445
▁recording	-10.9448
ught	-10.9448
conetl	-10.9449
tzacua	-10.9457
▁hora	-10.9468
▁craft	-10.9483
unclear	-10.9485
▁burning	-10.9508
wood	-10.951
dollar	-10.9511
world	-10.9511
conscious	-10.9511
xiuitl	-10.9516
▁Lab	-10.9517
▁wherever	-10.9522
long	-10.9524
▁Get	-10.9528
▁organize	-10.9531
self	-10.954
▁radi	-10.9541
▁liver	-10.9543
▁challenging	-10.9563
▁disgust	-10.9563
▁physician	-10.9563
▁pyramid	-10.9563
▁tlaxtlahuijli	-10.9563
▁violent	-10.9563
&	-10.9563
▁tlaquentli	-10.9563
▁mimiquej	-10.9563
▁license	-10.9563
▁Quenin	-10.9563
assemble	-10.9563
▁attitude	-10.9563
▁intention	-10.9563
▁implant	-10.9563
▁tlayohua	-10.9565
▁addict	-10.9568
▁awareness	-10.9568
▁fluid	-10.9569
▁fake	-10.957
▁gray	-10.9572
▁polar	-10.9573
▁marine	-10.9574
▁boxes	-10.96
▁quiselis	-10.9602
▁Hy	-10.9608
▁Gene	-10.9611
▁quijto	-10.9612
▁agent	-10.9614
▁sail	-10.9622
▁engaged	-10.9626
▁tzo	-10.9638
But	-10.9648
▁linked	-10.965
nauac	-10.9662
take	-10.9672
▁largely	-10.9683
To	-10.9685
▁centuries	-10.9691
▁chromosome	-10.9691
▁cojnepanojli	-10.9691
▁embarrass	-10.9691
▁innovative	-10.9691
▁manufacture	-10.9691
▁manufacturing	-10.9691
▁oninochiu	-10.9691
▁romantic	-10.9691
▁regret	-10.9691
▁reserve	-10.9691
▁Woman	-10.9691
Tlinon	-10.9691
▁depth	-10.9691
▁mihto	-10.9691
▁Park	-10.9692
▁retire	-10.9692
nanquilli	-10.9694
ixmati	-10.9697
▁White	-10.9702
▁meaningful	-10.9704
▁electron	-10.9706
puch	-10.9707
▁cents	-10.9707
▁Never	-10.9707
cahuilia	-10.9725
▁quinemilia	-10.9726
piaya	-10.9742
▁flag	-10.9747
ç	-10.9767
green	-10.977
▁Pan	-10.9776
▁wondered	-10.9785
▁weigh	-10.9801
▁closely	-10.9802
ijto	-10.9803
space	-10.9805
▁edit	-10.9819
)	-10.9821
▁absorb	-10.9821
▁column	-10.9821
▁conclude	-10.9821
▁exponential	-10.9821
▁motivate	-10.9821
▁orchestra	-10.9821
▁nomachtijquej	-10.9821
▁finance	-10.9821
▁plus	-10.9821
▁poison	-10.9821
▁Something	-10.9821
▁mammal	-10.9821
poajli	-10.9821
▁raw	-10.9822
▁patent	-10.9822
▁terrorism	-10.9822
paltzinco	-10.9826
▁somewhat	-10.9828
▁laser	-10.9831
▁DH	-10.9832
▁peuh	-10.9835
▁Bible	-10.9835
▁prisoner	-10.9839
▁iyo	-10.9841
▁collection	-10.9842
▁Ypan	-10.9863
▁Part	-10.9871
▁physically	-10.9892
▁army	-10.9918
▁brief	-10.9936
▁careful	-10.9951
▁Museum	-10.9953
▁bicycle	-10.9953
▁empathy	-10.9953
▁instinct	-10.9953
▁symmetry	-10.9953
▁tlajcuilolamatl	-10.9953
▁totecuyo	-10.9953
▁Christmas	-10.9953
▁Simón	-10.9953
▁clue	-10.9953
▁department	-10.9953
▁Obama	-10.9953
▁wound	-10.9953
▁enemy	-10.9953
▁vertical	-10.9953
▁Eastern	-10.9953
▁inject	-10.9953
▁underwater	-10.9956
▁centetl	-10.9957
▁mochihuaz	-10.9957
▁Haiti	-10.9958
▁quitqui	-10.9959
Sahara	-10.996
▁improvement	-10.9962
hour	-10.9965
▁poorest	-10.9968
techcopa	-10.9971
▁output	-10.9976
▁quinmaca	-10.9978
▁humor	-10.9986
▁painful	-10.9989
▁existing	-11.0007
▁milk	-11.0011
tlalpan	-11.0015
▁Hill	-11.0029
OK	-11.0047
face	-11.0058
▁tune	-11.0069
▁photographer	-11.0073
▁tlaxillacal	-11.0083
biodiversity	-11.0086
itzochiyahuizotl	-11.0086
▁academic	-11.0086
▁authentic	-11.0086
▁automatically	-11.0086
▁exploring	-11.0086
▁frankly	-11.0086
▁gesture	-11.0086
▁literature	-11.0086
▁simplicity	-11.0086
mpoalli	-11.0086
▁hook	-11.0086
▁Boston	-11.0086
▁tlatoque	-11.0087
▁mechanical	-11.0087
▁interactive	-11.0096
▁120	-11.01
▁itlalnacayo	-11.01
▁sensitive	-11.0103
▁chanej	-11.0104
▁cocone	-11.012
▁itlal	-11.0123
▁wise	-11.0129
▁coin	-11.0129
▁Ompa	-11.0137
▁par	-11.0144
▁however	-11.0146
▁xquipia	-11.0146
▁Q	-11.0154
class	-11.0172
▁quiual	-11.0176
84	-11.0183
▁elect	-11.0201
▁electro	-11.0205
▁cloth	-11.0211
zero	-11.0214
▁Felipe	-11.0221
▁Garcia	-11.0221
▁Microsoft	-11.0221
▁Philip	-11.0221
▁Rwanda	-11.0221
▁Unfortunately	-11.0221
▁chocolate	-11.0221
▁liberal	-11.0221
▁milagro	-11.0221
▁rhythm	-11.0221
▁solving	-11.0221
▁viernes	-11.0221
▁minister	-11.0221
▁narrow	-11.0221
▁nisiu	-11.0221
▁silence	-11.0221
▁hunger	-11.0221
▁preserve	-11.0221
▁teocuitla	-11.0221
▁ipatiuh	-11.0221
▁rush	-11.0221
nojnotza	-11.0221
▁tlajyohuilistli	-11.0221
▁mystery	-11.0221
▁Brown	-11.0222
▁overall	-11.0223
▁migrat	-11.0226
▁vital	-11.0226
▁salt	-11.0227
Teco	-11.0227
▁2005	-11.0228
tlacual	-11.0232
▁Pen	-11.0233
▁celebrat	-11.0245
▁Please	-11.0245
▁ohtli	-11.0246
▁yolqui	-11.0247
▁nemohuan	-11.0249
▁functional	-11.0255
▁quitta	-11.0257
▁monequi	-11.0271
40	-11.0272
▁notech	-11.0295
huejca	-11.031
▁transformed	-11.0315
catzintli	-11.033
▁Russia	-11.0336
▁govern	-11.0354
▁advertising	-11.0358
▁exploit	-11.0358
▁Sweden	-11.0358
▁Uganda	-11.0358
▁horizon	-11.0358
▁identical	-11.0358
▁pregnant	-11.0358
▁quantum	-11.0358
▁skull	-11.0358
▁Tenanco	-11.0358
▁defend	-11.0358
▁oniquitac	-11.0358
▁Ghana	-11.0358
▁deserve	-11.0358
▁cyber	-11.0358
▁cruz	-11.0358
▁false	-11.0358
▁judge	-11.0358
▁chest	-11.0359
▁quesqui	-11.036
▁Cuauh	-11.0361
▁Wil	-11.0361
caxitl	-11.0361
▁alter	-11.0363
▁Islamic	-11.0367
▁Nima	-11.0372
▁bend	-11.0379
digit	-11.0381
▁otli	-11.0384
▁tlapal	-11.0405
▁Six	-11.0415
▁formula	-11.0423
▁occequi	-11.0424
▁parking	-11.0443
creativity	-11.0445
cholo	-11.0457
▁funding	-11.046
▁inspire	-11.0462
volving	-11.0497
▁$1	-11.0497
▁Foundation	-11.0497
▁Perhaps	-11.0497
▁dolphin	-11.0497
▁elephant	-11.0497
▁genius	-11.0497
▁motivation	-11.0497
▁phrase	-11.0497
▁psychological	-11.0497
▁globe	-11.0497
▁nenquipiaj	-11.0497
▁knock	-11.0497
▁complain	-11.0497
▁Girl	-11.0497
▁flew	-11.0497
▁sweat	-11.0497
▁spell	-11.0497
▁productivity	-11.0498
▁aircraft	-11.0498
▁sauce	-11.0501
▁peer	-11.0502
▁Peter	-11.0503
poliuh	-11.0504
▁Abou	-11.0504
▁Paris	-11.0504
▁slum	-11.0504
▁cequi	-11.0506
92	-11.0512
▁Latin	-11.0518
▁aim	-11.0533
popolo	-11.0549
hzo	-11.0549
▁hill	-11.0562
▁Real	-11.0563
craft	-11.0585
mandaros	-11.0591
angle	-11.0591
▁Wall	-11.0613
▁Cohua	-11.0626
▁prim	-11.0635
▁gobernador	-11.0638
▁horrible	-11.0638
▁measuring	-11.0638
▁mushroom	-11.0638
▁suspect	-11.0638
▁club	-11.0638
▁nenquichihuaj	-11.0638
▁origami	-11.0638
▁smallpox	-11.0638
▁laboratory	-11.0638
▁28	-11.0639
▁breed	-11.064
▁honey	-11.064
▁Child	-11.064
▁leap	-11.0641
▁(	-11.0642
▁XIII	-11.0642
▁Mexica	-11.0643
▁Jacobo	-11.0646
tihuitz	-11.0647
▁stack	-11.0651
▁Next	-11.0654
pur	-11.0661
nacaz	-11.0666
▁tries	-11.0673
▁combined	-11.0679
▁mechmaca	-11.0686
▁stronger	-11.0692
ión	-11.07
▁potentially	-11.0702
▁itocatzin	-11.0703
▁breathing	-11.0711
tilique	-11.0714
▁mochipa	-11.0714
called	-11.0743
▁Huel	-11.0747
▁momati	-11.0771
▁flo	-11.0773
chihuilia	-11.0776
▁install	-11.0777
xiujyo	-11.0781
▁Galilea	-11.0781
▁Number	-11.0781
▁Xochiyoua	-11.0781
▁concentrate	-11.0781
▁confidence	-11.0781
▁distributed	-11.0781
▁economies	-11.0781
▁pandemic	-11.0781
▁portrait	-11.0781
▁psychologist	-11.0781
▁smooth	-11.0781
▁xochiyoua	-11.0781
▁Herodes	-11.0781
▁permanent	-11.0781
▁While	-11.0781
▁concert	-11.0781
▁strand	-11.0781
▁ladies	-11.0781
▁extent	-11.0781
▁ticket	-11.0781
▁trigger	-11.0781
▁sharp	-11.0781
▁resist	-11.0783
cihuatl	-11.0785
▁airport	-11.0786
▁ohuajlaj	-11.0787
▁authority	-11.0787
▁iujki	-11.0788
▁2004	-11.0788
▁educational	-11.0789
▁rip	-11.0794
▁Ver	-11.0794
▁magnetic	-11.0798
▁transportation	-11.0801
▁noihqui	-11.0805
▁tomines	-11.0806
cauhque	-11.0819
▁neuron	-11.0823
▁pace	-11.0829
▁promote	-11.0829
▁notlatol	-11.0837
▁Pole	-11.0843
surge	-11.0861
aries	-11.0872
▁collected	-11.0873
computer	-11.0873
loyan	-11.0878
▁quitoca	-11.0883
▁Hue	-11.089
▁dinosaur	-11.09
Don	-11.0901
▁explosion	-11.0926
▁grandfather	-11.0926
▁proportion	-11.0926
▁sandwich	-11.0926
▁scream	-11.0926
▁shadow	-11.0926
▁1970	-11.0926
▁Voice	-11.0926
▁astonishing	-11.0926
▁chapter	-11.0926
▁criminal	-11.0926
▁household	-11.0926
▁judgment	-11.0926
▁lifestyle	-11.0926
▁strike	-11.0926
▁Finally	-11.0926
▁gender	-11.0926
▁Grand	-11.0926
▁healthcare	-11.0926
▁ayemo	-11.0927
▁omito	-11.0929
▁xsan	-11.093
tequipacho	-11.093
▁Everyone	-11.0931
▁huajlau	-11.0933
quijyohui	-11.0938
▁headline	-11.0941
▁controlling	-11.0942
▁heroes	-11.0947
▁spoken	-11.096
▁Para	-11.0968
pixca	-11.0972
▁surrounded	-11.0973
pantli	-11.0974
87	-11.0982
▁custom	-11.0992
▁quijtohuaj	-11.0995
food	-11.102
▁particle	-11.1052
▁commit	-11.1064
▁recommend	-11.1073
▁sketch	-11.1073
▁9/11	-11.1073
▁embedded	-11.1073
▁furniture	-11.1073
▁obstacle	-11.1073
▁suicide	-11.1073
▁Before	-11.1073
▁Pilato	-11.1073
▁demographic	-11.1073
▁domestic	-11.1073
▁manifest	-11.1073
▁properly	-11.1073
▁posesion	-11.1073
▁tajtli	-11.1073
▁Augustín	-11.1073
▁carried	-11.1073
▁huei	-11.1073
ijti	-11.1073
▁Jim	-11.1073
▁General	-11.1073
▁copyright	-11.1073
▁causing	-11.1073
▁junio	-11.1074
▁tlacuajli	-11.1075
▁1980	-11.1077
▁guard	-11.1077
▁River	-11.1078
▁quijtohuayaj	-11.1081
▁miak	-11.1088
tlaocol	-11.109
▁inventor	-11.1092
▁Russian	-11.1096
▁floating	-11.11
▁classes	-11.1118
timani	-11.1132
▁reside	-11.1133
▁cajli	-11.1133
▁xtech	-11.115
Achto	-11.1158
ario	-11.1178
echajtitlan	-11.118
▁invite	-11.1188
▁rig	-11.1188
sky	-11.119
▁hydro	-11.1221
▁Antarctic	-11.1222
tlajtlajtohuili	-11.1222
▁Alzheimer	-11.1222
▁Ethiopia	-11.1222
▁alguacil	-11.1222
▁chimpanzee	-11.1222
▁conservative	-11.1222
▁corporate	-11.1222
▁dioxide	-11.1222
▁discipline	-11.1222
▁intuitive	-11.1222
▁opposed	-11.1222
▁plenty	-11.1222
▁procedure	-11.1222
▁spectacular	-11.1222
▁dignity	-11.1222
▁eliminat	-11.1222
▁inspiring	-11.1222
▁reject	-11.1222
▁translation	-11.1222
▁soldados	-11.1222
▁granted	-11.1222
▁tepitzin	-11.1222
▁Ocean	-11.1222
▁recipe	-11.1222
▁mutation	-11.1222
▁Design	-11.1222
▁indicate	-11.1222
▁occequintin	-11.1222
▁lunes	-11.1223
▁rail	-11.1223
▁overcome	-11.1223
▁itlalcon	-11.1224
▁Xochi	-11.1228
▁jail	-11.123
▁download	-11.1231
▁2009	-11.1231
quiçaco	-11.1234
▁orange	-11.1236
▁pano	-11.1242
▁sustainability	-11.1244
▁representation	-11.1244
tlajsojtlalistli	-11.1247
▁dimension	-11.125
▁loan	-11.1263
invention	-11.1266
▁illustrate	-11.1267
▁scared	-11.1274
pantlanti	-11.1279
lash	-11.1295
ground	-11.1312
▁29	-11.1336
free	-11.1348
keep	-11.1352
▁killer	-11.1368
▁citizen	-11.137
▁Hollywood	-11.1373
▁Narrator	-11.1373
▁Oxford	-11.1373
▁cluster	-11.1373
▁frozen	-11.1373
▁immune	-11.1373
▁obsessed	-11.1373
▁description	-11.1373
▁exposed	-11.1373
▁Video	-11.1373
▁ocacquej	-11.1373
▁trait	-11.1374
▁puchteca	-11.1374
▁tlitl	-11.1374
▁afterwards	-11.1374
▁greenhouse	-11.1375
▁Long	-11.138
▁subtle	-11.1382
▁abuse	-11.1382
▁icpac	-11.1386
▁dust	-11.1399
▁oldest	-11.1417
▁equally	-11.142
tepetl	-11.1438
▁cecen	-11.1446
▁chaneque	-11.1446
▁dial	-11.1447
▁manager	-11.1449
chijquej	-11.1469
second	-11.1475
star	-11.148
tetlajsojtlalis	-11.1504
▁insect	-11.1524
▁Egypt	-11.1525
▁moyetztica	-11.1527
▁Azcapotzalco	-11.1527
▁Remember	-11.1527
▁Stanford	-11.1527
▁sábado	-11.1527
▁tlayecanquej	-11.1527
▁constrain	-11.1527
▁facial	-11.1527
▁intuition	-11.1527
▁reduction	-11.1527
▁compound	-11.1527
▁fiction	-11.1527
▁intlayecanca	-11.1527
▁William	-11.1527
▁architectural	-11.1527
▁Blue	-11.1527
▁tiquijto	-11.1527
▁pretend	-11.1527
▁distant	-11.1527
▁senior	-11.1528
▁Nothing	-11.1528
cuitlapan	-11.1528
▁barrier	-11.1528
▁cihuapilli	-11.1528
▁optimistic	-11.1528
▁rising	-11.1529
▁dramatically	-11.1529
▁Adam	-11.1529
▁Talk	-11.1529
▁tonight	-11.1529
▁herself	-11.1534
▁1950	-11.1534
tlatlata	-11.1535
▁Congo	-11.1536
▁ocalac	-11.1538
▁bold	-11.1542
▁precisely	-11.1542
▁ticnequi	-11.1543
▁briefly	-11.1546
▁database	-11.1549
▁huallaque	-11.1549
▁conventional	-11.1553
▁ticpiaj	-11.1556
▁gate	-11.1558
▁vol	-11.1559
lethal	-11.1568
▁VI	-11.1572
nene	-11.1579
▁Rome	-11.1582
▁Far	-11.1599
born	-11.1609
pipil	-11.162
front	-11.163
worth	-11.1631
▁Kar	-11.1632
▁uncle	-11.1633
▁trap	-11.165
Let	-11.1659
jack	-11.1659
Coneu	-11.1678
▁interpret	-11.1679
philanthropy	-11.1684
▁Research	-11.1684
▁Tlatilulco	-11.1684
▁boundaries	-11.1684
▁calculation	-11.1684
▁earthquake	-11.1684
▁expedition	-11.1684
▁iConetzin	-11.1684
▁illegal	-11.1684
▁industries	-11.1684
▁iztatl	-11.1684
▁ridiculous	-11.1684
▁contrast	-11.1684
▁density	-11.1684
▁Scott	-11.1684
▁dirty	-11.1684
▁quitocarohua	-11.1684
▁charity	-11.1684
▁bulb	-11.1684
▁drove	-11.1684
▁Aztlan	-11.1684
▁illness	-11.1684
▁Health	-11.1684
▁stunt	-11.1684
▁teopixqui	-11.1684
▁condom	-11.1684
tlajtlanilij	-11.1684
▁football	-11.1685
▁resistance	-11.1685
▁accessible	-11.1686
tlazohtla	-11.1687
▁House	-11.1687
▁dump	-11.1695
▁Time	-11.1696
▁nowhere	-11.1698
flat	-11.1701
▁queen	-11.1703
▁Really	-11.1712
▁niquito	-11.1713
▁scary	-11.1715
▁crow	-11.1726
▁250	-11.1736
▁tiquita	-11.1755
▁lion	-11.1763
tequitilti	-11.1787
performance	-11.179
iliaya	-11.1809
plan	-11.1828
▁activist	-11.1842
▁candidate	-11.1842
▁contemporary	-11.1842
▁dedicated	-11.1842
▁defense	-11.1842
▁leverage	-11.1842
▁microscope	-11.1842
▁obispo	-11.1842
▁Vietnam	-11.1842
▁curiosity	-11.1842
▁stroke	-11.1842
▁tlaneltoctli	-11.1842
▁murder	-11.1842
▁Greek	-11.1842
▁appeal	-11.1842
▁VII	-11.1842
▁José	-11.1842
▁knee	-11.1843
▁Nuev	-11.1843
▁brown	-11.1844
▁kidney	-11.1844
▁irre	-11.1848
▁simulation	-11.1848
▁package	-11.1848
▁toilet	-11.1849
tequiti	-11.185
▁extinction	-11.1852
ility	-11.1853
▁Alex	-11.1856
nanacatl	-11.1859
box	-11.1862
▁ohualla	-11.1863
▁KB	-11.1864
▁Bern	-11.1869
level	-11.1871
▁Steven	-11.1873
▁cajsicamati	-11.1875
panahui	-11.1905
Oqui	-11.1929
tejtemo	-11.193
Q	-11.1937
lacatl	-11.1947
environment	-11.1951
future	-11.1951
changing	-11.1956
chimal	-11.1966
▁tlajtlaco	-11.1966
▁quilhui	-11.1978
▁ethical	-11.1979
▁chose	-11.1982
brain	-11.1987
▁rough	-11.1989
clusive	-11.2004
▁January	-11.2004
▁Sebastian	-11.2004
▁iteicnelilis	-11.2004
▁juramento	-11.2004
▁recognition	-11.2004
▁vacuum	-11.2004
▁vagina	-11.2004
▁vulnerability	-11.2004
▁tlajtlajtohua	-11.2004
▁legacy	-11.2004
▁flood	-11.2004
▁hardware	-11.2004
▁Tlahco	-11.2004
▁relax	-11.2004
▁microbes	-11.2004
▁angry	-11.2004
▁Revolution	-11.2004
▁route	-11.2004
▁backwards	-11.2005
▁partnership	-11.2006
▁fool	-11.2011
▁upset	-11.2017
▁mentor	-11.2026
▁20,000	-11.2029
▁stable	-11.2031
▁bias	-11.2034
▁Matt	-11.2036
▁exam	-11.2038
▁virtually	-11.2042
▁sheep	-11.2044
campa	-11.2051
ggle	-11.2068
burg	-11.2092
walk	-11.212
▁infect	-11.2121
person	-11.2128
▁arrive	-11.2132
tepeuh	-11.2142
▁August	-11.2167
▁Atonaltzin	-11.2168
▁México	-11.2168
▁Olympic	-11.2168
▁adjust	-11.2168
▁conservation	-11.2168
▁intervention	-11.2168
▁philosopher	-11.2168
▁probability	-11.2168
▁tragedy	-11.2168
▁CEO	-11.2168
▁borrow	-11.2168
▁Bronx	-11.2168
▁patlahuac	-11.2168
▁tenochca	-11.2168
▁Black	-11.2168
▁Soviet	-11.2168
▁neither	-11.2168
▁freak	-11.2168
▁arrest	-11.2168
▁isihuau	-11.2168
▁elder	-11.2168
▁timitz	-11.2168
▁temech	-11.2168
▁protest	-11.2168
▁bond	-11.2168
huehuentzin	-11.2168
anthrop	-11.2169
▁Titan	-11.217
▁XII	-11.217
▁chief	-11.217
▁quimilhui	-11.217
▁2010	-11.2171
▁tight	-11.2174
tlaxtlahuilis	-11.2176
▁pause	-11.218
▁50,000	-11.2182
▁artistic	-11.2194
▁lake	-11.2195
▁tower	-11.2202
▁Sir	-11.2219
venta	-11.2222
▁Give	-11.2248
▁laid	-11.225
▁ciua	-11.2261
▁36	-11.2266
▁huajla	-11.2303
▁stranger	-11.2312
itude	-11.2323
▁extinct	-11.2324
anoyej	-11.2333
▁tlahtoca	-11.2333
▁Leonardo	-11.2334
▁Manhattan	-11.2334
▁NGO	-11.2334
▁agricultural	-11.2334
▁breakthrough	-11.2334
▁chinamitl	-11.2334
▁decrease	-11.2334
▁external	-11.2334
▁fascinated	-11.2334
▁hormone	-11.2334
▁scratch	-11.2334
▁tlayecanquetl	-11.2334
▁Alonso	-11.2334
▁desperate	-11.2334
▁shrimp	-11.2334
▁ethnic	-11.2334
ikauín	-11.2334
▁achijtzin	-11.2334
▁çatepan	-11.2334
▁fortune	-11.2334
▁spark	-11.2334
▁otlanahuatij	-11.2334
▁bump	-11.2334
▁elite	-11.2335
▁Moore	-11.2335
▁Turn	-11.2335
▁governance	-11.2335
▁elsewhere	-11.2336
▁investigati	-11.2337
xiuhtique	-11.2337
▁verb	-11.2338
▁shake	-11.2339
▁installation	-11.2339
Nochimej	-11.2339
▁VIII	-11.2339
▁replicate	-11.2344
▁dependent	-11.2346
▁portion	-11.2347
▁prime	-11.2347
▁morality	-11.2348
▁editor	-11.2349
▁consequence	-11.2354
▁ixquichtin	-11.2355
▁Atenco	-11.2357
▁lying	-11.2357
▁Port	-11.2358
Star	-11.238
▁Bob	-11.2394
history	-11.2451
ocean	-11.2452
▁precise	-11.2487
ihto	-11.249
RB	-11.2495
▁Department	-11.2504
▁facility	-11.2504
▁febrero	-11.2504
▁frequency	-11.2504
▁sacred	-11.2504
▁aesthetic	-11.2504
▁federal	-11.2504
▁yield	-11.2504
▁otzatzic	-11.2504
▁bribe	-11.2504
▁twist	-11.2504
▁oajsic	-11.2504
▁Atlantic	-11.2504
▁northern	-11.2504
▁silent	-11.2504
▁Northern	-11.2504
▁Ysabe	-11.2504
▁Space	-11.2504
▁shelter	-11.2504
▁blame	-11.2504
▁textbook	-11.2505
▁alarm	-11.2506
▁restore	-11.2512
▁Julia	-11.2515
▁2006	-11.2515
▁bless	-11.2518
pitz	-11.2522
tlatzacuil	-11.2523
▁personality	-11.2525
▁yeuatl	-11.2526
▁colleague	-11.253
▁weapon	-11.253
▁ethic	-11.2531
▁retina	-11.2533
▁Howard	-11.2535
▁pool	-11.2549
Xquin	-11.2549
▁130	-11.255
ujki	-11.255
machtiaya	-11.2573
▁xnenqui	-11.2601
friend	-11.2623
happiness	-11.2624
century	-11.2624
Ompa	-11.2632
itta	-11.2641
▁rebuild	-11.2658
fold	-11.2662
▁fulfill	-11.2676
▁glamorous	-11.2676
▁kitokaytiaj	-11.2676
▁providing	-11.2676
▁synthetic	-11.2676
▁temojtij	-11.2676
▁Minister	-11.2676
▁Nature	-11.2676
▁crucial	-11.2676
▁struck	-11.2676
▁yaoyotl	-11.2676
▁Sanchez	-11.2676
▁Saturn	-11.2676
▁pioneer	-11.2676
▁acquire	-11.2676
▁chipahuac	-11.2676
▁dialogue	-11.2676
▁ueue	-11.2676
▁agenda	-11.2676
▁azteca	-11.2677
▁underlying	-11.2677
▁High	-11.2677
▁shore	-11.2678
▁initiative	-11.2678
▁diverse	-11.2678
scribe	-11.268
▁oquichijquej	-11.2681
▁tired	-11.2681
cuatequij	-11.2683
avid	-11.2684
nonotz	-11.2685
▁terrorist	-11.2687
▁Tony	-11.2689
▁colon	-11.269
▁colony	-11.2694
▁ynamic	-11.2696
▁file	-11.2698
▁chosen	-11.2699
▁iteco	-11.2701
▁oiuh	-11.2705
▁ixua	-11.2738
▁55	-11.2764
▁Dur	-11.2767
▁mask	-11.2794
control	-11.2799
▁printer	-11.28
And	-11.2805
▁magnet	-11.283
▁east	-11.2849
▁Gaspar	-11.2852
▁International	-11.2852
▁Iztatl	-11.2852
▁October	-11.2852
▁Tlatilolco	-11.2852
▁concrete	-11.2852
▁guarantee	-11.2852
▁obesity	-11.2852
▁phantom	-11.2852
▁Amazon	-11.2852
▁MRI	-11.2852
▁automobile	-11.2852
▁cliff	-11.2852
▁disturb	-11.2852
▁fifth	-11.2852
▁scenario	-11.2852
▁caxtil	-11.2852
▁Smith	-11.2852
▁itakka	-11.2852
▁totonik	-11.2852
▁devil	-11.2852
▁barrel	-11.2852
▁naked	-11.2852
▁neural	-11.2852
▁glad	-11.2852
▁domain	-11.2853
▁jet	-11.2853
▁Nations	-11.2853
▁tonalli	-11.2854
▁consistent	-11.2854
▁persist	-11.2854
▁attend	-11.2856
▁export	-11.2858
tzitzinhuan	-11.2859
▁marzo	-11.286
▁2003	-11.2862
▁compassionate	-11.2863
pixqui	-11.2867
▁darkness	-11.2868
position	-11.287
▁ypiltzin	-11.2874
▁oquimacac	-11.288
peuhque	-11.2886
huajlaj	-11.2887
▁oquinnotz	-11.2913
body	-11.2945
ogue	-11.2973
energy	-11.2978
product	-11.2979
▁nesi	-11.3007
▁cenpohual	-11.3018
tlapejpeni	-11.302
▁Quetzal	-11.303
▁Jewish	-11.303
▁Taliban	-11.303
▁antibiotic	-11.303
▁autonomous	-11.303
▁engaging	-11.303
▁fabulous	-11.303
▁fraction	-11.303
▁fragment	-11.303
▁happier	-11.303
▁hypo	-11.303
▁iEspíritu	-11.303
▁miracle	-11.303
▁refugee	-11.303
▁robust	-11.303
▁tlajtlajmatquej	-11.303
▁transparent	-11.303
▁unbelievable	-11.303
▁Central	-11.303
▁awesome	-11.303
▁emergency	-11.303
▁interconnect	-11.303
▁qualities	-11.303
▁methane	-11.303
▁ylhuitzin	-11.303
▁Daniel	-11.303
▁Nobel	-11.303
▁trash	-11.303
activism	-11.303
▁pulse	-11.303
ville	-11.303
▁tlatolli	-11.303
▁secure	-11.3031
▁transmission	-11.3031
▁ruin	-11.3031
▁slavery	-11.3032
▁huecauh	-11.3032
▁spray	-11.3034
Prince	-11.3035
▁ihquac	-11.3036
▁gear	-11.3036
▁discoveries	-11.3036
yolihuis	-11.3039
▁yoni	-11.3041
▁slice	-11.3042
toquili	-11.3045
▁highway	-11.3047
▁quinmicti	-11.3051
▁pink	-11.3059
▁pose	-11.3084
▁85	-11.3104
psychology	-11.3159
with	-11.316
▁occasion	-11.3211
▁sculpt	-11.3212
▁scholar	-11.3212
▁Valeriano	-11.3212
▁Velasco	-11.3212
▁abandon	-11.3212
▁apparently	-11.3212
▁bizarre	-11.3212
▁cheese	-11.3212
▁demonstration	-11.3212
▁depressed	-11.3212
▁kiluiaj	-11.3212
▁purchase	-11.3212
▁enhance	-11.3212
▁telpochtli	-11.3212
▁legislat	-11.3212
▁sensation	-11.3212
▁blank	-11.3212
▁margin	-11.3212
huejhueyixtoquej	-11.3212
▁Children	-11.3212
▁tlahtolli	-11.3212
▁drift	-11.3212
Melahuac	-11.3212
▁kajfentaj	-11.3212
▁trail	-11.3212
▁uncertainty	-11.3213
▁welcome	-11.3213
▁torture	-11.3213
▁Somebody	-11.3213
▁intlaneltoc	-11.3215
▁wipe	-11.3216
▁março	-11.3217
tlajcali	-11.3218
▁quiselisquej	-11.3218
▁omoteneuhtzino	-11.3218
kilit	-11.322
▁chaos	-11.3222
▁Yemen	-11.3224
▁impression	-11.3225
▁achievement	-11.3226
huiquili	-11.3227
machiyo	-11.3232
▁June	-11.3234
ehuantzitzin	-11.3235
▁slip	-11.3235
▁Italy	-11.3237
▁nemotech	-11.3238
Listen	-11.3255
▁chicon	-11.3261
tzitzi	-11.3288
▁rotate	-11.3304
nenquimatztoquej	-11.3332
version	-11.3351
Who	-11.3356
figuring	-11.3397
▁Audiencia	-11.3397
▁Chicomoztoc	-11.3397
▁cooperation	-11.3397
▁hungry	-11.3397
▁mahuiztililoni	-11.3397
▁ocuajtitlan	-11.3397
▁thumb	-11.3397
▁xinachtli	-11.3397
▁punish	-11.3397
noquetztehuas	-11.3397
▁zatepan	-11.3397
▁ecological	-11.3397
▁Texas	-11.3397
▁burst	-11.3397
▁cousin	-11.3397
▁frog	-11.3397
▁housing	-11.3397
▁crystal	-11.3397
▁storm	-11.3397
▁quename	-11.3398
▁locked	-11.3398
▁dumb	-11.3398
▁infant	-11.3398
▁guilt	-11.3399
▁Colhuacan	-11.3399
▁neuroscience	-11.3399
más	-11.3399
▁relief	-11.34
▁miquilistli	-11.34
▁tehuantin	-11.3402
▁hueca	-11.3402
▁mochiuhtzino	-11.3403
▁drum	-11.3403
▁engagement	-11.3407
▁globalization	-11.3407
▁shine	-11.3411
▁passive	-11.3416
photography	-11.3422
▁otlacat	-11.3422
▁boot	-11.3438
teopixca	-11.3449
▁techmaca	-11.3488
tlahuil	-11.351
wise	-11.3524
▁yxpan	-11.3527
▁illustrat	-11.3528
teocal	-11.353
American	-11.3533
public	-11.3534
Qui	-11.3549
stone	-11.3584
ychpoch	-11.3584
Señor	-11.3586
▁Should	-11.3586
▁diabetes	-11.3586
▁Florida	-11.3586
▁Moteuhcçoma	-11.3586
▁Neanderthal	-11.3586
▁assignment	-11.3586
▁comparison	-11.3586
▁concentration	-11.3586
▁contribution	-11.3586
▁explode	-11.3586
▁oxytocin	-11.3586
▁policies	-11.3586
▁raising	-11.3586
▁reconstruct	-11.3586
▁substance	-11.3586
▁thrill	-11.3586
▁tsunami	-11.3586
Aquinon	-11.3586
▁expectancy	-11.3586
▁xmelahuac	-11.3586
▁Arctic	-11.3586
▁Third	-11.3586
▁mysterious	-11.3586
▁refuse	-11.3586
▁render	-11.3586
tlajtlacolejquej	-11.3586
▁ugly	-11.3586
▁Jesus	-11.3586
▁pacto	-11.3586
generating	-11.3587
▁forgotten	-11.3587
equintin	-11.3589
▁Gates	-11.3589
▁Iranian	-11.359
▁collaborative	-11.3591
▁Super	-11.3592
▁golden	-11.3596
▁2001	-11.3597
▁logo	-11.36
▁30,000	-11.3605
organizing	-11.3613
tiquiz	-11.3614
coneu	-11.3616
▁axox	-11.3628
hrew	-11.3653
▁manipulat	-11.3679
▁oquipix	-11.3693
▁otinech	-11.3716
evolution	-11.3724
interest	-11.3726
▁immediate	-11.3762
tlaxtlahuil	-11.3768
▁xiuit	-11.3771
yllotlacteuhctli	-11.3778
▁'70	-11.3778
▁Acamapich	-11.3778
▁altitude	-11.3778
▁announced	-11.3778
▁corporation	-11.3778
▁dilemma	-11.3778
▁entropy	-11.3778
▁genocide	-11.3778
▁ipromesa	-11.3778
▁jellyfish	-11.3778
▁struggling	-11.3778
▁tzillini	-11.3778
majmasohualti	-11.3778
▁confirm	-11.3778
▁regulation	-11.3778
▁nemotzajlan	-11.3778
▁rabbi	-11.3778
▁xejhua	-11.3778
▁Queen	-11.3778
▁garage	-11.3778
▁Judea	-11.3778
xexelo	-11.3778
▁Redwood	-11.3778
▁Italian	-11.3779
▁tliltique	-11.3779
▁damn	-11.3779
▁Turkey	-11.3779
▁Nocnihuan	-11.3779
▁Dutch	-11.378
▁capability	-11.378
cellular	-11.3781
▁underground	-11.3781
Tejhuamej	-11.3781
▁winner	-11.3782
▁emit	-11.3782
▁onocau	-11.3783
▁Johnson	-11.3785
mactilis	-11.3789
▁hitting	-11.3795
▁700	-11.3796
▁asset	-11.3804
▁probe	-11.3804
▁bang	-11.3806
ordina	-11.3819
momaquili	-11.3847
▁incident	-11.385
▁Tecpa	-11.3857
▁altepe	-11.3858
▁Put	-11.3883
mechijlij	-11.3921
When	-11.3922
women	-11.3922
▁capita	-11.3958
▁rapid	-11.3962
ihiyo	-11.3971
▁acoustic	-11.3974
▁Ximenez	-11.3974
▁amaquemeque	-11.3974
▁creator	-11.3974
▁cricket	-11.3974
▁disagree	-11.3974
▁disrupt	-11.3974
▁flavor	-11.3974
▁flexible	-11.3974
▁geometry	-11.3974
▁helicopter	-11.3974
▁medication	-11.3974
▁octubre	-11.3974
▁primitive	-11.3974
▁quexquich	-11.3974
▁spontaneous	-11.3974
▁strategies	-11.3974
▁Chalchiuh	-11.3974
▁macehualtin	-11.3974
▁Peace	-11.3974
▁tragic	-11.3974
▁grasp	-11.3974
▁orphan	-11.3974
▁request	-11.3975
▁ceiling	-11.3975
▁psycho	-11.3975
▁triangle	-11.3975
▁atentli	-11.3976
▁anozo	-11.3976
▁shopping	-11.3976
▁cielo	-11.3976
▁permission	-11.3977
▁Koran	-11.3978
▁rice	-11.398
▁ymixpan	-11.398
▁genetically	-11.3981
word	-11.3982
▁impampa	-11.3983
▁Way	-11.3983
▁consist	-11.3984
▁kimana	-11.3986
▁highlight	-11.3987
mactilij	-11.3991
▁conito	-11.3995
▁quiteititi	-11.4006
tlajtohua	-11.4006
▁detector	-11.4006
▁transcend	-11.4033
▁istak	-11.4037
nextili	-11.4038
ahuilti	-11.4053
▁siet	-11.4053
what	-11.4111
▁visualization	-11.4133
▁terror	-11.416
▁tlil	-11.4169
jcuilolnesticaj	-11.4174
▁February	-11.4174
▁Feynman	-11.4174
▁Stephen	-11.4174
▁attribute	-11.4174
▁compelling	-11.4174
▁diamond	-11.4174
▁frequent	-11.4174
▁glamour	-11.4174
▁paralyzed	-11.4174
▁primarily	-11.4174
▁protocell	-11.4174
▁serving	-11.4174
▁signature	-11.4174
▁tlatohuani	-11.4174
▁closing	-11.4174
▁nemotlaneltoc	-11.4174
▁Watch	-11.4174
▁whatsoever	-11.4174
▁leaf	-11.4174
▁dominant	-11.4174
▁julio	-11.4174
▁nocnihuan	-11.4174
▁kikui	-11.4174
▁ihueyi	-11.4174
▁nescayotl	-11.4175
▁begun	-11.4175
▁generous	-11.4175
▁ihueyilis	-11.4175
▁Indus	-11.4176
▁bored	-11.4177
▁gentleman	-11.4177
▁scanner	-11.4177
▁quiteijlia	-11.4177
▁omentin	-11.418
▁twin	-11.418
▁interpretation	-11.418
▁snap	-11.418
▁liberat	-11.418
▁committed	-11.4181
▁agosto	-11.4183
▁affordable	-11.4184
▁nuts	-11.4184
▁cube	-11.4185
▁rebel	-11.4194
▁pursue	-11.4264
ejcuani	-11.4301
molhuili	-11.4304
minute	-11.4335
tlamachti	-11.4343
nauati	-11.4348
palehuil	-11.4374
LLI	-11.4378
assembly	-11.4378
▁LED	-11.4378
▁accelerate	-11.4378
▁buried	-11.4378
▁capitán	-11.4378
▁dictionary	-11.4378
▁diplomat	-11.4378
▁distinguish	-11.4378
▁fragile	-11.4378
▁garbage	-11.4378
▁mochipaujtani	-11.4378
▁niquijtohua	-11.4378
▁nutrition	-11.4378
▁regidor	-11.4378
▁resolve	-11.4378
▁sacrifice	-11.4378
▁threshold	-11.4378
▁uncomfortable	-11.4378
▁ytzticac	-11.4378
▁ciego	-11.4378
▁disconnect	-11.4378
▁immense	-11.4378
▁kuoujtaj	-11.4378
▁routine	-11.4378
▁tendency	-11.4378
▁Delhi	-11.4378
▁insurance	-11.4378
▁oajsiquej	-11.4378
▁uniform	-11.4378
▁excuse	-11.4378
▁precious	-11.4378
▁broadcast	-11.4378
▁Brian	-11.4378
▁augment	-11.4378
▁Judas	-11.4379
▁Eric	-11.4379
▁oquinanquilij	-11.4379
▁array	-11.4379
ocnihuan	-11.4379
▁Play	-11.4379
▁cosmic	-11.4379
▁nonprofit	-11.4379
▁convey	-11.4379
▁oniquin	-11.438
▁censor	-11.438
▁quezqui	-11.438
▁Zero	-11.438
▁junk	-11.4381
Cuajli	-11.4382
▁theories	-11.4382
▁itlaneltoc	-11.4382
▁quixmati	-11.4383
▁winning	-11.4383
▁pathway	-11.4383
▁viral	-11.4384
▁missa	-11.4384
▁palm	-11.4385
▁quest	-11.4385
▁missed	-11.4385
▁4,000	-11.4389
tlajcuilol	-11.4389
▁germ	-11.4405
heart	-11.4413
▁rub	-11.4453
▁peaceful	-11.4461
▁quo	-11.4465
tlauhtil	-11.4468
▁believ	-11.4473
axcati	-11.4476
▁soldier	-11.448
profit	-11.4533
biology	-11.4544
wire	-11.4568
▁Bangladesh	-11.4587
▁Cambridge	-11.4587
▁Obviously	-11.4587
▁administration	-11.4587
▁curriculum	-11.4587
▁cylinder	-11.4587
▁eradicate	-11.4587
▁expansion	-11.4587
▁glacier	-11.4587
▁hypothesis	-11.4587
▁iPod	-11.4587
▁neutral	-11.4587
▁rainforest	-11.4587
▁supermarket	-11.4587
▁trajectory	-11.4587
▁transparency	-11.4587
▁troops	-11.4587
▁variable	-11.4587
▁memories	-11.4587
▁ocatca	-11.4587
otlacuenquetz	-11.4587
▁pouiz	-11.4587
▁moteylhui	-11.4587
▁carpet	-11.4588
▁marketplace	-11.459
▁cuicatl	-11.4591
▁quimotlalili	-11.4591
▁crab	-11.4593
▁pactli	-11.4595
▁subway	-11.4595
▁merely	-11.4597
▁detection	-11.4601
▁float	-11.4607
▁nerd	-11.4611
nechneltoca	-11.4615
yiman	-11.4634
tlaxcal	-11.4689
humor	-11.4747
▁journal	-11.4751
▁promot	-11.4752
school	-11.4756
field	-11.4761
ciuhca	-11.4781
▁Monterey	-11.4799
▁System	-11.4799
▁Through	-11.4799
▁empire	-11.4799
▁inevitable	-11.4799
▁pharmaceutical	-11.4799
▁tequihuajquej	-11.4799
▁elegant	-11.4799
▁jewel	-11.4799
▁skeptic	-11.4799
▁tunnel	-11.4799
pajsolo	-11.4799
▁descend	-11.4799
▁ytencopa	-11.4799
▁itemachtil	-11.4799
▁kuali	-11.4799
▁tlajtoltin	-11.4799
▁crush	-11.4799
▁consult	-11.4799
▁improving	-11.4799
▁onechijlij	-11.4799
▁potato	-11.4799
▁amateur	-11.48
▁plain	-11.48
xtololo	-11.48
▁silly	-11.48
▁cotton	-11.48
▁dough	-11.48
▁audio	-11.48
▁commission	-11.48
TLA	-11.4801
▁pursuit	-11.4801
▁outrage	-11.4802
▁Jeff	-11.4803
▁Larry	-11.4805
▁appearance	-11.4805
▁occeppa	-11.4805
▁imaging	-11.4807
▁stamp	-11.481
▁stake	-11.4817
monamicti	-11.482
thermal	-11.4887
related	-11.4905
nechico	-11.4912
▁manipulate	-11.4914
ographic	-11.4919
▁ratio	-11.492
corn	-11.493
step	-11.4931
tlatlani	-11.495
stream	-11.4964
Where	-11.4964
found	-11.4964
tlinon	-11.4966
shaped	-11.4974
eouh	-11.4977
pojpol	-11.4991
▁Francis	-11.5005
▁Council	-11.5017
▁Republican	-11.5017
▁Sanctiago	-11.5017
▁Shanghai	-11.5017
▁Tanzania	-11.5017
▁Totecuiyo	-11.5017
▁axoxtlantli	-11.5017
▁category	-11.5017
▁despair	-11.5017
▁diagnosed	-11.5017
▁jihad	-11.5017
▁prosthetic	-11.5017
▁simultaneously	-11.5017
▁terribly	-11.5017
▁translator	-11.5017
▁Gandhi	-11.5017
▁screw	-11.5017
▁College	-11.5017
▁basket	-11.5017
▁injury	-11.5017
▁temachtilistli	-11.5017
▁chamber	-11.5017
▁hualquizque	-11.5017
▁quichiuhque	-11.5017
▁essence	-11.5017
▁district	-11.5017
▁ensure	-11.5017
▁mexitin	-11.5017
▁tlamantic	-11.5017
▁dawn	-11.5017
▁tackle	-11.5017
▁crew	-11.5017
▁grandchildren	-11.5017
▁innocent	-11.5017
▁Seven	-11.5017
▁annual	-11.5018
▁programming	-11.5018
▁Kevin	-11.5018
▁unfold	-11.5021
▁itlaquen	-11.5021
▁oncuan	-11.5021
ixiptla	-11.5023
▁besides	-11.5024
▁LG	-11.5026
Huitzil	-11.5026
▁Hong	-11.5027
▁invade	-11.5045
▁yniqu	-11.5049
▁tlayahualo	-11.5099
tejtemohua	-11.5133
▁Jacob	-11.5226
quechol	-11.5231
▁Democrat	-11.5239
▁Hawaii	-11.5239
▁Palestinian	-11.5239
▁beneath	-11.5239
▁bioluminescen	-11.5239
▁capabilities	-11.5239
▁cellphone	-11.5239
▁experiencing	-11.5239
▁gallon	-11.5239
▁hybrid	-11.5239
▁renewable	-11.5239
▁reproduce	-11.5239
▁sponsor	-11.5239
▁structural	-11.5239
▁yepazohtli	-11.5239
▁zapatistas	-11.5239
tzotzoma	-11.5239
▁April	-11.5239
▁burden	-11.5239
▁nihuajlas	-11.5239
▁valley	-11.5239
▁theoretical	-11.5239
▁profile	-11.5239
▁shrink	-11.5239
▁steam	-11.5239
▁huehca	-11.5239
▁ecology	-11.5239
▁harness	-11.5239
▁oquintlajtoltij	-11.5239
▁paradox	-11.5239
▁agency	-11.5239
▁posses	-11.5239
▁venture	-11.5239
▁grave	-11.524
▁electrodes	-11.524
▁arrow	-11.524
▁uelik	-11.5241
▁defeat	-11.5241
▁Sunday	-11.5241
▁informed	-11.5241
▁martes	-11.5242
▁brick	-11.5243
▁Without	-11.5244
▁Wright	-11.5244
▁stability	-11.5245
mextin	-11.5248
Wait	-11.5251
tlacanonotz	-11.5261
▁chop	-11.5278
where	-11.531
▁historic	-11.5336
▁simulat	-11.5345
▁simulate	-11.5351
ichtaca	-11.5404
physics	-11.5414
▁quinexti	-11.5414
peace	-11.5414
short	-11.5415
▁norm	-11.5461
▁Benjamin	-11.5466
▁Cambodia	-11.5466
▁Jerónimo	-11.5466
▁anticipate	-11.5466
▁crawl	-11.5466
▁extension	-11.5466
▁facilities	-11.5466
▁flourish	-11.5466
▁gradually	-11.5466
▁scaffold	-11.5466
▁syndrome	-11.5466
▁synthesize	-11.5466
▁tequihuajyotl	-11.5466
▁unprecedented	-11.5466
Temachtijquetl	-11.5466
▁Castilla	-11.5466
▁Mountain	-11.5466
▁advertise	-11.5466
▁diagnostic	-11.5466
▁disappoint	-11.5466
▁interrupt	-11.5466
▁storage	-11.5466
▁Spanish	-11.5466
▁miserable	-11.5466
▁optical	-11.5466
▁strain	-11.5466
▁moyetzticatca	-11.5466
▁whistle	-11.5466
▁reliable	-11.5466
▁sync	-11.5466
pajpatla	-11.5466
placing	-11.5466
▁shelf	-11.5467
▁temple	-11.5467
▁cenpohuallon	-11.5467
▁marvel	-11.5467
▁Indeed	-11.5467
▁forgive	-11.5467
▁Joshua	-11.5467
▁chicuacen	-11.5467
Sequimej	-11.5468
▁watt	-11.5468
mimilo	-11.5468
▁filmmaker	-11.5469
▁advise	-11.5469
momaquilli	-11.5469
▁Egyptian	-11.5469
▁elementary	-11.5469
▁ongoing	-11.5471
conetzin	-11.5492
tlajcuilhui	-11.5646
collaboration	-11.5646
poverty	-11.5646
▁crap	-11.5689
▁exhibit	-11.5691
▁slave	-11.5697
▁Except	-11.5699
▁García	-11.5699
▁carrancista	-11.5699
▁emphasize	-11.5699
▁humanitarian	-11.5699
▁juebes	-11.5699
▁negotiate	-11.5699
▁nenquiselisquej	-11.5699
▁overwhelming	-11.5699
▁suspended	-11.5699
▁totollimpaneca	-11.5699
▁ubiquitous	-11.5699
▁universities	-11.5699
▁virtue	-11.5699
lajcotian	-11.5699
▁ajacatl	-11.5699
▁circulat	-11.5699
▁ikuoujyo	-11.5699
▁spiral	-11.5699
▁expertise	-11.5699
▁downtown	-11.5699
▁woke	-11.5699
▁autism	-11.5699
▁Square	-11.5699
▁submit	-11.5699
tetlacaitalistli	-11.5699
▁chiquacen	-11.5699
▁tlahtocayotl	-11.57
▁Louis	-11.57
chipajquej	-11.57
▁native	-11.57
nisihui	-11.57
▁antenna	-11.57
▁occasionally	-11.57
▁proposition	-11.5701
▁debt	-11.5702
▁rope	-11.5704
▁prostate	-11.5704
▁quahuitl	-11.5704
▁glow	-11.5709
▁devote	-11.571
▁quimpalehui	-11.5715
▁Susan	-11.5725
▁xcajsicamati	-11.575
greg	-11.5763
▁update	-11.578
▁reinvent	-11.5784
script	-11.5893
▁tocniu	-11.5905
▁replica	-11.591
▁entertain	-11.5933
skeletal	-11.5937
▁December	-11.5937
▁Global	-11.5937
▁Kuesalan	-11.5937
▁Shakespeare	-11.5937
▁Testigo	-11.5937
▁abilities	-11.5937
▁acknowledge	-11.5937
▁acxoteca	-11.5937
▁categories	-11.5937
▁circuncisión	-11.5937
▁confident	-11.5937
▁independence	-11.5937
▁minimum	-11.5937
▁resilience	-11.5937
▁substantial	-11.5937
▁suppress	-11.5937
▁tetlayocolijli	-11.5937
▁Friday	-11.5937
▁mechanics	-11.5937
▁proposal	-11.5937
▁psychopath	-11.5937
▁tiopixqui	-11.5937
▁wheat	-11.5937
tlapojpolhuili	-11.5937
▁fertilize	-11.5937
▁impulse	-11.5937
▁absence	-11.5937
▁snake	-11.5937
▁multiply	-11.5937
▁mutual	-11.5937
mocuitlahui	-11.5937
▁coordinate	-11.5937
▁located	-11.5937
▁voting	-11.5937
▁backyard	-11.5937
▁magnificent	-11.5937
▁Bosnia	-11.5937
▁isolated	-11.5937
tlejhua	-11.5937
eanwhile	-11.5937
▁Court	-11.5937
▁steer	-11.5938
▁mainstream	-11.5938
▁loose	-11.5938
▁surf	-11.5938
▁diving	-11.5938
▁Virginia	-11.5938
▁quistinemi	-11.5938
▁tongue	-11.5939
omilhuitl	-11.594
▁forgot	-11.594
▁spinning	-11.5941
▁examine	-11.5943
NoTeco	-11.5961
defining	-11.5973
▁relie	-11.599
uelita	-11.6027
AIDS	-11.6128
Jesús	-11.6129
cenpohualxihuitl	-11.6136
▁prepare	-11.6146
▁chemist	-11.6178
▁'90	-11.6181
▁Alexander	-11.6181
▁Hospital	-11.6181
▁Quahuitzatzin	-11.6181
▁Tzaqualtitla	-11.6181
▁Watson	-11.6181
▁accumulate	-11.6181
▁aggressive	-11.6181
▁alcohol	-11.6181
▁approximate	-11.6181
▁batteries	-11.6181
▁boundary	-11.6181
▁correlation	-11.6181
▁dictator	-11.6181
▁endangered	-11.6181
▁excellent	-11.6181
▁genuine	-11.6181
▁glimpse	-11.6181
▁gorgeous	-11.6181
▁hallucination	-11.6181
▁identified	-11.6181
▁marqués	-11.6181
▁monasterio	-11.6181
▁navigate	-11.6181
▁puppet	-11.6181
▁tecpoyotl	-11.6181
▁tlalcontli	-11.6181
▁ultrasound	-11.6181
▁unhappy	-11.6181
▁yolmelajqui	-11.6181
▁Church	-11.6181
▁Develop	-11.6181
▁lobby	-11.6181
▁diameter	-11.6181
▁silver	-11.6181
▁transistor	-11.6181
▁enemies	-11.6181
▁reducing	-11.6181
▁pencil	-11.6181
▁smiling	-11.6181
▁conetzintli	-11.6181
▁tlapatlaco	-11.6181
▁wrist	-11.6181
▁mahuiztic	-11.6181
▁monster	-11.6181
▁Iceland	-11.6181
▁squid	-11.6181
▁compress	-11.6181
▁uvas	-11.6181
▁nixpan	-11.6182
▁composition	-11.6182
▁mopaca	-11.6182
▁Hawk	-11.6182
▁rubber	-11.6182
▁cuenta	-11.6182
▁Greenland	-11.6183
▁colonies	-11.6183
▁riot	-11.6184
▁refine	-11.6199
▁quinamaca	-11.6301
manahuis	-11.6316
iquixmati	-11.6325
wandering	-11.633
ToTeco	-11.6351
▁shoe	-11.6366
efficient	-11.6378
discover	-11.6378
writing	-11.6379
▁profession	-11.639
write	-11.6401
▁desd	-11.6403
▁onicchiu	-11.6416
▁Lincoln	-11.6431
▁Maldonado	-11.6431
▁Satanás	-11.6431
▁Swiss	-11.6431
▁astronomy	-11.6431
▁clérigo	-11.6431
▁compromise	-11.6431
▁continuing	-11.6431
▁enterprise	-11.6431
▁recession	-11.6431
▁recycling	-11.6431
▁terrifying	-11.6431
▁Clinton	-11.6431
▁Mandela	-11.6431
▁convenient	-11.6431
▁stunning	-11.6431
▁surgical	-11.6431
▁destiny	-11.6431
▁Craig	-11.6431
▁aspiration	-11.6431
▁parachute	-11.6431
▁drew	-11.6431
▁geographic	-11.6431
▁Water	-11.6431
▁segment	-11.6431
▁texture	-11.6431
▁Geographic	-11.6431
▁intimate	-11.6431
▁trono	-11.6431
▁Anybody	-11.6431
▁spike	-11.6431
▁nutrients	-11.6432
▁girlfriend	-11.6432
chalchiuh	-11.6432
▁mitoz	-11.6432
▁Norden	-11.6433
▁parasite	-11.6433
▁swam	-11.6434
cuerpo	-11.6435
▁encode	-11.6437
▁Macuil	-11.6445
▁Music	-11.6451
▁modul	-11.6462
lapse	-11.6504
ccenca	-11.6558
known	-11.6632
development	-11.6635
virus	-11.6636
▁Turk	-11.6686
▁monjas	-11.6687
▁Bernabé	-11.6687
▁Borreguito	-11.6687
▁Buddha	-11.6687
▁McDonald	-11.6687
▁Suddenly	-11.6687
▁Tetzcoco	-11.6687
▁frightening	-11.6687
▁kichipaua	-11.6687
▁magnitude	-11.6687
▁motzoyonia	-11.6687
▁pleasant	-11.6687
▁stimulate	-11.6687
▁Fellow	-11.6687
▁dopamine	-11.6687
▁grateful	-11.6687
▁mobility	-11.6687
▁oquijcuiloj	-11.6687
▁trauma	-11.6687
▁Everest	-11.6687
▁chronic	-11.6687
▁harbor	-11.6687
▁nenquinequij	-11.6687
▁scheme	-11.6687
▁genomic	-11.6687
▁Beijing	-11.6687
▁huentli	-11.6687
▁xmatican	-11.6687
▁selves	-11.6687
▁drunk	-11.6687
▁Isaac	-11.6687
▁diverge	-11.6687
▁retreat	-11.6687
▁helium	-11.6688
▁Henry	-11.6688
▁outdoor	-11.6688
▁henero	-11.6688
▁Publi	-11.6688
▁Work	-11.6688
▁insane	-11.6688
▁Nathan	-11.6689
▁tlahco	-11.6689
▁deaf	-11.6689
▁awake	-11.6691
▁Brit	-11.6692
tlamantin	-11.6704
▁itocayoca	-11.671
▁pond	-11.6713
▁necoc	-11.6749
cniuh	-11.6792
▁tilt	-11.6887
children	-11.6898
exploration	-11.6898
nature	-11.69
▁extraordinar	-11.6932
yolchicahua	-11.6945
unction	-11.6948
▁Afghan	-11.695
▁Aristotle	-11.695
▁Cyrus	-11.695
▁DVD	-11.695
▁Probably	-11.695
▁Security	-11.695
▁Tequanipan	-11.695
▁artifact	-11.695
▁astronomer	-11.695
▁collision	-11.695
▁controversial	-11.695
▁cuacualaca	-11.695
▁elaborate	-11.695
▁encouraging	-11.695
▁enzyme	-11.695
▁frustrated	-11.695
▁irrational	-11.695
▁negotiation	-11.695
▁nitrogen	-11.695
▁staircase	-11.695
▁tattoo	-11.695
▁tlaxilacall	-11.695
▁earliest	-11.695
▁preparing	-11.695
▁register	-11.695
tzotzona	-11.695
▁Almost	-11.695
▁champion	-11.695
▁summarize	-11.695
▁intensity	-11.695
▁Silicon	-11.695
▁stomach	-11.695
▁biomass	-11.695
▁poliuhque	-11.695
▁kemaj	-11.695
▁strict	-11.695
▁priest	-11.695
▁summit	-11.695
▁competing	-11.695
▁converge	-11.695
▁scaling	-11.6951
▁tolerance	-11.6951
▁toyojlo	-11.6951
▁Spain	-11.6951
▁Coast	-11.6951
▁fought	-11.6951
▁gross	-11.6952
▁Jones	-11.6953
otolinia	-11.6955
▁spare	-11.6956
▁animate	-11.6959
cecni	-11.7008
ocaquiti	-11.7022
communication	-11.7168
carbon	-11.7168
million	-11.7169
▁Parkinson	-11.7221
▁Huitzillihuit	-11.7221
▁Library	-11.7221
▁Qatar	-11.7221
▁Sylvia	-11.7221
▁Tliltecatzin	-11.7221
▁Zealand	-11.7221
▁aggregate	-11.7221
▁angiogenesis	-11.7221
▁breakfast	-11.7221
▁commodity	-11.7221
▁cooperative	-11.7221
▁endeavor	-11.7221
▁exposure	-11.7221
▁gallery	-11.7221
▁membrane	-11.7221
▁mohuicxitia	-11.7221
▁overwhelmed	-11.7221
▁participation	-11.7221
▁persuade	-11.7221
▁prosperity	-11.7221
▁straightforward	-11.7221
▁sulfide	-11.7221
▁survivor	-11.7221
▁welfare	-11.7221
▁iyaxcahuan	-11.7221
▁millimeter	-11.7221
▁nenquipiasquej	-11.7221
▁recruit	-11.7221
▁jazz	-11.7221
▁Sierra	-11.7221
▁Tullam	-11.7221
▁declare	-11.7221
▁Berlin	-11.7221
▁fetus	-11.7221
▁threatened	-11.7221
▁Disney	-11.7221
▁blend	-11.7221
▁thread	-11.7221
▁cojtli	-11.7221
▁Ladies	-11.7221
▁oyster	-11.7221
▁Natural	-11.7221
▁lottery	-11.7221
▁quimijlia	-11.7222
▁indoor	-11.7225
▁Read	-11.7239
mitalhui	-11.7241
▁grip	-11.726
▁wander	-11.733
▁tlayahuallo	-11.7332
▁deposit	-11.7383
majma	-11.7384
hquac	-11.744
foie	-11.7445
natural	-11.7446
why	-11.7447
▁convention	-11.7451
▁hebreo	-11.7463
Xaca	-11.7489
▁corrupt	-11.7494
▁gentle	-11.7495
▁embryo	-11.7498
▁1614	-11.7498
▁Catholic	-11.7498
▁Copenhagen	-11.7498
▁Gabriel	-11.7498
▁Sacramento	-11.7498
▁agencies	-11.7498
▁anxiety	-11.7498
▁approved	-11.7498
▁arguing	-11.7498
▁chalchihuitl	-11.7498
▁cigarette	-11.7498
▁diarrhea	-11.7498
▁exhaust	-11.7498
▁fluctuat	-11.7498
▁fractal	-11.7498
▁frustration	-11.7498
▁licenciado	-11.7498
▁maximum	-11.7498
▁mycelium	-11.7498
▁regulate	-11.7498
▁schedule	-11.7498
▁sesetlamantic	-11.7498
▁storyteller	-11.7498
▁supplies	-11.7498
▁symmetries	-11.7498
▁territory	-11.7498
▁wheelchair	-11.7498
▁yglesia	-11.7498
▁yourselves	-11.7498
▁worship	-11.7498
▁Lewis	-11.7498
▁Arthur	-11.7498
▁blob	-11.7498
▁straw	-11.7498
▁calories	-11.7498
▁harmony	-11.7498
▁premise	-11.7498
▁pride	-11.7498
▁excess	-11.7498
▁composer	-11.7499
▁inhibit	-11.7499
▁loving	-11.7499
▁valid	-11.7499
osentlalijquej	-11.7499
▁saniman	-11.7499
▁firing	-11.7499
tocayotique	-11.7499
▁chef	-11.7499
▁seemingly	-11.7499
▁minus	-11.7499
▁yequene	-11.7499
umbling	-11.7499
▁Lord	-11.75
▁interfere	-11.7502
▁assure	-11.751
violence	-11.7535
mimicry	-11.7583
tlacuilol	-11.7628
innovation	-11.7732
film	-11.7733
panoque	-11.7757
▁Architect	-11.7784
chiuhcnahui	-11.7784
▁Egipto	-11.7784
▁Indonesia	-11.7784
▁Mumbai	-11.7784
▁SETI	-11.7784
▁abundance	-11.7784
▁calendar	-11.7784
▁catastrophe	-11.7784
▁communicating	-11.7784
▁contributing	-11.7784
▁huehyi	-11.7784
▁kuamekat	-11.7784
▁luxury	-11.7784
▁peculiar	-11.7784
▁satisfy	-11.7784
▁skeleton	-11.7784
▁strategic	-11.7784
▁Tonatiuh	-11.7784
▁famine	-11.7784
▁nanakat	-11.7784
▁psychiatri	-11.7784
▁receptor	-11.7784
▁redefine	-11.7784
▁reputation	-11.7784
▁scrap	-11.7784
▁striking	-11.7784
atlactlomome	-11.7784
▁GPS	-11.7784
▁Seattle	-11.7784
▁kingdom	-11.7784
▁monotsa	-11.7784
▁ocuicaquej	-11.7784
▁smoking	-11.7784
▁Nelson	-11.7784
▁separation	-11.7784
▁brush	-11.7784
▁violin	-11.7784
▁cocaine	-11.7784
▁investigate	-11.7784
▁vivid	-11.7784
▁omomiquili	-11.7784
▁geek	-11.7784
▁silicon	-11.7784
▁lonely	-11.7784
▁Saulo	-11.7784
▁blink	-11.7784
vascular	-11.7784
▁swing	-11.7784
▁chew	-11.7784
▁onstage	-11.7785
▁nochtin	-11.7785
▁slope	-11.7785
▁yahque	-11.7785
▁crude	-11.7785
▁clone	-11.7785
teyaxcahuan	-11.7785
▁Rosling	-11.7785
mahuiço	-11.7786
tetlayocolil	-11.7786
▁neurologic	-11.7788
oquintlapejpenij	-11.7799
cnopil	-11.7803
▁Treat	-11.7815
▁chicueyi	-11.7834
horn	-11.7881
▁swo	-11.7992
Please	-11.8026
religion	-11.8026
government	-11.8026
from	-11.8027
maceual	-11.8073
sufficient	-11.8078
yolihuitij	-11.8078
▁Building	-11.8078
▁Carolina	-11.8078
▁Victoria	-11.8078
▁XXI	-11.8078
▁choosing	-11.8078
▁fault	-11.8078
▁hemisphere	-11.8078
▁inequality	-11.8078
▁introduction	-11.8078
▁leopard	-11.8078
▁metabolism	-11.8078
▁nenquinemiliaj	-11.8078
▁nurture	-11.8078
▁oquitecaquiti	-11.8078
▁otlejcoc	-11.8078
▁swallow	-11.8078
▁technician	-11.8078
▁terrific	-11.8078
▁timacehualtin	-11.8078
▁tiotlajtojli	-11.8078
▁tlamatquilistli	-11.8078
▁toachtojtajhuan	-11.8078
▁vibration	-11.8078
▁destination	-11.8078
▁exquisite	-11.8078
▁nowadays	-11.8078
▁trivial	-11.8078
▁guitar	-11.8078
▁minimal	-11.8078
▁pipiltin	-11.8078
▁therapies	-11.8078
▁Doctor	-11.8078
Qaeda	-11.8078
▁tonaltzintli	-11.8078
▁whisper	-11.8078
▁choir	-11.8078
▁oyeya	-11.8078
▁unseen	-11.8078
▁cream	-11.8078
▁Sarah	-11.8078
▁ultra	-11.8078
▁Jill	-11.8078
▁browse	-11.8079
▁civic	-11.8079
▁tropic	-11.8079
▁blast	-11.808
eastern	-11.8084
▁mechpalehui	-11.8109
▁merge	-11.8129
▁Medica	-11.8135
apachiuh	-11.817
▁stereo	-11.8215
mahuizo	-11.8249
driven	-11.8329
chicome	-11.833
shift	-11.833
▁unfortunate	-11.8365
maquili	-11.8366
nformation	-11.8379
ustainable	-11.838
cuitlaxcol	-11.8381
▁Education	-11.8381
▁Babylon	-11.8381
▁Environment	-11.8381
▁Jupiter	-11.8381
▁Sebastián	-11.8381
▁anonymous	-11.8381
▁chunk	-11.8381
▁configuration	-11.8381
▁currency	-11.8381
▁generosity	-11.8381
▁inevitably	-11.8381
▁intimacy	-11.8381
▁intriguing	-11.8381
▁introvert	-11.8381
▁maxitico	-11.8381
▁miércoles	-11.8381
▁quimatzticatca	-11.8381
▁spaghetti	-11.8381
▁synapse	-11.8381
▁tianquizco	-11.8381
▁tlahuejli	-11.8381
▁uejueyi	-11.8381
▁veteran	-11.8381
▁ahcico	-11.8381
▁ambition	-11.8381
▁delicious	-11.8381
▁passenger	-11.8381
▁expense	-11.8381
▁nennemij	-11.8381
▁trading	-11.8381
▁contaminat	-11.8381
▁trunk	-11.8381
▁workforce	-11.8381
tequipanoj	-11.8381
▁historian	-11.8381
▁intrinsic	-11.8381
▁omacoc	-11.8381
atlactlomey	-11.8381
▁brutal	-11.8381
▁Half	-11.8381
▁admire	-11.8381
▁bombsight	-11.8381
▁blade	-11.8381
▁IBM	-11.8382
▁shining	-11.8382
tequipanohua	-11.8382
▁combat	-11.8382
Patient	-11.8385
quiçato	-11.84
huaxca	-11.8416
rrier	-11.8421
tiochihualistli	-11.8448
visualizations	-11.8452
monequilti	-11.8467
▁quinemili	-11.8622
cultural	-11.8641
▁Quema	-11.8688
▁counsel	-11.8694
iapóstol	-11.8694
machiztico	-11.8694
▁Although	-11.8694
▁Elizabeth	-11.8694
▁Monamaka	-11.8694
▁Namibia	-11.8694
▁November	-11.8694
▁Stewart	-11.8694
▁Switzerland	-11.8694
▁accelerating	-11.8694
▁adolescent	-11.8694
▁alphabet	-11.8694
▁calculator	-11.8694
▁calculus	-11.8694
▁devastating	-11.8694
▁diagnosis	-11.8694
▁diplomacy	-11.8694
▁episode	-11.8694
▁explicit	-11.8694
▁festival	-11.8694
▁grandparents	-11.8694
▁huallehuaque	-11.8694
▁literacy	-11.8694
▁maneuver	-11.8694
▁microphone	-11.8694
▁millennia	-11.8694
▁nesehuijli	-11.8694
▁obtain	-11.8694
▁onotelquetz	-11.8694
▁palacio	-11.8694
▁philosophical	-11.8694
▁prevalence	-11.8694
▁recognizing	-11.8694
▁regenerate	-11.8694
▁sensitivity	-11.8694
▁symmetrical	-11.8694
▁tecpatl	-11.8694
▁vaccinat	-11.8694
▁Wood	-11.8694
▁algae	-11.8694
▁eternal	-11.8694
▁helmet	-11.8694
▁knife	-11.8694
▁majyá	-11.8694
▁octopus	-11.8694
▁squeeze	-11.8694
▁surgeries	-11.8694
▁Martín	-11.8694
▁Santiago	-11.8694
▁audiencia	-11.8694
▁contrary	-11.8694
▁gasoline	-11.8694
▁volcano	-11.8694
mpoyon	-11.8694
▁Tokyo	-11.8694
▁onimitz	-11.8694
▁blur	-11.8694
▁conceive	-11.8694
▁pigeon	-11.8694
▁statue	-11.8694
▁checklist	-11.8694
▁Tibet	-11.8694
▁mayanquej	-11.8694
▁turtle	-11.8694
oriented	-11.8694
▁unveil	-11.8694
▁copied	-11.8694
▁Lyn	-11.8694
▁inherit	-11.8694
tzauhc	-11.8694
▁crank	-11.8694
▁entry	-11.8695
▁tayi	-11.8698
▁initiat	-11.872
▁Melch	-11.8743
ightened	-11.8792
▁oquinisihuij	-11.8827
Xitlaj	-11.8848
programmed	-11.8914
▁tlajyohui	-11.9016
Lástima	-11.9016
▁Brooklyn	-11.9016
▁Buddhist	-11.9016
▁Charlie	-11.9016
▁Galapagos	-11.9016
▁Jonathan	-11.9016
▁Journal	-11.9016
▁Kennedy	-11.9016
▁Natasha	-11.9016
▁Singapore	-11.9016
▁Teszler	-11.9016
▁authoritarian	-11.9016
▁broccoli	-11.9016
▁centimeter	-11.9016
▁chemotherapy	-11.9016
▁congestion	-11.9016
▁dragonflies	-11.9016
▁entrance	-11.9016
▁frequencies	-11.9016
▁glorious	-11.9016
▁hamburger	-11.9016
▁hierarchy	-11.9016
▁huajmostla	-11.9016
▁iglesia	-11.9016
▁improvise	-11.9016
▁institute	-11.9016
▁intersection	-11.9016
▁juvenile	-11.9016
▁longevity	-11.9016
▁maintenance	-11.9016
▁meditation	-11.9016
▁migraine	-11.9016
▁minority	-11.9016
▁oztomeca	-11.9016
▁pesticide	-11.9016
▁pricing	-11.9016
▁temporal	-11.9016
▁tlanamactin	-11.9016
▁tlatilulca	-11.9016
▁xitomatl	-11.9016
▁stadium	-11.9016
▁Civil	-11.9016
▁fiscal	-11.9016
▁ohualajquej	-11.9016
enquiselijquej	-11.9016
▁tlahuijli	-11.9016
▁obese	-11.9016
▁piltzintli	-11.9016
▁Montana	-11.9017
▁huicci	-11.9017
▁Power	-11.9017
▁Atlanta	-11.9017
▁blah	-11.9017
▁proceed	-11.9017
▁Kelly	-11.9017
▁headache	-11.9017
nextijquej	-11.9018
▁digitize	-11.9018
▁fungi	-11.9021
yolcoco	-11.9023
nochili	-11.9027
▁kidnap	-11.9032
▁strap	-11.9033
▁overlap	-11.912
▁quipalehui	-11.9171
quitzqui	-11.9187
kuouit	-11.9297
Would	-11.9297
universe	-11.9297
generation	-11.9297
▁associate	-11.9314
namacaya	-11.9321
▁Whit	-11.9328
+	-11.935
ernández	-11.935
▁Ahuexotl	-11.935
▁Austria	-11.935
▁Brothers	-11.935
▁Canadian	-11.935
▁Caribbean	-11.935
▁Compassion	-11.935
▁Kosovo	-11.935
▁Macedonia	-11.935
▁Nazaret	-11.935
▁Phoenix	-11.935
▁Pretty	-11.935
▁Student	-11.935
▁TEDGlobal	-11.935
▁Technology	-11.935
▁Telescope	-11.935
▁Tziuhtlacauhqui	-11.935
▁aluminum	-11.935
▁anniversary	-11.935
▁awkward	-11.935
▁coordination	-11.935
▁deficit	-11.935
▁electromagnetic	-11.935
▁estacas	-11.935
▁gravitational	-11.935
▁heavily	-11.935
▁inexpensive	-11.935
▁innovator	-11.935
▁integrity	-11.935
▁iregión	-11.935
▁mahtlactli	-11.935
▁mojmostla	-11.935
▁nohpalli	-11.935
▁noviembre	-11.935
▁occupy	-11.935
▁submarine	-11.935
▁submersible	-11.935
▁suspicious	-11.935
▁uejka	-11.935
▁virgin	-11.935
▁Computer	-11.935
▁divorce	-11.935
▁gadget	-11.935
▁invitation	-11.935
▁prescription	-11.935
▁prince	-11.935
▁reproduction	-11.935
▁tlamachalistli	-11.935
▁Alaska	-11.935
▁calpolli	-11.935
▁peanut	-11.935
▁soccer	-11.935
▁FDA	-11.935
▁leather	-11.935
illennium	-11.935
▁purple	-11.935
▁swarm	-11.935
▁Keith	-11.935
▁hualmochiuhtia	-11.935
▁heritage	-11.935
▁noyojlo	-11.935
▁mysteries	-11.935
HUA	-11.935
uhtecatlteuhctli	-11.935
generative	-11.935
▁warrior	-11.935
▁erupt	-11.935
▁bonus	-11.935
▁cubic	-11.935
▁Uitzil	-11.935
▁ocualan	-11.935
▁xchipahuac	-11.935
▁greet	-11.9351
▁generic	-11.9352
tlatocauh	-11.9353
▁momiquili	-11.9353
mahuiztili	-11.9357
▁mitohua	-11.9361
▁ytocayoca	-11.937
ncidentally	-11.9567
positive	-11.9642
society	-11.9642
Cristo	-11.9642
climate	-11.9643
building	-11.9679
gnostic	-11.9694
quintlajyohuilti	-11.9694
▁Columbia	-11.9694
▁Country	-11.9694
▁César	-11.9694
▁Empire	-11.9694
▁Fernando	-11.9694
▁Mendoça	-11.9694
▁Netherlands	-11.9694
▁Tasmanian	-11.9694
▁Tuesday	-11.9694
▁Venezuela	-11.9694
▁adolescence	-11.9694
▁advocate	-11.9694
▁assistance	-11.9694
▁association	-11.9694
▁calculating	-11.9694
▁catastrophic	-11.9694
▁cholera	-11.9694
▁comendador	-11.9694
▁convincing	-11.9694
▁cuajcualtin	-11.9694
▁default	-11.9694
▁deliberate	-11.9694
▁executive	-11.9694
▁fantasy	-11.9694
▁happiest	-11.9694
▁infrared	-11.9694
▁injuries	-11.9694
▁janitor	-11.9694
▁matrix	-11.9694
▁parliament	-11.9694
▁significance	-11.9694
▁stabilize	-11.9694
▁stumble	-11.9694
▁sympath	-11.9694
▁terrain	-11.9694
▁1613	-11.9695
▁Twenty	-11.9695
▁album	-11.9695
▁cocoxquej	-11.9695
▁elevate	-11.9695
▁gecko	-11.9695
▁generator	-11.9695
▁imperative	-11.9695
▁ixochiyo	-11.9695
▁ocontilan	-11.9695
▁jungle	-11.9695
▁sneak	-11.9695
pajpata	-11.9695
▁intensive	-11.9695
▁spatial	-11.9695
▁tlalnacayotl	-11.9695
▁Lopez	-11.9695
▁Rachel	-11.9695
▁Elías	-11.9695
▁faint	-11.9695
▁Little	-11.9695
▁applies	-11.9695
▁memorize	-11.9695
▁opanoc	-11.9695
▁creep	-11.9695
▁ahuilnemi	-11.9695
▁xtlaneltoca	-11.9695
▁missile	-11.9695
▁morph	-11.9695
▁crater	-11.9695
▁xinech	-11.9695
▁Angelin	-11.9695
telpoch	-11.9696
yectlali	-11.9792
▁correlate	-11.9793
▁tlamachijchi	-11.9908
▁tlanamaca	-11.992
tlahtocatlalli	-11.996
philosophy	-11.9999
industrial	-11.9999
oquinemilij	-12.005
etween	-12.0051
lajsojcaicnihuan	-12.0052
▁Academy	-12.0052
▁Business	-12.0052
▁Chapoltepec	-12.0052
▁Christóval	-12.0052
▁Momochco	-12.0052
▁Society	-12.0052
▁Sputnik	-12.0052
▁Thailand	-12.0052
▁accuracy	-12.0052
▁ambitious	-12.0052
▁convicted	-12.0052
▁elevator	-12.0052
▁enthusiast	-12.0052
▁envelope	-12.0052
▁eradication	-12.0052
▁ethanol	-12.0052
▁grocery	-12.0052
▁intangible	-12.0052
▁integration	-12.0052
▁legitimate	-12.0052
▁libraries	-12.0052
▁monsoon	-12.0052
▁obsession	-12.0052
▁occupation	-12.0052
▁onoquetzteu	-12.0052
▁oyejcoc	-12.0052
▁remarkably	-12.0052
▁septiembre	-12.0052
▁stimulation	-12.0052
▁sulfur	-12.0052
▁surviving	-12.0052
▁sweep	-12.0052
▁tangible	-12.0052
▁teixhuiu	-12.0052
▁temachtijquetl	-12.0052
▁thrive	-12.0052
▁tlahuicxitilli	-12.0052
▁tojlamej	-12.0052
▁unleash	-12.0052
▁xnenquimatij	-12.0052
▁absurd	-12.0052
▁anthropologist	-12.0052
▁borreguito	-12.0052
▁council	-12.0052
▁humility	-12.0052
▁stereotype	-12.0052
▁tofirma	-12.0052
▁chord	-12.0052
▁plankton	-12.0052
herently	-12.0052
zcatqui	-12.0052
▁protocol	-12.0052
▁suitcase	-12.0052
▁tiotlac	-12.0052
▁geography	-12.0052
▁debris	-12.0052
▁mankind	-12.0052
▁shaking	-12.0052
▁orgasm	-12.0052
▁Siberia	-12.0052
▁steep	-12.0052
▁grape	-12.0052
▁chaotic	-12.0052
▁resonate	-12.0053
▁prophet	-12.0053
▁Large	-12.0055
▁swap	-12.0055
▁niquijtos	-12.025
▁pursu	-12.0254
sustainability	-12.0369
conflict	-12.037
▁Univers	-12.0421
equichihuilijcau	-12.0422
▁Himalaya	-12.0422
▁Jerusalem	-12.0422
▁Ministry	-12.0422
▁Organization	-12.0422
▁Secretary	-12.0422
▁cathedral	-12.0422
▁circular	-12.0422
▁criteria	-12.0422
▁flexibility	-12.0422
▁kindergarten	-12.0422
▁offspring	-12.0422
▁oquetzteu	-12.0422
▁sequencing	-12.0422
▁terrified	-12.0422
▁ultraviolet	-12.0422
▁vocabulary	-12.0422
castigaros	-12.0422
▁Food	-12.0422
▁Government	-12.0422
▁abundant	-12.0422
▁appliance	-12.0422
▁cocktail	-12.0422
▁principal	-12.0422
▁Hindu	-12.0422
▁dissolve	-12.0422
▁drought	-12.0422
▁holiday	-12.0422
▁obscur	-12.0422
▁vacation	-12.0422
▁Isabel	-12.0422
▁Mozart	-12.0422
▁powder	-12.0422
▁settlement	-12.0422
▁Office	-12.0422
▁commute	-12.0422
▁xoletl	-12.0422
▁innovate	-12.0422
tsitsin	-12.0422
▁smash	-12.0422
▁stigma	-12.0422
▁quenmanian	-12.0422
▁ciento	-12.0422
▁mixture	-12.0422
▁taboo	-12.0422
▁ancestr	-12.0422
▁oksi	-12.0422
zetzel	-12.0422
▁immerse	-12.0423
machiltia	-12.0424
Nimitz	-12.0426
zajlan	-12.0427
hicuacen	-12.0428
▁folk	-12.0485
ixtlalo	-12.0706
condition	-12.0754
poetry	-12.0754
wheel	-12.0754
effective	-12.0754
security	-12.0754
compassion	-12.0754
community	-12.0754
Thank	-12.0754
nomachtijcahuan	-12.0786
▁Amaqueme	-12.08
▁differ	-12.0803
cientific	-12.0805
tlamatquilis	-12.0807
voluntary	-12.0807
▁Beethoven	-12.0807
▁Conference	-12.0807
▁Defense	-12.0807
▁Field	-12.0807
▁Gordon	-12.0807
▁Magdalena	-12.0807
▁Suppose	-12.0807
▁Supreme	-12.0807
▁Teocaltitlan	-12.0807
▁Timoteo	-12.0807
▁celebrity	-12.0807
▁embracing	-12.0807
▁feminist	-12.0807
▁frightened	-12.0807
▁galleries	-12.0807
▁guidance	-12.0807
▁improvisation	-12.0807
▁injustice	-12.0807
▁kitalilia	-12.0807
▁mammogram	-12.0807
▁mechtiochihua	-12.0807
▁microscopic	-12.0807
▁nenquineltocaj	-12.0807
▁nohueyimati	-12.0807
▁nurturing	-12.0807
▁observing	-12.0807
▁practicing	-12.0807
▁reclaim	-12.0807
▁relativity	-12.0807
▁teicnelilistli	-12.0807
▁tlacochcalca	-12.0807
▁tlaxilacaleque	-12.0807
▁totlaçonantzin	-12.0807
▁undergraduate	-12.0807
▁vibrating	-12.0807
▁wavelength	-12.0807
▁Jefferson	-12.0807
▁Laptop	-12.0807
▁eBay	-12.0807
▁ghost	-12.0807
▁miniatur	-12.0807
▁neglect	-12.0807
▁nosehuiaj	-12.0807
▁ohuajnotelquetz	-12.0807
▁preparation	-12.0807
▁reinforce	-12.0807
▁sovereign	-12.0807
▁vector	-12.0807
▁1997	-12.0807
▁cabinet	-12.0807
▁fishermen	-12.0807
▁kineki	-12.0807
▁paralysis	-12.0807
Xhuajla	-12.0807
▁delusion	-12.0807
▁Bruce	-12.0807
▁History	-12.0807
▁curator	-12.0807
▁hammer	-12.0807
Á	-12.1207
=	-12.3489
—	-12.5107
#	-12.6451
	-12.7165
ö	-12.7165
%	-12.8767
@	-12.8767
*	-12.9677
ü	-13.0677
–	-13.0677
è	-13.3038
ä	-13.4466
	-13.4466
(	-13.608
ë	-13.8133
^	-14.0633
ê	-14.0633
♫	-14.3914
â	-14.3966
|	-14.3966
É	-14.3966
à	-14.3966
ã	-14.3966
ô	-14.8966
	-14.8966
»	-14.8966
“	-15.8918
•	-15.8958
ø	-15.8959
	-15.896
`	-15.8961
‘	-15.8962
Ç	-15.8963
$	-15.8964
―	-15.8965
ò	-15.8966
\	-15.8966
£	-15.8966
{	-15.8966
«	-15.8966
Í	-15.8966
Ñ	-15.8966
î	-15.8966
ï	-15.8966
ā	-15.8966
ć	-15.8966
ē	-15.8966
ĭ	-15.8966
̊	-15.8966
你	-15.8966
葱	-15.8966
送	-15.8966
Ú	-15.8966
ñ	-15.8966
ľ	-15.8966
