<pad>	0
<unk>	0
<s>	0
</s>	0
,	-3.14197
.	-3.27545
s	-3.34425
▁de	-4.02316
▁a	-4.09122
▁the	-4.34218
▁que	-4.3896
▁la	-4.63701
▁to	-4.74604
▁y	-4.7635
▁en	-4.7669
'	-4.80612
▁in	-4.87245
▁of	-4.89146
▁el	-5.00218
▁and	-5.02874
n	-5.13473
▁I	-5.15048
▁that	-5.1694
t	-5.19973
▁es	-5.33052
r	-5.37478
▁un	-5.41547
▁no	-5.42251
▁is	-5.4384
▁it	-5.45586
▁you	-5.47024
▁los	-5.4766
▁se	-5.49182
a	-5.61192
▁	-5.61242
▁we	-5.64652
▁on	-5.6772
▁una	-5.69577
▁And	-5.74714
▁con	-5.75274
▁Y	-5.76186
:	-5.76204
d	-5.80424
▁lo	-5.8109
re	-5.81635
▁para	-5.82586
es	-5.83463
▁--	-5.85197
o	-5.86447
?	-5.87445
▁this	-5.90349
e	-6.00815
▁por	-6.06668
▁"	-6.07247
▁las	-6.08444
ing	-6.09072
▁del	-6.10037
c	-6.1085
m	-6.12922
▁me	-6.14426
y	-6.17132
ed	-6.17175
▁was	-6.22864
▁for	-6.23935
-	-6.24797
te	-6.26616
▁su	-6.27234
▁o	-6.29876
▁have	-6.33598
▁yn	-6.34681
▁are	-6.34859
▁can	-6.35703
l	-6.36731
▁they	-6.41006
▁más	-6.4145
▁So	-6.42773
▁be	-6.43757
▁como	-6.44052
▁al	-6.44232
▁with	-6.46597
▁¿	-6.51375
ca	-6.5475
▁what	-6.5486
_	-6.55374
do	-6.56486
▁do	-6.57211
to	-6.57762
▁about	-6.58485
;	-6.59252
co	-6.60751
ve	-6.61701
er	-6.62265
▁mi	-6.63293
ly	-6.67464
▁at	-6.68102
▁so	-6.68135
▁si	-6.69702
la	-6.71479
i	-6.73469
▁not	-6.74481
▁all	-6.75684
ma	-6.76249
al	-6.77398
p	-6.77686
g	-6.78672
▁one	-6.79565
▁there	-6.8202
lo	-6.83401
▁re	-6.84388
le	-6.84655
ra	-6.84825
▁he	-6.84833
▁like	-6.87091
▁A	-6.8729
▁an	-6.87406
ta	-6.87517
ó	-6.88596
ar	-6.88782
j	-6.88933
▁It	-6.89317
mos	-6.89397
an	-6.90293
▁esta	-6.90357
en	-6.90383
▁my	-6.90636
h	-6.91135
▁from	-6.91669
▁people	-6.91786
li	-6.92654
▁te	-6.93397
se	-6.95521
ll	-6.96096
▁Pero	-6.98215
z	-6.99768
▁este	-7.00356
ti	-7.00499
▁le	-7.00935
ri	-7.01193
▁just	-7.01576
▁or	-7.01728
da	-7.02432
▁No	-7.02865
b	-7.03535
▁esto	-7.03849
▁muy	-7.03978
u	-7.04057
▁son	-7.04819
▁ca	-7.05423
pa	-7.05587
▁but	-7.05666
me	-7.06184
▁know	-7.07316
qui	-7.07675
▁out	-7.07943
▁as	-7.08261
▁very	-7.08708
▁está	-7.0873
▁niman	-7.09054
no	-7.09613
▁We	-7.09941
▁But	-7.11298
."	-7.11655
▁pero	-7.11669
ción	-7.12116
▁años	-7.13093
mo	-7.13151
▁The	-7.13421
▁up	-7.13562
▁if	-7.13604
▁our	-7.13696
▁these	-7.14758
▁♫	-7.14826
▁La	-7.15148
/	-7.15471
▁going	-7.16085
que	-7.16644
mente	-7.18704
▁ha	-7.20485
▁cuando	-7.20712
na	-7.20839
é	-7.21055
▁eso	-7.22235
▁by	-7.22444
▁ma	-7.23315
▁hacer	-7.23689
in	-7.25017
▁them	-7.25079
on	-7.25292
▁porque	-7.25743
▁todo	-7.26094
▁mo	-7.26105
▁don	-7.26115
▁e	-7.27791
▁get	-7.28032
▁see	-7.28482
as	-7.28917
ro	-7.29007
▁think	-7.29351
▁ser	-7.29369
▁when	-7.29981
▁because	-7.30393
▁which	-7.31111
▁had	-7.31168
ce	-7.31856
▁El	-7.32182
ndo	-7.3251
▁En	-7.32726
▁more	-7.33795
▁sobre	-7.345
▁who	-7.34817
▁Así	-7.35678
▁really	-7.3574
▁hay	-7.35925
▁how	-7.36921
▁i	-7.36984
▁sus	-7.37943
í	-7.37975
▁tla	-7.38925
▁us	-7.39838
ted	-7.39873
ch	-7.40438
ba	-7.40492
▁Es	-7.40495
▁would	-7.40586
▁here	-7.40774
▁your	-7.41139
▁era	-7.41188
▁mundo	-7.41292
ci	-7.41434
▁yejhuan	-7.41607
▁were	-7.41679
▁algo	-7.41969
f	-7.42016
▁yo	-7.43107
de	-7.43281
▁their	-7.45174
▁cosas	-7.45222
▁fue	-7.46614
▁This	-7.46748
▁world	-7.47174
▁time	-7.47227
▁has	-7.47575
mi	-7.4776
▁ver	-7.48751
▁You	-7.48928
▁ye	-7.49956
▁go	-7.50066
▁some	-7.51595
cu	-7.52187
▁gente	-7.52609
ir	-7.52721
tla	-7.52867
▁ne	-7.53186
▁In	-7.5331
I	-7.53979
▁actually	-7.54111
▁Dios	-7.54397
▁way	-7.5489
▁uno	-7.55353
os	-7.55787
po	-7.55823
▁into	-7.5585
tion	-7.56043
▁qui	-7.5628
A	-7.56504
▁todos	-7.56701
th	-7.57044
▁other	-7.57295
"	-7.57739
ne	-7.57788
▁want	-7.57968
▁aquí	-7.58622
▁things	-7.5896
▁Se	-7.60118
di	-7.60343
▁will	-7.60547
▁ica	-7.61249
▁nos	-7.61288
▁puede	-7.61593
▁ni	-7.61718
▁then	-7.62116
▁qué	-7.62591
▁ipan	-7.62794
▁where	-7.63014
pe	-7.63086
▁now	-7.63365
▁así	-7.63582
x	-7.63868
á	-7.64159
▁years	-7.64858
▁vez	-7.65453
k	-7.65767
▁make	-7.6659
or	-7.68472
▁les	-7.68853
▁co	-7.68969
ni	-7.69096
ron	-7.69497
can	-7.69861
tzin	-7.70231
▁tiene	-7.70411
▁también	-7.70453
ya	-7.70699
▁Now	-7.70744
pan	-7.71704
▁di	-7.72103
▁De	-7.72271
▁ya	-7.72381
▁They	-7.7252
".	-7.72643
▁Si	-7.72879
il	-7.73064
▁could	-7.7339
▁personas	-7.74707
▁idea	-7.75073
▁said	-7.75118
ten	-7.75334
▁ti	-7.75485
▁tu	-7.7577
▁están	-7.75852
▁been	-7.75903
go	-7.75975
chi	-7.76378
▁vida	-7.76569
▁va	-7.76589
▁tiempo	-7.76703
vi	-7.76964
▁hace	-7.7899
ga	-7.79685
▁He	-7.80209
tu	-7.80223
▁got	-7.80301
▁something	-7.80817
▁hecho	-7.81008
▁right	-7.81061
com	-7.81235
▁dos	-7.82121
▁C	-7.82731
▁thing	-7.83014
ck	-7.83693
▁sólo	-7.83936
▁bien	-7.84046
▁forma	-7.84352
▁much	-7.84374
so	-7.84386
▁O	-7.84507
▁donde	-7.84616
ter	-7.84758
w	-7.85064
▁S	-7.85239
ic	-7.85507
▁over	-7.85525
▁little	-7.85961
ado	-7.86107
▁two	-7.86321
▁mucho	-7.86827
▁ex	-7.87551
yo	-7.87801
▁gran	-7.89042
▁back	-7.89302
pi	-7.8943
hui	-7.89552
▁first	-7.89907
el	-7.90079
▁po	-7.90127
▁work	-7.90158
▁p	-7.90242
▁ahora	-7.90629
▁E	-7.90801
ía	-7.90801
▁look	-7.91203
▁say	-7.91256
▁most	-7.91278
▁pro	-7.91334
us	-7.91748
▁need	-7.91833
▁come	-7.92946
dos	-7.93003
▁than	-7.93503
▁she	-7.93687
▁Lo	-7.93777
▁él	-7.94347
▁his	-7.94402
▁life	-7.95017
▁manera	-7.95018
▁kind	-7.95656
▁ese	-7.95669
?"	-7.95709
▁those	-7.96594
▁sin	-7.96794
les	-7.96933
▁cada	-7.97419
be	-7.97553
ur	-7.98083
▁That	-7.98188
▁cómo	-7.98333
man	-7.98351
zo	-7.98605
▁pueden	-7.9876
▁also	-7.98876
ment	-7.99323
▁estaba	-7.99573
▁ellos	-7.99886
▁Ma	-7.99924
ion	-7.99963
▁oqui	-8.00227
▁tenemos	-8.0055
!	-8.00888
▁había	-8.00895
...	-8.01334
ido	-8.01498
▁mismo	-8.0156
▁año	-8.01671
▁dijo	-8.01793
S	-8.01801
▁entre	-8.02428
▁parte	-8.02555
▁even	-8.02926
za	-8.0396
▁sa	-8.03981
▁10	-8.04218
▁tan	-8.05023
▁esa	-8.0571
▁hasta	-8.05823
▁take	-8.0596
▁estos	-8.05981
▁decir	-8.06255
▁B	-8.06802
▁estas	-8.07055
▁realmente	-8.07494
▁Por	-8.07745
▁nuestro	-8.08857
▁Entonces	-8.09587
v	-8.10056
tra	-8.10239
C	-8.10276
bo	-8.10332
▁han	-8.10593
▁her	-8.10721
▁new	-8.10769
it	-8.10853
▁lot	-8.11025
▁only	-8.11183
fi	-8.11209
ent	-8.11702
▁día	-8.11859
▁Me	-8.11923
va	-8.12074
is	-8.12748
▁down	-8.12788
hua	-8.12953
▁good	-8.13208
▁part	-8.13615
idad	-8.14315
▁did	-8.14355
▁different	-8.14522
▁There	-8.14833
▁desde	-8.1502
▁T	-8.15248
▁around	-8.15299
tic	-8.15336
ol	-8.1547
▁ynic	-8.15531
huan	-8.15578
▁da	-8.15665
▁podemos	-8.15855
▁tipo	-8.15943
▁tienen	-8.1618
bi	-8.1623
▁poco	-8.16366
▁pa	-8.16717
▁Te	-8.16823
▁dis	-8.16999
▁K	-8.1721
squej	-8.17239
gu	-8.17654
▁luego	-8.17697
ciones	-8.17933
ia	-8.17989
▁many	-8.18036
▁use	-8.18306
ry	-8.18712
▁sea	-8.19051
ation	-8.19077
con	-8.19277
▁nosotros	-8.19343
▁otra	-8.19367
▁real	-8.19455
▁What	-8.1948
▁Ahora	-8.19807
lu	-8.20079
nos	-8.20151
▁Jesús	-8.20282
tin	-8.20482
et	-8.20664
ul	-8.20711
▁lugar	-8.20757
amos	-8.208
▁Al	-8.21032
▁car	-8.21675
▁ve	-8.22018
▁pe	-8.22382
rse	-8.22565
▁per	-8.22862
ting	-8.23074
▁19	-8.23142
▁20	-8.23368
ación	-8.23401
▁Los	-8.23727
un	-8.23897
▁through	-8.24404
▁being	-8.24568
▁pi	-8.24863
ke	-8.24938
▁entonces	-8.2584
▁Auh	-8.25974
quej	-8.26034
▁ba	-8.26046
est	-8.26052
able	-8.26249
▁put	-8.26346
▁quin	-8.2654
▁nuestra	-8.26579
▁Mi	-8.26647
ity	-8.26908
án	-8.27056
ja	-8.27079
si	-8.27165
ers	-8.27272
▁otro	-8.27833
lli	-8.28481
ge	-8.28569
▁pre	-8.28641
ada	-8.29048
las	-8.2932
das	-8.29459
▁x	-8.29537
talks	-8.29605
www	-8.30001
tro	-8.30118
▁human	-8.30152
▁same	-8.305
://	-8.30519
ru	-8.30596
▁ht	-8.30785
html	-8.30864
ad	-8.30876
▁doing	-8.31501
▁historia	-8.31755
▁estamos	-8.3181
iendo	-8.31815
▁man	-8.32145
▁talk	-8.32326
tp	-8.32537
ando	-8.32588
ría	-8.32617
ist	-8.32799
▁después	-8.33318
▁tra	-8.33491
▁mejor	-8.33705
▁casa	-8.33736
ton	-8.33892
▁G	-8.34041
▁every	-8.34295
▁Esto	-8.345
D	-8.34562
▁change	-8.34722
▁three	-8.34839
ng	-8.3514
ac	-8.35283
▁Esta	-8.35359
▁vi	-8.35571
ua	-8.35605
▁mis	-8.36104
▁tener	-8.37405
▁todas	-8.37405
▁tell	-8.38476
ban	-8.3852
cho	-8.38524
▁If	-8.38621
O	-8.39092
ón	-8.3922
▁Su	-8.39323
vo	-8.39387
▁trabajo	-8.39449
ieron	-8.39573
▁creo	-8.39715
]	-8.39922
▁P	-8.4027
nd	-8.40446
tli	-8.40472
▁agua	-8.40487
▁F	-8.4064
▁ce	-8.41215
▁day	-8.41251
▁called	-8.41353
▁tlen	-8.41397
▁To	-8.41638
▁nuevo	-8.41643
2	-8.41853
▁ir	-8.42219
▁3	-8.42282
▁yejhua	-8.4247
▁U	-8.42775
▁tres	-8.42817
▁realidad	-8.4306
▁R	-8.43357
▁pregunta	-8.43427
ive	-8.43431
▁well	-8.43592
▁importante	-8.43766
▁cu	-8.43839
aj	-8.43885
tica	-8.44001
▁fact	-8.44213
▁mar	-8.44482
tar	-8.45017
ú	-8.45055
▁any	-8.45106
▁mu	-8.45203
▁give	-8.45336
T	-8.45591
rá	-8.45669
▁made	-8.45739
P	-8.45741
▁[	-8.45952
▁millones	-8.4603
▁menos	-8.46176
▁tal	-8.46488
ual	-8.46511
▁show	-8.46637
▁ejemplo	-8.46687
▁momento	-8.47117
▁percent	-8.47359
▁Ca	-8.47619
▁Este	-8.47925
3	-8.48025
▁hemos	-8.48034
nte	-8.48115
Qué	-8.48169
per	-8.48278
tor	-8.48295
▁mí	-8.48504
▁Porque	-8.48522
▁ta	-8.49493
uh	-8.49499
jo	-8.50099
▁Mo	-8.503
▁let	-8.50317
▁Well	-8.50523
▁year	-8.5054
cha	-8.50615
▁durante	-8.50887
▁sal	-8.50933
▁otros	-8.51063
▁nada	-8.51253
▁own	-8.51364
ida	-8.51469
▁sino	-8.51514
▁Le	-8.51609
▁Cuando	-8.51657
▁why	-8.5216
id	-8.5234
xi	-8.52534
mp	-8.5278
5	-8.52867
▁start	-8.52883
▁na	-8.53022
▁niños	-8.53218
▁should	-8.534
ho	-8.5345
M	-8.53863
encia	-8.53975
▁great	-8.54165
▁sí	-8.54269
▁brain	-8.54411
▁San	-8.55
dor	-8.55074
▁find	-8.55213
▁Co	-8.55249
▁san	-8.55528
▁place	-8.5557
tia	-8.55641
▁allí	-8.55755
▁solo	-8.55878
1	-8.56053
▁tierra	-8.56095
▁hacia	-8.56362
▁tecnología	-8.56444
ita	-8.56462
at	-8.56726
No	-8.56868
▁simple	-8.57028
▁tanto	-8.57085
▁thought	-8.57233
▁antes	-8.5757
▁Con	-8.57708
▁yhuan	-8.58235
▁ella	-8.5836
tos	-8.587
▁ihuan	-8.58788
▁muchos	-8.59009
▁dice	-8.59141
▁after	-8.59152
▁sort	-8.59185
▁li	-8.59212
▁mil	-8.59285
▁contra	-8.59345
ré	-8.59366
▁mean	-8.59463
▁Re	-8.59758
▁big	-8.5984
E	-8.59868
▁acerca	-8.60193
tz	-8.60226
▁important	-8.6026
▁cual	-8.60393
▁tenía	-8.60403
▁hablar	-8.60439
▁comp	-8.60555
por	-8.60601
8	-8.60633
ble	-8.6076
▁bit	-8.60808
fe	-8.61375
▁sido	-8.6146
▁didn	-8.61468
tas	-8.6172
ha	-8.61877
mic	-8.61909
▁Hay	-8.6192
▁went	-8.61967
▁oncan	-8.62014
the	-8.62064
ye	-8.62134
▁today	-8.62612
▁off	-8.6272
▁hoy	-8.62788
▁toda	-8.63008
▁problema	-8.63087
▁ro	-8.63399
▁course	-8.63434
▁ven	-8.63516
▁cosa	-8.63884
B	-8.63933
▁veces	-8.64055
▁algunos	-8.64116
ió	-8.64144
▁cuenta	-8.64224
▁came	-8.6444
N	-8.64554
▁15	-8.64765
io	-8.64805
▁point	-8.64865
▁ustedes	-8.6502
▁poder	-8.65709
▁fa	-8.6574
▁system	-8.65946
tl	-8.65947
▁started	-8.66061
▁another	-8.66109
▁ciudad	-8.66114
▁Di	-8.66136
▁last	-8.66313
▁problem	-8.66453
▁control	-8.66585
cal	-8.66698
▁primera	-8.66708
ados	-8.6678
▁Un	-8.6743
▁par	-8.67431
sión	-8.67435
▁story	-8.67476
▁X	-8.67529
▁punto	-8.67642
▁quiero	-8.67703
▁long	-8.6813
emos	-8.6815
▁India	-8.68236
▁¡	-8.68301
▁auh	-8.68375
▁saben	-8.68434
▁sistema	-8.68463
▁ago	-8.6848
▁before	-8.68603
imos	-8.68694
▁million	-8.6873
▁bo	-8.68964
▁estar	-8.69043
▁call	-8.6907
ica	-8.69275
▁nuestros	-8.6965
6	-8.69705
▁com	-8.69815
▁estoy	-8.70326
cen	-8.70426
▁ic	-8.70496
▁help	-8.70523
▁TED	-8.70532
▁quite	-8.70606
▁never	-8.70907
Y	-8.71023
▁unos	-8.71066
cua	-8.7118
▁muchas	-8.71226
aron	-8.71306
▁love	-8.71322
▁t	-8.71611
▁ideas	-8.71723
▁xihuitl	-8.7242
los	-8.72608
▁Yo	-8.72665
▁siempre	-8.7286
▁haciendo	-8.72861
▁-	-8.73273
▁medio	-8.73278
▁Thank	-8.73323
ig	-8.73357
▁mayor	-8.73372
▁sub	-8.73413
▁voy	-8.73417
ina	-8.73508
aba	-8.73539
▁better	-8.73575
ven	-8.73641
▁example	-8.73721
▁estado	-8.74094
▁him	-8.74137
▁Ha	-8.74358
▁might	-8.74656
▁12	-8.74882
▁hu	-8.74948
min	-8.74966
qué	-8.75011
L	-8.7513
am	-8.75286
llo	-8.75523
che	-8.75689
▁verdad	-8.75754
▁ho	-8.75763
ran	-8.75858
▁next	-8.75919
▁fe	-8.76101
ncia	-8.76114
aya	-8.76183
▁able	-8.76228
▁otras	-8.7626
▁trata	-8.76434
▁imp	-8.76463
▁together	-8.76552
7	-8.76754
▁ijcuac	-8.76757
▁few	-8.76767
▁Bueno	-8.76776
▁water	-8.76959
men	-8.7707
fa	-8.77144
▁found	-8.77174
cui	-8.77249
▁again	-8.77291
▁c	-8.7749
▁funciona	-8.77494
▁social	-8.77508
nta	-8.77664
▁1	-8.77802
age	-8.77803
▁bueno	-8.7782
▁pasa	-8.77834
bre	-8.77956
▁itech	-8.7798
▁design	-8.78424
ui	-8.78545
▁does	-8.78695
▁global	-8.78767
▁fuera	-8.78911
▁ahí	-8.78981
▁tic	-8.79113
ue	-8.79303
tes	-8.79494
tal	-8.79509
▁ompa	-8.79521
▁pensar	-8.79555
ine	-8.7973
▁4	-8.7979
um	-8.79894
▁oc	-8.79916
ger	-8.79924
▁play	-8.7995
▁school	-8.80172
▁d	-8.80195
▁alguien	-8.80314
▁video	-8.80386
ie	-8.80434
▁cerebro	-8.80599
▁Eso	-8.8072
▁nunca	-8.80742
▁50	-8.808
rán	-8.80834
▁D	-8.80835
▁still	-8.80956
catl	-8.80995
▁persona	-8.81018
R	-8.81019
▁each	-8.81077
▁technology	-8.81255
▁huel	-8.81285
▁pampa	-8.81302
ate	-8.81363
▁Because	-8.81385
▁misma	-8.81413
ness	-8.81843
▁high	-8.81971
dores	-8.82139
▁ican	-8.82269
he	-8.82297
▁am	-8.82412
▁quen	-8.82422
▁30	-8.82703
ian	-8.82744
illa	-8.82879
▁fi	-8.82966
▁nochi	-8.82998
▁van	-8.83104
%	-8.83122
▁Juan	-8.8319
▁podría	-8.8339
▁grandes	-8.83697
sta	-8.83711
▁5	-8.83863
hi	-8.83965
ria	-8.84167
▁question	-8.84671
▁light	-8.84791
▁between	-8.85262
▁whole	-8.85281
▁auto	-8.85391
▁ypan	-8.85406
je	-8.85946
oc	-8.85961
▁significa	-8.86057
4	-8.86071
▁cualquier	-8.86175
▁Ba	-8.86213
son	-8.86303
▁inter	-8.86343
ntes	-8.86613
▁hacerlo	-8.86695
▁amo	-8.86723
▁move	-8.86766
▁believe	-8.86766
▁used	-8.86837
ak	-8.86853
▁yc	-8.86881
▁done	-8.8691
▁tlacatl	-8.86928
ut	-8.86951
▁bu	-8.8707
▁mas	-8.87143
mati	-8.87148
▁2	-8.87243
,"	-8.87516
▁understand	-8.87605
▁ci	-8.87693
▁Sa	-8.87761
▁hombre	-8.87937
gen	-8.88196
▁When	-8.88523
bu	-8.88776
▁g	-8.88857
▁four	-8.88927
▁hi	-8.89155
ña	-8.89263
▁Una	-8.89275
▁tengo	-8.89332
▁looking	-8.89356
▁fueron	-8.89491
▁number	-8.89533
▁data	-8.89596
▁parece	-8.89857
▁feel	-8.89893
▁usar	-8.89938
▁cambio	-8.90076
▁live	-8.90106
▁end	-8.90221
▁u	-8.90283
den	-8.90299
▁final	-8.90381
ty	-8.90532
▁“	-8.90545
▁nic	-8.9064
▁personal	-8.90854
▁Na	-8.91301
▁become	-8.9135
ex	-8.91513
▁doesn	-8.91777
▁Ro	-8.91845
▁children	-8.92006
▁ki	-8.92022
▁nican	-8.92095
ous	-8.9247
duc	-8.92569
▁fr	-8.92675
▁primero	-8.92739
toca	-8.9282
ero	-8.92992
▁aún	-8.93354
▁información	-8.93356
▁second	-8.93423
▁encontrar	-8.93485
pre	-8.93599
▁lado	-8.93612
▁How	-8.93659
▁mujeres	-8.93731
jquej	-8.93741
ka	-8.9407
tiva	-8.94145
▁gr	-8.94304
zque	-8.94414
era	-8.94517
▁mal	-8.94553
▁―	-8.94555
▁art	-8.94628
▁may	-8.94648
ían	-8.94676
▁"¿	-8.94699
nce	-8.94774
ras	-8.94826
▁dicho	-8.94881
▁cre	-8.94888
lang	-8.94918
▁primer	-8.94947
em	-8.94973
▁space	-8.94987
▁100	-8.95185
▁grande	-8.95216
▁person	-8.95248
▁algunas	-8.9534
cer	-8.95615
▁Las	-8.95677
▁building	-8.958
▁Po	-8.96016
til	-8.96338
▁quien	-8.9666
▁form	-8.96784
▁create	-8.96829
▁always	-8.96881
▁natural	-8.96995
▁modo	-8.97005
▁wanted	-8.97049
▁cr	-8.97195
▁try	-8.97197
▁grupo	-8.97298
▁cuerpo	-8.97466
ró	-8.97468
▁hizo	-8.97587
▁Do	-8.97713
▁public	-8.97747
ster	-8.97958
cas	-8.97976
▁dar	-8.98013
▁días	-8.9811
▁caso	-8.98513
▁...	-8.98631
▁señor	-8.98731
▁alrededor	-8.98738
▁llamado	-8.98794
▁too	-8.99284
▁N	-8.99311
X	-8.99648
▁home	-8.99826
▁energía	-9.00027
▁esas	-9.00034
▁st	-9.00104
▁For	-9.00241
▁particular	-9.00507
▁China	-9.00587
▁hacen	-9.00602
tequi	-9.0061
▁project	-9.00634
▁power	-9.00673
▁trying	-9.00782
▁picture	-9.00808
▁sh	-9.0101
▁war	-9.01114
xo	-9.01123
▁dentro	-9.01266
ud	-9.0127
▁M	-9.01279
gan	-9.01418
▁cerca	-9.01424
▁allá	-9.01454
▁Niman	-9.01459
▁Mar	-9.01461
car	-9.01472
▁dinero	-9.01508
▁reason	-9.01509
mej	-9.01525
ros	-9.01539
▁madre	-9.01601
▁away	-9.01826
▁Internet	-9.02037
Cómo	-9.02129
▁Bo	-9.02131
▁Aquí	-9.02236
lan	-9.02301
▁under	-9.02347
▁working	-9.02374
G	-9.02474
ito	-9.02599
▁red	-9.02635
Niman	-9.02648
▁crear	-9.02652
▁ever	-9.02772
ling	-9.02807
▁haber	-9.02908
▁'	-9.02935
▁diferentes	-9.03129
▁She	-9.03197
lti	-9.0371
tive	-9.03722
for	-9.03792
ki	-9.03839
▁Africa	-9.0421
▁cal	-9.04254
▁mientras	-9.04266
▁espacio	-9.04356
▁cierto	-9.04418
▁On	-9.0443
quin	-9.04566
▁dije	-9.04636
▁women	-9.04751
rd	-9.0491
maca	-9.04928
ber	-9.04955
▁sense	-9.05115
▁pasado	-9.05191
tlan	-9.05369
▁One	-9.05628
▁general	-9.05675
▁casi	-9.05912
▁plan	-9.05919
tle	-9.05963
▁proyecto	-9.05995
▁cuatro	-9.06101
▁datos	-9.06238
▁Francisco	-9.06374
Por	-9.06563
▁b	-9.0657
▁luz	-9.06615
ista	-9.06621
▁esos	-9.0667
▁V	-9.06685
▁open	-9.06814
land	-9.06853
▁New	-9.06963
ente	-9.06976
H	-9.0706
gar	-9.07062
der	-9.07076
tech	-9.07153
▁oquin	-9.07225
▁country	-9.07299
tico	-9.07527
▁alguna	-9.07614
▁old	-9.07651
▁kids	-9.07708
up	-9.07876
,000	-9.08049
▁difícil	-9.08316
▁nombre	-9.08317
▁everything	-9.08411
▁país	-9.08679
▁money	-9.08728
▁vamos	-9.0881
▁Vi	-9.08812
▁five	-9.08882
amente	-9.08924
red	-9.09026
▁hand	-9.09058
▁gracias	-9.09065
▁experiment	-9.09089
▁Cristo	-9.0926
▁hard	-9.09479
▁sabe	-9.09538
▁eran	-9.09539
▁stuff	-9.09735
▁posible	-9.10023
▁took	-9.10055
▁Para	-9.10092
▁cuajli	-9.10122
▁estaban	-9.10171
lar	-9.10175
one	-9.10178
▁dólares	-9.10238
▁interesante	-9.10249
▁tomar	-9.10338
▁York	-9.1041
▁line	-9.10646
lin	-9.10661
▁planeta	-9.10693
▁business	-9.10851
▁nuestras	-9.10896
▁small	-9.10944
▁case	-9.10957
▁problemas	-9.10959
▁color	-9.1123
huaj	-9.11235
rio	-9.11318
cia	-9.11425
▁nadie	-9.11466
▁Hi	-9.11605
▁bastante	-9.11659
▁material	-9.11748
ies	-9.11822
▁Ni	-9.11827
▁puedo	-9.11951
▁mind	-9.12149
▁Tla	-9.12338
▁using	-9.12354
ring	-9.12419
▁través	-9.1244
▁future	-9.1258
00	-9.12601
▁care	-9.12603
▁process	-9.12637
▁information	-9.12748
▁food	-9.12773
▁Pa	-9.12778
▁Ho	-9.1284
▁bi	-9.12849
▁Gracias	-9.1293
▁maybe	-9.12972
▁im	-9.13031
ally	-9.13391
remos	-9.13436
▁llama	-9.1355
ever	-9.13618
▁futuro	-9.1372
▁energy	-9.13752
▁miles	-9.13756
nequi	-9.1384
▁media	-9.139
qua	-9.13909
du	-9.1397
▁padre	-9.14007
king	-9.14075
▁18	-9.141
ant	-9.14209
▁segundo	-9.14218
▁escuela	-9.14218
▁enough	-9.14219
▁thinking	-9.14259
▁w	-9.14392
▁interesting	-9.14592
▁getting	-9.14597
mon	-9.14637
▁side	-9.14773
ful	-9.14943
▁bring	-9.1499
▁head	-9.15042
▁left	-9.1536
▁soy	-9.15523
col	-9.15759
▁cost	-9.15841
▁supuesto	-9.15872
▁quiere	-9.15877
▁catca	-9.15944
▁best	-9.16012
U	-9.1603
lle	-9.16063
▁bar	-9.16133
V	-9.16154
rnos	-9.16254
▁These	-9.16306
▁L	-9.16409
▁Mexico	-9.16543
mer	-9.16553
▁men	-9.16564
▁tej	-9.16612
cion	-9.16649
▁moment	-9.16769
▁experience	-9.16842
tur	-9.1692
▁sé	-9.16932
▁incluso	-9.16945
▁6	-9.16995
▁ten	-9.17061
▁Ti	-9.17214
iva	-9.1728
▁diseño	-9.17355
▁clase	-9.17467
▁An	-9.17472
▁mayoría	-9.17522
▁My	-9.1762
▁sol	-9.17669
tan	-9.17723
▁cambiar	-9.17894
ach	-9.17971
ance	-9.18008
▁itoca	-9.18058
▁planet	-9.18407
▁Pedro	-9.18493
adas	-9.18754
▁local	-9.18764
▁f	-9.18779
▁probably	-9.18806
▁Jo	-9.18896
▁respuesta	-9.18911
nes	-9.19367
▁11	-9.19381
hual	-9.19401
▁group	-9.19433
▁bajo	-9.19485
▁super	-9.19673
▁happened	-9.19732
.000	-9.19762
op	-9.19764
▁campa	-9.19845
ez	-9.19885
ther	-9.1998
▁Da	-9.2012
▁mujer	-9.20187
▁hombres	-9.20448
▁pequeño	-9.20496
▁Here	-9.20546
té	-9.2061
ible	-9.20628
▁lleva	-9.20647
▁making	-9.20674
▁número	-9.20808
▁gusta	-9.20812
▁produce	-9.20819
▁sentido	-9.20857
▁podía	-9.21213
▁También	-9.21234
mpa	-9.21253
tions	-9.21377
▁razón	-9.21448
▁(	-9.21452
▁means	-9.21532
)	-9.21555
▁muestra	-9.21663
▁juego	-9.2177
▁OK	-9.21857
F	-9.21942
▁ask	-9.21948
▁Como	-9.22007
dio	-9.22193
▁dollars	-9.22201
▁nivel	-9.2222
▁diferente	-9.2249
▁room	-9.22499
▁talking	-9.22565
▁hijos	-9.22789
▁comes	-9.22865
▁coming	-9.22919
▁cinco	-9.2296
▁r	-9.23008
ales	-9.23175
ish	-9.23195
▁Ya	-9.23199
▁ga	-9.2347
liz	-9.23557
▁Hu	-9.23712
▁pues	-9.23714
’	-9.23724
▁build	-9.23827
▁camino	-9.23835
▁model	-9.23896
▁piece	-9.23969
iz	-9.24061
▁Be	-9.24086
lica	-9.24087
pro	-9.24328
▁cha	-9.24384
▁visto	-9.24397
▁ayuda	-9.244
▁arte	-9.24422
▁Ne	-9.2445
▁says	-9.2458
▁mano	-9.24657
▁music	-9.24736
▁W	-9.24797
▁ijqui	-9.248
▁14	-9.24971
▁7	-9.25364
▁close	-9.25389
▁guerra	-9.25493
9	-9.25557
▁anything	-9.25716
▁quimo	-9.25745
▁8	-9.25763
▁product	-9.25778
▁poner	-9.25863
▁fin	-9.25896
▁será	-9.25904
▁nueva	-9.26071
nic	-9.26238
▁keep	-9.26392
chan	-9.26411
▁países	-9.26524
rado	-9.26567
▁far	-9.26575
▁pretty	-9.26614
▁answer	-9.26615
▁40	-9.26682
▁mucha	-9.26714
▁sería	-9.26746
old	-9.26806
▁cen	-9.2683
▁billion	-9.26848
▁without	-9.26921
▁Bien	-9.26948
▁cor	-9.26984
ces	-9.27064
ging	-9.27075
technology	-9.27272
▁200	-9.2732
tado	-9.2755
▁happen	-9.27567
▁entender	-9.27602
we	-9.2762
ej	-9.2774
▁vosotros	-9.27749
tzi	-9.2782
less	-9.27873
▁buena	-9.27917
▁somos	-9.28008
▁science	-9.28162
▁body	-9.2821
▁Ar	-9.28282
▁test	-9.28296
▁llegar	-9.28439
▁sent	-9.28474
▁half	-9.28476
▁St	-9.28675
tima	-9.28752
▁turn	-9.28802
ving	-9.28891
▁health	-9.29272
listli	-9.29448
▁Earth	-9.29475
▁face	-9.29601
▁book	-9.2964
▁All	-9.29823
▁16	-9.29826
▁pan	-9.2993
tric	-9.30041
▁market	-9.30066
▁share	-9.30083
▁Mu	-9.30185
ff	-9.30187
lia	-9.3043
▁col	-9.30639
▁pueblo	-9.30642
▁tlacamej	-9.3077
▁imagine	-9.30878
wa	-9.31143
▁across	-9.3135
▁tri	-9.3141
ino	-9.31429
▁individual	-9.31586
▁çan	-9.31779
▁goes	-9.31903
▁largo	-9.31967
",	-9.31982
▁algún	-9.32156
▁proceso	-9.32181
ador	-9.32363
ph	-9.32485
▁bad	-9.32527
▁libro	-9.32773
▁salud	-9.32813
▁saber	-9.32826
tivo	-9.32863
ico	-9.32896
gue	-9.32977
ep	-9.33051
▁causa	-9.33061
wi	-9.33142
▁saw	-9.33277
▁toma	-9.33468
▁habían	-9.33507
▁palabra	-9.33508
▁imagen	-9.33672
▁else	-9.33799
ario	-9.33864
▁game	-9.3389
ix	-9.34114
▁reco	-9.34148
ap	-9.34166
▁past	-9.34276
▁ge	-9.34305
az	-9.34373
▁palabras	-9.34466
▁diciendo	-9.34473
▁sound	-9.34607
▁Li	-9.34638
▁dónde	-9.34644
▁pequeña	-9.34646
▁niño	-9.34681
▁programa	-9.34699
▁normal	-9.34764
▁issues	-9.34799
▁diferencia	-9.3484
▁ab	-9.34859
ivo	-9.34891
▁chi	-9.34929
▁México	-9.34962
▁sabemos	-9.35096
▁matter	-9.3513
▁computer	-9.35156
ris	-9.35168
▁gu	-9.35284
▁told	-9.35313
▁13	-9.35376
tza	-9.3542
▁Señor	-9.35524
▁principio	-9.35701
▁nemo	-9.35757
▁such	-9.35778
tura	-9.35903
K	-9.36017
▁especie	-9.36051
▁Or	-9.36095
▁vemos	-9.36161
▁set	-9.3625
ante	-9.36304
▁zan	-9.3638
▁hacemos	-9.36451
par	-9.3647
yaj	-9.3655
▁six	-9.36782
▁hue	-9.36806
▁countries	-9.36823
▁read	-9.37
▁gobierno	-9.37069
aban	-9.37122
zca	-9.37143
▁familia	-9.37151
▁basically	-9.37199
▁importa	-9.37208
ey	-9.37389
▁cantidad	-9.3747
▁Let	-9.3753
▁living	-9.37592
▁siguiente	-9.37697
nder	-9.37797
▁todavía	-9.37823
▁Tu	-9.37855
▁figure	-9.3795
ste	-9.38032
ea	-9.38101
▁compar	-9.38151
▁llega	-9.38165
▁noche	-9.38185
▁ru	-9.38198
fica	-9.38273
▁necesita	-9.38276
▁learn	-9.38408
▁uan	-9.38446
mal	-9.38537
huac	-9.38587
vid	-9.38589
▁exist	-9.38706
▁África	-9.3871
jca	-9.38715
▁llamada	-9.38833
▁experiencia	-9.38838
▁gas	-9.38905
▁quería	-9.38929
▁hijo	-9.38943
▁Ja	-9.39198
▁ante	-9.3921
▁ju	-9.39304
▁culture	-9.39324
▁hope	-9.39329
▁having	-9.39432
▁fall	-9.3945
▁simplemente	-9.39523
▁ch	-9.39592
▁cancer	-9.39634
▁pr	-9.39646
▁Creo	-9.39739
▁happens	-9.39833
▁tema	-9.39893
▁sucede	-9.40003
▁job	-9.40121
▁igual	-9.40252
0	-9.40289
rme	-9.40438
▁young	-9.40509
fu	-9.40569
▁Bu	-9.40596
▁Ju	-9.40639
▁puedes	-9.40644
mil	-9.4077
▁meses	-9.40873
▁ciencia	-9.40931
▁lu	-9.41025
▁lives	-9.41121
▁vol	-9.41133
▁research	-9.41159
▁mira	-9.41217
▁both	-9.41234
▁mercado	-9.41289
▁Tenemos	-9.41297
▁nu	-9.41394
▁ome	-9.41437
▁name	-9.41472
▁age	-9.41531
rra	-9.41632
▁child	-9.4165
▁fu	-9.41666
ismo	-9.41759
▁saying	-9.41783
▁once	-9.41804
▁omoteneuh	-9.41815
▁propio	-9.41829
oj	-9.41861
ard	-9.41984
▁Ta	-9.42096
ler	-9.42112
▁deja	-9.42177
▁language	-9.42208
▁H	-9.42254
▁state	-9.42354
▁construir	-9.42398
▁micro	-9.4242
▁Que	-9.42452
ani	-9.42466
▁línea	-9.42472
▁emp	-9.4258
▁level	-9.42608
ñ	-9.42677
▁Les	-9.42762
▁inside	-9.42778
ner	-9.42878
▁bio	-9.42912
line	-9.42961
ugh	-9.43084
▁digo	-9.43085
dora	-9.43086
yol	-9.43142
▁base	-9.43153
▁propia	-9.43197
rlo	-9.43314
leg	-9.4336
▁corazón	-9.43402
▁estudio	-9.43402
▁habla	-9.43497
tac	-9.4357
W	-9.436
▁asked	-9.43665
▁J	-9.43774
zar	-9.43795
of	-9.43847
cien	-9.43913
▁nenqui	-9.43942
▁humanos	-9.44084
▁modelo	-9.44172
iente	-9.44194
ah	-9.44218
▁single	-9.44249
▁cabeza	-9.4434
▁Pablo	-9.4434
jli	-9.44421
▁seen	-9.44533
▁llevar	-9.44582
▁omo	-9.44599
▁pie	-9.44673
pia	-9.44726
illo	-9.44826
▁lugares	-9.4484
ary	-9.44851
▁Quiero	-9.44888
tlaca	-9.45094
ín	-9.45107
▁self	-9.45243
▁disease	-9.45287
▁top	-9.4529
aciones	-9.45335
▁later	-9.45345
▁sp	-9.45569
▁present	-9.45585
▁government	-9.45588
des	-9.45633
Pero	-9.45644
▁guy	-9.45687
▁Go	-9.4577
▁American	-9.45804
uel	-9.45823
ism	-9.45868
Yejhua	-9.46149
cy	-9.46226
én	-9.46344
▁beautiful	-9.46381
▁hear	-9.46387
ores	-9.46455
▁history	-9.46455
and	-9.4658
▁comida	-9.46589
▁As	-9.46637
▁family	-9.46794
mas	-9.46841
▁Ce	-9.46871
▁machine	-9.46933
có	-9.4699
▁trabajar	-9.47041
▁Quemaj	-9.47056
science	-9.47129
ko	-9.47154
▁25	-9.4727
▁animal	-9.47319
▁pasar	-9.47328
▁times	-9.47353
▁Can	-9.47386
▁baja	-9.47481
▁less	-9.47592
▁universe	-9.47627
ries	-9.47656
▁program	-9.47806
▁debe	-9.47839
▁crea	-9.47987
om	-9.48043
▁remember	-9.48184
▁du	-9.48239
▁days	-9.48308
▁edificio	-9.48324
▁makes	-9.48536
▁doctor	-9.48607
mento	-9.4863
ab	-9.4867
ás	-9.48734
▁problems	-9.48808
▁moral	-9.48861
pal	-9.4893
▁empezar	-9.49028
▁Ka	-9.49142
▁heart	-9.49329
van	-9.49329
▁xi	-9.49402
ome	-9.49436
▁wrong	-9.49452
ño	-9.49465
▁visual	-9.49515
pil	-9.49666
▁possible	-9.49736
▁almost	-9.49748
idos	-9.49839
cio	-9.49868
▁ocean	-9.49881
▁Él	-9.49919
ward	-9.50183
▁dijeron	-9.50237
▁run	-9.50298
▁similar	-9.50306
nk	-9.50394
▁mother	-9.50403
▁true	-9.50449
ding	-9.50622
▁tú	-9.50645
▁die	-9.5065
▁yet	-9.50685
pol	-9.50728
huica	-9.50734
yotl	-9.50776
▁increíble	-9.50803
▁yej	-9.50842
▁partes	-9.50879
rían	-9.50914
▁arriba	-9.51023
▁perfect	-9.51124
▁Je	-9.51221
▁br	-9.51237
▁film	-9.51317
▁escala	-9.5159
▁aunque	-9.51605
▁fácil	-9.51746
▁tienes	-9.51831
istas	-9.51914
▁tlaca	-9.51964
▁within	-9.51969
▁nemejhuamej	-9.52036
▁Fue	-9.5214
▁front	-9.52172
aca	-9.52423
▁order	-9.52486
▁células	-9.52488
Ma	-9.52531
▁hora	-9.5268
▁while	-9.52839
▁Why	-9.52859
▁xqui	-9.52896
pen	-9.53012
▁fuerza	-9.53061
▁cells	-9.53298
▁tech	-9.53304
▁digital	-9.53355
▁ellas	-9.53372
igh	-9.53457
▁couple	-9.53502
▁cielo	-9.53511
▁nothing	-9.53512
▁sta	-9.53516
ize	-9.5354
▁fo	-9.53566
ise	-9.53615
▁fundamental	-9.53649
put	-9.53765
▁humano	-9.53891
gg	-9.53934
▁whether	-9.53945
led	-9.54
▁60	-9.54006
val	-9.54045
▁yehuatl	-9.54139
ones	-9.54155
huitl	-9.54174
▁study	-9.54242
▁heard	-9.54246
▁yejhuamej	-9.5428
▁sociedad	-9.54391
▁frente	-9.54428
▁amazing	-9.5454
▁post	-9.54553
▁sitio	-9.54553
▁act	-9.54598
▁alta	-9.54627
▁Uno	-9.54687
▁música	-9.54689
▁cáncer	-9.54839
▁fund	-9.54868
ence	-9.54898
▁enter	-9.54908
ço	-9.54971
▁girl	-9.54989
ized	-9.55013
dad	-9.55053
au	-9.55084
fin	-9.55091
▁sanoyej	-9.55138
▁ijcon	-9.55139
▁Chris	-9.55288
ound	-9.55292
▁representa	-9.55368
▁tras	-9.55395
▁éste	-9.55439
▁met	-9.55454
eo	-9.5546
▁centro	-9.55474
▁God	-9.55478
teca	-9.55493
cent	-9.55553
nia	-9.55635
side	-9.55812
▁large	-9.55886
▁Luego	-9.55891
▁probablemente	-9.55912
nas	-9.56095
nti	-9.56157
▁mente	-9.5619
▁already	-9.56194
▁siglo	-9.56198
▁dejar	-9.56217
mar	-9.56231
▁opera	-9.56305
▁Nueva	-9.56346
ning	-9.56355
ok	-9.56365
▁cer	-9.56413
▁gana	-9.56433
▁humana	-9.56483
▁qua	-9.56538
▁grow	-9.56541
▁iba	-9.56614
ice	-9.56631
▁CA	-9.56641
▁chico	-9.56683
▁dicen	-9.56701
tij	-9.5671
▁computadora	-9.56964
▁difference	-9.57108
▁hospital	-9.57108
▁medida	-9.57115
▁ley	-9.57377
▁United	-9.57415
▁education	-9.57553
▁since	-9.57592
▁looked	-9.57597
ray	-9.57612
ped	-9.58004
▁everybody	-9.5803
iza	-9.58051
ula	-9.58067
▁actual	-9.58159
▁force	-9.58228
cido	-9.58414
▁At	-9.5844
The	-9.58492
ities	-9.58496
▁vivir	-9.58526
▁robot	-9.58578
▁Estados	-9.58642
▁nature	-9.58651
▁vista	-9.58738
ile	-9.58746
▁Unidos	-9.58828
▁sure	-9.58891
▁Com	-9.5896
tzinco	-9.58996
iti	-9.59005
▁months	-9.59035
▁área	-9.59117
▁must	-9.59273
▁ello	-9.59323
▁80	-9.59504
izar	-9.59568
▁Tierra	-9.59744
oso	-9.59749
▁often	-9.5977
▁amor	-9.59859
▁axcan	-9.59907
way	-9.60048
▁Pro	-9.60162
▁Ga	-9.60289
yan	-9.60294
▁result	-9.60313
ili	-9.60337
▁stop	-9.60415
mina	-9.60531
▁looks	-9.60573
▁ways	-9.60636
▁tratar	-9.60663
▁estructura	-9.60691
▁equipo	-9.60701
mac	-9.60704
▁city	-9.60785
▁película	-9.6085
▁muerte	-9.60851
▁viene	-9.6092
ura	-9.6095
▁necesitamos	-9.60981
▁ciento	-9.61014
tribu	-9.61102
stan	-9.61126
▁Ac	-9.61138
▁ayudar	-9.61146
▁efecto	-9.61168
▁stories	-9.61168
▁cara	-9.61169
tlal	-9.61251
uc	-9.61302
▁community	-9.61327
art	-9.61338
end	-9.61403
aria	-9.61411
▁environment	-9.61467
fer	-9.61483
▁política	-9.61487
▁os	-9.61711
▁solar	-9.61796
▁Va	-9.61838
▁word	-9.61839
▁haya	-9.61977
ij	-9.62003
▁hual	-9.62041
▁Todo	-9.62144
ión	-9.62171
ular	-9.62211
▁record	-9.62254
▁pueda	-9.62355
▁Son	-9.62472
▁campo	-9.62491
▁myself	-9.62641
bla	-9.62691
▁Todos	-9.62712
▁seis	-9.62749
▁cell	-9.62795
▁ojos	-9.62796
▁entire	-9.6281
▁mani	-9.62819
▁Sin	-9.62838
▁nejhua	-9.62937
cauh	-9.6299
umb	-9.6299
▁lead	-9.63043
▁rápido	-9.63099
▁gustaría	-9.63145
▁tro	-9.63226
▁participa	-9.63261
▁ésta	-9.63262
▁existe	-9.6327
▁extra	-9.63277
¡	-9.63322
rios	-9.63385
▁full	-9.63454
▁taking	-9.63459
▁minutos	-9.6347
▁hablando	-9.63506
▁species	-9.63587
▁built	-9.63588
▁pur	-9.636
cue	-9.63637
ze	-9.63669
▁free	-9.63704
▁enorme	-9.63759
▁favor	-9.63818
▁app	-9.64004
machti	-9.64039
▁movimiento	-9.64078
▁drive	-9.64095
▁Cha	-9.64125
▁amigos	-9.64256
rna	-9.64321
▁observa	-9.64387
▁ytoca	-9.64397
▁acuerdo	-9.64407
arse	-9.64432
▁gen	-9.6445
▁animales	-9.6446
▁paso	-9.645
▁itself	-9.64531
▁view	-9.64545
▁virus	-9.64576
▁hice	-9.64712
▁deep	-9.64757
▁words	-9.6487
▁nen	-9.64928
▁foto	-9.65003
▁object	-9.65068
rg	-9.65099
▁siendo	-9.65122
▁rep	-9.65149
▁Car	-9.65163
▁though	-9.6518
▁preocupa	-9.65234
lí	-9.65255
▁America	-9.65303
cel	-9.65308
ana	-9.65406
▁plant	-9.65422
quen	-9.65437
▁night	-9.65486
▁someone	-9.65665
▁desa	-9.6569
▁siete	-9.65743
ohua	-9.65749
▁Chi	-9.65824
▁woman	-9.659
▁sabía	-9.65904
▁cue	-9.65946
chiuh	-9.65983
▁emb	-9.66041
▁land	-9.66065
▁mexica	-9.66104
▁alto	-9.66199
chihua	-9.66215
▁Era	-9.66226
▁States	-9.66236
ite	-9.66368
▁quizá	-9.66433
▁Google	-9.6657
ano	-9.66647
▁until	-9.66809
▁pay	-9.66865
▁house	-9.66866
▁cua	-9.66951
ehua	-9.67034
▁padres	-9.671
▁decided	-9.67207
▁somebody	-9.67245
idas	-9.67323
▁happening	-9.67412
▁máquina	-9.67415
▁genera	-9.67447
▁fish	-9.6748
▁último	-9.67481
▁Lu	-9.67481
icio	-9.67565
▁consider	-9.677
▁oil	-9.67721
▁embargo	-9.67755
▁xo	-9.67791
▁Man	-9.6788
▁vo	-9.67884
▁Wi	-9.67912
▁tenían	-9.67942
▁etc	-9.68002
▁entra	-9.68029
▁bomb	-9.68097
▁multi	-9.68145
▁desarrollo	-9.68155
▁trans	-9.6817
tlajtla	-9.68413
▁océano	-9.68438
▁Muchas	-9.68439
▁places	-9.68476
▁aprender	-9.685
▁allow	-9.68597
▁imágenes	-9.68609
cómo	-9.68695
éis	-9.68707
▁EE	-9.68712
▁dado	-9.68737
if	-9.68758
▁completely	-9.68826
▁iuh	-9.68964
▁prop	-9.68969
▁huge	-9.69019
▁air	-9.69117
▁period	-9.69138
▁ja	-9.69142
▁buy	-9.69249
▁muerto	-9.693
▁dan	-9.69369
▁mech	-9.69485
▁espera	-9.69623
▁rat	-9.69648
▁dio	-9.69667
▁vino	-9.69711
▁cultura	-9.69804
▁ourselves	-9.69818
▁seguro	-9.69821
tec	-9.69837
▁inic	-9.69843
▁John	-9.69851
▁animals	-9.69858
▁hueyi	-9.69956
▁k	-9.70323
▁leg	-9.70336
ide	-9.70343
▁abajo	-9.70345
▁spend	-9.70351
▁Par	-9.70365
▁exactly	-9.70379
vert	-9.70459
▁arm	-9.70537
▁respond	-9.70597
izado	-9.70613
vis	-9.70616
▁Ye	-9.70663
▁pienso	-9.70691
cahua	-9.70764
▁horas	-9.70773
▁queremos	-9.70863
▁value	-9.70876
sum	-9.70957
quiz	-9.7119
▁tus	-9.71316
▁público	-9.71395
▁economic	-9.71424
▁últimos	-9.71503
Es	-9.71553
▁capacidad	-9.71572
▁obra	-9.7158
▁fun	-9.71658
▁trabajando	-9.71666
▁manos	-9.71668
▁Martin	-9.717
▁negocio	-9.71748
▁invent	-9.71773
El	-9.71799
ijli	-9.71849
tzon	-9.7185
global	-9.71919
▁leave	-9.71935
▁atención	-9.71937
▁rather	-9.72109
▁serie	-9.7211
▁completamente	-9.72135
▁cenca	-9.72167
J	-9.72274
▁mismos	-9.72322
▁única	-9.72459
▁cap	-9.72581
cciones	-9.72611
▁volver	-9.72664
▁modern	-9.72712
▁Per	-9.72735
zqui	-9.72741
▁neuro	-9.72742
via	-9.72803
▁behavior	-9.72817
▁comer	-9.72834
▁Pi	-9.72867
▁comunidad	-9.72881
▁claro	-9.72899
▁step	-9.729
▁rest	-9.72903
▁along	-9.73007
▁atrás	-9.73013
lhui	-9.73052
▁sur	-9.73153
design	-9.73178
▁Z	-9.73315
▁mañana	-9.73355
▁naturaleza	-9.73356
▁Ve	-9.73432
UU	-9.73585
▁works	-9.7359
miento	-9.736
▁sala	-9.73677
▁última	-9.73716
Te	-9.73729
▁pass	-9.73771
gin	-9.73797
▁buen	-9.73803
ense	-9.73848
Oh	-9.73884
▁vend	-9.7393
▁Está	-9.73997
▁Sal	-9.74096
mu	-9.74111
▁cla	-9.74127
vir	-9.74217
▁nuevas	-9.74287
▁won	-9.74379
▁challenge	-9.74441
▁precio	-9.74447
iones	-9.74474
tlaj	-9.74517
▁suficiente	-9.74547
ier	-9.74687
▁fui	-9.74723
▁minutes	-9.74783
hue	-9.74874
ece	-9.74914
▁structure	-9.74989
▁Then	-9.75063
▁learned	-9.75108
▁Miguel	-9.75172
▁otla	-9.75179
rry	-9.75227
▁justicia	-9.7525
▁melahuac	-9.75356
▁shape	-9.7536
▁recib	-9.75373
▁familiar	-9.75419
▁factor	-9.75465
▁tarde	-9.75542
▁quipia	-9.75665
▁became	-9.75727
▁Esa	-9.75787
▁Maria	-9.75874
▁themselves	-9.75908
▁image	-9.75922
▁hall	-9.75984
▁web	-9.76171
▁edad	-9.76189
▁único	-9.76278
▁company	-9.76279
▁cut	-9.7638
▁especial	-9.76446
udi	-9.76448
▁wonderful	-9.76472
▁decía	-9.76489
▁short	-9.76526
▁third	-9.76535
▁quichihua	-9.76609
▁Cu	-9.76632
▁nuclear	-9.76649
▁seguir	-9.76651
▁itla	-9.76653
▁junto	-9.76689
▁demás	-9.76817
day	-9.7697
▁economía	-9.77022
▁tlahtohuani	-9.77022
▁papel	-9.77026
▁aplica	-9.77213
50	-9.77217
▁aire	-9.77223
mber	-9.7726
▁star	-9.77323
▁historias	-9.7733
amiento	-9.77336
▁eres	-9.7738
▁resto	-9.77387
▁mostrar	-9.77421
▁debería	-9.77689
▁pequeños	-9.77759
▁Sh	-9.77772
▁early	-9.77774
▁sign	-9.77852
spect	-9.77932
▁Después	-9.7796
▁charla	-9.77963
▁happy	-9.77981
De	-9.77982
ección	-9.78148
▁prueba	-9.78149
▁cierta	-9.7815
▁escrito	-9.7815
▁cuanto	-9.78152
▁society	-9.78189
▁investiga	-9.78259
▁demasiado	-9.78338
▁population	-9.78338
▁hicieron	-9.78338
▁universo	-9.78339
▁write	-9.78342
▁quién	-9.78345
lic	-9.78429
▁l	-9.78431
eu	-9.78505
▁win	-9.78521
▁ninguna	-9.78527
▁esté	-9.78538
▁fuerte	-9.78542
▁educación	-9.78581
ial	-9.78596
▁quieren	-9.78662
▁Gu	-9.78708
▁explain	-9.78717
▁pattern	-9.78718
▁alcalde	-9.78718
▁least	-9.78724
▁David	-9.78732
▁termina	-9.78799
▁calle	-9.7883
pri	-9.78835
▁sonido	-9.78861
▁pesos	-9.78895
▁knew	-9.78907
▁tlajtlamach	-9.78907
▁común	-9.78908
▁permite	-9.79065
▁created	-9.79099
▁semana	-9.79216
huatl	-9.79237
▁mensaje	-9.79289
!"	-9.79336
▁cause	-9.79475
▁Sí	-9.79555
nemi	-9.7956
▁op	-9.79662
▁xcuajli	-9.79671
▁nemi	-9.79681
bar	-9.79814
▁hold	-9.7987
titlan	-9.79957
áis	-9.79982
▁tamaño	-9.80056
▁lograr	-9.80196
--	-9.80211
▁sometimes	-9.8025
▁justo	-9.80375
▁guys	-9.80384
loc	-9.80399
▁rey	-9.80408
▁bacteria	-9.80441
neltoc	-9.80489
▁seven	-9.80571
▁dicha	-9.80606
▁amount	-9.80635
”	-9.80647
▁phone	-9.80741
mach	-9.80768
▁Hace	-9.80796
▁pensé	-9.80841
▁outside	-9.80943
ology	-9.80951
▁seem	-9.80981
▁turns	-9.81002
by	-9.81078
han	-9.8129
▁Sól	-9.81297
▁oportunidad	-9.81305
▁expect	-9.81412
nec	-9.81524
tch	-9.81574
▁speak	-9.81969
▁testigo	-9.82
bles	-9.82048
▁m	-9.82106
▁básicamente	-9.82221
▁quienes	-9.82321
▁oh	-9.82376
▁derecho	-9.82415
▁fl	-9.82563
▁mundial	-9.8259
▁eight	-9.82594
▁mitad	-9.82639
ecto	-9.82733
▁anti	-9.82764
▁mochiuh	-9.82764
▁solution	-9.82789
▁against	-9.82843
▁90	-9.82846
form	-9.82846
▁17	-9.83002
▁cumpl	-9.83011
▁photograph	-9.83069
plo	-9.83106
▁murió	-9.83185
▁relación	-9.83187
▁beginning	-9.83192
▁salir	-9.83196
▁protect	-9.83209
La	-9.83292
▁moving	-9.83306
▁couldn	-9.83323
▁orden	-9.83356
▁hours	-9.83389
▁resulta	-9.83486
▁realiza	-9.83492
▁team	-9.83514
▁impact	-9.83543
▁tlatohuani	-9.83582
▁exactamente	-9.83586
▁gave	-9.8362
Well	-9.83667
▁sentir	-9.8377
tivos	-9.83825
▁paper	-9.83891
▁Espíritu	-9.83982
▁capital	-9.83982
▁vio	-9.84094
ció	-9.84153
▁médico	-9.84182
ça	-9.84214
culture	-9.84222
▁compañía	-9.84383
▁superficie	-9.84383
▁pudiera	-9.84383
▁metztli	-9.84387
▁map	-9.84564
▁blue	-9.84585
▁everyone	-9.84636
▁movie	-9.8464
yec	-9.84686
▁detect	-9.84709
▁población	-9.84786
▁Just	-9.84804
▁viaje	-9.84805
▁common	-9.84847
▁type	-9.84989
On	-9.85002
▁Estamos	-9.851
▁kinds	-9.85159
▁feeling	-9.8517
▁difficult	-9.8519
entertainment	-9.8519
▁ixquich	-9.8519
▁scale	-9.85194
▁Uds	-9.85233
▁worked	-9.85241
cac	-9.85391
▁mor	-9.8541
▁poor	-9.85476
▁mirar	-9.85581
▁mental	-9.8568
▁Ex	-9.85692
▁formas	-9.85781
▁toTeco	-9.85801
▁uso	-9.85918
▁9	-9.86001
▁usando	-9.86021
▁friends	-9.86062
▁valor	-9.86134
▁marca	-9.86154
▁learning	-9.86164
▁cri	-9.86187
▁depend	-9.86213
▁walk	-9.86235
▁sigue	-9.86258
▁encanta	-9.86274
bio	-9.86278
▁teacher	-9.86347
▁70	-9.86576
▁century	-9.86619
▁encuentra	-9.86619
▁Diego	-9.86619
▁hubiera	-9.86619
▁pal	-9.86626
▁tiqui	-9.86689
ncy	-9.86805
▁Europe	-9.86824
▁size	-9.8687
▁tenido	-9.86903
▁green	-9.86927
▁shows	-9.86936
▁darle	-9.86965
ping	-9.87003
▁Yejhua	-9.8701
▁surface	-9.87031
▁arma	-9.87147
▁terms	-9.87156
▁genes	-9.8718
▁Tra	-9.87201
▁podrían	-9.8722
▁Ella	-9.87221
▁segunda	-9.87237
use	-9.87252
gún	-9.87281
ización	-9.87437
▁World	-9.87444
▁negro	-9.87447
icia	-9.87475
▁ski	-9.87556
▁Estos	-9.87615
▁corta	-9.87694
▁certain	-9.87733
▁casas	-9.87747
▁network	-9.8786
▁black	-9.87893
iera	-9.87898
▁Okay	-9.87926
▁total	-9.88153
▁explora	-9.88229
▁contar	-9.88309
tter	-9.88377
▁wasn	-9.88506
▁original	-9.88581
▁kilo	-9.88582
.”	-9.88596
table	-9.88644
▁area	-9.88675
▁pul	-9.88783
▁students	-9.88834
ju	-9.88859
▁urban	-9.88907
▁taken	-9.88929
▁mejores	-9.89068
illi	-9.8908
▁watch	-9.89105
tiuh	-9.89161
▁Santo	-9.89187
▁software	-9.89327
▁error	-9.89328
▁nech	-9.89358
▁nochimej	-9.89363
Lo	-9.89376
▁Cor	-9.896
▁week	-9.89748
▁inspira	-9.89753
caj	-9.89852
▁apart	-9.89861
▁relationship	-9.89964
▁pensamos	-9.89964
cle	-9.89972
▁investigación	-9.90054
▁señal	-9.90146
▁Pueden	-9.9025
▁pone	-9.90388
▁éxito	-9.90389
ías	-9.90397
▁tratando	-9.90407
▁friend	-9.9043
tili	-9.90439
tors	-9.90471
▁eat	-9.90621
antes	-9.90657
ik	-9.90663
▁kid	-9.90676
▁iglesia	-9.90816
▁middle	-9.90816
▁interact	-9.9083
▁libre	-9.90875
▁begin	-9.91004
▁inteligente	-9.91031
▁yquac	-9.91035
ábamos	-9.9117
▁field	-9.91246
▁flu	-9.91283
▁escucha	-9.9138
ney	-9.91432
▁empieza	-9.91462
▁siquiera	-9.91462
▁powerful	-9.91488
time	-9.91496
▁Podemos	-9.91525
▁acaba	-9.91538
hu	-9.91549
▁motor	-9.91569
fra	-9.91591
▁pat	-9.91667
▁instead	-9.91678
▁pick	-9.91691
▁tree	-9.9173
osa	-9.91801
▁oti	-9.9181
▁expert	-9.91927
istic	-9.91936
▁presente	-9.91955
nel	-9.92015
▁aman	-9.92041
rlos	-9.92149
▁prove	-9.922
▁thousands	-9.92226
▁cambia	-9.92255
▁ima	-9.9229
▁permit	-9.92321
▁esperanza	-9.92329
▁crisis	-9.92331
ical	-9.9252
▁device	-9.92573
huiz	-9.92611
light	-9.9262
▁center	-9.92629
▁whatever	-9.9264
▁questions	-9.92657
adores	-9.92664
ley	-9.92709
▁seeing	-9.92714
▁effect	-9.92743
▁finalmente	-9.92759
▁Han	-9.92797
▁Ellos	-9.92827
▁corre	-9.92894
▁news	-9.9299
▁compra	-9.93085
▁finally	-9.9314
ático	-9.93211
uj	-9.93308
▁Tiene	-9.93363
toc	-9.93422
▁perhaps	-9.93423
▁za	-9.93429
▁hija	-9.93495
▁principal	-9.93783
▁document	-9.93869
ticatca	-9.93915
▁carga	-9.94071
▁llegó	-9.94085
▁servicio	-9.94085
▁delante	-9.94101
ática	-9.94115
mpo	-9.94292
▁zona	-9.94311
▁estudiantes	-9.94346
▁podríamos	-9.94401
▁laboratorio	-9.94529
▁eyes	-9.94536
▁vidas	-9.94744
▁Tenochtitlan	-9.94751
▁support	-9.94751
▁region	-9.94764
▁enfermedad	-9.94896
out	-9.94955
nahuati	-9.94968
▁choice	-9.94975
▁pen	-9.95031
▁pieza	-9.95032
▁Estoy	-9.95109
quetl	-9.9516
▁mexicas	-9.95175
▁seguridad	-9.95198
▁Fa	-9.95201
▁riesgo	-9.95423
macac	-9.95433
▁Qui	-9.95436
▁entrar	-9.95526
ek	-9.95555
▁emerge	-9.95648
▁compartir	-9.95651
día	-9.95754
▁follow	-9.95871
▁measure	-9.95873
▁break	-9.95873
▁comportamiento	-9.95874
▁sl	-9.95915
▁cuales	-9.96015
▁oquijlij	-9.96072
tando	-9.96097
▁father	-9.96136
ngún	-9.96152
▁respecto	-9.96249
cial	-9.96301
▁boy	-9.96312
▁busca	-9.96315
▁oquimijlij	-9.96324
▁cannot	-9.96342
▁yourself	-9.96349
ctli	-9.96367
▁Ijcuac	-9.96434
▁hicimos	-9.96552
cí	-9.96569
▁verde	-9.96603
▁utiliza	-9.96656
▁experimento	-9.96735
▁Some	-9.96889
grade	-9.96961
▁ambiente	-9.97006
▁easy	-9.97009
zi	-9.97201
▁adapt	-9.97241
ker	-9.97282
▁save	-9.97307
▁interested	-9.97394
▁element	-9.97418
tzintli	-9.97449
▁quijtohua	-9.97463
mpl	-9.97481
during	-9.97492
▁wall	-9.97591
▁Wa	-9.97675
▁drug	-9.97693
▁siente	-9.97694
year	-9.97738
▁central	-9.97755
▁kill	-9.9779
ear	-9.97822
▁Des	-9.97849
▁decision	-9.97853
▁ciudades	-9.97899
top	-9.97922
▁habría	-9.9793
taj	-9.97934
xtla	-9.97962
▁stand	-9.97985
▁puedan	-9.9806
cau	-9.98086
▁petróleo	-9.98153
tique	-9.98156
▁transforma	-9.98164
▁thank	-9.9821
▁Calli	-9.98268
▁trabaja	-9.98276
▁escuchar	-9.98302
▁turned	-9.98339
▁espíritu	-9.98384
▁izquierda	-9.98384
▁reach	-9.98405
▁ocho	-9.98433
▁hago	-9.98602
▁||	-9.98616
▁conocimiento	-9.98616
tlah	-9.9862
▁prima	-9.98621
▁separa	-9.98705
▁feet	-9.98713
▁vivo	-9.9874
▁Dr	-9.98864
▁Du	-9.98962
▁bebé	-9.98969
▁low	-9.98998
▁puerta	-9.9908
▁behind	-9.9908
▁falta	-9.99084
arlo	-9.99149
▁tend	-9.99153
temo	-9.9927
▁artist	-9.9933
▁dark	-9.99475
▁flow	-9.99564
▁derecha	-9.99571
What	-9.99653
▁hacía	-9.99748
▁gone	-9.99748
▁azul	-9.99791
▁death	-9.99862
▁ran	-9.99873
▁Fi	-9.99903
▁DNA	-10.0002
▁slow	-10.0003
▁cool	-10.001
▁Don	-10.0012
▁Oh	-10.0017
▁tried	-10.0019
bilidad	-10.002
▁ability	-10.0023
▁tonajli	-10.0025
▁sex	-10.0035
▁treat	-10.0046
tinemi	-10.0049
▁crecimiento	-10.0049
▁mapa	-10.0055
xiuh	-10.0056
▁totalmente	-10.0058
You	-10.006
▁voz	-10.0062
row	-10.0067
▁haga	-10.007
▁física	-10.0072
pampa	-10.008
▁preguntas	-10.0081
▁Gran	-10.0091
▁character	-10.0096
▁obtener	-10.0096
▁resultado	-10.0101
▁add	-10.0109
▁systems	-10.0111
bb	-10.0116
▁street	-10.012
▁tenga	-10.0125
▁lab	-10.0126
tiaya	-10.0139
▁quita	-10.0139
▁bus	-10.0141
▁began	-10.0141
▁jóvenes	-10.0144
▁blanco	-10.0144
ándose	-10.0146
▁hit	-10.0146
▁longer	-10.0148
▁lots	-10.015
▁stage	-10.0153
nemili	-10.0153
▁movement	-10.0154
▁transform	-10.0156
Ha	-10.0163
ajsi	-10.0166
▁terrible	-10.0167
▁calcula	-10.0168
▁risk	-10.0168
▁viendo	-10.017
▁quickly	-10.0173
▁ocse	-10.018
▁tuvo	-10.0189
icos	-10.0191
▁comenzó	-10.0191
▁teoría	-10.0192
▁blog	-10.0193
▁quitla	-10.0199
▁given	-10.0206
cional	-10.0213
▁teléfono	-10.0215
▁vuelta	-10.0215
▁report	-10.0222
▁visión	-10.0224
▁hands	-10.023
tlatla	-10.0231
over	-10.0238
▁imaginar	-10.0247
▁enseña	-10.0248
▁robots	-10.0252
▁text	-10.0257
▁Ese	-10.0259
▁cámara	-10.0264
▁puesto	-10.0271
▁changed	-10.0278
▁pronto	-10.0288
▁Tochtli	-10.0289
▁gui	-10.0289
lly	-10.0301
tiz	-10.0308
my	-10.0309
mun	-10.031
▁página	-10.0312
▁sale	-10.0312
▁Estas	-10.0315
▁realized	-10.0317
▁cultural	-10.0319
like	-10.0323
▁Pas	-10.0334
▁focus	-10.034
▁except	-10.0341
pix	-10.0351
▁Bar	-10.0353
▁interior	-10.0361
gram	-10.0371
▁solve	-10.0371
▁Acatl	-10.0374
He	-10.0375
▁xne	-10.0375
ship	-10.0378
▁send	-10.0383
▁People	-10.0385
▁physical	-10.0385
▁década	-10.0385
▁barrio	-10.0394
▁fast	-10.0404
▁law	-10.041
▁oído	-10.041
▁Cada	-10.0427
▁generation	-10.0428
▁special	-10.0434
▁Right	-10.0434
▁ocurre	-10.0434
▁levanta	-10.0434
▁cruz	-10.0434
eros	-10.0436
her	-10.0438
▁chica	-10.0445
▁oncaj	-10.0452
▁complex	-10.0456
ología	-10.0458
▁hebreos	-10.0458
▁simply	-10.0458
▁usted	-10.047
▁situation	-10.0483
▁logra	-10.0486
tero	-10.0495
rate	-10.0495
▁adult	-10.0502
▁electro	-10.0506
▁Th	-10.0507
▁discover	-10.0512
▁junta	-10.0513
▁Puede	-10.0516
▁quizás	-10.0528
▁political	-10.0533
tina	-10.0539
pic	-10.054
press	-10.0543
▁represent	-10.0544
▁takes	-10.0546
▁descubr	-10.0549
▁pasando	-10.0557
▁Tal	-10.0567
▁pequeñas	-10.0572
▁niña	-10.0573
▁dios	-10.0581
▁civil	-10.0582
▁joven	-10.0582
▁situación	-10.0582
▁wonder	-10.0583
▁libros	-10.0585
▁concept	-10.0588
low	-10.0588
▁metros	-10.0589
media	-10.0591
▁piensa	-10.0599
▁virtual	-10.0607
▁suerte	-10.0608
ft	-10.0613
▁bla	-10.0615
▁ice	-10.062
▁coche	-10.0627
▁table	-10.0627
▁Pu	-10.0631
▁deseo	-10.0642
▁producto	-10.0652
idades	-10.0662
▁carne	-10.0671
▁pull	-10.0671
▁Ri	-10.0673
▁mochi	-10.0676
▁incredible	-10.0682
▁count	-10.0682
ability	-10.0684
ólogo	-10.0684
▁notice	-10.0689
▁fondo	-10.0694
▁ground	-10.0696
▁radio	-10.0696
▁24	-10.0697
▁access	-10.0708
▁aquellos	-10.0712
▁ynin	-10.0718
▁artista	-10.0721
▁key	-10.0723
quili	-10.0728
▁prepara	-10.0733
▁conserva	-10.0733
▁religion	-10.0739
▁cover	-10.075
▁vuelve	-10.0758
▁oquijtoj	-10.0758
▁needed	-10.0762
▁gene	-10.0763
▁sistemas	-10.0763
▁TV	-10.0765
ciente	-10.0777
▁juntos	-10.0778
▁sola	-10.0781
▁conseguir	-10.0783
uan	-10.0789
bro	-10.0791
▁motla	-10.0799
▁anima	-10.0809
▁blood	-10.0809
▁continue	-10.0809
▁predict	-10.0809
▁sitting	-10.0809
▁serious	-10.0812
▁21	-10.0814
▁Fe	-10.0814
ating	-10.0815
▁compassion	-10.0834
▁ipampa	-10.0841
Se	-10.0844
”.	-10.0845
▁escribir	-10.0855
▁approach	-10.086
▁España	-10.086
▁lejos	-10.0862
▁growth	-10.0869
▁itlaj	-10.0884
▁sorprendente	-10.0886
▁lenguaje	-10.0887
▁gar	-10.0887
cía	-10.089
▁costo	-10.0893
▁fly	-10.0895
▁"¡	-10.0896
imiento	-10.0898
ium	-10.0902
▁sean	-10.0904
▁resu	-10.0905
▁spent	-10.0917
▁términos	-10.0928
▁rock	-10.0929
quij	-10.0929
▁nice	-10.0935
▁audience	-10.0937
▁flores	-10.0941
▁connect	-10.0941
▁manda	-10.0945
▁tercer	-10.0948
▁existen	-10.0948
▁stay	-10.0949
▁rate	-10.0954
Si	-10.0956
▁Jesucristo	-10.0963
▁brought	-10.0963
▁mantener	-10.0963
▁near	-10.0968
▁mostrarles	-10.0968
▁comprar	-10.0974
▁aquel	-10.0993
▁considera	-10.1003
▁leer	-10.1005
▁lucha	-10.1006
mana	-10.1014
▁industria	-10.1014
▁medicina	-10.1015
▁travel	-10.1016
▁books	-10.1024
log	-10.1033
▁500	-10.1034
▁Asia	-10.1035
▁either	-10.1041
oh	-10.1046
▁coloca	-10.1046
dura	-10.1048
ologist	-10.1052
▁Pe	-10.1053
▁corte	-10.1062
▁economy	-10.1067
▁describe	-10.1068
▁científicos	-10.1086
▁motiva	-10.109
▁bottom	-10.1093
▁dream	-10.1093
▁pensando	-10.1093
▁starting	-10.1102
▁Mon	-10.1109
▁wa	-10.1117
▁mío	-10.1118
▁combina	-10.1119
mbo	-10.1128
▁radi	-10.113
▁opportunity	-10.1146
elo	-10.1152
▁resist	-10.1155
▁climate	-10.1157
Ca	-10.1165
▁debemos	-10.1168
▁rev	-10.1172
▁próximo	-10.1172
▁profesor	-10.1172
▁sueño	-10.1172
cult	-10.1172
▁tarea	-10.1174
tamos	-10.1179
liztli	-10.1192
puesta	-10.1192
▁main	-10.1195
▁pensamiento	-10.1199
▁voice	-10.12
▁manage	-10.1211
▁terminar	-10.1217
▁aspecto	-10.1227
▁cities	-10.1228
▁rápidamente	-10.1229
ug	-10.1231
▁safe	-10.1234
▁demostr	-10.1237
▁indica	-10.1239
▁Paul	-10.1242
▁popular	-10.1252
▁actividad	-10.1252
▁ça	-10.1257
▁María	-10.1257
▁mote	-10.1264
▁Not	-10.1273
toj	-10.1274
▁ADN	-10.1278
▁qual	-10.1293
▁pacientes	-10.1297
▁box	-10.1299
▁amigo	-10.1304
▁sucedió	-10.1305
▁dinosaur	-10.1305
▁service	-10.1305
▁semanas	-10.1316
▁quinequi	-10.1321
▁empresa	-10.1331
▁estadounidense	-10.1332
▁menudo	-10.1332
▁mesa	-10.1335
▁dolor	-10.1339
▁mala	-10.1343
▁train	-10.1354
▁nochipa	-10.1354
▁lista	-10.1354
▁enfrenta	-10.1359
▁Tengo	-10.1363
▁usa	-10.1365
tiene	-10.1369
▁intech	-10.1375
▁vision	-10.1379
▁English	-10.1386
▁strong	-10.1386
▁fray	-10.1388
▁Yeah	-10.1397
▁technologies	-10.1413
▁spread	-10.1413
▁buenas	-10.1413
▁Pre	-10.1413
▁sector	-10.1414
▁touch	-10.142
▁enfermedades	-10.1422
del	-10.1424
▁growing	-10.1426
▁East	-10.1427
▁habita	-10.144
▁parents	-10.144
▁integra	-10.1444
▁sell	-10.1449
▁forward	-10.145
▁wrote	-10.1467
▁felt	-10.1467
▁siento	-10.1468
wood	-10.1469
tiendo	-10.147
▁gras	-10.1473
toria	-10.1473
▁office	-10.1475
▁Santa	-10.1476
▁sociales	-10.1477
▁eye	-10.1485
▁cuál	-10.1486
▁dedica	-10.149
▁content	-10.1493
▁avanza	-10.1496
▁page	-10.1497
▁patient	-10.1499
▁Estaba	-10.1504
▁Ber	-10.1505
▁hubo	-10.1507
▁action	-10.1511
▁evolución	-10.1522
▁message	-10.1522
▁average	-10.1522
▁lanza	-10.1525
▁wind	-10.1526
▁South	-10.1528
tetl	-10.1534
▁based	-10.1547
▁españoles	-10.1548
▁ocsequimej	-10.1549
▁feliz	-10.1553
▁theory	-10.1555
head	-10.1555
▁vende	-10.156
▁rap	-10.156
▁recursos	-10.1563
lij	-10.1564
▁weeks	-10.1564
▁flor	-10.1569
▁v	-10.158
▁resolver	-10.1581
right	-10.1587
▁medios	-10.1596
tiliz	-10.1597
▁malo	-10.1597
▁compasión	-10.1604
▁morning	-10.1605
itos	-10.1613
▁born	-10.1619
▁masa	-10.1621
▁grab	-10.1623
▁fotografía	-10.1632
▁objetivo	-10.1632
quetz	-10.1634
▁concentra	-10.166
▁fuego	-10.1667
ow	-10.1677
▁War	-10.1677
▁poli	-10.1678
dió	-10.1685
▁Europa	-10.1687
▁determina	-10.1687
▁Sol	-10.169
▁dimension	-10.1696
tory	-10.1706
▁argument	-10.1715
▁alimenta	-10.1715
▁Sant	-10.1718
uch	-10.1722
▁class	-10.1724
▁Za	-10.1728
▁Tenía	-10.1729
▁miyec	-10.1734
▁village	-10.1743
▁Israel	-10.1743
▁piensan	-10.1752
ví	-10.1753
▁tuve	-10.1753
omb	-10.1757
lado	-10.1757
▁card	-10.1764
▁literally	-10.1771
▁Voy	-10.1771
▁condition	-10.1772
iste	-10.1783
▁organism	-10.179
▁herramientas	-10.1791
yendo	-10.1799
▁Richard	-10.1799
otl	-10.18
▁interpret	-10.18
huacan	-10.1803
▁visit	-10.1805
ríamos	-10.1808
▁pain	-10.1824
dado	-10.1825
▁images	-10.1825
▁práctica	-10.1827
▁limpia	-10.1827
▁attention	-10.1827
▁tle	-10.1828
▁llamamos	-10.1829
▁sacar	-10.1829
▁fre	-10.1831
Cuál	-10.1831
▁evolution	-10.1842
fo	-10.1844
▁white	-10.1844
▁reality	-10.1846
▁paz	-10.1847
▁Imagine	-10.1855
▁esposa	-10.1856
▁sw	-10.1869
tol	-10.1877
▁understanding	-10.1883
▁cientos	-10.1883
▁vive	-10.1883
▁increase	-10.1884
▁companies	-10.1884
▁llegaron	-10.1884
▁generación	-10.1897
▁buscar	-10.1899
▁known	-10.1899
▁Sanct	-10.1899
▁clear	-10.19
▁yuh	-10.1902
caso	-10.1904
▁function	-10.1912
▁collect	-10.1938
▁vuestro	-10.1941
▁afecta	-10.1941
▁profunda	-10.1941
▁cuidado	-10.1942
▁gal	-10.1944
▁Pues	-10.1948
matl	-10.1951
Bueno	-10.1962
▁comenzar	-10.1962
▁tools	-10.1966
▁Huehue	-10.1969
▁potential	-10.1969
▁aumenta	-10.197
▁miedo	-10.1974
▁tomó	-10.1974
▁costa	-10.1985
▁camera	-10.1985
▁fire	-10.1987
notz	-10.1988
▁tlalticpactli	-10.1999
▁guess	-10.2
bal	-10.2009
▁developed	-10.2017
Yejhuamej	-10.2021
▁relaciona	-10.2027
▁convertir	-10.2032
▁Ru	-10.2033
▁limit	-10.2036
▁Fu	-10.2046
▁plane	-10.2046
▁knowledge	-10.2055
▁matemática	-10.2055
▁maestro	-10.2056
▁necesitan	-10.2058
▁educa	-10.2069
▁quim	-10.2074
▁goberna	-10.2082
▁comienza	-10.2084
▁areas	-10.2092
▁conocer	-10.2095
▁fine	-10.2096
tzino	-10.2102
▁discovered	-10.2109
▁peor	-10.2111
▁Ver	-10.2113
▁Chinese	-10.2113
▁solución	-10.2113
▁smart	-10.2113
aje	-10.2116
▁realize	-10.2118
▁reun	-10.2127
xihuitl	-10.2132
▁dispositivo	-10.2142
▁capaces	-10.2144
▁running	-10.2144
▁celebra	-10.2145
▁fotos	-10.2154
ffi	-10.2164
qu	-10.2165
▁fight	-10.2172
▁director	-10.2174
▁drop	-10.2175
▁xoc	-10.2178
ization	-10.2182
imo	-10.2189
lógica	-10.22
▁código	-10.2201
▁Every	-10.2201
igu	-10.2204
▁iban	-10.2207
▁varios	-10.2209
▁development	-10.2211
▁nion	-10.2213
▁noso	-10.2213
▁meta	-10.2216
▁razones	-10.2216
uda	-10.2222
▁giving	-10.2231
▁nine	-10.2231
▁extend	-10.2232
▁interesa	-10.2233
ñe	-10.2234
vin	-10.2236
▁mediante	-10.2237
▁mono	-10.2238
net	-10.2245
▁Col	-10.2251
▁árbol	-10.2259
▁affect	-10.2259
▁photo	-10.2259
▁adelante	-10.226
▁huelis	-10.2262
▁pasó	-10.2262
▁decade	-10.2273
▁Bi	-10.2278
▁defini	-10.2283
▁sangre	-10.2289
ene	-10.2296
▁worth	-10.2297
catzin	-10.2308
▁enseñar	-10.2309
▁concepto	-10.2309
▁song	-10.2314
▁pared	-10.2314
Que	-10.2314
▁expand	-10.2321
ically	-10.2329
▁poll	-10.2332
▁Amo	-10.2344
▁piedra	-10.2349
▁chance	-10.2355
▁capaz	-10.2358
▁Of	-10.236
▁Her	-10.2363
▁scientists	-10.2366
▁patients	-10.2373
torio	-10.2377
▁Hemo	-10.2378
▁debido	-10.2381
tenco	-10.2385
▁explica	-10.2389
▁foot	-10.2389
▁African	-10.2397
▁maravilloso	-10.2408
▁velocidad	-10.2408
▁suggest	-10.2408
▁Hoy	-10.241
▁impacto	-10.2414
▁paciente	-10.242
▁300	-10.2421
▁sentado	-10.2428
▁atl	-10.2433
▁presenta	-10.2434
▁antiguo	-10.2438
▁issue	-10.2456
calaqui	-10.2457
bia	-10.2459
▁eleva	-10.2471
▁tumor	-10.248
▁chane	-10.2488
kin	-10.2499
har	-10.25
▁baby	-10.2502
▁Am	-10.2509
▁entend	-10.2509
▁teach	-10.2515
▁California	-10.2528
▁Jerusalén	-10.2528
▁completo	-10.2528
▁distinta	-10.2528
▁cuarto	-10.2528
zquia	-10.253
▁term	-10.2531
▁playing	-10.2534
lique	-10.2539
▁solamente	-10.2541
▁alone	-10.2554
▁interest	-10.2558
▁necesario	-10.2558
▁afuera	-10.2559
▁divers	-10.2559
▁simula	-10.256
▁provide	-10.2561
quixti	-10.2564
▁materia	-10.2565
▁hermano	-10.2573
▁hermanos	-10.2574
▁dura	-10.2577
▁mine	-10.2589
▁sensor	-10.259
▁With	-10.2599
▁barco	-10.26
▁organization	-10.2601
▁secret	-10.2602
namic	-10.2603
▁Ten	-10.2605
▁telling	-10.2615
▁productos	-10.2616
▁major	-10.2617
▁version	-10.2622
ntin	-10.2622
▁fabrica	-10.263
▁Wal	-10.2636
▁oni	-10.2639
▁morir	-10.2648
▁tlinon	-10.265
▁innovation	-10.2658
tón	-10.2664
▁llegado	-10.2665
▁deberíamos	-10.2668
▁desea	-10.2674
▁source	-10.2676
▁venir	-10.2679
▁chichimeca	-10.2681
▁rich	-10.2681
▁viejo	-10.2683
▁price	-10.2683
▁road	-10.2694
▁fear	-10.2699
namiqui	-10.27
▁felicidad	-10.2711
▁industry	-10.2711
▁político	-10.2711
▁abierto	-10.2711
▁ocurrió	-10.2711
▁conocido	-10.2712
▁meet	-10.2712
▁resultados	-10.2714
▁absolutely	-10.2716
▁especies	-10.2717
▁llevó	-10.272
▁wouldn	-10.2734
▁echa	-10.2736
▁niqui	-10.2737
cina	-10.2738
chihuili	-10.2746
▁materiales	-10.2749
▁anyone	-10.275
▁conduct	-10.2752
▁develop	-10.2757
▁explicar	-10.2762
▁link	-10.278
pacho	-10.2781
▁aparece	-10.2783
▁quito	-10.2785
▁direct	-10.2788
▁calli	-10.2791
▁rid	-10.2792
▁objeto	-10.2796
▁meaning	-10.2803
▁empecé	-10.2804
▁incredibly	-10.2804
▁basic	-10.2806
▁sexual	-10.2807
▁adopt	-10.281
ilia	-10.2817
▁fuente	-10.2817
▁computers	-10.2817
usion	-10.2825
▁transmit	-10.2837
▁encontramos	-10.2838
▁ahmo	-10.2839
▁pesca	-10.2853
▁developing	-10.2858
▁talked	-10.286
▁cualquiera	-10.2861
huiya	-10.2871
squia	-10.2872
▁dig	-10.2883
iuh	-10.2885
▁carta	-10.2887
yohui	-10.2888
▁montón	-10.2898
▁audiencia	-10.2898
▁conmigo	-10.2898
▁español	-10.2899
atl	-10.2902
▁plantas	-10.2903
▁Pri	-10.2904
▁vaya	-10.2906
▁grado	-10.2907
▁larga	-10.2907
▁tren	-10.2908
▁jug	-10.2917
gado	-10.2917
▁quima	-10.2934
▁tribu	-10.2942
▁intentar	-10.2943
▁North	-10.2948
▁agrega	-10.295
▁rico	-10.2956
bert	-10.2958
▁ilhuicac	-10.2961
▁current	-10.2961
▁perspectiva	-10.2961
▁estábamos	-10.2962
▁creating	-10.2969
nahui	-10.2977
ará	-10.2978
tract	-10.2994
ltia	-10.2997
▁industrial	-10.2999
▁genetic	-10.3
tlalia	-10.3002
miqui	-10.3009
Quién	-10.3013
▁xochi	-10.3018
▁CO	-10.302
▁biology	-10.3026
▁track	-10.3037
rie	-10.3048
▁goal	-10.3054
▁cree	-10.3054
▁Antonio	-10.3056
▁Padre	-10.3057
▁nochihua	-10.3062
▁decían	-10.3064
▁boca	-10.3066
▁Au	-10.3066
chtli	-10.3069
▁Ana	-10.307
▁económico	-10.3088
▁producir	-10.3088
▁pantalla	-10.3088
lock	-10.3095
▁deben	-10.3111
▁pies	-10.3113
posición	-10.3116
▁molécula	-10.312
▁además	-10.312
▁jugar	-10.3133
▁capa	-10.3136
80	-10.3138
▁West	-10.3138
▁listen	-10.314
▁path	-10.3141
▁screen	-10.3152
▁client	-10.3154
▁activa	-10.3156
▁carbon	-10.3156
▁recently	-10.3159
▁huey	-10.3162
¿	-10.3162
▁hueli	-10.3168
▁matar	-10.317
▁observ	-10.3175
▁pobres	-10.3182
▁molecule	-10.3185
▁noticias	-10.3186
▁hielo	-10.3186
▁push	-10.3188
▁showed	-10.3188
chij	-10.3189
▁potencial	-10.3193
▁pesar	-10.3202
▁dog	-10.3204
▁propiedad	-10.3217
▁varias	-10.3218
Nejhua	-10.3218
meter	-10.3221
▁site	-10.3221
▁llamar	-10.3223
▁intenta	-10.3226
▁comunica	-10.3243
▁cuestión	-10.3249
▁tendría	-10.3251
▁soon	-10.3252
▁brazo	-10.3252
▁Our	-10.3257
cuica	-10.3269
▁recognize	-10.3282
▁abandon	-10.3282
▁seems	-10.3285
▁mochiua	-10.3287
ografía	-10.3289
▁yacaj	-10.329
▁descubrir	-10.329
▁continua	-10.3294
▁By	-10.3298
▁señores	-10.3299
▁je	-10.33
izing	-10.3301
▁prepar	-10.3306
osas	-10.3317
tlac	-10.3317
▁verlo	-10.3319
loque	-10.3322
▁estudia	-10.3325
tepe	-10.3329
bili	-10.3334
▁tlal	-10.3337
20	-10.334
war	-10.334
▁acepta	-10.3348
▁genial	-10.3349
▁tiny	-10.335
▁Web	-10.3356
▁putting	-10.337
ified	-10.3373
▁enviar	-10.3373
cahuili	-10.3374
▁Mientras	-10.338
▁artículo	-10.338
▁ix	-10.3381
▁raise	-10.3381
▁viento	-10.3381
▁appear	-10.3381
▁hor	-10.3393
▁Mc	-10.3394
tada	-10.3398
▁seres	-10.3404
▁coral	-10.3405
work	-10.341
ably	-10.3411
▁success	-10.3412
▁ésto	-10.3414
▁honest	-10.3414
▁Steve	-10.3417
▁principales	-10.3425
▁tanta	-10.3433
▁pin	-10.3438
▁available	-10.3447
▁truth	-10.3447
▁breath	-10.3447
▁architecture	-10.345
▁reduce	-10.3453
Tla	-10.3458
▁quedar	-10.3464
vier	-10.3469
lico	-10.3479
▁anybody	-10.348
▁asunto	-10.348
dición	-10.3482
▁tratamiento	-10.3483
▁bigger	-10.3488
ejo	-10.349
To	-10.3494
▁partir	-10.3498
▁online	-10.3502
▁época	-10.3513
ería	-10.3513
▁ingreso	-10.3513
▁recuper	-10.3513
▁wish	-10.3516
▁rules	-10.3523
▁Ven	-10.3523
▁involved	-10.3524
▁month	-10.3531
In	-10.3533
▁religioso	-10.3547
▁dirección	-10.3547
▁hundreds	-10.3556
▁mix	-10.356
huij	-10.3569
▁dieron	-10.3569
▁teníamos	-10.3574
▁cola	-10.3576
▁designer	-10.3576
▁Vamos	-10.3578
huey	-10.3578
▁Mil	-10.3584
▁bird	-10.3585
▁engineer	-10.3586
ayaj	-10.3591
▁individuo	-10.3614
▁speed	-10.3614
anza	-10.3614
En	-10.3621
▁paga	-10.3621
▁salió	-10.3625
ética	-10.3626
Mi	-10.364
▁fail	-10.3642
▁diseñado	-10.3642
▁literalmente	-10.3648
▁subject	-10.3648
▁clean	-10.3648
▁Había	-10.3648
▁towards	-10.3655
▁Tom	-10.3658
▁draw	-10.3659
ramos	-10.3664
▁correcta	-10.368
▁join	-10.3682
▁llena	-10.3682
▁designed	-10.3682
▁revolution	-10.3682
▁tendrá	-10.3683
▁diez	-10.3684
▁cocina	-10.3687
▁–	-10.3691
▁happiness	-10.3694
fund	-10.3697
▁hundred	-10.3706
▁cable	-10.3706
▁yehuantin	-10.3715
▁viaja	-10.3719
▁require	-10.372
▁Bill	-10.3725
▁calidad	-10.3729
▁acceso	-10.375
▁miembro	-10.375
▁tampoco	-10.375
cita	-10.375
▁montaña	-10.375
▁visita	-10.3751
▁list	-10.3758
how	-10.376
dera	-10.3763
▁prob	-10.3778
▁camp	-10.3782
▁físico	-10.3784
▁beyond	-10.3784
▁árboles	-10.3785
▁empresas	-10.3785
▁medical	-10.3785
▁encima	-10.3786
▁radical	-10.3787
▁door	-10.3789
▁occe	-10.3789
▁reproduc	-10.3789
▁reglas	-10.3791
▁quiera	-10.3791
▁specific	-10.3792
▁norte	-10.3796
biendo	-10.3813
tlaco	-10.3814
ilhui	-10.3816
▁distancia	-10.3818
▁oficina	-10.3818
▁attack	-10.3819
▁habrá	-10.382
▁hole	-10.382
flu	-10.3822
▁borde	-10.3824
▁ijquin	-10.3826
▁rojo	-10.383
▁encontr	-10.3832
▁clave	-10.3844
alla	-10.385
▁benefit	-10.3853
▁changing	-10.3853
▁favorite	-10.3854
▁mueve	-10.3855
▁magic	-10.3857
▁recibir	-10.3865
▁recordar	-10.3866
xochi	-10.3874
pping	-10.3878
▁amar	-10.3887
»	-10.3887
▁HIV	-10.3887
▁patrón	-10.3887
▁millón	-10.3887
▁detrás	-10.3888
▁fiesta	-10.3888
ixpan	-10.3892
▁libera	-10.3901
pilli	-10.3901
▁salva	-10.3905
▁usan	-10.3921
▁colabora	-10.3922
▁inglés	-10.3922
▁comercial	-10.3923
▁ocupa	-10.3927
▁mitz	-10.394
▁store	-10.394
▁—	-10.3942
ihua	-10.3945
▁pena	-10.3951
▁creado	-10.3958
▁caja	-10.396
béis	-10.3965
▁estable	-10.3988
▁artificial	-10.3992
▁writing	-10.3992
▁stick	-10.3992
▁universal	-10.3992
▁carrera	-10.3992
▁strange	-10.3993
▁150	-10.3996
▁revela	-10.3997
▁desafío	-10.4027
▁tlajtojli	-10.4027
▁libertad	-10.4027
▁anterior	-10.4027
▁resources	-10.4027
▁Xi	-10.4029
▁oye	-10.4033
▁onech	-10.4035
▁mirando	-10.4045
▁tlacua	-10.4051
▁especially	-10.4051
▁maravillosa	-10.4062
▁puso	-10.4062
▁«	-10.4062
▁slide	-10.4063
▁pensaba	-10.4064
health	-10.4097
▁quisiera	-10.4102
▁mochihua	-10.4103
▁decisiones	-10.4108
cuauh	-10.4112
▁musical	-10.4117
notza	-10.4117
▁certainly	-10.4119
▁sing	-10.4125
0,000	-10.4133
▁hip	-10.4134
ham	-10.4137
▁veo	-10.4137
▁Islam	-10.4142
▁lived	-10.4161
▁Abraham	-10.4168
▁superior	-10.4169
▁pintura	-10.417
▁juez	-10.4172
▁calor	-10.4172
▁nation	-10.4174
▁obviously	-10.4176
▁peace	-10.418
▁ofrece	-10.4181
tlatol	-10.4182
▁verdadero	-10.4186
▁print	-10.4196
▁Nuestro	-10.4204
cpac	-10.4204
▁menciona	-10.4205
tiaque	-10.4206
▁connection	-10.4209
▁implica	-10.421
▁hogar	-10.4211
▁objetos	-10.4214
▁trip	-10.4215
íamos	-10.4224
▁cub	-10.4225
cuilo	-10.4235
▁Mal	-10.4238
▁plastic	-10.424
ush	-10.4241
▁Luis	-10.4248
▁Most	-10.4254
yollo	-10.4255
▁Ben	-10.4258
▁perro	-10.4271
Sí	-10.4273
▁nobody	-10.4276
▁Where	-10.4276
Dios	-10.4276
▁detail	-10.4279
▁ihcuac	-10.428
▁Pen	-10.4281
▁feed	-10.4281
▁asking	-10.4298
▁bosque	-10.4299
dimensional	-10.43
▁suelo	-10.4305
▁further	-10.4312
▁Nigeria	-10.4312
▁serio	-10.4312
▁convierte	-10.4313
test	-10.4315
▁legal	-10.4318
▁Who	-10.4319
auh	-10.432
▁Están	-10.4323
▁convenc	-10.4331
▁cualli	-10.4342
▁--¿	-10.4345
tlajtol	-10.4346
damente	-10.4347
▁response	-10.4348
▁several	-10.4348
▁degree	-10.4349
▁maneja	-10.4351
▁Gal	-10.4351
▁Har	-10.4352
▁ambos	-10.4357
▁among	-10.4362
▁metal	-10.437
▁scientific	-10.4385
▁obtiene	-10.4385
▁escenario	-10.4386
ih	-10.4389
▁acá	-10.4391
▁quemaj	-10.4392
▁dirigi	-10.4396
▁podían	-10.44
▁invita	-10.4405
▁ganar	-10.4421
▁comprender	-10.4422
▁effective	-10.4425
Me	-10.4426
▁coco	-10.4437
▁died	-10.4439
izada	-10.4442
▁labor	-10.4448
▁beneficio	-10.4458
▁brillante	-10.4458
▁chemical	-10.4458
▁complejo	-10.4458
▁birth	-10.4458
▁nacional	-10.4461
▁podrá	-10.4463
▁tejhua	-10.4467
▁thousand	-10.4475
ivers	-10.4477
calli	-10.449
▁evidence	-10.4495
▁tlanahuatijli	-10.4495
▁Cruz	-10.4495
▁universidad	-10.4495
▁practica	-10.4495
▁Maybe	-10.4495
▁engage	-10.4496
▁role	-10.4499
▁rodea	-10.4502
▁XX	-10.4502
▁nemiya	-10.4503
▁prevent	-10.4505
tlapo	-10.4507
▁showing	-10.4511
▁pun	-10.4511
rrow	-10.4518
▁nuevamente	-10.452
▁desarrollar	-10.4522
▁diría	-10.4526
▁empezó	-10.4531
▁imposible	-10.4531
▁quinientos	-10.4531
▁sacerdote	-10.4531
▁promedio	-10.4532
▁exciting	-10.4532
▁direction	-10.4535
▁buscando	-10.4542
▁reto	-10.4544
▁offer	-10.4547
▁code	-10.4548
cohua	-10.4552
▁skin	-10.4556
▁hará	-10.4566
▁consecuencia	-10.4569
▁discípulo	-10.4569
▁achieve	-10.4569
▁vecino	-10.4569
ught	-10.4579
life	-10.4579
▁estrellas	-10.4588
▁conocí	-10.459
▁timo	-10.459
▁vienen	-10.4593
▁invest	-10.4599
▁correcto	-10.4603
▁define	-10.4605
▁positive	-10.4606
▁región	-10.4606
▁altepetl	-10.4606
▁respira	-10.4607
▁agree	-10.4609
▁position	-10.4625
▁400	-10.4628
▁pecado	-10.4639
▁Algunos	-10.4643
▁elimina	-10.4643
▁creen	-10.4644
▁extraño	-10.4645
▁basa	-10.4657
▁cura	-10.4657
▁chil	-10.4657
tzacu	-10.4679
▁Dan	-10.4679
▁técnica	-10.468
▁diablo	-10.4681
▁improve	-10.4681
▁Colhuacan	-10.4681
▁block	-10.4682
▁plat	-10.4685
▁acción	-10.4691
▁hagan	-10.4693
huiyan	-10.4696
▁Gra	-10.4697
▁surge	-10.4706
▁cuadr	-10.4709
▁extraordinary	-10.4718
▁voluntad	-10.4718
▁check	-10.4718
▁semilla	-10.4719
▁informa	-10.472
▁wire	-10.4723
▁detalle	-10.4725
▁salvar	-10.4726
▁crime	-10.4734
▁entrega	-10.4737
▁Che	-10.4743
▁mejorar	-10.4743
▁hero	-10.4746
▁lengua	-10.4754
▁context	-10.4755
▁author	-10.4756
▁journey	-10.4756
▁trust	-10.4756
▁presencia	-10.4756
▁Otra	-10.4761
▁carry	-10.4764
just	-10.4774
▁usamos	-10.4793
▁yuhqui	-10.4794
▁Moisés	-10.4794
▁explore	-10.4794
▁successful	-10.4795
▁descend	-10.4797
Le	-10.4799
▁finger	-10.4799
70	-10.4802
▁Even	-10.4816
▁construcción	-10.4817
▁cuánto	-10.4822
▁electric	-10.4826
▁Sp	-10.483
ieran	-10.4831
$	-10.4832
▁Einstein	-10.4832
▁First	-10.4832
▁throw	-10.4832
▁balance	-10.4832
▁conciencia	-10.4832
script	-10.4832
▁walking	-10.4836
▁piel	-10.4838
95	-10.4839
▁compara	-10.4843
motla	-10.4861
uro	-10.4868
▁ixpan	-10.4868
▁moved	-10.4869
▁galaxia	-10.487
▁circuit	-10.487
▁broke	-10.487
▁oro	-10.4873
▁treatment	-10.4875
▁cihua	-10.488
▁serán	-10.4894
▁creature	-10.4908
▁repente	-10.4911
tlacamati	-10.4915
▁tocar	-10.493
▁decide	-10.4931
tepec	-10.4935
▁crece	-10.4935
▁disponible	-10.4947
▁innovación	-10.4947
▁progress	-10.4947
▁involucra	-10.4947
▁honor	-10.4948
▁decirles	-10.4953
▁ke	-10.4953
▁wait	-10.4968
▁Cua	-10.4971
30	-10.4972
▁hongo	-10.4986
▁―¿	-10.4987
ticaj	-10.499
▁hot	-10.4994
▁traje	-10.4997
quí	-10.5007
xic	-10.5015
▁gi	-10.5018
▁conflict	-10.5019
▁tlahtocat	-10.5019
▁ido	-10.5023
▁mountain	-10.5024
▁quijtosnequi	-10.5024
▁libra	-10.5025
▁everywhere	-10.5026
▁pobreza	-10.5027
▁estilo	-10.5027
▁comunicación	-10.5034
prendí	-10.5034
▁named	-10.5035
▁creer	-10.5035
▁hour	-10.5042
berg	-10.5042
▁debate	-10.5051
uaj	-10.5052
▁tí	-10.5055
▁perspective	-10.5063
▁security	-10.5063
▁Quizá	-10.5063
▁bunch	-10.5063
▁oquimo	-10.5066
▁tap	-10.5069
▁35	-10.508
corr	-10.5096
▁Washington	-10.5102
▁conferencia	-10.5102
▁iquac	-10.5102
▁rain	-10.5103
▁espero	-10.5105
▁extremely	-10.5109
▁dance	-10.511
▁alimentos	-10.5113
▁imagina	-10.5113
tlajsojtla	-10.5114
▁nemech	-10.5122
▁cama	-10.5129
▁llev	-10.5136
Q	-10.5137
▁menor	-10.5139
▁judío	-10.5141
▁sleep	-10.5141
▁rostro	-10.5142
▁hermoso	-10.5142
▁equal	-10.5149
▁mayores	-10.5168
▁pagar	-10.517
?¿	-10.5176
▁please	-10.5181
▁estuvo	-10.5181
▁finish	-10.5184
▁minute	-10.5186
▁Cuauh	-10.5193
▁llamaba	-10.52
gio	-10.5203
▁medicine	-10.5203
▁tercera	-10.5204
▁signal	-10.5205
▁totally	-10.5207
qual	-10.5218
▁abril	-10.522
▁canción	-10.5228
▁cross	-10.5232
▁conflicto	-10.5233
win	-10.5233
▁particularly	-10.5238
ztli	-10.5241
leta	-10.5243
▁peso	-10.5244
▁fix	-10.5249
▁onic	-10.5251
▁Ah	-10.5252
▁eje	-10.5254
▁tradicional	-10.526
Tajtzin	-10.526
▁Más	-10.5264
▁ohual	-10.5267
▁160	-10.5268
▁supposed	-10.5271
▁tlahto	-10.528
▁ayac	-10.5282
quimej	-10.5291
▁identifica	-10.53
▁soldados	-10.53
▁contenido	-10.53
▁nimitz	-10.53
▁nombra	-10.5302
uhque	-10.5304
▁quality	-10.5304
▁forest	-10.531
▁farm	-10.531
▁Ph	-10.5312
▁llaman	-10.5314
▁encontré	-10.5322
loni	-10.5329
tzitzin	-10.533
▁epi	-10.5336
▁account	-10.534
▁cerebral	-10.534
▁vuestra	-10.534
▁MIT	-10.534
▁podamos	-10.534
ividad	-10.5344
▁hermana	-10.5345
▁científico	-10.535
cito	-10.5353
▁quihual	-10.5362
▁solía	-10.5363
▁xmo	-10.5365
▁ball	-10.5367
presión	-10.5377
▁criatura	-10.538
▁spirit	-10.538
▁invisible	-10.538
▁profundo	-10.538
▁distinto	-10.538
▁secuencia	-10.538
▁debajo	-10.5381
mission	-10.5384
▁rise	-10.539
▁sky	-10.54
▁redes	-10.5403
▁señora	-10.5404
stream	-10.5412
▁Charles	-10.542
teuhctli	-10.542
▁occur	-10.5421
▁search	-10.5422
▁gasta	-10.5425
▁conversation	-10.5426
pilhuan	-10.5429
▁communication	-10.5429
▁student	-10.5434
▁yoqui	-10.5435
▁Podría	-10.5437
We	-10.5448
▁mayo	-10.5451
▁Muy	-10.5452
▁emotion	-10.5452
▁peligro	-10.5455
▁national	-10.5455
▁trial	-10.5459
▁pública	-10.5461
▁combustible	-10.5461
▁contamina	-10.5461
▁remain	-10.5461
▁aware	-10.5463
Quemaj	-10.5465
mix	-10.5465
▁conoce	-10.5466
▁Ante	-10.5483
▁cook	-10.5483
▁pregunt	-10.5483
puesto	-10.5483
poli	-10.5489
tihui	-10.5489
▁versión	-10.5497
▁intent	-10.55
▁conjunto	-10.5501
▁propósito	-10.5501
▁Amaquemecan	-10.5502
ivity	-10.5505
mark	-10.5513
▁desarrolla	-10.5518
▁scan	-10.5524
▁duda	-10.5538
▁beauty	-10.5542
▁útil	-10.5542
▁sensación	-10.5542
▁nueve	-10.5542
▁tuviera	-10.5542
▁conecta	-10.555
▁insect	-10.5557
▁depende	-10.5563
▁equivalent	-10.5583
▁principle	-10.5583
▁Nunca	-10.5583
▁wife	-10.5583
▁grew	-10.5583
▁templo	-10.5583
▁ví	-10.5587
▁vieron	-10.5587
▁perform	-10.5588
▁triste	-10.5589
▁dejó	-10.559
▁autor	-10.559
ándole	-10.5591
▁allowed	-10.5592
▁tienda	-10.5599
▁uel	-10.56
▁tuvimos	-10.56
▁aquella	-10.5606
Yo	-10.5609
▁chino	-10.5611
▁temperatura	-10.5624
▁Necesitamos	-10.5624
▁ocsejpa	-10.5624
▁biggest	-10.5624
▁shift	-10.5624
▁contexto	-10.5625
▁Times	-10.5626
▁hermosa	-10.5626
▁analiza	-10.5629
▁poverty	-10.5637
tijquej	-10.5639
▁tengan	-10.5648
▁connected	-10.5658
▁complicated	-10.5666
▁belleza	-10.5666
▁itechcopa	-10.5666
▁After	-10.5666
cahuan	-10.5666
▁creative	-10.5669
▁instala	-10.5674
▁venía	-10.5682
▁bank	-10.5682
▁scar	-10.5684
plan	-10.5695
▁reino	-10.5703
▁Darwin	-10.5707
▁amenaza	-10.5707
▁coopera	-10.5707
▁reducir	-10.5707
▁Chalco	-10.5707
▁convince	-10.5707
▁clinic	-10.5707
▁activity	-10.5708
▁oquichiu	-10.5711
conehuan	-10.5715
▁lower	-10.5721
▁tlalli	-10.5734
entrepreneur	-10.5736
invention	-10.5744
▁temperature	-10.5749
▁survive	-10.5749
▁suffer	-10.5749
▁perdido	-10.5749
craft	-10.5751
▁partner	-10.5761
▁permitir	-10.5764
▁humanidad	-10.5771
▁saca	-10.5779
tlalli	-10.5789
▁Hernandez	-10.5791
▁esfuerzo	-10.5791
▁revolución	-10.5791
▁eventually	-10.5791
▁tonaltin	-10.5791
▁website	-10.5791
▁standard	-10.5792
▁gobernador	-10.5793
▁select	-10.5795
▁entorno	-10.5795
iéramos	-10.5796
▁Look	-10.5802
▁santo	-10.5803
▁organiza	-10.5806
▁relate	-10.5811
▁fit	-10.5813
▁viven	-10.5814
▁venido	-10.5814
▁alguno	-10.5819
▁99	-10.5832
▁Técpatl	-10.5833
▁empezamos	-10.5833
▁Second	-10.5833
▁vale	-10.5836
▁essentially	-10.5838
▁jump	-10.584
▁administra	-10.5843
peuh	-10.5845
▁fill	-10.5857
▁ready	-10.586
▁higher	-10.5869
▁George	-10.5875
▁democracia	-10.5875
▁return	-10.5875
▁exhibi	-10.5879
ál	-10.5882
▁km	-10.5886
bran	-10.5887
▁evitar	-10.5888
yoj	-10.5894
▁meeting	-10.5907
▁obviamente	-10.5917
▁interés	-10.5919
▁above	-10.592
▁watching	-10.592
▁escribano	-10.5921
▁burn	-10.5922
▁suddenly	-10.5924
machtij	-10.593
hualti	-10.5932
▁painting	-10.594
▁veía	-10.5944
▁caminar	-10.5947
▁esperar	-10.5947
▁killed	-10.5956
▁arquitectura	-10.596
▁charge	-10.596
▁pack	-10.5963
▁hecha	-10.5965
▁doble	-10.5974
▁respect	-10.5999
▁límite	-10.6002
▁idioma	-10.6002
▁fruto	-10.6003
▁taught	-10.6005
▁traditional	-10.6009
▁otech	-10.6019
▁sirve	-10.6023
▁estudiar	-10.6027
▁convert	-10.6027
▁habilidad	-10.6028
▁perder	-10.6028
▁Fin	-10.603
▁reform	-10.603
▁organ	-10.6037
▁completa	-10.6041
▁evoluciona	-10.6045
▁Which	-10.6045
▁economist	-10.6045
▁threat	-10.6045
▁violencia	-10.6045
▁famous	-10.6045
▁National	-10.6045
▁task	-10.6047
▁rural	-10.6048
piltzin	-10.6051
▁esencial	-10.6053
▁actor	-10.6055
▁deliver	-10.6067
▁dé	-10.6069
▁tira	-10.6082
▁democracy	-10.6088
▁evidencia	-10.6088
▁llamó	-10.6088
▁patrones	-10.6088
▁memoria	-10.6089
▁tasa	-10.6092
mitl	-10.6092
▁crecer	-10.6094
▁malaria	-10.6095
▁finding	-10.6096
▁líderes	-10.6104
▁valores	-10.6109
▁wave	-10.6111
▁Tienen	-10.6116
▁ichan	-10.6118
▁instrument	-10.6121
▁limita	-10.6123
▁architect	-10.6132
▁confianza	-10.6132
▁domingo	-10.6132
▁breve	-10.6132
▁concern	-10.6133
▁avión	-10.6134
▁titla	-10.6136
▁personaje	-10.6145
iéndose	-10.6152
▁sorprend	-10.6164
▁carbono	-10.6171
▁Nuestra	-10.6175
▁pusieron	-10.6175
▁olvida	-10.6175
▁prison	-10.6175
▁condiciones	-10.6175
▁relaciones	-10.6175
▁jamás	-10.6176
source	-10.6182
▁leaders	-10.6183
view	-10.6184
▁ended	-10.6192
▁military	-10.6194
▁noticia	-10.6199
▁critical	-10.6199
▁dorm	-10.6204
quetza	-10.6216
▁tejido	-10.6219
▁comienzo	-10.6219
▁internacional	-10.6219
▁college	-10.6219
▁practice	-10.6219
▁plazo	-10.6219
▁tiopan	-10.6219
▁enjoy	-10.622
▁largest	-10.6225
▁compren	-10.623
yaxca	-10.6234
ificación	-10.6239
▁probar	-10.6242
graf	-10.6249
▁rule	-10.6253
▁hablamos	-10.6253
uhqui	-10.6258
▁próxima	-10.6263
▁decidí	-10.6263
▁enfoque	-10.6263
▁Anderson	-10.6263
▁Jacob	-10.6266
▁somewhere	-10.6267
▁wide	-10.6268
▁somehow	-10.627
▁necesidad	-10.6277
▁hualla	-10.628
▁regula	-10.6282
▁reading	-10.6299
▁quimati	-10.6301
▁aprende	-10.6302
▁móvil	-10.6307
▁Michael	-10.6307
▁Thomas	-10.6307
▁crazy	-10.6307
▁frío	-10.6307
▁amplia	-10.6307
▁tendencia	-10.631
▁caliente	-10.6311
▁autoridad	-10.6313
▁guarda	-10.6317
ándolo	-10.6319
huetz	-10.632
▁naturales	-10.6333
Con	-10.6339
pajti	-10.6343
▁regresar	-10.6345
▁Facebook	-10.6351
▁square	-10.6351
▁kikua	-10.6351
▁llevaba	-10.6352
▁indeed	-10.6355
▁icon	-10.6359
▁peces	-10.6365
▁texto	-10.6372
next	-10.6375
▁pobre	-10.6376
▁parecía	-10.6376
▁verán	-10.6385
macehual	-10.6388
▁correspond	-10.6395
▁reflect	-10.6395
▁llamo	-10.6395
▁tonatiuh	-10.6396
▁admit	-10.6397
▁Life	-10.6403
▁Hijo	-10.6405
Qui	-10.6405
▁Inter	-10.6406
▁traer	-10.6406
tlalnacayo	-10.6409
▁posibilidad	-10.641
▁cuán	-10.6426
ienta	-10.643
▁23	-10.6433
▁climático	-10.644
▁written	-10.644
▁caballo	-10.644
▁biología	-10.6442
▁orient	-10.6445
▁diseñar	-10.6445
▁fuel	-10.6455
america	-10.6468
▁bill	-10.6473
chu	-10.6474
▁estará	-10.6478
▁accident	-10.6482
▁City	-10.6483
	-10.6485
▁accept	-10.6485
▁escrivano	-10.6485
▁exterior	-10.6485
▁purpose	-10.6485
▁excited	-10.6485
▁extremo	-10.6486
▁golpe	-10.6492
Ijcuac	-10.6494
▁presidente	-10.6497
▁gráfico	-10.6502
▁señales	-10.6504
▁Nican	-10.6507
▁secreto	-10.6512
tsin	-10.6512
▁gloria	-10.6525
▁board	-10.6526
▁gradu	-10.6527
▁Tecpatl	-10.653
▁agujero	-10.653
▁impossible	-10.653
▁responsabilidad	-10.653
▁Hombre	-10.653
▁manipula	-10.653
▁45	-10.6538
▁muere	-10.6541
▁contrario	-10.6542
▁smaller	-10.6548
▁park	-10.6551
pped	-10.6552
▁creemos	-10.6555
▁alive	-10.6556
▁prefer	-10.6557
▁ideal	-10.6559
▁introduc	-10.6562
▁male	-10.6563
pina	-10.6564
▁faster	-10.6565
▁spa	-10.6568
▁ingeniero	-10.6575
▁NASA	-10.6575
▁mezcla	-10.6575
▁horrible	-10.6575
▁surprise	-10.6575
▁funcione	-10.6575
▁cheap	-10.6575
▁wild	-10.6576
▁window	-10.6576
hueli	-10.6579
▁herramienta	-10.6588
huicac	-10.6591
▁older	-10.6596
▁yeah	-10.6597
98	-10.6604
▁encend	-10.6614
▁immo	-10.6614
▁novel	-10.6615
▁frecuencia	-10.6621
▁vinieron	-10.6621
▁okay	-10.6621
▁copy	-10.6621
▁tejhuamej	-10.6622
▁1608	-10.6623
▁lesson	-10.6635
▁especialmente	-10.6639
entlali	-10.6644
water	-10.6646
▁listening	-10.6653
▁listo	-10.6657
▁press	-10.6658
tlahuel	-10.666
▁ignora	-10.6666
▁address	-10.6666
▁zero	-10.6667
▁shot	-10.6667
▁asocia	-10.6668
▁respondió	-10.6671
▁letter	-10.6678
xico	-10.6679
▁Big	-10.6681
▁observar	-10.6688
▁transport	-10.6689
▁regular	-10.6693
▁roll	-10.6706
▁Otro	-10.6709
▁otic	-10.6712
▁enormous	-10.6712
▁including	-10.6712
▁plástico	-10.6712
▁television	-10.6712
▁ángel	-10.6712
▁studies	-10.6712
▁floor	-10.6712
▁worse	-10.6712
▁launch	-10.6713
▁anywhere	-10.6714
▁spin	-10.6716
▁replica	-10.6716
▁abrir	-10.6716
▁conocemos	-10.6724
▁debía	-10.6733
▁due	-10.674
▁bra	-10.6743
▁vaca	-10.6751
▁communities	-10.6758
▁fantastic	-10.6758
▁statistic	-10.6758
▁producción	-10.6758
▁himself	-10.676
▁hualmo	-10.6761
grada	-10.6763
▁chip	-10.6764
politics	-10.6768
▁venta	-10.6774
▁banda	-10.6776
▁upon	-10.6777
▁standing	-10.6804
▁económica	-10.6805
▁straight	-10.6805
▁pluma	-10.6805
▁laptop	-10.6805
▁segura	-10.6806
▁gira	-10.6814
▁Duran	-10.6816
▁physics	-10.6817
▁medir	-10.6818
greg	-10.6818
▁instant	-10.6819
wer	-10.6823
▁heat	-10.6826
▁comunidades	-10.6837
▁Incluso	-10.6851
▁químico	-10.6851
▁requiere	-10.6851
▁truly	-10.6851
▁disminu	-10.6851
▁nervio	-10.6851
▁genoma	-10.6851
▁instance	-10.6851
▁electricidad	-10.6855
▁estén	-10.6856
▁ventana	-10.6868
▁piso	-10.6874
▁evento	-10.6874
▁copia	-10.6876
▁Iraq	-10.6879
▁Ze	-10.688
gran	-10.6888
▁Guerra	-10.6898
▁climb	-10.6898
▁particle	-10.6898
▁cadena	-10.6899
▁genética	-10.6899
▁absolutamente	-10.69
▁larger	-10.6902
▁deberían	-10.6905
▁math	-10.6907
▁china	-10.6914
▁domina	-10.6916
▁environmental	-10.6924
▁ship	-10.6928
place	-10.6932
▁volar	-10.6942
tlalili	-10.6943
xtli	-10.6945
▁international	-10.6945
Dónde	-10.6945
▁pudo	-10.6945
▁sequence	-10.6945
▁range	-10.6951
▁whi	-10.6961
▁entrada	-10.6961
mine	-10.6964
▁trick	-10.6967
▁creativity	-10.6969
15	-10.6981
▁choose	-10.6992
▁dangerous	-10.6992
▁divertido	-10.6992
▁yxquich	-10.6992
▁vivimos	-10.6992
▁Nadie	-10.6992
▁protein	-10.6992
▁policy	-10.6993
▁damos	-10.7004
▁trade	-10.7011
▁ropa	-10.7014
board	-10.7015
bility	-10.7016
▁resp	-10.7017
▁increíblemente	-10.7017
▁town	-10.7023
▁comencé	-10.7039
▁expensive	-10.7039
▁misterio	-10.704
▁provoca	-10.704
▁glass	-10.704
▁Aman	-10.704
ológico	-10.705
cimiento	-10.7058
▁camina	-10.7082
▁citizen	-10.7087
▁ultimate	-10.7087
▁22	-10.7087
▁cultiva	-10.7087
▁kept	-10.7087
▁centra	-10.7093
▁colores	-10.7096
▁tlahtoque	-10.7096
teuctli	-10.7117
▁ruido	-10.7118
60	-10.7131
▁Siempre	-10.7135
▁disfrut	-10.7135
▁trouble	-10.7135
▁typical	-10.7135
▁shark	-10.7135
▁droga	-10.7135
▁tomamos	-10.7135
▁Those	-10.7135
▁café	-10.7135
▁etapa	-10.7135
▁lleno	-10.7135
▁pedir	-10.7141
▁regresa	-10.7141
tuvieron	-10.7146
▁instrumento	-10.7147
▁presta	-10.7152
▁ponen	-10.7158
▁Red	-10.7158
▁utilizar	-10.7161
▁minuto	-10.7169
▁training	-10.7175
▁sábado	-10.7183
▁virrey	-10.7183
▁influence	-10.7183
▁obliga	-10.7183
▁blind	-10.7183
▁manifest	-10.7183
▁Another	-10.7183
▁Huitz	-10.7183
▁column	-10.7184
▁jefe	-10.7186
▁chalca	-10.7187
ference	-10.7191
▁nauh	-10.7202
▁Bang	-10.7207
▁equip	-10.7211
pohualli	-10.7217
pero	-10.7219
▁bone	-10.7221
para	-10.723
▁Wikipedia	-10.7231
▁aprendizaje	-10.7231
▁Primero	-10.7231
▁tlatoque	-10.7232
▁James	-10.7233
▁genome	-10.7234
▁cero	-10.7234
▁aldea	-10.7236
▁divide	-10.7236
▁marcha	-10.7237
▁Realmente	-10.7238
▁narra	-10.7239
▁contarles	-10.724
▁ataque	-10.7241
pohualxihuitl	-10.7243
▁oír	-10.7244
lijquej	-10.7253
nny	-10.7256
▁origin	-10.7258
▁teaching	-10.7268
dero	-10.7279
▁VIH	-10.728
▁cirugía	-10.728
▁earlier	-10.728
▁opinión	-10.728
▁dibuja	-10.728
▁soluciones	-10.728
▁licencia	-10.728
▁aproximadamente	-10.728
▁usually	-10.728
▁Éste	-10.7281
huaya	-10.7281
▁sentimiento	-10.7281
▁escribió	-10.7284
ificado	-10.7287
burg	-10.7288
huallo	-10.7294
▁hacían	-10.7303
itl	-10.7304
▁borr	-10.7307
▁complete	-10.732
▁Twitter	-10.7329
▁proteger	-10.7329
▁monitor	-10.7329
▁commit	-10.7329
▁curso	-10.7329
▁spot	-10.733
▁prior	-10.733
▁directamente	-10.733
▁bloque	-10.733
▁llora	-10.7331
▁pase	-10.7333
▁anyway	-10.7335
▁dispara	-10.7336
▁oración	-10.7343
▁desarrollado	-10.7343
▁saj	-10.7344
▁rota	-10.7346
▁ka	-10.7351
▁militar	-10.7358
ampa	-10.7363
10	-10.7363
▁trabajado	-10.7372
▁vender	-10.7374
▁estudiante	-10.7374
▁diseña	-10.7377
inomachtijcahuan	-10.7378
▁Nosotros	-10.7378
▁effort	-10.7378
▁reserva	-10.7378
▁daughter	-10.7378
▁dando	-10.7378
Cuánto	-10.7378
▁unique	-10.7379
▁Robert	-10.738
▁remind	-10.738
▁cuesta	-10.738
▁electricity	-10.7381
réis	-10.7382
▁poderoso	-10.7383
▁Like	-10.7388
▁macuil	-10.7388
huaque	-10.74
▁clima	-10.7406
▁conference	-10.7409
▁hair	-10.7415
▁significant	-10.7418
▁célula	-10.7422
▁estuviera	-10.7427
▁profesional	-10.7427
▁recuerdo	-10.7427
▁vuelo	-10.7427
▁descubrimiento	-10.7428
▁apoya	-10.7434
▁procesa	-10.7437
▁greater	-10.745
tilia	-10.745
▁pinta	-10.7461
▁cambiado	-10.7467
▁química	-10.7476
▁Domingo	-10.7476
▁molecular	-10.7476
▁freedom	-10.7476
▁vieja	-10.7477
▁therefore	-10.7477
▁cold	-10.7479
▁joy	-10.7481
▁extraña	-10.7481
nanquili	-10.7483
▁guard	-10.7484
▁host	-10.7485
▁2000	-10.7487
▁responder	-10.7499
▁nano	-10.7504
▁27	-10.7509
▁geo	-10.7509
▁TEDx	-10.7514
▁healthy	-10.7515
▁ingredient	-10.7521
▁alcanza	-10.7524
▁hablaba	-10.7525
▁firma	-10.7525
▁búsqueda	-10.7526
▁inteligencia	-10.7526
▁multitud	-10.7526
▁anymore	-10.7526
▁contain	-10.7527
▁supone	-10.7528
▁cro	-10.7529
▁corner	-10.7531
▁yehuatzin	-10.7532
▁active	-10.7536
▁Rob	-10.7548
off	-10.7563
maquixti	-10.7565
▁pilot	-10.7566
▁Mundial	-10.7576
▁afford	-10.7576
▁científica	-10.7576
▁colleague	-10.7576
▁proteína	-10.7576
▁surprising	-10.7576
▁pedazo	-10.7576
▁ensayo	-10.7576
▁venga	-10.7577
▁policía	-10.7577
96	-10.758
▁bend	-10.7583
▁extraordinario	-10.7587
▁roja	-10.7598
▁fuimos	-10.7612
▁Zan	-10.7612
ody	-10.7625
▁brother	-10.7626
▁celular	-10.7626
▁relative	-10.7626
▁race	-10.7629
▁hotel	-10.7634
▁invented	-10.7636
education	-10.7641
▁Arab	-10.7655
▁humanity	-10.7657
▁US	-10.766
▁tuvieron	-10.7664
▁haría	-10.7665
▁tomado	-10.7669
▁América	-10.7677
▁Universidad	-10.7677
▁convirtió	-10.7677
▁sencilla	-10.7677
psychology	-10.7677
▁drink	-10.7677
▁muscle	-10.7677
▁apenas	-10.7678
▁walked	-10.7678
▁governador	-10.7679
▁verdadera	-10.768
▁motenehua	-10.7682
nahuac	-10.7689
▁player	-10.7697
▁performance	-10.7699
poder	-10.7706
▁aprend	-10.7711
▁planta	-10.772
▁University	-10.7728
▁fenómeno	-10.7728
▁private	-10.7728
▁worry	-10.7728
▁earth	-10.7728
▁captura	-10.7731
▁Norte	-10.7731
▁daño	-10.7738
habit	-10.7739
▁elementos	-10.7742
▁income	-10.7744
▁niquin	-10.7746
▁10,000	-10.7747
▁madera	-10.7748
▁suficientemente	-10.7749
nacayo	-10.776
▁revista	-10.7761
▁Ijcon	-10.7764
▁pop	-10.7778
▁Harvard	-10.7779
▁complejidad	-10.7779
▁remarkable	-10.7779
▁arregl	-10.7779
▁spoke	-10.7779
▁encontrado	-10.7789
▁bin	-10.779
▁emotional	-10.779
▁iuan	-10.7792
Ijcon	-10.7794
squiaj	-10.7804
▁presentar	-10.7804
social	-10.7806
▁controlar	-10.7819
▁hormiga	-10.783
▁immediately	-10.783
▁agricultura	-10.783
▁felices	-10.783
▁río	-10.783
▁Western	-10.783
▁civilization	-10.7831
▁decisión	-10.7831
▁internet	-10.7833
▁subir	-10.7836
12	-10.7839
▁mamá	-10.784
▁verano	-10.7849
▁Quauh	-10.7849
▁75	-10.7871
uhtli	-10.7872
▁creación	-10.7876
▁Xuarez	-10.7881
▁africano	-10.7881
▁órgano	-10.7881
▁Universo	-10.7881
▁conexión	-10.7881
▁siembra	-10.7882
▁hambre	-10.7882
▁antigua	-10.7882
▁alcanzar	-10.7884
▁violence	-10.7893
▁demand	-10.7894
▁revis	-10.7895
▁quix	-10.7897
axca	-10.7901
▁ancho	-10.7907
▁recibe	-10.7908
▁poderosa	-10.7909
cker	-10.7924
▁flying	-10.7928
▁apare	-10.7933
Nemejhuamej	-10.7933
▁creatividad	-10.7933
▁Frank	-10.7933
▁gigante	-10.7933
▁following	-10.7934
▁asegurar	-10.7935
▁consciente	-10.7936
▁organismos	-10.7945
print	-10.7948
▁pesa	-10.7954
lhuia	-10.7955
▁marzo	-10.7969
▁estadística	-10.7985
▁mistake	-10.7985
▁nemilistli	-10.7988
rick	-10.799
▁Tlaco	-10.7994
▁hueyican	-10.8
▁evolved	-10.8001
▁catch	-10.801
▁sihuatl	-10.8019
▁cuyo	-10.8025
▁financial	-10.8037
▁increasing	-10.8038
▁riqueza	-10.8038
▁vehicle	-10.8038
▁vehículo	-10.8038
▁volvió	-10.8038
▁various	-10.8038
▁babies	-10.8038
▁summer	-10.8038
▁xiuitl	-10.8039
▁biological	-10.8039
▁aprendido	-10.8041
▁cargo	-10.8043
▁itlanahuatil	-10.8043
▁ticchihua	-10.8043
chipahua	-10.8049
▁comenzaron	-10.8051
▁silla	-10.8056
▁clearly	-10.8061
▁vital	-10.8062
TE	-10.8062
11	-10.8069
94	-10.8076
▁quitemaca	-10.808
cuep	-10.8084
▁contacto	-10.8088
▁sucediendo	-10.809
▁advance	-10.809
▁fragment	-10.809
▁weapon	-10.809
▁paradigm	-10.8091
▁violent	-10.8091
▁comparte	-10.8091
▁London	-10.8091
▁clip	-10.8092
▁Ésta	-10.8092
▁fold	-10.8096
▁throughout	-10.8097
▁organización	-10.8101
cierto	-10.8108
strucción	-10.8111
chix	-10.8112
namicti	-10.8114
uak	-10.8128
▁north	-10.8135
▁Australia	-10.8143
▁landscape	-10.8143
▁driving	-10.8143
▁Two	-10.8143
▁vacuna	-10.8143
▁massive	-10.8144
▁xhueli	-10.8146
▁demanda	-10.815
▁contact	-10.8154
callaqui	-10.8155
▁introduce	-10.8159
▁pasión	-10.8167
▁hueso	-10.8179
collaboration	-10.818
▁escuchado	-10.8186
▁matlac	-10.8188
▁vibra	-10.8189
▁construye	-10.819
▁layer	-10.819
tlacaita	-10.8191
▁Afghanistan	-10.8196
▁kilómetros	-10.8196
▁método	-10.8196
▁período	-10.8196
▁dynamic	-10.8196
▁viernes	-10.8196
▁etiqueta	-10.8197
▁omochiuh	-10.8199
ological	-10.82
▁surgery	-10.8201
▁imita	-10.8215
▁acto	-10.8216
▁aleja	-10.8218
▁tax	-10.8227
▁fija	-10.8228
▁engineering	-10.8232
▁conectar	-10.8236
▁diga	-10.8244
range	-10.8244
▁diapositiva	-10.825
▁disappear	-10.825
▁occidental	-10.825
▁totecuiyo	-10.825
Alguien	-10.825
▁abstract	-10.825
▁pressure	-10.825
▁becoming	-10.8251
▁funny	-10.8251
▁reciente	-10.8265
hand	-10.827
▁estrella	-10.8276
▁paint	-10.8276
▁monte	-10.828
▁viva	-10.8299
▁ingeniería	-10.8304
▁religión	-10.8304
▁circle	-10.8304
▁tissue	-10.8304
▁oscura	-10.8304
▁cine	-10.8304
▁tremendous	-10.8305
▁weight	-10.8306
▁posición	-10.8311
▁pregunté	-10.8314
▁police	-10.8318
Puede	-10.8322
matlactli	-10.8326
▁cabo	-10.833
house	-10.833
▁continent	-10.8332
tecpan	-10.8333
▁aver	-10.8335
▁boat	-10.8338
▁politics	-10.8346
▁vast	-10.8351
▁YouTube	-10.8358
▁piensen	-10.8358
▁random	-10.8358
▁aumento	-10.8358
▁comfort	-10.8359
▁vote	-10.8363
▁neurons	-10.8364
▁rompe	-10.8364
▁llevado	-10.8365
▁production	-10.8374
uatl	-10.8396
▁significado	-10.8397
▁punta	-10.8402
▁ninguno	-10.8412
▁recompensa	-10.8412
▁understood	-10.8412
▁Japón	-10.8412
▁broad	-10.8412
▁ritmo	-10.8412
▁email	-10.8412
temaquixtilistli	-10.8412
▁ciclo	-10.8413
▁bridge	-10.8413
▁Green	-10.8413
▁interesado	-10.8415
▁percib	-10.8416
▁ticpia	-10.8421
▁nube	-10.8428
▁Habl	-10.8434
uitl	-10.8439
▁Saben	-10.844
▁atmósfera	-10.8467
▁característica	-10.8467
▁sabiduría	-10.8467
▁visurrey	-10.8467
▁Angeles	-10.8467
▁include	-10.8467
▁double	-10.8467
▁Muchos	-10.8467
▁ilhuicactequit	-10.8467
▁implant	-10.8471
▁complexity	-10.8472
human	-10.8473
▁fascinante	-10.8475
▁passion	-10.8475
▁opeu	-10.8479
▁Medio	-10.8482
▁conocen	-10.8491
▁Human	-10.8499
▁waiting	-10.8499
▁techo	-10.8504
▁habilidades	-10.8505
▁separate	-10.8511
▁probable	-10.8518
▁empezando	-10.8522
▁lluvia	-10.8522
▁Joseph	-10.8522
▁circun	-10.8522
▁elegir	-10.8522
titude	-10.8522
▁acelera	-10.8522
▁financia	-10.8522
▁edge	-10.8523
▁receive	-10.8524
▁brand	-10.8528
▁miramos	-10.8533
▁función	-10.8547
▁tomando	-10.856
▁taman	-10.8561
▁Real	-10.8566
▁refer	-10.8566
stitution	-10.8574
▁quick	-10.8576
▁families	-10.8577
▁televisión	-10.8577
▁dibujo	-10.8577
▁Street	-10.8577
▁claramente	-10.8577
▁estuve	-10.8578
▁juicio	-10.858
▁tepetl	-10.8583
▁Ahí	-10.8586
97	-10.8587
▁saving	-10.8592
xiuit	-10.8593
▁daba	-10.8596
▁Marte	-10.8604
▁corto	-10.8604
▁consumer	-10.8624
▁fariseos	-10.8632
▁pérdida	-10.8632
▁intercambi	-10.8632
kuouj	-10.8632
▁atmosphere	-10.8632
▁mosquito	-10.8633
▁puente	-10.8633
▁career	-10.8633
▁reconocer	-10.8633
▁declara	-10.8633
▁Asi	-10.8634
▁esquina	-10.8639
▁mostraré	-10.8655
where	-10.8657
huatzin	-10.8657
▁oyaj	-10.866
▁oportunidades	-10.8663
▁32	-10.8668
ónica	-10.8682
▁although	-10.8688
▁magestad	-10.8688
▁pájaro	-10.8688
▁Pienso	-10.8688
▁sobrevivir	-10.8688
▁airplane	-10.8688
▁ochenta	-10.8688
▁bodies	-10.8688
▁implement	-10.8689
▁visible	-10.8689
▁premio	-10.8689
▁propaga	-10.8691
▁flight	-10.8691
▁nació	-10.8696
▁trabajan	-10.8698
▁cita	-10.8702
▁useful	-10.8704
▁habitación	-10.8705
How	-10.8712
▁26	-10.8713
▁intento	-10.8721
40	-10.8722
▁permanece	-10.8724
▁continuar	-10.8725
▁panel	-10.8727
▁AB	-10.8728
▁omotla	-10.873
▁duro	-10.8742
▁emit	-10.8744
▁Middle	-10.8745
▁intelligence	-10.8745
▁oxygen	-10.8745
▁Ustedes	-10.8745
▁gravit	-10.8745
▁asteroid	-10.8745
▁vivía	-10.8745
▁volume	-10.8746
▁Fui	-10.8747
▁blow	-10.8747
tlalij	-10.8748
▁neuronas	-10.8748
▁escena	-10.8748
▁restaurant	-10.8751
▁verdaderamente	-10.8753
▁2008	-10.8754
▁xquen	-10.8754
▁inspired	-10.8758
▁engine	-10.876
▁humor	-10.8764
business	-10.8765
▁match	-10.8767
book	-10.8776
▁shop	-10.8783
▁regla	-10.8791
▁puzzle	-10.8801
▁ciego	-10.8801
▁entiende	-10.8801
▁José	-10.8802
▁entró	-10.8804
▁pierde	-10.8805
▁frontera	-10.8807
▁Island	-10.8813
▁combat	-10.8814
▁presión	-10.8818
▁component	-10.8823
calco	-10.8823
music	-10.8824
scribe	-10.8836
point	-10.885
▁compañero	-10.8858
▁possibly	-10.8858
▁viviendo	-10.8858
▁profound	-10.8858
▁000	-10.8858
▁opinion	-10.8858
▁article	-10.8858
▁probabilidad	-10.8858
▁Toma	-10.8858
▁interview	-10.886
▁gusto	-10.8861
ographic	-10.8861
▁Ok	-10.8864
▁dientes	-10.8866
▁opciones	-10.8867
self	-10.8881
Esto	-10.8886
▁focused	-10.8907
▁nace	-10.8908
▁computador	-10.8912
▁absoluto	-10.8915
▁estrategia	-10.8915
▁medicamento	-10.8915
▁tlajtlacojli	-10.8915
▁surround	-10.8915
▁aparato	-10.8916
huel	-10.8919
▁organize	-10.8922
▁perfecto	-10.8932
▁aquello	-10.8933
Why	-10.8936
▁emocional	-10.8938
▁salieron	-10.8939
▁greatest	-10.8944
▁harm	-10.8948
lógico	-10.896
▁obvious	-10.8962
▁rápida	-10.8965
▁exact	-10.8967
▁círculo	-10.8972
▁Audiencia	-10.8972
▁symbol	-10.8972
▁desierto	-10.8972
▁release	-10.8973
▁determine	-10.8973
▁memory	-10.8973
▁hiciera	-10.8973
▁apoyo	-10.8974
▁forget	-10.8974
▁É	-10.8977
▁express	-10.8978
well	-10.8979
cuepa	-10.8998
▁consume	-10.9001
hcuac	-10.9005
jticaj	-10.9006
▁sister	-10.901
▁drawing	-10.9011
▁luna	-10.9015
neltocaj	-10.902
▁Sch	-10.9023
▁cambió	-10.903
▁infantil	-10.903
▁technique	-10.903
▁cycle	-10.903
▁bottle	-10.903
▁destroy	-10.903
▁polio	-10.9033
▁yancuic	-10.9034
▁argue	-10.9036
▁conversación	-10.9036
▁construct	-10.9045
▁pretend	-10.905
▁componente	-10.9066
ohuaya	-10.9071
▁sentía	-10.9085
▁commercial	-10.9088
▁consequence	-10.9088
▁partículas	-10.9088
▁silencio	-10.9088
▁supply	-10.9088
storytelling	-10.9088
▁parecido	-10.9088
▁method	-10.9089
▁Existe	-10.909
▁diseñadores	-10.9092
▁usado	-10.91
▁Jack	-10.9107
▁quedó	-10.9109
ahuil	-10.9111
▁600	-10.9113
▁necesitaba	-10.9118
▁nahui	-10.9142
▁cárcel	-10.9147
▁oxígeno	-10.9147
▁compleja	-10.9147
▁complicado	-10.9147
▁damage	-10.9147
▁curva	-10.9147
▁Algunas	-10.9147
▁blanca	-10.9147
▁wealth	-10.9148
▁golf	-10.9149
▁versus	-10.9151
▁Today	-10.9154
▁adultos	-10.9162
▁Roma	-10.9165
▁station	-10.9166
▁razon	-10.9175
▁posibilidades	-10.9187
▁apply	-10.9192
▁graph	-10.9201
▁efectiva	-10.9206
▁Básicamente	-10.9206
▁switch	-10.9206
▁influencia	-10.9206
▁relevant	-10.9206
▁German	-10.9206
▁usuario	-10.9206
▁distance	-10.9206
▁sample	-10.9207
▁frase	-10.9208
▁bought	-10.9209
▁gracia	-10.921
▁consult	-10.9213
▁speaking	-10.9215
calti	-10.9217
room	-10.9218
▁digamos	-10.9223
▁directly	-10.923
yauh	-10.923
nantzin	-10.9232
▁fascina	-10.9254
▁neighbor	-10.9265
▁circula	-10.9265
▁nemechijlia	-10.9265
▁sencillo	-10.9265
▁Londres	-10.9265
▁terreno	-10.9265
▁absorb	-10.9265
▁carbón	-10.9265
▁Good	-10.9267
▁xitlaj	-10.9267
▁pregon	-10.9268
▁Miren	-10.9268
▁Oriente	-10.9269
quién	-10.9269
▁quetzal	-10.9271
▁nemij	-10.9298
99	-10.9316
kuouit	-10.9324
▁arquitecto	-10.9324
▁breast	-10.9324
▁desaparece	-10.9324
▁inferior	-10.9324
▁vulnerable	-10.9324
▁enemigo	-10.9324
▁Chicago	-10.9324
▁kitoka	-10.9324
▁failure	-10.9325
▁shock	-10.9325
▁emocionante	-10.933
bling	-10.933
▁cast	-10.934
▁presentación	-10.9352
▁editor	-10.9358
▁below	-10.9364
▁Allí	-10.9367
▁aprovecha	-10.9384
▁fashion	-10.9384
▁gobernó	-10.9384
▁teopixque	-10.9384
▁milagro	-10.9384
▁Think	-10.9384
▁corriente	-10.9384
▁abuela	-10.9384
▁navega	-10.9386
▁urge	-10.9397
▁definición	-10.9401
▁esperando	-10.9407
Z	-10.9408
verdad	-10.9409
▁básica	-10.9437
▁communicate	-10.9445
▁encuentro	-10.9445
▁feature	-10.9445
▁paisaje	-10.9445
tlajtlacolmaca	-10.9445
▁twice	-10.9445
▁abierta	-10.9445
▁emociones	-10.9445
▁diagram	-10.9445
▁Bush	-10.9451
poniendo	-10.9456
▁capacity	-10.9457
▁teniendo	-10.946
▁miren	-10.9461
▁altura	-10.9465
▁eating	-10.9465
▁firm	-10.9467
▁terrorism	-10.948
cuál	-10.9481
▁pensado	-10.9502
▁Afganistán	-10.9505
▁acompaña	-10.9505
▁belief	-10.9505
▁momiquilli	-10.9505
▁septiembre	-10.9505
▁junio	-10.9505
▁entrevista	-10.9505
▁From	-10.9506
▁conforme	-10.9506
▁basis	-10.9508
▁lunes	-10.9512
▁recientemente	-10.9514
lotl	-10.9528
▁paid	-10.9537
▁recent	-10.9538
▁quiet	-10.9539
▁extraordinaria	-10.9539
▁añad	-10.9558
ision	-10.9565
▁construido	-10.9566
▁fábrica	-10.9566
▁interface	-10.9566
▁bolsa	-10.9566
▁mobile	-10.9566
▁aborda	-10.9566
▁maíz	-10.9566
▁llevaron	-10.9567
▁hablado	-10.9579
▁replace	-10.958
Porque	-10.9581
▁intentando	-10.9583
▁desire	-10.9591
▁attract	-10.9593
▁gain	-10.9608
▁reward	-10.9612
▁quipiaya	-10.9615
▁Sabemos	-10.9627
▁neighborhood	-10.9628
▁espacial	-10.9628
▁profeta	-10.9628
▁custom	-10.9628
▁bread	-10.9628
▁soldier	-10.9628
▁female	-10.9628
▁mantiene	-10.9633
vision	-10.964
▁diario	-10.965
Bien	-10.9653
▁naciones	-10.9661
▁ika	-10.9677
▁mission	-10.9685
▁tlalticpac	-10.9687
▁target	-10.9689
▁Kenya	-10.9689
▁nohuian	-10.9691
▁2007	-10.9698
▁rare	-10.9698
▁peligroso	-10.9698
▁detener	-10.9699
▁AIDS	-10.97
▁120	-10.9701
melahua	-10.9702
▁Mochiu	-10.9719
▁chair	-10.972
▁actualmente	-10.972
▁generate	-10.9724
▁moderno	-10.973
▁necesidades	-10.9732
▁dinámica	-10.9751
▁eléctrica	-10.9751
▁independiente	-10.9751
▁matemático	-10.9751
▁músculo	-10.9751
▁Además	-10.9751
▁consumidor	-10.9751
▁ilumina	-10.9751
▁extremadamente	-10.9751
▁basura	-10.9752
▁denomina	-10.9752
▁sustainable	-10.9753
▁65	-10.9753
▁enfermo	-10.9756
▁desert	-10.9763
▁root	-10.9765
▁muchacho	-10.9765
ística	-10.9766
▁scientist	-10.9776
medicine	-10.9777
▁polar	-10.9779
▁continente	-10.9781
▁correo	-10.98
MA	-10.9803
▁Apple	-10.9814
▁habló	-10.9814
▁iPhone	-10.9814
▁infrastructure	-10.9814
▁professional	-10.9814
▁quote	-10.9814
▁poquito	-10.9814
▁enfoca	-10.9816
elect	-10.982
▁vertical	-10.9821
▁puse	-10.9825
▁mark	-10.9829
▁preguntó	-10.983
♫	-10.984
▁favorito	-10.9841
▁normalmente	-10.9853
▁creando	-10.9862
▁Muslim	-10.9877
▁metaphor	-10.9877
▁Yectlajcuilojli	-10.9877
▁febrero	-10.9877
▁shoot	-10.9877
▁yellow	-10.9877
▁ancient	-10.9877
▁repeti	-10.9878
▁remove	-10.9878
▁ambas	-10.9879
▁diversidad	-10.9885
▁1,000	-10.9887
▁piano	-10.9887
▁imagination	-10.9888
47	-10.9894
▁sienta	-10.9903
más	-10.991
▁operation	-10.9934
▁espiritual	-10.994
▁miyequej	-10.994
▁xqueman	-10.994
▁combine	-10.994
▁culpa	-10.9941
▁famoso	-10.9941
▁accidente	-10.9944
ography	-10.9945
quixtili	-10.9949
pong	-10.9955
▁equivoca	-10.9958
—	-10.9967
what	-10.9968
▁glori	-10.9978
▁correct	-10.9983
▁defend	-10.9988
▁sacrific	-11.0002
▁conectado	-11.0002
▁coordina	-11.0004
▁ejército	-11.0004
▁específica	-11.0004
▁fantástico	-11.0004
▁infraestructura	-11.0004
▁instituciones	-11.0004
▁responsibility	-11.0004
▁slightly	-11.0004
▁attempt	-11.0004
▁ultra	-11.0004
▁consumo	-11.0004
▁huehuetque	-11.0004
▁institutions	-11.0007
▁sentence	-11.0008
▁flujo	-11.001
▁gather	-11.001
▁importancia	-11.0012
tlanahuatil	-11.0012
▁orbit	-11.0016
▁tomaron	-11.0018
▁definition	-11.002
▁Quería	-11.0027
evolution	-11.003
▁salvo	-11.003
▁opción	-11.0032
ehuili	-11.0047
▁coffee	-11.0068
▁chocolate	-11.0068
▁ritual	-11.0068
▁orgullo	-11.0068
▁President	-11.0068
▁Axcan	-11.0068
▁Puedo	-11.0068
▁ahorra	-11.0068
▁drag	-11.0069
▁Xoco	-11.0069
▁banco	-11.007
▁raro	-11.0071
▁collective	-11.0073
▁nicchihua	-11.0073
▁comunes	-11.0096
sabel	-11.0118
▁llegamos	-11.012
▁abus	-11.0121
▁tradition	-11.0123
▁golpea	-11.0123
▁horizon	-11.0132
▁alternative	-11.0132
▁ambiental	-11.0132
▁inmediatamente	-11.0132
▁octubre	-11.0132
▁worst	-11.0132
▁oscuro	-11.0132
▁farmers	-11.0138
▁stem	-11.0143
steis	-11.0161
Señor	-11.0161
▁chichi	-11.017
▁Felipe	-11.0197
▁possibility	-11.0197
▁figura	-11.0197
▁Again	-11.0197
▁Aunque	-11.0197
▁consciousness	-11.0198
▁volví	-11.02
▁avance	-11.02
▁patio	-11.0206
▁interaction	-11.0207
▁Mark	-11.0217
▁react	-11.0221
▁28	-11.0226
▁quichihuaj	-11.0233
▁Uso	-11.0259
ihqui	-11.0262
▁botella	-11.0263
▁escribí	-11.0263
▁eficiente	-11.0263
▁asiento	-11.0263
▁fairly	-11.0263
▁whale	-11.0263
▁mouth	-11.0263
▁pude	-11.0263
▁classroom	-11.0263
▁hablo	-11.0263
matquej	-11.0264
▁capture	-11.0264
tlamantli	-11.0265
▁tolera	-11.0267
▁dispuesto	-11.0267
▁construyendo	-11.0271
▁insectos	-11.0273
▁apaga	-11.0298
Está	-11.0304
▁asombroso	-11.0328
▁necessarily	-11.0328
▁periódico	-11.0328
▁cloud	-11.0328
▁Simón	-11.0328
▁Obama	-11.0329
▁sharing	-11.0329
▁inmediato	-11.0329
▁ballena	-11.0329
calac	-11.0329
▁tail	-11.0329
▁oquitlalij	-11.0334
▁investment	-11.0334
▁published	-11.0343
▁basado	-11.0346
▁Resulta	-11.0395
▁competition	-11.0395
▁compromiso	-11.0395
▁religious	-11.0395
▁ciudadanos	-11.0395
▁confirm	-11.0395
▁permanent	-11.0396
tlamachilis	-11.0398
▁apóstoles	-11.0404
titlani	-11.0407
phone	-11.0409
▁patent	-11.0411
▁motlalli	-11.0415
▁cambiando	-11.0415
▁achtopa	-11.0421
▁Chichimeca	-11.0436
▁existencia	-11.0436
▁president	-11.0444
▁querido	-11.0447
▁dará	-11.0456
▁plato	-11.0457
▁band	-11.0458
▁horse	-11.046
▁descubierto	-11.0461
▁intelectual	-11.0461
▁societies	-11.0461
▁procesión	-11.0461
▁smell	-11.0461
▁brazas	-11.0461
▁crack	-11.0462
▁fluid	-11.0465
▁campaña	-11.047
▁DH	-11.0472
▁2005	-11.0473
▁imaginación	-11.0475
▁missing	-11.0476
▁monta	-11.0486
▁ponemos	-11.0495
ppy	-11.0501
tlapal	-11.052
▁dramatic	-11.0528
▁satisfac	-11.0528
▁advantage	-11.0528
▁automóvil	-11.0528
▁vestido	-11.0528
▁murieron	-11.0529
▁Boston	-11.0529
▁abund	-11.0529
▁background	-11.0531
▁creamos	-11.0533
▁diversity	-11.0534
Necesit	-11.0566
▁suena	-11.0568
▁Qua	-11.0571
▁pega	-11.0576
▁critic	-11.0588
#	-11.0596
▁Microsoft	-11.0596
▁beneficia	-11.0596
▁escritura	-11.0596
▁majtlactli	-11.0596
▁onochiu	-11.0596
▁xcuajcualtin	-11.0596
▁Instead	-11.0596
▁negative	-11.0596
▁refiero	-11.0596
▁folk	-11.0596
▁campaign	-11.0596
▁impulsa	-11.0596
▁pareja	-11.0596
▁actuar	-11.0597
▁display	-11.0598
▁envió	-11.0599
▁stopped	-11.0599
▁decimos	-11.0607
ceppa	-11.0608
▁river	-11.0611
▁creencia	-11.0617
▁dirá	-11.0622
iedad	-11.0628
▁xoqui	-11.0642
▁easily	-11.0664
▁electrónico	-11.0664
▁recuerda	-11.0664
▁responsable	-11.0664
▁yencuic	-11.0664
▁título	-11.0664
▁Great	-11.0664
▁abuelo	-11.0664
▁traffic	-11.0664
▁origen	-11.0664
▁scene	-11.0664
▁arrastr	-11.0664
▁giant	-11.0666
▁chicue	-11.0669
▁luces	-11.0671
▁modifica	-11.0672
▁rama	-11.0672
▁comun	-11.0675
▁mouse	-11.0688
tenehua	-11.0697
omía	-11.0699
▁gold	-11.0706
▁resultó	-11.0707
chijchiu	-11.0731
86	-11.0731
disciplina	-11.0732
▁básico	-11.0732
▁magazine	-11.0732
▁pudiéramos	-11.0732
▁museum	-11.0732
▁Tenanco	-11.0732
▁magnet	-11.0733
▁Trabaj	-11.0733
▁fortuna	-11.0733
▁aspira	-11.0735
▁rueda	-11.0735
▁1960	-11.0736
▁saludable	-11.0747
▁Take	-11.075
▁Hasta	-11.0751
▁collaborat	-11.0754
▁Dijo	-11.0756
▁manual	-11.0768
▁Tú	-11.0773
▁solid	-11.0783
▁restaurante	-11.0801
▁Todavía	-11.0801
▁médica	-11.0801
▁identidad	-11.0801
▁newspaper	-11.0801
▁Kualtia	-11.0801
▁profundidad	-11.0801
▁batería	-11.0802
▁Child	-11.0802
▁cultivo	-11.0802
▁adentro	-11.0802
▁curve	-11.0802
▁museo	-11.0803
▁colonia	-11.0803
▁EEUU	-11.0804
▁Parece	-11.0804
▁option	-11.0808
▁organic	-11.0816
200	-11.082
▁Japan	-11.0826
night	-11.0837
based	-11.0866
nonotza	-11.0867
▁creía	-11.087
▁brilliant	-11.0871
▁collapse	-11.0871
▁origami	-11.0871
▁secundaria	-11.0871
▁testimonio	-11.0871
▁addition	-11.0871
▁anuncia	-11.0871
▁Brown	-11.0871
▁empleo	-11.0871
▁cuento	-11.0873
▁anticip	-11.0873
▁consejo	-11.0874
▁inicial	-11.0881
92	-11.0883
cneli	-11.0888
▁gang	-11.0888
creativity	-11.0904
Esta	-11.0925
▁250	-11.0934
▁cálculo	-11.0941
▁encourage	-11.0941
▁metáfora	-11.0941
▁monkey	-11.0941
▁progreso	-11.0941
▁regenera	-11.0941
▁creciendo	-11.0941
▁batalla	-11.0941
▁alegría	-11.0941
▁analog	-11.0941
▁promise	-11.0942
▁asesina	-11.0942
▁billones	-11.0942
▁cuerda	-11.0943
▁convertido	-11.0948
▁cuándo	-11.0963
▁agent	-11.0979
▁29	-11.0982
▁grave	-11.1011
▁wheel	-11.1011
▁arzobispo	-11.1011
▁azúcar	-11.1011
▁plataforma	-11.1011
▁averiguar	-11.1011
▁necesito	-11.1011
▁Uganda	-11.1011
▁llegue	-11.1011
▁juguete	-11.1011
▁crowd	-11.1011
▁mecanismo	-11.1011
▁vacío	-11.1011
▁General	-11.1011
▁afirma	-11.1011
▁decidir	-11.1011
▁Russia	-11.1012
▁teatro	-11.1012
▁technical	-11.1014
▁remote	-11.1015
▁ventaja	-11.1015
▁organizaciones	-11.1016
▁achtoj	-11.102
▁Peter	-11.1022
▁coast	-11.1023
▁infla	-11.1023
▁Gene	-11.1029
▁marido	-11.1047
position	-11.1048
tlahtol	-11.1052
áramos	-11.1055
▁cuadrado	-11.1056
economics	-11.107
91	-11.1078
▁Azcapotzalco	-11.1082
▁clínica	-11.1082
▁comenzamos	-11.1082
▁strength	-11.1082
▁application	-11.1082
▁brief	-11.1082
▁zapatos	-11.1082
▁August	-11.1082
▁evalua	-11.1082
▁positivo	-11.1082
▁refugi	-11.1082
▁British	-11.1083
▁Volv	-11.1083
▁seguido	-11.1083
▁Jim	-11.1083
▁III	-11.1083
▁oyajquej	-11.1086
▁oficial	-11.1095
▁itlajtol	-11.1096
▁activo	-11.1108
▁journal	-11.1123
▁liberal	-11.1129
▁French	-11.1154
▁sostenible	-11.1154
▁speech	-11.1154
▁Ghana	-11.1154
▁papá	-11.1154
▁Video	-11.1154
▁habido	-11.1154
▁kampa	-11.1156
▁firme	-11.1157
▁fascinating	-11.1157
▁2004	-11.1162
▁string	-11.1163
▁emplea	-11.1165
▁tomé	-11.1176
struir	-11.1194
▁equivocado	-11.1205
▁héroe	-11.1226
▁pingüino	-11.1226
▁tocnihuan	-11.1226
▁víctima	-11.1226
philosophy	-11.1226
▁incrementa	-11.1226
▁apasiona	-11.1226
▁election	-11.1226
tépec	-11.1226
▁posesion	-11.1226
▁cartoon	-11.1226
▁reveal	-11.1227
▁repeat	-11.1227
▁ocurrir	-11.1228
▁lección	-11.1229
▁tendremos	-11.1229
born	-11.123
▁electronic	-11.123
▁flat	-11.1236
ándola	-11.124
actic	-11.1243
Saben	-11.1262
▁Probablemente	-11.1298
▁ecosistema	-11.1298
▁independent	-11.1298
▁maravilla	-11.1298
▁ocurriendo	-11.1298
▁opportunities	-11.1298
▁Culhuacan	-11.1298
▁conozco	-11.1298
▁obispo	-11.1298
▁penguin	-11.1298
▁arroja	-11.1298
▁ubica	-11.1298
▁victim	-11.1298
▁explota	-11.1298
leadership	-11.1299
▁dueño	-11.1299
▁Prize	-11.13
▁prosper	-11.13
▁transfer	-11.1301
▁aprendiendo	-11.1302
▁impresionante	-11.1302
▁recover	-11.1304
▁oquijlijquej	-11.1306
▁formula	-11.1307
▁roof	-11.1308
▁inventor	-11.1309
polihui	-11.1314
Tlen	-11.1315
▁Ijcuacon	-11.1321
▁litro	-11.1332
▁creation	-11.1356
sky	-11.1358
▁cebolla	-11.1371
▁ecosystem	-11.1371
▁tiopixquej	-11.1371
▁acumula	-11.1371
▁vídeo	-11.1371
▁continuo	-11.1371
▁crash	-11.1371
▁débil	-11.1371
▁avoid	-11.1372
▁chicahuac	-11.1374
▁1990	-11.1374
▁profit	-11.1375
poetry	-11.1375
▁visualiza	-11.1377
q	-11.1379
▁psico	-11.1384
ónico	-11.139
▁protest	-11.1393
OK	-11.1422
çi	-11.1429
Debería	-11.1439
▁TEDTalk	-11.1444
▁proviene	-11.1444
▁estimula	-11.1445
▁julio	-11.1445
▁aceite	-11.1445
▁establecer	-11.1449
▁2009	-11.1451
▁planning	-11.1451
▁seguía	-11.1452
▁preciosa	-11.1461
▁caught	-11.1463
green	-11.1486
▁govern	-11.1513
▁constantemente	-11.1519
▁husband	-11.1519
▁percepción	-11.1519
▁vaccine	-11.1519
▁vuelto	-11.1519
▁wisdom	-11.1519
▁insight	-11.1519
▁promesa	-11.1519
▁gripe	-11.1519
▁almacena	-11.1519
▁dulce	-11.1519
▁informe	-11.1519
▁Aún	-11.1519
▁agosto	-11.1525
▁odd	-11.1532
exploration	-11.1536
▁nehuatl	-11.154
▁theater	-11.1541
This	-11.1558
84	-11.1579
▁extreme	-11.1581
▁alguacil	-11.1593
▁alternativa	-11.1593
▁análisis	-11.1593
▁bicicleta	-11.1593
▁enseñoreó	-11.1593
▁galaxies	-11.1593
▁inevitable	-11.1593
▁juramento	-11.1593
▁computación	-11.1593
▁positiva	-11.1593
▁vagina	-11.1593
▁quiselis	-11.1594
▁dying	-11.1594
▁juzga	-11.1594
▁barato	-11.1595
▁translate	-11.1598
Tejhua	-11.1599
▁boom	-11.1607
▁Gold	-11.1619
power	-11.165
▁sudden	-11.1656
▁Occidente	-11.1668
▁Oxford	-11.1668
▁Tlatelolco	-11.1668
▁intelligent	-11.1668
▁hubiese	-11.1668
▁pertenece	-11.1668
▁diploma	-11.1668
▁magia	-11.1669
▁siervo	-11.1669
▁consigo	-11.1669
▁tercio	-11.1669
▁expression	-11.1673
▁location	-11.1674
▁Dije	-11.1686
▁rig	-11.1689
▁transporte	-11.1691
▁temor	-11.171
90	-11.1741
▁Everybody	-11.1744
▁mortalidad	-11.1744
▁algorithm	-11.1744
▁terminó	-11.1744
▁variedad	-11.1744
▁stuck	-11.1744
▁Sometimes	-11.1744
▁apunta	-11.1744
▁proporciona	-11.1744
▁compromet	-11.1745
▁espalda	-11.1745
▁teopan	-11.1745
friend	-11.1746
▁molesta	-11.1748
▁muchísimo	-11.1748
▁graduate	-11.175
▁expresión	-11.1751
▁nacido	-11.1755
▁terrorist	-11.1761
▁100,000	-11.1762
▁recibido	-11.1763
▁chart	-11.1784
▁Actually	-11.182
▁conclusion	-11.182
▁financiero	-11.182
▁phenomenon	-11.182
▁pleasure	-11.182
▁registra	-11.182
osphere	-11.182
▁acostumbr	-11.182
▁Piensen	-11.182
▁School	-11.182
▁espectro	-11.1821
▁tenochca	-11.1821
▁Garcia	-11.1821
▁club	-11.1821
▁lunch	-11.1821
▁apareció	-11.1821
▁smile	-11.1821
▁amarillo	-11.1822
▁describ	-11.1824
▁reaction	-11.1825
▁garden	-11.1825
▁incluyendo	-11.1827
▁caminando	-11.1831
▁Italia	-11.1837
graph	-11.1852
▁huehue	-11.1864
town	-11.1865
▁consiste	-11.1875
▁asegur	-11.1896
▁Stanford	-11.1897
▁budget	-11.1897
▁incorpora	-11.1897
▁Alzheimer	-11.1897
▁Galilea	-11.1897
▁previous	-11.1897
▁afraid	-11.1898
▁criminal	-11.1898
ándonos	-11.1899
▁install	-11.1899
▁bright	-11.1901
▁necesariamente	-11.1904
▁umpa	-11.1909
▁acico	-11.191
▁generaciones	-11.191
▁creativo	-11.1935
version	-11.1937
▁mosca	-11.1959
▁explic	-11.1973
▁Hollywood	-11.1975
▁William	-11.1975
▁adolescente	-11.1975
▁corrupción	-11.1975
▁satellite	-11.1975
▁tarjeta	-11.1975
▁globo	-11.1975
▁multiple	-11.1975
▁gift	-11.1977
▁perception	-11.1978
▁referencia	-11.1978
▁favorita	-11.1984
hnozo	-11.1991
▁rebel	-11.1995
▁pasé	-11.1998
pacti	-11.2011
▁weird	-11.2027
ifying	-11.2038
▁stone	-11.2045
tlaxilacalli	-11.2053
▁activist	-11.2053
▁foreign	-11.2053
▁grandmother	-11.2053
▁jardín	-11.2053
▁opposite	-11.2053
▁reemplaza	-11.2053
▁struggle	-11.2053
▁centavo	-11.2053
▁lucky	-11.2053
▁demonio	-11.2053
oyotica	-11.2054
▁competencia	-11.2054
▁flota	-11.2059
▁titula	-11.2061
▁Ray	-11.2066
▁capable	-11.2069
76	-11.2084
tendemos	-11.2094
▁conversa	-11.2112
▁agriculture	-11.2132
▁calentamiento	-11.2132
▁epidemia	-11.2132
▁galaxy	-11.2132
▁músico	-11.2132
▁necessary	-11.2132
▁omomiquilli	-11.2132
▁temprana	-11.2132
▁crucial	-11.2132
▁distribución	-11.2132
▁espejo	-11.2132
▁Center	-11.2132
▁childhood	-11.2133
huajlaj	-11.2134
▁fresh	-11.2134
▁reunión	-11.2134
▁elegant	-11.2134
▁Over	-11.2137
▁cerrar	-11.2142
▁everyday	-11.2142
▁extract	-11.2171
▁taste	-11.2179
▁norma	-11.2198
abilidad	-11.2206
▁registro	-11.2211
▁sorpresa	-11.2211
▁anuncio	-11.2211
▁easier	-11.2211
▁símbolo	-11.2211
▁truco	-11.2211
▁Aztlan	-11.2211
▁sujeto	-11.2212
▁empleados	-11.2216
▁kualt	-11.2219
▁outcome	-11.2221
▁2,000	-11.2223
▁tlacpac	-11.2225
▁transformation	-11.2247
[	-11.2255
▁click	-11.227
▁Egipto	-11.2291
▁Naturaleza	-11.2291
▁Sebastian	-11.2291
▁corazones	-11.2291
▁diagnostic	-11.2291
▁emprendedor	-11.2291
▁identity	-11.2291
▁gráfica	-11.2291
▁innovador	-11.2291
▁faith	-11.2291
▁claim	-11.2291
▁reacción	-11.2291
▁elabora	-11.2291
▁destino	-11.2293
▁2010	-11.2296
▁Nacional	-11.2296
▁icuac	-11.2309
▁hunt	-11.2315
▁chanti	-11.236
▁celebr	-11.2364
&	-11.2372
▁Institute	-11.2372
▁llegué	-11.2372
▁responsible	-11.2372
▁Valley	-11.2372
▁truck	-11.2372
▁recién	-11.2372
▁Alonso	-11.2372
▁precise	-11.2372
▁azteca	-11.2373
▁platform	-11.2373
▁tequitl	-11.2373
▁civilización	-11.2373
▁Niño	-11.2378
▁jugando	-11.2378
▁honra	-11.2379
▁suave	-11.2379
▁enviado	-11.2379
▁lento	-11.2381
▁2006	-11.2384
▁masiva	-11.2385
▁Matt	-11.24
ground	-11.2413
▁graphic	-11.2416
▁contesta	-11.2417
▁achto	-11.2424
▁xni	-11.2452
struyó	-11.2453
▁Atonaltzin	-11.2453
▁caballero	-11.2453
▁árabe	-11.2453
▁Philip	-11.2453
▁desastre	-11.2453
▁Pilato	-11.2453
▁transparent	-11.2453
▁examina	-11.2453
▁tomorrow	-11.2453
▁extinct	-11.2453
▁stress	-11.2453
▁prensa	-11.2453
▁eterna	-11.2454
▁facial	-11.2461
▁operating	-11.2468
▁reunir	-11.2472
▁ponga	-11.2482
▁alimento	-11.2514
▁obvio	-11.2531
▁Audience	-11.2535
▁Manhattan	-11.2535
▁chemistry	-11.2535
▁demonstrate	-11.2535
▁mathematics	-11.2535
▁presupuesto	-11.2535
▁continúa	-11.2535
▁studied	-11.2535
▁recicla	-11.2535
▁privado	-11.2535
▁xacaj	-11.2535
▁Bronx	-11.2535
▁disaster	-11.2535
▁dinner	-11.2535
▁conocida	-11.2535
▁engaña	-11.2535
ográfica	-11.2536
▁negra	-11.2536
▁solicit	-11.2536
▁entendimiento	-11.2536
▁reloj	-11.2536
▁mochintin	-11.2536
▁tradición	-11.2541
▁majority	-11.2542
▁wearing	-11.2543
Entonces	-11.2581
74	-11.259
motlahtocatlalli	-11.2618
▁Leonardo	-11.2618
▁biblioteca	-11.2618
▁discurso	-11.2618
▁específico	-11.2618
▁ilustra	-11.2618
▁distribution	-11.2618
▁interacción	-11.2618
▁chicken	-11.2618
▁hierba	-11.2618
▁vessel	-11.2618
▁bubble	-11.2618
▁oncatca	-11.2618
▁podido	-11.2618
▁dress	-11.2618
▁ofrenda	-11.2618
▁ingenio	-11.2618
▁equilibrio	-11.2618
▁silk	-11.2619
▁juega	-11.2619
▁corruption	-11.2619
▁enferma	-11.262
▁nacimiento	-11.2621
▁comercio	-11.2622
▁Claro	-11.2623
▁precisamente	-11.2623
▁round	-11.2624
▁ethic	-11.2632
▁condena	-11.2635
▁plantea	-11.2647
▁classic	-11.2652
É	-11.2665
environment	-11.2665
future	-11.2665
sustainability	-11.2666
▁Pakistan	-11.2701
▁Simplemente	-11.2701
▁Testigo	-11.2701
▁genético	-11.2701
▁intellectual	-11.2701
▁refleja	-11.2701
▁tráfico	-11.2701
▁Anyway	-11.2701
▁hombro	-11.2701
▁Santiago	-11.2701
▁swim	-11.2701
▁negocia	-11.2701
▁equation	-11.2701
▁admira	-11.2701
▁tranquil	-11.2701
▁leaving	-11.2701
▁mandó	-11.2702
▁esfera	-11.2705
▁estándar	-11.2707
▁chose	-11.2707
▁voces	-11.2707
▁iteyo	-11.2711
▁amiga	-11.2712
▁hurt	-11.2715
tlatqui	-11.2725
world	-11.2749
▁south	-11.2753
tetlajsojtlalis	-11.2759
▁discuss	-11.2782
▁hueyixticaj	-11.2785
▁oscuridad	-11.2785
▁prototipo	-11.2785
▁survival	-11.2785
▁xhebreos	-11.2785
▁crítico	-11.2785
▁channel	-11.2785
▁bienestar	-11.2785
▁consigue	-11.2785
▁elecciones	-11.2786
▁Moore	-11.2787
▁araña	-11.2787
▁dicta	-11.279
▁sabor	-11.2793
▁sabéis	-11.2793
▁retira	-11.2797
▁Adam	-11.2799
▁Entre	-11.2806
▁escape	-11.2809
ísimo	-11.2812
▁edifica	-11.2832
▁clic	-11.2841
▁incluye	-11.2863
▁Déjenme	-11.287
▁predecir	-11.287
▁professor	-11.287
▁stupid	-11.287
▁worried	-11.287
▁hopefully	-11.287
▁exchange	-11.287
▁fracaso	-11.287
▁colegio	-11.287
▁curious	-11.287
▁mirror	-11.287
▁pudimos	-11.287
▁Segundo	-11.287
▁Pensé	-11.287
▁regalo	-11.2871
▁weather	-11.2871
▁liquid	-11.2872
▁discussion	-11.2873
▁“¿	-11.2873
▁Julia	-11.2883
▁lift	-11.2885
▁Howard	-11.2886
teneuh	-11.2892
▁persist	-11.2893
▁Rein	-11.2917
▁líder	-11.2925
ception	-11.2945
▁edit	-11.2945
▁necesaria	-11.2948
▁conscious	-11.2954
▁130	-11.2954
Á	-11.2955
▁Brazil	-11.2955
▁carretera	-11.2955
▁emisiones	-11.2955
▁temprano	-11.2955
▁vergüenza	-11.2955
▁impulso	-11.2955
▁dijimos	-11.2955
▁agradable	-11.2955
▁decidió	-11.2956
▁despite	-11.2956
▁federal	-11.2956
▁pounds	-11.2956
▁contigo	-11.2956
▁aocmo	-11.2957
▁suspend	-11.2958
▁held	-11.296
▁describir	-11.2962
▁oculta	-11.2964
▁obse	-11.3041
tlapejpeni	-11.3041
▁arçobispo	-11.3041
▁entusiasma	-11.3041
▁exercise	-11.3041
▁nervous	-11.3041
▁politician	-11.3041
▁simetría	-11.3041
▁succeed	-11.3041
▁yesterday	-11.3041
▁niquitohua	-11.3042
▁Herodes	-11.3042
▁infecta	-11.3042
▁confront	-11.3042
▁Smith	-11.3042
▁renova	-11.3042
▁externa	-11.3042
▁aprecia	-11.3042
▁dozen	-11.3043
▁attach	-11.3043
▁float	-11.3044
▁distant	-11.3078
▁reflex	-11.3083
▁pelea	-11.3086
ixpantili	-11.3099
▁encarg	-11.3119
▁cirujano	-11.3128
▁preserva	-11.3128
▁volunteer	-11.3128
▁empower	-11.3128
▁mechanism	-11.3128
▁marriage	-11.3128
▁átomo	-11.3128
▁terapia	-11.3129
▁palacio	-11.3129
▁joke	-11.3129
▁incentive	-11.3129
▁fibra	-11.3129
▁disgust	-11.3129
▁sport	-11.3129
▁Saturn	-11.313
▁oyuh	-11.3131
▁frame	-11.3131
▁logic	-11.3133
▁construction	-11.3134
▁export	-11.3134
▁asusta	-11.3141
curri	-11.3159
güe	-11.3167
▁alarm	-11.3179
▁involve	-11.3186
▁Would	-11.3216
▁demuestra	-11.3216
▁matrimonio	-11.3216
▁religiosa	-11.3216
▁volviendo	-11.3216
▁fellow	-11.3216
▁Gaspar	-11.3216
▁invertir	-11.3216
▁ancestor	-11.3216
▁awful	-11.3217
▁cobra	-11.3217
▁hydrogen	-11.3217
▁status	-11.3217
▁invited	-11.3218
▁devasta	-11.3218
▁arrest	-11.3218
▁Tony	-11.3219
▁Irak	-11.3222
tzitzintin	-11.3222
▁Bank	-11.3226
▁tomines	-11.3226
ísima	-11.3226
▁rara	-11.3227
tuvimos	-11.3231
performance	-11.3268
hood	-11.3273
play	-11.3283
▁ordinary	-11.3305
▁tlaneltocaquej	-11.3305
▁property	-11.3305
▁Science	-11.3305
▁otherwise	-11.3305
activism	-11.3305
tlaxtlahuil	-11.3305
▁mentioned	-11.3305
▁protección	-11.3305
▁battle	-11.3305
▁veinte	-11.3305
▁escolar	-11.3306
▁prohib	-11.3307
▁evolutionary	-11.3307
▁descubrimos	-11.3311
down	-11.3313
xayac	-11.3319
children	-11.3358
history	-11.3358
▁potencia	-11.3372
▁Crea	-11.3382
▁reconoce	-11.3393
▁burbuja	-11.3394
▁eléctrico	-11.3394
▁decidimos	-11.3394
▁duplica	-11.3394
▁sugiere	-11.3394
▁temporal	-11.3394
▁Amazon	-11.3394
▁ignore	-11.3394
▁sombra	-11.3394
▁battery	-11.3394
▁comentario	-11.3394
▁manzana	-11.3394
▁Christian	-11.3394
▁adicional	-11.3394
▁incident	-11.3394
▁medium	-11.3394
▁esposo	-11.3395
▁pensó	-11.3396
▁biológica	-11.3396
▁suburb	-11.3402
49	-11.3404
▁contribute	-11.3408
▁educativo	-11.3413
▁ordenador	-11.3436
Sabes	-11.3445
dónde	-11.3448
▁Camp	-11.3452
▁Vietnam	-11.3484
▁cognitive	-11.3484
▁enseguida	-11.3484
▁conexiones	-11.3484
▁Everything	-11.3484
▁déjen	-11.3484
▁sensible	-11.3484
▁England	-11.3484
▁sphere	-11.3484
▁ejercicio	-11.3484
▁noventa	-11.3486
▁dirige	-11.3486
▁alcance	-11.3486
▁reef	-11.3486
▁pidió	-11.3493
▁empty	-11.3494
▁miec	-11.3498
Wow	-11.3522
▁suele	-11.3542
▁guardia	-11.356
mania	-11.3569
▁improvisa	-11.3575
▁flexible	-11.3575
▁spectrum	-11.3575
▁tiburones	-11.3575
▁viviente	-11.3575
▁Velasco	-11.3575
▁pusimos	-11.3575
▁Sanchez	-11.3575
▁sweet	-11.3575
▁prisión	-11.3575
▁transplant	-11.3575
▁Three	-11.3575
▁married	-11.3575
▁pump	-11.3575
▁gravedad	-11.3576
▁quihto	-11.3576
▁bautiz	-11.3576
▁cayó	-11.3577
▁bandera	-11.3577
89	-11.3579
▁compuesto	-11.3579
▁huitz	-11.358
▁trabajadores	-11.3583
▁credit	-11.3585
▁Media	-11.3586
Mexica	-11.3606
▁envía	-11.3616
▁olor	-11.3617
▁merece	-11.3644
>	-11.3667
▁Egypt	-11.3667
▁Florida	-11.3667
▁according	-11.3667
▁epidemic	-11.3667
▁strategy	-11.3667
▁feedback	-11.3667
▁gratis	-11.3667
▁legisla	-11.3667
▁roughly	-11.3667
▁Quetzal	-11.3667
▁fossil	-11.3667
▁situaciones	-11.3667
▁Daniel	-11.3667
▁moyetztica	-11.3667
▁monequiz	-11.3667
▁supongo	-11.3667
▁lentamente	-11.3667
▁podremos	-11.3667
▁Japanese	-11.3667
▁submarin	-11.3667
▁uniform	-11.3667
▁minister	-11.3667
▁caída	-11.3667
▁Nobel	-11.3667
nutrient	-11.3668
▁employ	-11.3668
nthrop	-11.3668
▁cifra	-11.3673
▁assume	-11.3683
▁initial	-11.3684
▁desarroll	-11.3686
▁tequiti	-11.3686
food	-11.3723
▁absolute	-11.3747
▁essential	-11.3747
▁evangelio	-11.3759
▁explanation	-11.3759
▁mathematical	-11.3759
▁possibilities	-11.3759
▁regreso	-11.3759
▁emerging	-11.3759
▁temachtijli	-11.3759
▁cabello	-11.3759
▁complicada	-11.3759
▁hidden	-11.3759
▁spider	-11.3759
▁Korea	-11.3759
▁invierno	-11.376
▁seguida	-11.376
▁ayude	-11.376
▁rechaza	-11.376
▁cenpohual	-11.3765
▁conect	-11.3775
lalcahui	-11.3787
cuecue	-11.3842
<	-11.3853
▁capitán	-11.3853
▁desplaza	-11.3853
▁diabetes	-11.3853
▁hyper	-11.3853
▁levantó	-11.3853
▁receptor	-11.3853
▁sucedido	-11.3853
▁ridicul	-11.3853
▁Pacific	-11.3853
▁worldwide	-11.3853
▁studio	-11.3853
▁filter	-11.3853
▁Xochi	-11.3853
▁semejante	-11.3853
▁conducir	-11.3853
▁falso	-11.3853
▁emoción	-11.3853
▁evil	-11.3853
▁empuja	-11.3854
▁predica	-11.3854
▁narrative	-11.3855
▁passionate	-11.3855
▁inunda	-11.386
▁haciéndo	-11.3866
moral	-11.3889
gráfico	-11.3911
third	-11.3912
▁Cree	-11.3935
▁escriba	-11.3938
▁invad	-11.3943
▁refrigera	-11.3947
▁Central	-11.3947
▁traficantes	-11.3947
▁Chalchiuh	-11.3947
▁Scott	-11.3947
▁carefully	-11.3947
▁Finalmente	-11.3947
▁García	-11.3947
▁disorder	-11.3947
▁pocket	-11.3947
▁Women	-11.3947
▁siguiendo	-11.3947
▁escalera	-11.3947
▁provincia	-11.3947
▁polvo	-11.3947
▁steel	-11.3947
▁grain	-11.3947
▁mandamiento	-11.3949
▁decenas	-11.395
▁comprensión	-11.3951
▁agenda	-11.3951
▁cartel	-11.3968
▁ponía	-11.3975
▁bella	-11.3983
Podría	-11.4006
happiness	-11.4006
brain	-11.4007
▁publish	-11.4021
▁establish	-11.4042
▁heavy	-11.4042
▁monasterio	-11.4042
▁voluntario	-11.4042
▁refiere	-11.4042
▁vuelva	-11.4042
▁hardware	-11.4042
▁algoritmo	-11.4042
▁Texas	-11.4042
▁brinda	-11.4042
▁ojtli	-11.4043
▁Wolf	-11.4043
▁locura	-11.4045
▁command	-11.4046
▁choca	-11.4059
▁caxtol	-11.4075
▁término	-11.4076
That	-11.4102
▁escultura	-11.4122
▁odia	-11.4129
▁dificultad	-11.4138
▁hábito	-11.4138
▁physicist	-11.4138
▁supervivencia	-11.4138
▁ocurrido	-11.4139
▁kilometers	-11.4139
▁atravesa	-11.4139
▁zoom	-11.4139
▁corriendo	-11.4139
▁cosecha	-11.4139
▁ijtic	-11.4139
▁daily	-11.4139
▁aviones	-11.4139
▁cristal	-11.414
▁molde	-11.414
▁sacrificio	-11.4141
▁vigil	-11.4142
▁devolv	-11.4221
▁ajusta	-11.4235
▁Inglaterra	-11.4236
▁glamur	-11.4236
▁identify	-11.4236
▁izquierdo	-11.4236
▁adecuada	-11.4236
▁expectativa	-11.4236
▁regidor	-11.4236
▁discusión	-11.4236
▁maintain	-11.4236
▁university	-11.4236
▁White	-11.4236
▁sculpture	-11.4236
▁producing	-11.4236
▁respeto	-11.4236
▁robust	-11.4236
▁rational	-11.4236
▁oquitlajtoltij	-11.4236
▁adquiri	-11.4237
▁certifica	-11.4238
▁decline	-11.4239
▁imixpan	-11.4241
▁medita	-11.4248
▁espada	-11.4256
digit	-11.4262
▁emociona	-11.4286
Ijquin	-11.4312
hqueh	-11.4317
▁capacit	-11.4331
▁categoría	-11.4334
▁curiosidad	-11.4334
▁stood	-11.4334
▁perceive	-11.4334
▁amplio	-11.4334
▁vidrio	-11.4334
▁split	-11.4334
▁regard	-11.4334
▁fruta	-11.4334
▁prefier	-11.4335
▁raza	-11.4335
▁teeth	-11.4335
▁magnifi	-11.4335
▁tinech	-11.434
▁corona	-11.437
tienda	-11.4404
▁acusa	-11.4417
▁pedí	-11.4419
▁appropriate	-11.4433
▁asombrosa	-11.4433
▁associated	-11.4433
▁capítulo	-11.4433
▁encounter	-11.4433
▁liderazgo	-11.4433
▁telescopio	-11.4433
▁técnico	-11.4433
▁valuable	-11.4433
▁balloon	-11.4433
▁computing	-11.4433
▁emissions	-11.4433
▁derrota	-11.4434
▁intereses	-11.4434
▁dominant	-11.4435
▁congela	-11.444
ándome	-11.4442
Sahara	-11.4443
▁earn	-11.4445
agra	-11.445
▁terror	-11.4453
transportation	-11.4455
Yeah	-11.4496
▁hidr	-11.4517
safortunadamente	-11.4533
▁coincide	-11.4533
▁comenzando	-11.4533
▁cuestiones	-11.4533
▁fantástica	-11.4533
▁prototype	-11.4533
▁underneath	-11.4533
▁cequintin	-11.4533
▁oquitaquej	-11.4533
▁variable	-11.4533
▁abogado	-11.4533
▁persuad	-11.4533
▁ingresa	-11.4533
▁lawyer	-11.4533
▁ihueyi	-11.4534
▁nieve	-11.4534
▁Eric	-11.4536
▁receta	-11.4537
▁flip	-11.455
sentarse	-11.458
women	-11.4598
▁adventure	-11.4634
▁appreciate	-11.4634
▁arrecife	-11.4634
▁diciembre	-11.4634
▁suministro	-11.4634
▁tlamandarohua	-11.4634
▁tsunami	-11.4634
♪	-11.4634
▁infinite	-11.4634
▁elegido	-11.4634
▁monamaca	-11.4634
▁quiselia	-11.4634
▁entrenamiento	-11.4634
▁negativo	-11.4634
▁official	-11.4634
▁Brian	-11.4634
▁score	-11.4635
▁barrera	-11.4635
▁reverse	-11.4635
▁nerve	-11.4637
,500	-11.4641
▁strip	-11.4644
xpantzinco	-11.4653
▁shall	-11.4663
foot	-11.4701
▁evolve	-11.4706
▁Empeza	-11.4736
▁Valeriano	-11.4736
▁colectiva	-11.4736
▁espectacular	-11.4736
▁satélite	-11.4736
▁sufrimiento	-11.4736
▁videojuego	-11.4736
▁occasion	-11.4736
▁pudieron	-11.4736
biodiversity	-11.4736
▁Britain	-11.4736
▁pareció	-11.4736
▁definitely	-11.4736
▁Black	-11.4736
▁Debemos	-11.4736
Observ	-11.4736
▁limb	-11.4736
▁moneda	-11.4737
▁pongo	-11.4737
▁court	-11.4742
▁omitz	-11.4742
▁logro	-11.4743
▁plot	-11.4743
ridge	-11.4772
ification	-11.4837
▁Cambridge	-11.4839
▁accurate	-11.4839
▁enfermera	-11.4839
▁intzajlan	-11.4839
▁variety	-11.4839
▁yolsehuilistli	-11.4839
▁porcentaje	-11.4839
▁teconeu	-11.4839
▁clever	-11.4839
▁contempla	-11.4839
▁quarter	-11.4839
▁drill	-11.4839
▁engaño	-11.4839
▁branch	-11.4839
▁respeta	-11.4846
▁compete	-11.493
▁Cualquier	-11.4943
▁Recuerdo	-11.4943
▁Stephen	-11.4943
▁iPod	-11.4943
▁rendimiento	-11.4943
▁itlamian	-11.4943
▁tlatoani	-11.4943
▁plaza	-11.4943
▁France	-11.4943
▁distinct	-11.4943
▁racional	-11.4943
▁depression	-11.4943
▁Judea	-11.4943
▁facing	-11.4944
▁itequiu	-11.4946
▁height	-11.4947
▁rescue	-11.495
uthern	-11.4965
half	-11.5013
▁consumption	-11.5048
▁núcleo	-11.5048
▁optimista	-11.5048
▁raíz	-11.5048
▁relativamente	-11.5048
▁telescope	-11.5048
▁Castilla	-11.5048
▁enseñanza	-11.5048
▁Delhi	-11.5048
▁seguimos	-11.5048
▁ihtic	-11.5048
▁stock	-11.5048
▁selección	-11.5049
▁suceda	-11.505
▁relation	-11.505
▁internal	-11.5053
▁recta	-11.5061
▁traslad	-11.5063
humor	-11.5119
tracción	-11.5119
tlahtocauh	-11.5155
▁Instituto	-11.5155
▁LED	-11.5155
▁esclavo	-11.5155
▁frecuente	-11.5155
▁sanguíneo	-11.5155
▁computation	-11.5155
▁cricket	-11.5155
▁fotografi	-11.5155
▁privada	-11.5155
▁motlalilia	-11.5155
tlayecanca	-11.5155
▁granjero	-11.5155
▁sesenta	-11.5156
▁docena	-11.516
▁Quiere	-11.5162
▁consistent	-11.5195
material	-11.5226
think	-11.5231
▁suppose	-11.5232
▁solucionar	-11.5262
▁Permítan	-11.5262
▁analysis	-11.5262
▁obstáculo	-11.5262
▁kitchen	-11.5262
▁xchihuacan	-11.5262
▁Francia	-11.5262
▁trillion	-11.5262
▁impuestos	-11.5262
▁length	-11.5262
▁abrió	-11.5262
▁nennech	-11.5262
▁ejecuta	-11.5263
▁style	-11.5263
▁ocachi	-11.5263
▁numero	-11.5266
▁sustenta	-11.5284
ounce	-11.5318
▁defect	-11.5326
public	-11.5335
▁Bangladesh	-11.5371
▁Jerónimo	-11.5371
▁Pacífico	-11.5371
▁construí	-11.5371
▁hidrógeno	-11.5371
▁príncipe	-11.5371
▁crítica	-11.5371
▁telephone	-11.5371
▁divertida	-11.5371
▁gentiles	-11.5371
▁embrace	-11.5371
▁employees	-11.5371
▁flash	-11.5371
▁framework	-11.5371
▁asigna	-11.5371
▁historical	-11.5372
▁predator	-11.5373
yectenehua	-11.5373
▁quimicti	-11.5373
▁contribuye	-11.5373
▁polen	-11.5374
▁River	-11.5378
▁propose	-11.5388
▁sumergi	-11.5392
▁quineltoca	-11.5405
▁conclusión	-11.5481
▁democratic	-11.5481
▁destruction	-11.5481
▁diagnóstico	-11.5481
▁mecánica	-11.5481
▁privilege	-11.5481
▁resolución	-11.5481
▁symptom	-11.5481
▁zapatistas	-11.5481
▁neutral	-11.5481
▁technological	-11.5481
▁Project	-11.5481
▁doubt	-11.5481
▁surgió	-11.5481
▁arriesga	-11.5481
▁flecha	-11.5481
▁snow	-11.5481
▁survey	-11.5481
▁vivido	-11.5481
▁broma	-11.5482
▁procede	-11.5483
▁seleccion	-11.5484
▁famosa	-11.5484
▁viral	-11.5492
▁wrap	-11.55
▁fabric	-11.5551
caxtolli	-11.5554
know	-11.5564
▁reinvent	-11.5568
▁Sudáfrica	-11.5592
▁Ximenez	-11.5592
▁chimpancé	-11.5592
▁explosion	-11.5592
▁terrestre	-11.5592
▁Ángeles	-11.5592
▁griego	-11.5592
▁longitud	-11.5592
▁ministro	-11.5592
▁recolecta	-11.5592
▁harvest	-11.5592
▁Minister	-11.5592
▁swimming	-11.5592
▁Gulf	-11.5592
▁interrupt	-11.5592
▁preciso	-11.5592
▁camisa	-11.5592
▁inyojlo	-11.5592
▁interactuar	-11.5592
▁encuesta	-11.5592
▁Blue	-11.5592
▁cuestiona	-11.5592
▁engendr	-11.5592
▁pacto	-11.5593
▁sustancia	-11.5594
▁Brit	-11.5599
nepantla	-11.5627
control	-11.5672
▁Francis	-11.5691
▁Benjamin	-11.5704
▁Bretaña	-11.5704
▁Huitzilopochtli	-11.5704
▁cubierto	-11.5704
▁extiende	-11.5704
▁noviembre	-11.5704
▁naranja	-11.5704
▁Kevin	-11.5704
▁monjas	-11.5704
▁toneladas	-11.5704
▁transition	-11.5704
▁announce	-11.5704
▁permiso	-11.5704
▁mexitin	-11.5704
▁variation	-11.5704
▁aventura	-11.5704
▁Mujer	-11.5705
▁unusual	-11.5705
▁articul	-11.5705
▁potente	-11.5706
▁Escuch	-11.571
▁mineral	-11.5735
▁sustain	-11.575
photography	-11.5771
▁recurr	-11.5774
Okay	-11.5782
short	-11.5782
▁dólar	-11.5788
iéndolo	-11.581
1⁄2	-11.5818
▁September	-11.5818
▁assumption	-11.5818
▁clínico	-11.5818
▁eficiencia	-11.5818
▁espectáculo	-11.5818
▁miércoles	-11.5818
▁permítan	-11.5818
▁territorio	-11.5818
▁archivo	-11.5818
▁limpio	-11.5818
▁volvieron	-11.5818
▁Ácatl	-11.5818
▁castigo	-11.5818
▁ancestro	-11.5818
▁exitoso	-11.5818
▁horror	-11.5818
▁poesía	-11.5818
▁sancto	-11.5818
▁mostrando	-11.5819
▁cuarta	-11.5819
▁dispersa	-11.5819
▁conquista	-11.582
▁icniu	-11.5827
▁oquiselij	-11.583
energy	-11.5896
peace	-11.5898
ecían	-11.5916
philanthropy	-11.5933
▁Moteuczoma	-11.5933
▁acxoteca	-11.5933
▁cemilhuitl	-11.5933
▁controversia	-11.5933
▁difunto	-11.5933
▁gentlemen	-11.5933
▁instruction	-11.5933
▁properties	-11.5933
▁tecnológico	-11.5933
▁tiotlajtojquej	-11.5933
▁GDP	-11.5933
▁empatía	-11.5933
▁frijol	-11.5933
▁iyojlo	-11.5933
▁pollution	-11.5933
▁temachtijquej	-11.5933
▁church	-11.5933
▁therapy	-11.5933
▁iniciativa	-11.5933
▁típica	-11.5933
▁Basically	-11.5933
▁infancia	-11.5933
ómetro	-11.5933
▁dominio	-11.5934
▁Llega	-11.5935
▁disturb	-11.5936
matztoquej	-11.594
ngredientes	-11.5945
▁autism	-11.5971
Tiene	-11.6013
▁thin	-11.6039
▁facilita	-11.6049
▁Agustín	-11.6049
▁Feynman	-11.6049
▁Gandhi	-11.6049
▁Xochimilco	-11.6049
▁efectivo	-11.6049
▁efficiency	-11.6049
▁índice	-11.6049
▁entretenimiento	-11.6049
▁evidente	-11.6049
▁stretch	-11.6049
▁deshacer	-11.6049
▁corporal	-11.6049
▁Could	-11.6049
▁Brasil	-11.6049
lticpactlacamej	-11.6049
▁excava	-11.6049
▁domestic	-11.6049
parecieron	-11.6049
▁shame	-11.605
▁tleyn	-11.605
▁Cuitla	-11.605
▁escapar	-11.6052
▁celda	-11.6052
▁cheat	-11.6056
▁brota	-11.6059
▁entrenado	-11.6113
construct	-11.613
Verdad	-11.6146
▁precisa	-11.6159
▁9/11	-11.6167
▁Preparación	-11.6167
▁activities	-11.6167
▁fantasma	-11.6167
▁magnitud	-11.6167
▁sophisticated	-11.6167
▁tiotlajtojquetl	-11.6167
▁ángulo	-11.6167
▁retroced	-11.6167
▁lecture	-11.6167
▁prevenir	-11.6167
diagnose	-11.6167
▁orquesta	-11.6167
▁behave	-11.6167
▁empresarial	-11.6167
▁tronco	-11.6167
▁proyecta	-11.6167
▁descarga	-11.6168
▁ventila	-11.6175
mauhti	-11.6188
▁flag	-11.6234
poverty	-11.6249
Para	-11.6253
▁paraliza	-11.6258
▁extrema	-11.6285
xoxotoni	-11.6286
▁Acamapichtli	-11.6286
▁apariencia	-11.6286
▁asimismo	-11.6286
▁cajsicamati	-11.6286
▁clérigo	-11.6286
▁cristiano	-11.6286
▁defensa	-11.6286
▁excelente	-11.6286
▁infection	-11.6286
▁monamaka	-11.6286
▁orgánico	-11.6286
▁phenomena	-11.6286
▁revolucion	-11.6286
▁tecnológica	-11.6286
▁vegetable	-11.6286
▁jueves	-11.6286
▁Alemania	-11.6286
▁romantic	-11.6286
▁teotlac	-11.6286
▁ecuación	-11.6286
▁trastorno	-11.6286
▁komo	-11.6286
▁bonito	-11.6286
▁spill	-11.6286
▁repair	-11.6286
▁presence	-11.6286
▁regime	-11.6286
▁steal	-11.6287
▁actitud	-11.6288
icnihuan	-11.6288
▁inherent	-11.6292
tlatzacuil	-11.6294
▁conduce	-11.6314
▁imprim	-11.6324
prendió	-11.6357
▁evita	-11.6382
▁Next	-11.64
▁Rwanda	-11.6406
▁Virginia	-11.6406
▁apropiada	-11.6406
▁británico	-11.6406
▁electrónica	-11.6406
▁huejhueyi	-11.6406
▁líquido	-11.6406
▁mathematician	-11.6406
▁nemoyojlo	-11.6406
▁raíces	-11.6406
▁tremenda	-11.6406
▁Canadá	-11.6406
▁alcohol	-11.6406
▁witness	-11.6406
▁xonacatl	-11.6406
▁producido	-11.6406
▁Watson	-11.6406
▁obedec	-11.6406
▁transistor	-11.6406
▁Tlahco	-11.6406
▁vuela	-11.6407
▁plug	-11.6407
▁Comenz	-11.6408
▁fruit	-11.6409
▁hierve	-11.6409
▁inspire	-11.6499
▁Congress	-11.6528
▁Maldonado	-11.6528
▁Tetzcoco	-11.6528
▁circuncisión	-11.6528
▁clothes	-11.6528
▁eventualmente	-11.6528
▁filosofía	-11.6528
▁financiera	-11.6528
▁máximo	-11.6528
▁Foundation	-11.6528
▁ONU	-11.6528
tlajtlanilia	-11.6528
▁Museum	-11.6528
▁advice	-11.6528
▁escribiendo	-11.6528
▁revenue	-11.6528
▁sihuamej	-11.6528
▁afternoon	-11.6528
▁lectura	-11.6528
▁recorrer	-11.6528
▁brecha	-11.6528
▁unknown	-11.6528
▁sight	-11.6529
óxido	-11.6529
▁veteran	-11.6529
–	-11.6615
Podemos	-11.6615
tzitzihuan	-11.6652
▁Shakespeare	-11.6652
▁Shanghai	-11.6652
▁Tlatilulco	-11.6652
▁accomplish	-11.6652
▁cromosoma	-11.6652
▁fotógrafo	-11.6652
▁hábitat	-11.6652
▁instrucciones	-11.6652
▁manufacture	-11.6652
▁peculiar	-11.6652
▁unexpected	-11.6652
▁CEO	-11.6652
▁ovejas	-11.6652
▁courage	-11.6652
matzticaj	-11.6652
▁thick	-11.6652
▁Martín	-11.6652
▁smoke	-11.6652
▁phase	-11.6652
▁Pensamos	-11.6652
▁dancing	-11.6652
▁false	-11.6652
▁parezca	-11.6652
▁enamora	-11.6652
▁recaud	-11.6655
▁quinemilia	-11.6656
iésemos	-11.6656
unclear	-11.6657
▁ejerc	-11.6673
▁Escrib	-11.6684
▁permanec	-11.6696
Cuix	-11.67
normal	-11.6743
tlanahnamic	-11.6777
▁Empecé	-11.6777
▁Lincoln	-11.6777
▁Tanzania	-11.6777
▁bolsillo	-11.6777
▁terremoto	-11.6777
▁tiburón	-11.6777
▁Clinton	-11.6777
▁analyze	-11.6777
▁cubierta	-11.6777
▁Nobody	-11.6777
▁exponencial	-11.6777
▁jazz	-11.6777
▁sostener	-11.6777
▁Craig	-11.6777
▁extinción	-11.6777
▁Woman	-11.6777
mahuistili	-11.6777
▁yehica	-11.6777
pipiltin	-11.6777
▁Nathan	-11.6778
▁procura	-11.6779
nquichihuasquej	-11.678
▁sauce	-11.6783
▁convenient	-11.6787
cuántas	-11.6876
▁deposit	-11.6902
▁Hospital	-11.6903
▁challenging	-11.6903
▁crédito	-11.6903
▁departamento	-11.6903
▁explosión	-11.6903
▁extranjero	-11.6903
▁incremento	-11.6903
▁innovative	-11.6903
▁misericordia	-11.6903
▁physician	-11.6903
▁pyramid	-11.6903
▁tlaxtlahuijli	-11.6903
▁Geographic	-11.6903
▁Golfo	-11.6903
▁funcionó	-11.6903
▁tlaquentli	-11.6903
▁ocasiones	-11.6903
▁Christmas	-11.6903
▁Mandela	-11.6903
▁dignidad	-11.6903
▁direcciones	-11.6903
▁serpiente	-11.6903
▁adonde	-11.6903
▁mimiquej	-11.6903
▁pidieron	-11.6903
▁license	-11.6903
▁Quenin	-11.6904
▁worm	-11.6904
ensambla	-11.6904
▁tlayohua	-11.6906
▁Hawk	-11.6906
▁escribi	-11.6919
▁addict	-11.6928
▁Estuv	-11.6952
▁corregi	-11.6955
worth	-11.6995
▁gratuita	-11.7031
▁Everest	-11.7031
▁McDonald	-11.7031
▁centuries	-11.7031
▁chromosome	-11.7031
▁cojnepanojli	-11.7031
▁desgracia	-11.7031
▁histórico	-11.7031
▁manufacturing	-11.7031
▁práctico	-11.7031
▁puchteca	-11.7031
▁ayudó	-11.7031
▁discutir	-11.7031
nanquilli	-11.7031
▁preserve	-11.7031
▁regret	-11.7031
▁primavera	-11.7031
▁reserve	-11.7031
▁Kenia	-11.7032
▁acercó	-11.7032
Tlinon	-11.7032
▁nariz	-11.7032
▁oninochiu	-11.7032
▁exitosa	-11.7032
▁plaga	-11.7032
▁trauma	-11.7032
▁Rusia	-11.7032
▁calendar	-11.7035
dministración	-11.7128
conetl	-11.7139
▁DVD	-11.7161
▁Obviamente	-11.7161
▁Satanás	-11.7161
▁aburrido	-11.7161
▁conclude	-11.7161
▁orchestra	-11.7161
▁sinagoga	-11.7161
▁viruela	-11.7161
▁águila	-11.7161
▁exponential	-11.7161
▁Something	-11.7161
▁nomachtijquej	-11.7161
mandaros	-11.7161
▁Sistema	-11.7161
▁contagio	-11.7161
▁mammal	-11.7161
▁poison	-11.7161
▁Lleva	-11.7162
▁penetra	-11.7162
▁recrea	-11.7163
poajli	-11.7172
▁reparti	-11.7249
tecnología	-11.7257
puede	-11.7259
▁tlaxillacal	-11.7289
▁advertising	-11.7293
▁academic	-11.7293
▁bicycle	-11.7293
▁department	-11.7293
▁empathy	-11.7293
▁encuentre	-11.7293
▁excepción	-11.7293
▁hipótesis	-11.7293
▁literature	-11.7293
▁privilegio	-11.7293
▁sandwich	-11.7293
▁symmetry	-11.7293
▁síntomas	-11.7293
▁teenager	-11.7293
▁tlajcuilolamatl	-11.7293
▁totecuyo	-11.7293
▁instinct	-11.7293
▁ahorro	-11.7293
▁interfaz	-11.7293
▁perdiendo	-11.7293
vascular	-11.7293
▁bonita	-11.7293
▁inclina	-11.7294
▁actúa	-11.7294
▁castiga	-11.7295
▁clue	-11.7295
▁inject	-11.7297
ç	-11.734
physics	-11.739
Cuando	-11.739
itzochiyahuizotl	-11.7426
▁Compañía	-11.7426
▁Pakistán	-11.7426
▁abundancia	-11.7426
▁authentic	-11.7426
▁automatically	-11.7426
▁comenzado	-11.7426
▁cumpleaños	-11.7426
▁diccionario	-11.7426
▁exploring	-11.7426
▁frankly	-11.7426
▁género	-11.7426
▁mamífero	-11.7426
▁psicología	-11.7426
▁reconocimiento	-11.7426
▁rhythm	-11.7426
▁sensitive	-11.7426
▁simplicity	-11.7426
▁sucesivamente	-11.7426
▁recorrido	-11.7426
▁gesture	-11.7426
▁típico	-11.7426
▁exploit	-11.7426
▁valioso	-11.7426
▁sagrado	-11.7426
▁Tuvimos	-11.7426
▁Mendoza	-11.7426
▁rodilla	-11.7426
mpoalli	-11.7426
▁Square	-11.7426
▁reducción	-11.7426
▁Secret	-11.7426
▁convencional	-11.7426
▁estrés	-11.7426
▁Girl	-11.7426
▁cohete	-11.7427
▁mechanical	-11.7428
▁comporta	-11.7428
▁expone	-11.7429
product	-11.7512
▁aeropuerto	-11.7561
▁reacciona	-11.7561
▁Alexander	-11.7561
▁Hawaii	-11.7561
▁Research	-11.7561
▁Sacramento	-11.7561
▁Tliltecatzin	-11.7561
▁Unfortunately	-11.7561
▁desconocido	-11.7561
▁hablé	-11.7561
▁quantum	-11.7561
▁resonancia	-11.7561
▁teocuitla	-11.7561
▁tlajyohuilistli	-11.7561
▁Haití	-11.7561
▁acabó	-11.7561
▁ipatiuh	-11.7561
▁declaro	-11.7561
▁filtra	-11.7561
▁ácido	-11.7561
▁nisiu	-11.7561
▁Isaac	-11.7562
▁Design	-11.7562
▁hunger	-11.7562
▁muestro	-11.7562
▁rasgo	-11.7562
▁trivial	-11.7562
▁falsa	-11.7562
▁silence	-11.7562
▁reconcil	-11.7562
▁Kong	-11.7562
▁ilegal	-11.7562
ü	-11.7638
while	-11.7662
walk	-11.7673
▁International	-11.7698
▁Parkinson	-11.7698
▁carácter	-11.7698
▁construimos	-11.7698
▁identical	-11.7698
▁oniquitac	-11.7698
▁portátil	-11.7698
▁posterior	-11.7698
▁pregnant	-11.7698
▁prisionero	-11.7698
▁skull	-11.7698
▁sólido	-11.7698
▁órbita	-11.7698
▁Sweden	-11.7698
▁elefante	-11.7698
▁láser	-11.7698
▁knock	-11.7698
▁genius	-11.7698
▁cyber	-11.7698
▁judge	-11.7698
▁Silicon	-11.7699
▁ánimo	-11.7699
▁Tercer	-11.7699
▁cubrir	-11.7701
▁Cambi	-11.7702
caxitl	-11.7705
hichimecateuctli	-11.7751
▁recurso	-11.7764
▁1614	-11.7837
▁Bernabé	-11.7837
▁Congreso	-11.7837
▁Perhaps	-11.7837
▁acceder	-11.7837
▁dolphin	-11.7837
▁elephant	-11.7837
▁gracioso	-11.7837
▁lámpara	-11.7837
▁musulmanes	-11.7837
▁phrase	-11.7837
▁psicólogo	-11.7837
▁psychological	-11.7837
▁tragedia	-11.7837
scripción	-11.7837
▁nenquipiaj	-11.7837
▁negativa	-11.7837
▁grandioso	-11.7837
▁resuelto	-11.7837
▁globe	-11.7837
▁flew	-11.7837
▁merced	-11.7837
▁leopard	-11.7837
▁miserable	-11.7837
▁rescate	-11.7837
▁complain	-11.7837
▁sweat	-11.7838
▁spell	-11.7838
volving	-11.7859
visualizations	-11.7905
Sabía	-11.7923
development	-11.7942
primido	-11.7949
▁aproxima	-11.7978
▁Sebastián	-11.7978
▁Sylvia	-11.7978
▁almuerzo	-11.7978
▁construida	-11.7978
▁illustrate	-11.7978
▁literatura	-11.7978
▁measuring	-11.7978
▁metabolism	-11.7978
▁mushroom	-11.7978
▁universitario	-11.7978
▁despues	-11.7978
▁escuché	-11.7978
▁fractal	-11.7978
▁laboratory	-11.7978
▁transmisión	-11.7978
▁xochiyoua	-11.7978
▁Arthur	-11.7978
▁destruye	-11.7978
▁nenquichihuaj	-11.7978
▁smallpox	-11.7978
▁arroz	-11.7978
▁compartimos	-11.7978
▁mínimo	-11.798
▁Consider	-11.798
▁diciéndo	-11.7984
▁Biblia	-11.8121
▁Qatar	-11.8121
▁SETI	-11.8121
▁Xochiyoua	-11.8121
▁agrícola	-11.8121
▁confidence	-11.8121
▁diálogo	-11.8121
▁economies	-11.8121
▁francés	-11.8121
▁hígado	-11.8121
▁obstante	-11.8121
▁precipita	-11.8121
▁preocupe	-11.8121
▁psychologist	-11.8121
▁secundario	-11.8121
▁smooth	-11.8121
▁supermercado	-11.8121
xiujyo	-11.8121
▁pandemic	-11.8121
▁distributed	-11.8121
▁vincula	-11.8121
▁Voice	-11.8121
▁While	-11.8121
▁precisión	-11.8121
▁strike	-11.8121
+	-12.0926
Í	-12.1118
	-12.3771
=	-12.429
*	-12.4291
Ú	-12.6357
ö	-12.669
°	-12.7392
@	-12.9398
à	-13.0829
ì	-13.1355
`	-13.2499
®	-13.3791
ä	-13.4505
è	-13.6108
(	-13.698
­	-13.7017
Ñ	-13.8017
	-13.8017
ã	-14.0378
ë	-14.0378
ò	-14.1806
ê	-14.1806
“	-14.3437
─	-14.3473
£	-14.3473
^	-14.5473
â	-14.5473
你	-14.7973
î	-14.7973
©	-14.7973
	-14.7973
我	-15.1306
|	-15.1306
ô	-15.1306
个	-15.1306
ň	-15.1306
«	-15.6271
妈	-15.6306
ā	-15.6306
{	-15.6306
¥	-15.6306
ð	-15.6306
ù	-15.6306
ć	-15.6306
ľ	-15.6306
ō	-15.6306
€	-15.6306
。	-15.6306
葱	-15.6306
送	-15.6306
啊	-15.6306
洋	-15.6307
游	-16.6288
来	-16.6289
有	-16.629
历	-16.6291
了	-16.6292
•	-16.6293
ī	-16.6294
È	-16.6295
̊	-16.6296
ï	-16.6297
ø	-16.6298
	-16.6299
́	-16.63
Ó	-16.6301
̈	-16.6302
ń	-16.6303
‘	-16.6304
⁄	-16.6305
Ç	-16.6306
一	-16.6306
下	-16.6306
以	-16.6306
可	-16.6306
唱	-16.6306
大	-16.6306
姐	-16.6306
教	-16.6306
王	-16.6306
的	-16.6306
给	-16.6306
外	-16.6306
心	-16.6306
š	-16.6306
ŕ	-16.6306
\	-16.6306
}	-16.6306
ē	-16.6306
ĭ	-16.6306
Ľ	-16.6306
Т	-16.6306
а	-16.6306
世	-16.6306
中	-16.6306
出	-16.6306
声	-16.6306
太	-16.6306
曲	-16.6306
歌	-16.6306
界	-16.6306
等	-16.6306
阳	-16.6306
面	-16.6306
―	-16.6307
不	-16.6307
喜	-16.6307
妨	-16.6307
